▁characteristics	16
ExecutionContext	16
▁recommendations	16
▁representatives	16
Acknowledgements	16
▁Characteristics	16
▁straightforward	16
▁differentiation	16
▁representations	16
▁Representatives	16
▁Recommendations	16
▁internationally	16
▁transformations	16
PointerException	16
▁notwithstanding	16
▁environmentally	16
▁electromagnetic	16
▁interpretations	16
▁accomplishments	16
ApiModelProperty	16
▁StatelessWidget	16
▁AssemblyVersion	16
ACKNOWLEDGEMENTS	16
▁congratulations	16
▁Congratulations	16
▁troubleshooting	16
AddHtmlAttribute	16
CompilerServices	16
FileOutputStream	16
▁experimentation	16
▁instrumentation	16
▁professionalism	16
GeneratedMessage	16
▁implementations	16
RuntimeException	16
ErrUnexpectedEOF	16
▁classifications	16
▁AssemblyCulture	16
SupportActionBar	16
▁confidentiality	16
▁ResourceManager	16
▁AssemblyCompany	16
▁competitiveness	16
▁transplantation	16
▁synchronization	16
▁phosphorylation	16
▁entrepreneurial	16
▁diversification	16
ExceptionHandler	16
▁vulnerabilities	16
▁Instrumentation	16
▁dissatisfaction	16
PropertyChanging	16
▁hospitalization	16
▁functionalities	16
▁CreateTagHelper	16
▁FileInputStream	16
Characterization	16
ConnectionString	16
▁AssemblyProduct	16
▁Notwithstanding	16
▁standardization	16
▁InputDecoration	16
▁administrations	16
▁interchangeable	16
▁infrastructures	16
▁electrophoresis	16
▁supplementation	16
▁extraordinarily	16
▁Pharmaceuticals	16
▁acknowledgement	16
▁AcceptedLoading	16
▁UITableViewCell	16
▁transcriptional	16
▁electrochemical	16
▁crystallization	16
▁inconsistencies	16
▁DialogInterface	16
▁RoutedEventArgs	16
SaveChangesAsync	16
ContentAlignment	16
▁RECOMMENDATIONS	16
▁internationales	16
▁RemoteException	16
▁Differentiation	16
ElementException	16
ServiceException	16
▁differentiating	16
▁bibliographical	16
ApplicationTests	16
CompleteListener	16
▁generalizations	16
▁Electromagnetic	16
▁psychologically	16
▁personalization	16
▁recommandations	16
▁correspondingly	16
▁multiprocessing	16
▁Troubleshooting	16
▁pharmaceuticals	16
▁ModelExpression	16
▁Acknowledgments	16
ConverterFactory	16
▁MutableLiveData	16
CodedInputStream	16
▁OnClickListener	16
▁pharmacological	16
FieldOffsetTable	16
CustomAttributes	16
▁reproducibility	16
readystatechange	16
▁interdependence	16
MessageTagHelper	16
▁reconsideration	16
▁Charlottesville	16
▁unconditionally	16
▁Gloucestershire	16
▁PropertyChanged	16
▁Transformations	16
▁StringTokenizer	16
▁technologically	16
IndexOutOfBounds	16
▁electrification	16
▁atherosclerosis	16
▁multifunctional	16
▁unintentionally	16
WritableDatabase	16
▁superintendents	16
▁appropriateness	16
AnimationsModule	16
▁Standardization	16
▁proportionately	16
▁superconducting	16
LayoutConstraint	16
▁disappointments	16
ThroughAttribute	16
Responsibilities	16
▁comprehensively	16
▁ValidationError	16
▁Representations	16
AAAAAAAAAAAAAAAA	16
▁extracurricular	16
▁interconnection	16
MigrationBuilder	16
▁intensification	16
AttributedString	16
StandardCharsets	16
▁investissements	16
▁antidepressants	16
▁autocorrelation	16
▁ObjectParameter	16
ExternalTaskPojo	16
▁methamphetamine	16
AutoresizingMask	16
▁microcontroller	16
DataOutputStream	16
ParameterLimitsV	16
▁progressivement	16
▁interchangeably	16
▁proportionality	16
▁revolutionaries	16
ControllerAdvice	16
▁instantaneously	16
TimeoutException	16
▁collaboratively	16
EndGlobalSection	16
▁anthropological	16
PlayerController	16
▁Electrochemical	16
▁contemporaneous	16
▁incompatibility	16
▁musculoskeletal	16
▁Transplantation	16
GrantedAuthority	16
▁Confidentiality	16
▁BehaviorSubject	16
xxxxxxxxxxxxxxxx	16
oooooooooooooooo	16
▁computationally	16
▁corticosteroids	16
▁bioavailability	16
UIViewController	16
▁chromatographic	16
▁decontamination	16
▁anthropologists	16
▁Synchronization	16
▁Bioaccumulative	16
▁chronologically	16
▁procrastination	16
▁reconstructions	16
▁Anthropological	16
▁discontinuities	16
▁ACKNOWLEDGMENTS	16
<start_of_turn>	15
springframework	15
▁administration	15
▁responsibility	15
includegraphics	15
▁implementation	15
▁representation	15
▁Administration	15
OnClickListener	15
▁transportation	15
▁infrastructure	15
▁representative	15
▁classification	15
▁transformation	15
▁characteristic	15
▁identification	15
▁administrative	15
▁communications	15
▁concentrations	15
▁Communications	15
▁considerations	15
▁Transportation	15
▁recommendation	15
▁specifications	15
▁simultaneously	15
▁investigations	15
ActionPerformed	15
▁discrimination	15
▁constitutional	15
▁Classification	15
▁correspondence	15
Acknowledgments	15
▁sustainability	15
▁authentication	15
Congratulations	15
▁Identification	15
▁reconstruction	15
▁ResponseEntity	15
▁organizational	15
▁Implementation	15
▁rehabilitation	15
▁Specifications	15
DebuggerNonUser	15
▁Superintendent	15
▁Representative	15
▁qualifications	15
▁configurations	15
▁Administrative	15
PropertyChanged	15
EntityFramework	15
SequentialGroup	15
▁multiplication	15
▁initialization	15
▁disappointment	15
▁administrators	15
▁Infrastructure	15
▁accountability	15
Characteristics	15
▁Authentication	15
▁superintendent	15
▁Transformation	15
▁pharmaceutical	15
▁establishments	15
▁advertisements	15
▁Considerations	15
▁Sustainability	15
▁demonstrations	15
▁professionally	15
Recommendations	15
▁manifestations	15
▁municipalities	15
▁cryptocurrency	15
▁TextAppearance	15
ACKNOWLEDGMENTS	15
▁Rehabilitation	15
▁accommodations	15
▁understandable	15
▁accomplishment	15
▁susceptibility	15
▁NotImplemented	15
InteropServices	15
▁archaeological	15
InjectAttribute	15
▁reconciliation	15
▁chromatography	15
▁Recommendation	15
BackgroundColor	15
▁Responsibility	15
▁aforementioned	15
▁Constitutional	15
▁Representation	15
▁StatefulWidget	15
▁systematically	15
DialogInterface	15
FileInputStream	15
▁differentiated	15
▁reconnaissance	15
▁BufferedReader	15
thebibliography	15
▁Investigations	15
DataAnnotations	15
AccessException	15
▁Correspondence	15
▁distinguishing	15
▁determinations	15
▁Reconstruction	15
▁satisfactorily	15
AnchorTagHelper	15
▁ActionListener	15
▁microorganisms	15
▁experimentally	15
▁generalization	15
▁specialization	15
▁Pharmaceutical	15
Acknowledgement	15
▁Constantinople	15
ServiceProvider	15
DispatchToProps	15
▁Organizational	15
▁representantes	15
FieldDescriptor	15
▁unsatisfactory	15
▁Initialization	15
▁quantification	15
▁reorganization	15
▁principalement	15
▁contemporaries	15
ohistochemistry	15
▁ActivatedRoute	15
Instrumentation	15
▁collaborations	15
▁certifications	15
▁electronically	15
▁appropriations	15
ExecuteNonQuery	15
▁contradictions	15
▁Archaeological	15
▁apprenticeship	15
IllegalArgument	15
▁photosynthesis	15
▁investigadores	15
▁acknowledgment	15
▁irregularities	15
▁scientifically	15
▁ADMINISTRATION	15
▁approximations	15
▁methodological	15
▁Discrimination	15
Carcinogenicity	15
▁interconnected	15
▁GenerationType	15
▁simplification	15
▁Meteorological	15
▁polymerization	15
▁Czechoslovakia	15
▁meteorological	15
▁misinformation	15
▁sophistication	15
XmlAccessorType	15
▁responsiveness	15
RemoteException	15
▁Accountability	15
ResourceManager	15
▁redistribution	15
▁Northumberland	15
▁stratification	15
▁referrerpolicy	15
ValidationError	15
▁overwhelmingly	15
▁unconventional	15
▁underestimated	15
BufferException	15
▁ViewController	15
▁groundbreaking	15
▁IDENTIFICATION	15
▁Qualifications	15
BackgroundImage	15
▁Characteristic	15
▁jurisdictional	15
StringTokenizer	15
InvalidProtocol	15
▁UserController	15
▁reinforcements	15
PasswordEncoder	15
▁individualized	15
▁unquestionably	15
Troubleshooting	15
▁geographically	15
ExecutorService	15
▁disintegration	15
▁constituencies	15
▁conversational	15
▁CONSIDERATIONS	15
▁CLASSIFICATION	15
▁capitalization	15
▁differentiable	15
▁attractiveness	15
▁ParseException	15
▁UserRepository	15
▁WaitForSeconds	15
▁Concentrations	15
▁mathematically	15
▁ProgressDialog	15
characteristics	15
▁intellectually	15
▁Administrators	15
▁quantitatively	15
▁thermodynamics	15
▁Congregational	15
RetentionPolicy	15
▁industrialized	15
▁understandings	15
▁Multiplication	15
▁misconceptions	15
▁transformative	15
▁fortifications	15
▁Bioinformatics	15
▁AttributeError	15
▁internationaux	15
ChildScrollView	15
▁ErrIntOverflow	15
ImageBackground	15
▁differentially	15
▁regularization	15
ACKNOWLEDGEMENT	15
▁Chromatography	15
▁SPECIFICATIONS	15
▁undergraduates	15
▁mineralization	15
▁Reconciliation	15
▁Appropriations	15
▁Certifications	15
▁alphabetically	15
▁discriminating	15
▁microstructure	15
▁characterizing	15
▁correspondents	15
▁unprofessional	15
FormatException	15
▁affectionately	15
▁Thermodynamics	15
▁centrifugation	15
▁understatement	15
▁Worcestershire	15
▁BaseController	15
▁GoogleContinue	15
▁underdeveloped	15
▁unsuccessfully	15
▁liberalization	15
▁overexpression	15
▁hallucinations	15
▁semiconductors	15
▁constellations	15
▁understandably	15
▁HomeController	15
creativecommons	15
CharacterOffset	15
▁intermediaries	15
EditorGUILayout	15
▁neighbourhoods	15
RectangleBorder	15
▁uncontrollable	15
ForegroundColor	15
TargetException	15
UnknownFieldSet	15
StoredProcedure	15
▁uncompromising	15
▁COMMUNICATIONS	15
▁multiplicative	15
▁mathematicians	15
▁photosynthetic	15
DetailComponent	15
▁Quantification	15
▁Cryptocurrency	15
DialogComponent	15
▁AssertionError	15
SceneManagement	15
recommendations	15
CollectionUtils	15
▁archaeologists	15
ConnectionState	15
ReferenceEquals	15
▁intermittently	15
▁Configurations	15
▁microprocessor	15
▁asymptotically	15
representations	15
▁WebApplication	15
LocationManager	15
▁categorization	15
HideInInspector	15
SuccessListener	15
ModelSerializer	15
▁bibliographies	15
▁correspondance	15
ParameterLimits	15
▁indestructible	15
UniformLocation	15
▁neutralization	15
▁asynchronously	15
▁subcontractors	15
▁circumstantial	15
▁BufferedWriter	15
LocalizedString	15
NoSuchAlgorithm	15
▁predictability	15
▁dimensionality	15
▁subconsciously	15
FontAwesomeIcon	15
▁superstructure	15
▁interdependent	15
▁quintessential	15
▁conventionally	15
▁OnTriggerEnter	15
UITableViewCell	15
▁discretization	15
UnifiedTopology	15
▁illustrationer	15
▁reasonableness	15
IntoConstraints	15
▁RelativeLayout	15
▁insurmountable	15
▁Specialization	15
▁impresionantes	15
FormBorderStyle	15
▁investissement	15
StoryboardSegue	15
▁conformational	15
MutableLiveData	15
▁IConfiguration	15
▁extraordinaria	15
▁erforderlichen	15
▁proportionally	15
▁hypoallergenic	15
▁professionisti	15
DataInputStream	15
▁Simultaneously	15
▁unincorporated	15
▁contraceptives	15
Synchronization	15
▁psychoanalysis	15
Representatives	15
▁Advertisements	15
HeaderComponent	15
▁Accommodations	15
▁Ecclesiastical	15
▁ElevatedButton	15
▁customizations	15
▁schoolchildren	15
▁Leicestershire	15
potranspiration	15
▁MessageBoxIcon	15
▁virtualization	15
▁detoxification	15
congratulations	15
▁preferentially	15
▁anthropologist	15
▁differentiates	15
GoogleApiClient	15
ProductCategory	15
▁potentialities	15
▁centralization	15
▁Nanotechnology	15
▁Municipalities	15
▁ProductService	15
WindowConstants	15
▁disinformation	15
▁Apprenticeship	15
▁cinematography	15
Bioaccumulative	15
▁visualizations	15
RECOMMENDATIONS	15
IntegrationTest	15
▁ControllerBase	15
ConstraintMaker	15
▁Macromolecules	15
▁entertainments	15
▁aggressiveness	15
▁International	14
▁international	14
▁understanding	14
▁communication	14
▁opportunities	14
▁approximately	14
▁environmental	14
▁circumstances	14
▁concentration	14
▁investigation	14
▁organizations	14
▁configuration	14
▁corresponding	14
▁relationships	14
▁significantly	14
▁consideration	14
▁Environmental	14
▁manufacturing	14
ViewController	14
▁contributions	14
▁comprehensive	14
▁determination	14
▁collaboration	14
▁professionals	14
▁entertainment	14
▁establishment	14
ComponentModel	14
▁Massachusetts	14
▁manufacturers	14
▁Communication	14
▁possibilities	14
▁accommodation	14
▁illustrations	14
▁effectiveness	14
▁distinguished	14
▁functionality	14
▁extraordinary	14
▁characterized	14
▁consciousness	14
▁inappropriate	14
▁Unfortunately	14
RestController	14
▁psychological	14
▁Entertainment	14
Specifications	14
▁Configuration	14
▁organisations	14
ActionListener	14
▁unfortunately	14
▁participating	14
Authentication	14
▁certification	14
▁institutional	14
LayoutInflater	14
▁encouragement	14
▁independently	14
▁conversations	14
implementation	14
▁specification	14
▁modifications	14
▁technological	14
SerializedName	14
▁substantially	14
▁demonstration	14
▁StringBuilder	14
▁distributions	14
▁approximation	14
▁complications	14
▁Mediterranean	14
▁transcription	14
▁Manufacturing	14
SerializeField	14
▁sophisticated	14
▁architectural	14
▁administrator	14
▁investigating	14
▁decomposition	14
▁grandchildren	14
▁Administrator	14
▁uncomfortable	14
▁controversial	14
▁notifications	14
▁precipitation	14
▁contamination	14
▁interventions	14
▁revolutionary	14
▁Understanding	14
Classification	14
▁presentations	14
▁neighbourhood	14
▁Contributions	14
▁compatibility	14
BufferedReader	14
communications	14
Implementation	14
▁perpendicular	14
▁Investigation	14
▁installations	14
▁knowledgeable	14
▁investigators	14
▁comparatively	14
▁authorization	14
▁strengthening	14
longrightarrow	14
▁statistically	14
▁appropriately	14
▁developmental	14
▁qualification	14
▁Championships	14
▁physiological	14
SpringBootTest	14
▁Documentation	14
AppCompatTheme	14
▁practitioners	14
▁collaborative	14
▁justification	14
▁undergraduate	14
▁accessibility	14
▁Specification	14
UseVisualStyle	14
▁philosophical	14
authentication	14
▁traditionally	14
▁disappointing	14
▁unprecedented	14
▁Certification	14
▁proliferation	14
▁Commissioners	14
TextAppearance	14
▁advertisement	14
▁Opportunities	14
▁computational	14
▁Determination	14
Correspondence	14
▁disadvantages	14
▁communicating	14
▁supplementary	14
▁Collaboration	14
▁vulnerability	14
▁complementary	14
▁predominantly	14
▁intentionally	14
▁probabilities	14
▁contradiction	14
▁demonstrating	14
▁visualization	14
▁Concentration	14
▁reinforcement	14
▁personalities	14
▁commissioners	14
▁inspirational	14
BagConstraints	14
▁neighborhoods	14
▁correspondent	14
▁parliamentary	14
▁Miscellaneous	14
Identification	14
▁consolidation	14
▁manifestation	14
▁Organizations	14
▁exceptionally	14
▁incorporating	14
Infrastructure	14
▁BoxDecoration	14
▁comprehension	14
▁Alternatively	14
Longrightarrow	14
▁Comprehensive	14
▁Relationships	14
administration	14
▁differentiate	14
ChangeListener	14
▁Advertisement	14
▁uncertainties	14
▁beneficiaries	14
▁Participation	14
▁clarification	14
ParseException	14
▁appropriation	14
▁incorporation	14
▁participantes	14
▁righteousness	14
Administration	14
▁subscriptions	14
▁instructional	14
▁Psychological	14
▁deterioration	14
▁inconvenience	14
Transportation	14
▁announcements	14
▁Illustrations	14
▁complimentary	14
▁fundamentally	14
▁Approximately	14
▁Manufacturers	14
▁insignificant	14
▁gravitational	14
▁circumference	14
representation	14
▁profitability	14
▁photographers	14
▁confrontation	14
Advertisements	14
▁Congressional	14
▁interpolation	14
▁RequestMethod	14
▁disappearance	14
▁Institutional	14
▁Computational	14
DataSetChanged	14
▁customization	14
▁amplification	14
▁pronunciation	14
▁stabilization	14
▁Supplementary	14
▁nanoparticles	14
classification	14
▁championships	14
FirstOrDefault	14
▁constructions	14
Recommendation	14
RelativeLayout	14
▁unforgettable	14
▁restructuring	14
ProgressDialog	14
▁dissemination	14
NSMutableArray	14
▁theoretically	14
▁semiconductor	14
▁Accessibility	14
▁Establishment	14
▁normalization	14
▁Authorization	14
▁heterogeneous	14
▁progressively	14
▁Parliamentary	14
▁congressional	14
StateException	14
▁reimbursement	14
▁embarrassment	14
▁jurisdictions	14
ResponseEntity	14
▁abnormalities	14
Transformation	14
▁Architectural	14
▁Revolutionary	14
▁Biotechnology	14
▁compassionate	14
▁breastfeeding	14
▁Professionals	14
Representation	14
identification	14
▁Interestingly	14
▁morphological	14
▁contradictory	14
▁Corresponding	14
▁miscellaneous	14
▁interpersonal	14
▁misunderstood	14
▁abbreviations	14
▁granddaughter	14
▁retrospective	14
SessionFactory	14
▁intracellular	14
▁imperfections	14
▁instantaneous	14
▁accommodating	14
▁IActionResult	14
▁authoritative	14
▁Accommodation	14
▁concentrating	14
Initialization	14
▁experimenting	14
▁characterised	14
▁methodologies	14
▁reconstructed	14
▁fragmentation	14
▁administering	14
▁BeautifulSoup	14
▁prescriptions	14
▁contemplation	14
▁heterogeneity	14
▁assassination	14
▁socioeconomic	14
▁Correspondent	14
Characteristic	14
▁intersections	14
▁accreditation	14
▁acknowledging	14
▁cybersecurity	14
▁Demonstration	14
▁Compatibility	14
▁extracellular	14
▁authenticated	14
▁applicability	14
▁multinational	14
▁Developmental	14
overrightarrow	14
Communications	14
▁chronological	14
▁disadvantaged	14
▁underestimate	14
▁informational	14
▁craftsmanship	14
Administrative	14
▁spontaneously	14
▁constellation	14
▁magnification	14
NavigationView	14
transformation	14
▁antimicrobial	14
▁individuality	14
Erreferentziak	14
▁Technological	14
▁fertilization	14
▁LoggerFactory	14
▁psychologists	14
▁postoperative	14
▁recombination	14
▁EnglishChoose	14
▁Notifications	14
▁strategically	14
▁collaborating	14
▁exponentially	14
▁modernization	14
▁inexperienced	14
UserRepository	14
PackageManager	14
▁conservatives	14
▁investigative	14
▁distinguishes	14
▁hybridization	14
WireFormatLite	14
▁observational	14
▁unconditional	14
▁contemplating	14
▁Effectiveness	14
▁enlightenment	14
▁Visualization	14
infrastructure	14
▁Transfermarkt	14
▁AssemblyTitle	14
▁thermodynamic	14
▁uninterrupted	14
▁antibacterial	14
▁Confederation	14
▁alternatively	14
▁discrepancies	14
▁architectures	14
InputTagHelper	14
▁Philosophical	14
▁extinguishing	14
▁conscientious	14
▁electrostatic	14
▁Undergraduate	14
▁commissioning	14
▁Collaborative	14
▁Transcription	14
XCTAssertEqual	14
▁interrogation	14
▁refrigeration	14
▁autobiography	14
▁registrations	14
▁sedimentation	14
Sustainability	14
▁Distinguished	14
▁multicultural	14
GenerationType	14
▁irresponsible	14
CollectionView	14
▁depositphotos	14
ActivityResult	14
▁intellectuals	14
▁biodegradable	14
▁redevelopment	14
▁inconsistency	14
▁discretionary	14
StartCoroutine	14
▁Consideration	14
▁misunderstand	14
CloseOperation	14
▁unconsciously	14
▁impossibility	14
▁businesswoman	14
▁congratulated	14
▁globalization	14
▁collaborators	14
▁peculiarities	14
▁realistically	14
Acknowledgment	14
▁signification	14
▁displacements	14
▁inadvertently	14
▁biotechnology	14
▁prerequisites	14
Representative	14
▁perturbations	14
▁gratification	14
▁Consciousness	14
▁heartbreaking	14
▁Abbreviations	14
▁cancellations	14
▁denominations	14
BufferedWriter	14
▁transmissions	14
▁dehydrogenase	14
▁Semiconductor	14
AnimationFrame	14
▁dimensionless	14
▁substitutions	14
▁accomplishing	14
▁preprocessing	14
▁objectionable	14
RequestHandler	14
▁deliberations	14
ResponseStatus	14
▁Presentations	14
▁Decomposition	14
▁Accreditation	14
▁probabilistic	14
▁psychotherapy	14
▁characterizes	14
▁congregations	14
▁Qualification	14
▁nationalities	14
▁radioactivity	14
▁proportionate	14
▁headquartered	14
▁Distributions	14
Configurations	14
▁Precipitation	14
▁sterilization	14
▁civilizations	14
▁EntityManager	14
SPECIFICATIONS	14
ResponseWriter	14
▁repercussions	14
▁Conservatives	14
▁merchandising	14
▁Enlightenment	14
▁factorization	14
▁mathematician	14
characteristic	14
▁deforestation	14
therosclerosis	14
responsibility	14
▁companionship	14
LabelTagHelper	14
▁toxicological	14
▁interruptions	14
▁precautionary	14
▁Automatically	14
▁ramifications	14
▁homosexuality	14
▁Physiological	14
▁internasional	14
▁introductions	14
▁Modifications	14
▁preservatives	14
▁transitioning	14
▁hydrochloride	14
▁insufficiency	14
▁deteriorating	14
▁documentaries	14
▁Instructional	14
▁disrespectful	14
▁manipulations	14
▁Extraordinary	14
▁sensitization	14
▁participatory	14
▁invertebrates	14
▁macroeconomic	14
▁affordability	14
▁disagreements	14
▁COMMUNICATION	14
▁instinctively	14
▁disinterested	14
▁polypropylene	14
▁Prerequisites	14
▁socialization	14
▁Announcements	14
▁misconception	14
▁serialization	14
▁intelligently	14
SwingConstants	14
▁Subscriptions	14
▁Conversations	14
oprecipitation	14
▁SqlConnection	14
providecommand	14
▁contraception	14
▁qualitatively	14
investissement	14
ContainerState	14
▁discoloration	14
ACKNOWLEDGMENT	14
▁Staffordshire	14
Qualifications	14
ResourceBundle	14
▁stratigraphic	14
▁discontinuous	14
▁differentials	14
▁communicative	14
▁Disadvantages	14
ActivityCompat	14
▁Vulnerability	14
▁philanthropic	14
RegressionTest	14
▁constitutions	14
▁discontinuity	14
▁magnetization	14
▁transnational	14
▁DriverManager	14
▁aesthetically	14
Organizational	14
▁photographing	14
TokenNameEQUAL	14
▁translocation	14
▁Interventions	14
▁degradability	14
▁privatization	14
▁brainstorming	14
WindowListener	14
▁translational	14
▁refrigerators	14
▁demonstrators	14
AttributeValue	14
▁extrapolation	14
▁superstitious	14
▁Approximation	14
▁commemorative	14
FileDescriptor	14
▁contraceptive	14
▁BufferedImage	14
▁Stabilization	14
▁Reinforcement	14
PositiveButton	14
minecraftforge	14
▁Autobiography	14
configurations	14
▁recollections	14
▁Consolidation	14
▁reproductions	14
CheckedChanged	14
▁Strengthening	14
▁refurbishment	14
▁intrinsically	14
▁Installations	14
▁individualism	14
▁Cybersecurity	14
▁Traditionally	14
▁consequential	14
▁polycarbonate	14
Responsibility	14
▁Complications	14
▁Comprehension	14
▁thunderstorms	14
▁intermediates	14
UserController	14
representative	14
▁Incorporation	14
▁Neighbourhood	14
▁commemoration	14
▁preponderance	14
▁interceptions	14
transportation	14
▁Significantly	14
▁parallelogram	14
▁Investigators	14
▁acceptability	14
▁superposition	14
▁dysfunctional	14
▁discriminated	14
▁ClassNotFound	14
▁bibliographic	14
▁horticultural	14
▁Contamination	14
▁consolidating	14
▁contingencies	14
▁conspicuously	14
▁preoccupation	14
CompoundButton	14
initialization	14
▁effectivement	14
▁Functionality	14
RequestBuilder	14
▁sensitivities	14
▁spectroscopic	14
▁quarterfinals	14
▁Horticultural	14
WebApplication	14
▁transactional	14
▁reincarnation	14
▁Hertfordshire	14
Investigations	14
discrimination	14
▁hydroelectric	14
▁transparentes	14
administrative	14
▁Toxicological	14
▁Customization	14
▁compositional	14
▁Endocrinology	14
▁unwillingness	14
▁singularities	14
Certifications	14
WriteTagHelper	14
▁MANUFACTURING	14
▁fractionation	14
▁optimizations	14
▁accelerometer	14
steamcommunity	14
▁Practitioners	14
SerializedSize	14
▁metropolitana	14
StringProperty	14
▁confirmations	14
BuilderFactory	14
▁inconceivable	14
▁triangulation	14
▁breakthroughs	14
▁convolutional	14
▁Appropriation	14
ohistochemical	14
disambiguation	14
▁CallOverrides	14
▁metamorphosis	14
▁waterproofing	14
▁Archiproducts	14
▁apportionment	14
▁consecutively	14
▁programmation	14
▁transgression	14
▁interessantes	14
▁polymorphisms	14
ControllerTest	14
FlatAppearance	14
AdapterFactory	14
▁UIApplication	14
▁unintentional	14
▁combinatorial	14
RequestOptions	14
▁ADVERTISEMENT	14
▁physiotherapy	14
▁immunotherapy	14
NSNotification	14
▁subordination	14
▁psychiatrists	14
▁condescending	14
▁unsustainable	14
ProductService	14
▁Complimentary	14
▁skateboarding	14
▁ILLUSTRATIONS	14
▁reinstatement	14
▁superstitions	14
▁HomeComponent	14
▁Participating	14
▁straightening	14
▁mismanagement	14
▁unangemessene	14
RequestContext	14
▁opportunistic	14
Considerations	14
▁accumulations	14
▁approximating	14
▁interestingly	14
▁spokespersons	14
▁juxtaposition	14
▁involuntarily	14
▁Antimicrobial	14
▁Metropolitana	14
▁intercultural	14
▁DevComponents	14
▁Justification	14
▁transpiration	14
FormUrlEncoded	14
▁TextFormField	14
▁encapsulation	14
▁dermatologist	14
Multiplication	14
▁Possibilities	14
▁paraphernalia	14
▁substantiated	14
▁anthropogenic	14
▁Globalization	14
▁mediterranean	14
NegativeButton	14
▁transposition	14
▁sequestration	14
▁abbigliamento	14
▁Constellation	14
▁introspection	14
recommendation	14
DeleteBehavior	14
▁decompression	14
▁Middlesbrough	14
▁ornamentation	14
StackNavigator	14
MessageHandler	14
▁tetrachloride	14
BaseController	14
▁Interpersonal	14
▁parameterized	14
▁categorically	14
▁Protestantism	14
▁bidirectional	14
▁metallurgical	14
▁sensibilities	14
▁Carboniferous	14
▁Psychotherapy	14
▁Circumstances	14
ChangePassword	14
NotImplemented	14
▁DETERMINATION	14
▁archeological	14
▁JpaRepository	14
▁Internasional	14
▁disconnecting	14
Superintendent	14
▁veterinarians	14
▁endometriosis	14
▁competitively	14
▁fortification	14
▁cryptographic	14
Caracteristici	14
▁planification	14
▁potentiometer	14
▁underwhelming	14
▁Refrigeration	14
pharmaceutical	14
▁Streptococcus	14
ErrorException	14
▁extermination	14
▁Interpolation	14
▁uncomplicated	14
Quantification	14
▁privatisation	14
multiplication	14
▁Investigating	14
▁investimentos	14
▁Ophthalmology	14
ActionCreators	14
▁OPPORTUNITIES	14
▁anniversaries	14
▁TextInputType	14
▁contemplative	14
▁uninteresting	14
▁Applicability	14
▁Complementary	14
▁gubernatorial	14
▁MASSACHUSETTS	14
▁stereotypical	14
TypeDefinition	14
ItemBackground	14
▁reconstituted	14
▁immunological	14
▁Dermatologist	14
Reconstruction	14
▁circumscribed	14
▁commemorating	14
AllowAnonymous	14
▁Universitaria	14
sustainability	14
▁concatenation	14
▁indescribable	14
▁choreographer	14
▁neuromuscular	14
▁NavController	14
▁JSONException	14
▁thermoplastic	14
▁materialistic	14
▁Inspirational	14
NSUserDefaults	14
▁topographical	14
▁transplanting	14
▁randomization	14
▁Nanoparticles	14
▁conditionally	14
CommandHandler	14
▁energetically	14
SessionManager	14
▁Proliferation	14
▁electrocardio	14
▁incapacitated	14
▁Multicultural	14
IndentedString	14
▁CONFIGURATION	14
▁reunification	14
▁inconspicuous	14
▁Astrophysical	14
▁instantiation	14
▁archaeologist	14
washingtonpost	14
▁ConstraintSet	14
▁supplementing	14
▁consternation	14
WithIdentifier	14
organizational	14
▁Photographers	14
specifications	14
DetailActivity	14
IConfiguration	14
SourceChecksum	14
▁imperceptible	14
▁intramuscular	14
▁comorbidities	14
HomeController	14
▁professionali	14
▁rollercoaster	14
▁Redevelopment	14
▁Retrospective	14
DisplayMetrics	14
▁disseminating	14
▁apprehensions	14
▁PriorityQueue	14
▁Communicating	14
▁ABBREVIATIONS	14
▁acetylcholine	14
<end_of_turn>	13
</blockquote>	13
subsubsection	13
▁construction	13
▁professional	13
▁relationship	13
▁illustration	13
▁distribution	13
▁requirements	13
▁particularly	13
▁organization	13
▁applications	13
Configuration	13
▁Introduction	13
▁respectively	13
▁institutions	13
▁instructions	13
▁installation	13
▁conversation	13
ClickListener	13
▁successfully	13
▁specifically	13
▁considerable	13
▁technologies	13
▁presentation	13
▁measurements	13
▁experimental	13
InstanceState	13
▁introduction	13
▁contribution	13
▁registration	13
▁transmission	13
▁observations	13
▁architecture	13
▁agricultural	13
▁restrictions	13
▁temperatures	13
▁intelligence	13
▁availability	13
▁neighborhood	13
▁consequences	13
▁significance	13
lassification	13
▁expectations	13
▁Pennsylvania	13
EventListener	13
▁Construction	13
▁satisfaction	13
▁manufacturer	13
▁improvements	13
▁Philadelphia	13
▁representing	13
▁difficulties	13
▁contemporary	13
▁compensation	13
▁demonstrated	13
▁conservation	13
▁Organization	13
International	13
▁Professional	13
▁interactions	13
▁transactions	13
▁subscription	13
▁Requirements	13
▁Constitution	13
▁notification	13
▁arrangements	13
▁increasingly	13
▁intervention	13
▁conventional	13
▁independence	13
▁capabilities	13
▁developments	13
▁Applications	13
▁productivity	13
▁publications	13
▁Distribution	13
▁performances	13
▁accomplished	13
▁jurisdiction	13
▁Commissioner	13
▁announcement	13
▁differential	13
▁constitution	13
▁Agricultural	13
▁occasionally	13
▁translations	13
▁calculations	13
▁Championship	13
▁implications	13
▁informations	13
▁universities	13
▁environments	13
▁Conservation	13
▁alternatives	13
AutoModerator	13
▁satisfactory	13
▁sufficiently	13
configuration	13
▁disappointed	13
▁modification	13
▁investigated	13
▁associations	13
Transactional	13
▁intermediate	13
▁intersection	13
▁considerably	13
▁Architecture	13
▁consistently	13
▁subsequently	13
▁Technologies	13
▁Experimental	13
▁confirmation	13
▁incorporated	13
▁cancellation	13
▁establishing	13
Specification	13
▁appreciation	13
▁optimization	13
▁Publications	13
CodeAttribute	13
▁combinations	13
▁Registration	13
▁Installation	13
▁Intelligence	13
▁manufactured	13
▁negotiations	13
▁mathematical	13
▁acceleration	13
▁concentrated	13
▁unemployment	13
▁confidential	13
AxisAlignment	13
▁descriptions	13
▁reproduction	13
▁continuously	13
▁conservative	13
Environmental	13
Authorization	13
▁interference	13
▁verification	13
▁championship	13
▁Nevertheless	13
▁headquarters	13
▁experiencing	13
▁participated	13
▁Christianity	13
▁acknowledged	13
▁INTRODUCTION	13
▁implementing	13
▁Commonwealth	13
▁Additionally	13
▁coordination	13
StringBuilder	13
Serialization	13
▁prescription	13
▁achievements	13
▁presidential	13
▁stakeholders	13
▁displacement	13
▁administered	13
▁quantitative	13
▁individually	13
▁inflammation	13
▁conditioning	13
▁overwhelming	13
Abbreviations	13
Unfortunately	13
▁corporations	13
▁contributing	13
▁nevertheless	13
▁Instructions	13
▁photographer	13
▁consequently	13
▁personalized	13
▁entertaining	13
▁preservation	13
▁accumulation	13
▁civilization	13
▁geographical	13
▁Affiliations	13
▁proportional	13
▁certificates	13
▁Presentation	13
▁surroundings	13
▁accompanying	13
▁appointments	13
▁perspectives	13
▁connectivity	13
▁transparency	13
▁preparations	13
▁Consequently	13
Advertisement	13
▁Metropolitan	13
▁demonstrates	13
▁expenditures	13
▁Notification	13
▁destinations	13
SuspendLayout	13
▁Cancellation	13
▁Relationship	13
▁substitution	13
▁recreational	13
▁surprisingly	13
▁Subscription	13
▁dependencies	13
▁Independence	13
▁manipulation	13
▁explanations	13
▁disabilities	13
▁Thanksgiving	13
▁accidentally	13
▁continuation	13
▁Contemporary	13
▁examinations	13
▁shareholders	13
▁dramatically	13
▁Transactions	13
▁Availability	13
▁reservations	13
▁refrigerator	13
▁partnerships	13
▁Measurements	13
ParallelGroup	13
▁compositions	13
Communication	13
▁deliberately	13
communication	13
▁inconsistent	13
▁commissioned	13
international	13
▁fluctuations	13
Corresponding	13
▁Participants	13
EntityManager	13
▁conductivity	13
▁occupational	13
▁reproductive	13
▁competitions	13
▁circumstance	13
▁Universities	13
▁contaminated	13
TextBoxColumn	13
▁spokesperson	13
▁SQLException	13
▁Mathematical	13
▁governmental	13
▁constructive	13
▁commissioner	13
▁economically	13
▁photographic	13
HasColumnType	13
LoggerFactory	13
▁Laboratories	13
ADVERTISEMENT	13
▁Transmission	13
▁personalised	13
▁Optimization	13
▁imprisonment	13
▁Compensation	13
▁laboratories	13
▁entrepreneur	13
▁congregation	13
▁constituents	13
▁ActionResult	13
▁respectfully	13
▁correlations	13
▁celebrations	13
▁disadvantage	13
Understanding	13
▁Informations	13
▁regeneration	13
▁similarities	13
▁historically	13
Supplementary	13
▁RecyclerView	13
▁strengthened	13
JSONException	13
▁metropolitan	13
Authenticated	13
▁standardized	13
▁simultaneous	13
▁neighbouring	13
IsNullOrEmpty	13
HtmlAttribute	13
▁communicated	13
▁purification	13
▁additionally	13
▁Differential	13
▁hypertension	13
▁fluorescence	13
▁evolutionary	13
▁tuberculosis	13
Transcription	13
▁synchronized	13
▁breakthrough	13
EnglishChoose	13
▁contributors	13
▁Observations	13
▁counterparts	13
▁periodically	13
Notifications	13
▁constructing	13
▁Intermediate	13
▁responsables	13
▁Institutions	13
▁conveniently	13
▁unsuccessful	13
▁commercially	13
▁Illustration	13
▁Specifically	13
▁spectroscopy	13
▁localization	13
▁Bibliography	13
▁Presidential	13
▁polarization	13
▁Headquarters	13
▁unreasonable	13
▁highlighting	13
authorization	13
▁Johannesburg	13
▁practitioner	13
PerformLayout	13
▁collectively	13
▁dissertation	13
▁transforming	13
▁Conservative	13
▁scholarships	13
▁unacceptable	13
▁transferring	13
▁illumination	13
▁distributing	13
▁authenticity	13
▁MainActivity	13
▁supernatural	13
▁permeability	13
▁disturbances	13
▁anticipation	13
▁kindergarten	13
▁fermentation	13
notifications	13
▁consolidated	13
▁embarrassing	13
▁questionable	13
▁characterize	13
▁Implications	13
Documentation	13
▁broadcasting	13
▁depreciation	13
▁supplemented	13
▁Manufacturer	13
▁propositions	13
▁chemotherapy	13
▁bibliography	13
▁Presbyterian	13
▁resurrection	13
▁BorderRadius	13
▁declarations	13
▁disconnected	13
▁Occupational	13
▁Verification	13
▁segmentation	13
▁discontinued	13
▁firefighters	13
▁strawberries	13
▁Associations	13
MemoryWarning	13
▁protagonista	13
▁unexpectedly	13
▁incorporates	13
▁Conversation	13
▁Biochemistry	13
▁investigator	13
▁inequalities	13
▁condensation	13
URLConnection	13
▁deficiencies	13
▁photographed	13
▁thanksgiving	13
▁Contribution	13
▁Jacksonville	13
▁missionaries	13
▁horizontally	13
▁manufactures	13
▁acquisitions	13
▁Perspectives	13
▁ActiveRecord	13
▁Northwestern	13
Entertainment	13
Prerequisites	13
▁StringBuffer	13
▁hypothetical	13
▁Preservation	13
▁Neighborhood	13
▁erforderlich	13
▁motivational	13
▁Saskatchewan	13
▁instrumentos	13
▁incompatible	13
▁restaurantes	13
▁storytelling	13
▁supplemental	13
▁advantageous	13
▁psychologist	13
▁adolescentes	13
▁Quantitative	13
SelectedIndex	13
▁transformers	13
▁indifference	13
▁PUBLICATIONS	13
▁unbelievable	13
▁constituency	13
▁Alternatives	13
▁Coordination	13
▁Respectfully	13
▁contemplated	13
▁distinctions	13
▁disciplinary	13
▁philosophers	13
▁Shutterstock	13
▁Intervention	13
Accommodation	13
▁Productivity	13
▁interruption	13
▁breathtaking	13
▁indefinitely	13
▁ModelAndView	13
▁irrespective	13
▁disagreement	13
▁REQUIREMENTS	13
▁intermittent	13
▁appropriated	13
▁distributors	13
▁recommending	13
▁facilitating	13
▁acknowledges	13
▁transitional	13
▁Improvements	13
▁Broadcasting	13
▁infiltration	13
▁inscriptions	13
▁illustrating	13
documentclass	13
▁transporting	13
▁hierarchical	13
Disadvantages	13
▁Satisfaction	13
▁Interactions	13
▁Microbiology	13
Miscellaneous	13
▁substituting	13
Accessibility	13
AutoScaleMode	13
▁accelerating	13
▁augmentation	13
▁condemnation	13
▁Incorporated	13
▁Anthropology	13
▁dispositions	13
▁perturbation	13
▁coordinating	13
▁oscillations	13
authenticated	13
▁predecessors	13
▁completeness	13
▁Significance	13
ErrUnexpected	13
▁computations	13
▁shortcomings	13
▁pathological	13
▁consideramos	13
▁consumidores	13
▁formulations	13
BrowserModule	13
▁authenticate	13
▁replacements	13
▁compartments	13
▁repositories	13
RequestMethod	13
understanding	13
Determination	13
▁neurological	13
▁Developments	13
▁Municipality	13
▁congratulate	13
▁subconscious	13
▁recollection	13
▁proclamation	13
▁complication	13
approximately	13
▁affectionate	13
▁volunteering	13
environmental	13
▁recomendable	13
Alternatively	13
▁hydrocarbons	13
▁Subsequently	13
▁AppComponent	13
▁demographics	13
▁Newfoundland	13
▁southeastern	13
Manufacturing	13
▁Scandinavian	13
▁Successfully	13
WindowManager	13
▁enhancements	13
▁Modification	13
▁hospitalized	13
relationships	13
▁prerequisite	13
▁apprehension	13
▁irresistible	13
NullException	13
▁transmitting	13
▁spirituality	13
▁Dissertation	13
▁Occasionally	13
▁Certificates	13
▁Unemployment	13
▁mechanically	13
▁Conditioning	13
▁Confirmation	13
▁efficiencies	13
Globalization	13
▁disappearing	13
▁supermarkets	13
▁interviewing	13
NavigationBar	13
▁aggressively	13
▁specializing	13
▁Restrictions	13
▁Calculations	13
▁distillation	13
LayoutManager	13
▁Expectations	13
▁illustrative	13
▁constipation	13
▁northeastern	13
PropertyGroup	13
▁catastrophic	13
▁GetComponent	13
Compatibility	13
ApiController	13
▁perseverance	13
▁southwestern	13
▁assimilation	13
▁Reproduction	13
▁degeneration	13
▁correctement	13
ClassNotFound	13
▁Contributors	13
▁Descriptions	13
tablissements	13
▁recomendamos	13
▁alphabetical	13
▁EventEmitter	13
Relationships	13
▁Photographer	13
▁Consolidated	13
▁concentrates	13
▁spectrometry	13
▁shutterstock	13
▁psychiatrist	13
▁multiplicity	13
Certification	13
▁dissociation	13
Concentration	13
▁inaccessible	13
Contributions	13
UnknownFields	13
▁multivariate	13
▁asynchronous	13
▁subsidiaries	13
▁unparalleled	13
▁collaborated	13
Administrator	13
▁Neuroscience	13
▁artificially	13
▁polyethylene	13
▁colonization	13
▁rechargeable	13
▁mobilization	13
▁irreversible	13
▁Transparency	13
▁departmental	13
▁dificultades	13
▁distractions	13
▁indebtedness	13
▁inauguration	13
▁articulation	13
▁Spectroscopy	13
▁Connectivity	13
TableViewCell	13
Massachusetts	13
▁abbreviation	13
▁Announcement	13
qualification	13
subscriptions	13
FunctionFlags	13
autoconfigure	13
▁ORGANIZATION	13
▁Astronomical	13
▁particulares	13
grandchildren	13
▁Disabilities	13
▁orientations	13
▁constituting	13
▁vaccinations	13
▁Christchurch	13
▁Scholarships	13
▁approximated	13
▁veterinarian	13
determination	13
▁Consequences	13
▁precipitated	13
▁remuneration	13
DriverManager	13
▁Prerequisite	13
▁tremendously	13
ofluorescence	13
▁manipulating	13
IActionResult	13
▁commentators	13
▁complexities	13
▁multilateral	13
▁Geographical	13
▁competencies	13
▁Investigator	13
▁Subcommittee	13
▁astronomical	13
▁Corporations	13
▁Achievements	13
▁cooperatives	13
HasColumnName	13
▁Civilization	13
BufferedImage	13
▁subdivisions	13
▁Resurrection	13
▁contractions	13
▁Supplemental	13
▁homelessness	13
▁concurrently	13
PostConstruct	13
compatibility	13
getJSONObject	13
DeleteMapping	13
▁dictatorship	13
XmlAccessType	13
▁Particularly	13
▁illuminating	13
▁Partnerships	13
▁housekeeping	13
▁hydrochloric	13
▁superstition	13
▁intimidating	13
concentration	13
SqlConnection	13
▁commentaries	13
▁ratification	13
▁spectrometer	13
▁conglomerate	13
specification	13
▁electrically	13
ListComponent	13
serialization	13
▁anthropology	13
▁northwestern	13
Comprehensive	13
▁considérable	13
▁Conventional	13
▁handkerchief	13
▁refreshments	13
▁prostitution	13
▁ridiculously	13
▁astonishment	13
▁unrestricted	13
FormTagHelper	13
▁dictionaries	13
▁malnutrition	13
encouragement	13
▁effortlessly	13
▁successively	13
▁partitioning	13
▁Southwestern	13
▁Acceleration	13
▁metaphysical	13
ErrorResponse	13
▁preferential	13
▁exaggeration	13
▁bureaucratic	13
▁commandments	13
▁MemoryStream	13
▁inteligentes	13
▁participates	13
▁denomination	13
▁preparedness	13
▁compromising	13
▁BIBLIOGRAPHY	13
▁uncontrolled	13
Institutional	13
▁APPLICATIONS	13
Investigation	13
▁EventHandler	13
▁Southeastern	13
▁incidentally	13
▁extinguished	13
▁anticipating	13
▁accommodated	13
▁policymakers	13
▁restauration	13
Participation	13
▁Manufactured	13
▁implantation	13
▁subordinates	13
▁undertakings	13
▁permutations	13
Opportunities	13
▁pathogenesis	13
MouseListener	13
entertainment	13
UIApplication	13
▁Personalized	13
▁interesantes	13
▁biographical	13
▁Purification	13
▁Segmentation	13
▁consentement	13
corresponding	13
▁fingerprints	13
▁affiliations	13
▁legitimately	13
▁immunization	13
▁accumulating	13
▁sociological	13
▁Reproductive	13
▁Appreciation	13
▁complemented	13
▁Evolutionary	13
▁conformation	13
▁moisturizing	13
Parameterized	13
▁programmable	13
▁deteriorated	13
consciousness	13
effectiveness	13
▁insurrection	13
AppMethodBeat	13
RefreshLayout	13
▁Environments	13
▁Transformers	13
▁biosynthesis	13
Computational	13
▁experimentar	13
▁Examinations	13
Psychological	13
▁considerando	13
▁communicates	13
organizations	13
WebpackPlugin	13
▁deliberation	13
▁Implementing	13
▁Manipulation	13
▁functionally	13
Decomposition	13
preprocessing	13
▁disseminated	13
administrator	13
▁polyurethane	13
▁Confidential	13
▁commonwealth	13
▁insecticides	13
Interestingly	13
▁Northeastern	13
▁hypothesized	13
▁polymorphism	13
▁computerized	13
▁incomparable	13
▁industrielle	13
▁downloadable	13
▁intimidation	13
▁interstitial	13
▁disqualified	13
▁intermediary	13
▁Temperatures	13
▁Congregation	13
▁Pharmacology	13
▁disinfection	13
▁Displacement	13
Normalization	13
▁Jurisdiction	13
▁safeguarding	13
manufacturing	13
myapplication	13
Collaboration	13
▁investimento	13
▁perpetrators	13
▁integrations	13
▁thoughtfully	13
AccessorTable	13
▁refrigerated	13
▁Expenditures	13
▁osteoporosis	13
▁appreciative	13
▁FileNotFound	13
▁advancements	13
▁interception	13
psychological	13
▁transplanted	13
▁formaldehyde	13
physiological	13
▁Inflammation	13
Preconditions	13
▁relativement	13
Organizations	13
▁Williamsburg	13
▁speculations	13
▁superimposed	13
▁equivalently	13
HasForeignKey	13
▁testimonials	13
▁structurally	13
stackoverflow	13
▁frustrations	13
▁Peterborough	13
▁photolibrary	13
PreferredItem	13
▁masterpieces	13
▁emancipation	13
▁passionately	13
▁postgraduate	13
▁marchandises	13
▁annihilation	13
▁Regeneration	13
▁autocomplete	13
▁minimization	13
▁vectorielles	13
▁Frankenstein	13
▁biologically	13
BindingSource	13
RuntimeObject	13
▁transfection	13
Subscriptions	13
▁Tuberculosis	13
▁designations	13
Approximately	13
contamination	13
establishment	13
▁Localization	13
▁necessitated	13
▁Capabilities	13
▁aristocratic	13
Instantiation	13
▁beneficiario	13
▁Substitution	13
▁sequentially	13
▁Translations	13
▁cosmopolitan	13
ExecuteReader	13
▁encountering	13
▁configurable	13
▁Establishing	13
▁emphatically	13
▁unmistakable	13
▁protagonists	13
▁adjudication	13
▁Reservations	13
▁adaptability	13
▁Appointments	13
▁encompassing	13
Visualization	13
▁manslaughter	13
▁Practitioner	13
NavController	13
▁experimented	13
Qualification	13
▁Contributing	13
▁urbanization	13
▁preventative	13
▁spectrophoto	13
▁infrequently	13
ConstraintSet	13
▁Photographic	13
▁impoverished	13
▁reproducible	13
▁histological	13
▁AGRICULTURAL	13
ServiceClient	13
▁Dependencies	13
▁radiotherapy	13
▁investigates	13
▁desirability	13
DispatchQueue	13
▁straightened	13
▁Instrumental	13
LinkedHashMap	13
conditionally	13
SocketAddress	13
▁supermercado	13
▁Interference	13
▁Invitational	13
SelectedValue	13
WindowLineVCR	13
StartPosition	13
▁inexplicable	13
▁subcutaneous	13
▁Prescription	13
▁conclusively	13
IsInitialized	13
▁progesterone	13
▁corresponded	13
▁Intersection	13
▁disagreeable	13
accessibility	13
▁inspirations	13
▁photovoltaic	13
▁asymmetrical	13
▁Recreational	13
▁illegitimate	13
▁susceptibles	13
▁alimentation	13
▁Perseverance	13
Precautionary	13
complishments	13
▁discouraging	13
▁marginalized	13
NameValuePair	13
▁foundational	13
PasswordField	13
PendingIntent	13
CastException	13
▁constitutive	13
▁biochemistry	13
▁solicitation	13
▁Westinghouse	13
▁experiential	13
▁Historically	13
▁guaranteeing	13
▁Unauthorized	13
ENVIRONMENTAL	13
opathological	13
▁Lincolnshire	13
▁intersecting	13
▁Performances	13
▁relativistic	13
▁incompetence	13
▁regenerative	13
▁Hypertension	13
▁magnificence	13
▁legislatures	13
▁defaultstate	13
▁ApiException	13
opportunities	13
▁interrupting	13
▁inflationary	13
▁incarcerated	13
▁electrolytes	13
▁facilitation	13
▁interrelated	13
▁Oceanography	13
▁Conservatory	13
▁persistently	13
Investigators	13
▁correctional	13
ThemeProvider	13
▁Fayetteville	13
▁philanthropy	13
▁subcommittee	13
institutional	13
▁inactivation	13
▁Transitional	13
▁pigmentation	13
▁Correctional	13
▁commensurate	13
▁undocumented	13
▁Chesterfield	13
▁incontinence	13
▁receptionist	13
▁photocopying	13
automatically	13
visualization	13
▁choreography	13
▁Horticulture	13
▁PENNSYLVANIA	13
UpdateCommand	13
▁domestically	13
▁academically	13
ostringstream	13
▁intoxicating	13
▁REGISTRATION	13
▁appreciating	13
JpaRepository	13
▁Astrophysics	13
▁outstretched	13
▁Substituting	13
▁Surprisingly	13
Undergraduate	13
▁quantization	13
▁practicality	13
▁explorations	13
▁tranquillity	13
▁thunderstorm	13
▁transduction	13
MultipartFile	13
▁unfavourable	13
▁pretreatment	13
▁geopolitical	13
advertisement	13
▁collectibles	13
▁obstructions	13
▁transferable	13
▁RuntimeError	13
Establishment	13
▁longstanding	13
▁menstruation	13
▁Coordinating	13
▁marshmallows	13
▁neuroscience	13
djangoproject	13
▁ChromeDriver	13
▁CharSequence	13
certification	13
▁friendliness	13
▁troubleshoot	13
Announcements	13
▁interlocking	13
Authenticator	13
▁Proclamation	13
▁dispensation	13
▁psychosocial	13
▁meticulously	13
ComponentName	13
▁encapsulated	13
▁Destinations	13
▁PHILADELPHIA	13
▁carelessness	13
MessageWindow	13
▁entanglement	13
UrlResolution	13
▁Fluorescence	13
▁imaginations	13
BorderFactory	13
▁assassinated	13
▁provisioning	13
▁mythological	13
▁DialogResult	13
▁interspersed	13
▁BigNumberish	13
▁incandescent	13
▁cosmological	13
▁participaron	13
▁overshadowed	13
ButtonPressed	13
▁controllable	13
TouchListener	13
▁conferencing	13
▁irritability	13
▁Conductivity	13
▁ArrayAdapter	13
▁Combinations	13
▁homomorphism	13
▁microbiology	13
UnsafeEnabled	13
▁irregularity	13
▁Demographics	13
▁Biographical	13
ViewComponent	13
▁complementos	13
▁transmitters	13
▁horticulture	13
▁Governmental	13
ObjectContext	13
Customization	13
▁eigenvectors	13
▁crowdfunding	13
▁mutagenicity	13
▁compensating	13
▁ascertaining	13
▁initializing	13
▁multilingual	13
▁inefficiency	13
▁Difficulties	13
▁deformations	13
▁investigador	13
▁extinguisher	13
▁contradicted	13
▁manipulative	13
▁Sociological	13
▁decommission	13
▁ARCHITECTURE	13
▁CommonModule	13
▁contributory	13
▁inaccuracies	13
▁underwriting	13
▁eccentricity	13
▁Temperaturen	13
PaymentMethod	13
▁preservative	13
▁Continuation	13
▁exhilarating	13
▁inclinations	13
▁Psychologist	13
▁analytically	13
▁regularmente	13
▁mysteriously	13
investigation	13
▁responsabile	13
Preliminaries	13
▁CONSERVATION	13
DialogContent	13
▁multipurpose	13
Complications	13
▁Considerable	13
triangleright	13
▁enterprising	13
▁Depreciation	13
▁conservatism	13
▁Unclassified	13
▁hydrodynamic	13
▁compartilhar	13
▁helplessness	13
▁Distributors	13
▁enlightening	13
▁responsabili	13
▁Personalised	13
normalization	13
▁encroachment	13
AttributeName	13
Extinguishing	13
Revolutionary	13
▁instantiated	13
▁misericordia	13
interpolation	13
▁debilitating	13
▁affirmations	13
▁ErrorMessage	13
▁benchmarking	13
▁Huddersfield	13
▁Commencement	13
▁collaborator	13
▁cryptography	13
▁workstations	13
▁cytotoxicity	13
▁universality	13
InternalFrame	13
▁extravagance	13
▁interpolated	13
▁Chhattisgarh	13
LoginActivity	13
▁domesticated	13
▁Departmental	13
▁broadcasters	13
▁preoperative	13
StringLiteral	13
▁Hillsborough	13
▁unresponsive	13
▁unstructured	13
▁multicolored	13
▁Correlations	13
Architectural	13
▁Postgraduate	13
▁Testimonials	13
▁prosecutions	13
▁Trigonometry	13
▁comerciantes	13
▁electrolysis	13
Mediterranean	13
▁GetYourGuide	13
▁conservatory	13
▁relentlessly	13
▁PRESENTATION	13
TextAlignment	13
▁abstractions	13
▁precondition	13
▁Commandments	13
▁unbelievably	13
Uninitialized	13
▁generational	13
▁postponement	13
▁Negotiations	13
▁communicator	13
revolutionary	13
▁Breakthrough	13
Interventions	13
▁apprehensive	13
▁Progressives	13
▁unvaccinated	13
DatabaseError	13
▁Declarations	13
Automatically	13
▁Refrigerator	13
▁coordinators	13
▁degenerative	13
▁Supernatural	13
▁subterranean	13
▁conciliation	13
▁quarterbacks	13
▁amalgamation	13
▁restlessness	13
distributions	13
▁purposefully	13
UnusedPrivate	13
▁dislocations	13
▁inconclusive	13
HomeComponent	13
▁narcissistic	13
SearchResults	13
▁experimenter	13
▁spreadsheets	13
▁prohibitions	13
▁subjectivity	13
▁hydrological	13
▁hypocritical	13
▁screenwriter	13
▁resettlement	13
▁undetermined	13
▁suspiciously	13
▁Hierarchical	13
▁interstellar	13
▁unattractive	13
▁crystallized	13
▁transitioned	13
Effectiveness	13
PriorityQueue	13
▁unsuspecting	13
InitStructure	13
Interpolation	13
▁fibrillation	13
▁endeavouring	13
▁substantiate	13
▁distributive	13
▁radiological	13
▁Arquitectura	13
▁Accumulation	13
▁definitively	13
Developmental	13
▁predominance	13
▁overcrowding	13
▁MEASUREMENTS	13
▁corroborated	13
▁journalistic	13
▁equalization	13
▁unprofitable	13
▁Preparations	13
▁BaseActivity	13
▁Housekeeping	13
▁unproductive	13
▁Cosmopolitan	13
▁convincingly	13
▁Acquisitions	13
▁shipbuilding	13
▁redistribute	13
▁complimented	13
▁corresponden	13
▁unsupervised	13
▁Multivariate	13
▁electrolytic	13
▁pancreatitis	13
▁Incidentally	13
▁imperfection	13
▁standardised	13
▁totalitarian	13
▁Simultaneous	13
contributions	13
▁circumcision	13
▁efficacement	13
▁recommandons	13
GeneratedCode	13
▁governorship	13
AccessControl	13
▁accommodates	13
▁stipulations	13
▁pediatrician	13
▁miraculously	13
▁perspiration	13
▁Warwickshire	13
BlockingQueue	13
HostException	13
Justification	13
▁heartwarming	13
decomposition	13
Modifications	13
▁angiogenesis	13
▁Aeronautical	13
MethodManager	13
▁Spectrometry	13
▁Storytelling	13
▁unauthorised	13
HasAnnotation	13
DeleteCommand	13
▁consecration	13
▁rejuvenation	13
collaboration	13
▁prolongation	13
▁prioritizing	13
MessageDigest	13
▁nationalists	13
▁occidentalis	13
▁consultative	13
▁overpowering	13
▁Turkmenistan	13
Functionality	13
ComponentScan	13
transpiration	13
▁comprehended	13
Illustrations	13
FormComponent	13
▁Constipation	13
▁betweenstory	13
▁Competitions	13
SocketChannel	13
▁ExecuteAsync	13
▁freestanding	13
▁GreatSchools	13
▁Incompatible	13
comprehensive	13
TextFormField	13
▁interminable	13
▁OBSERVATIONS	13
▁WrestleMania	13
ErrorListener	13
▁Preparedness	13
▁collegamento	13
▁Shareholders	13
▁Westmoreland	13
conversations	13
▁guardianship	13
▁deliverables	13
▁multifaceted	13
Conversations	13
▁combustibles	13
▁intracranial	13
▁Stakeholders	13
▁stratigraphy	13
ParameterName	13
▁billionaires	13
▁pharmacology	13
▁RELATIONSHIP	13
▁untranslated	13
▁Thessaloniki	13
▁proportioned	13
▁orchestrated	13
▁confiscation	13
▁conceptually	13
▁infestations	13
▁traceability	13
▁unilaterally	13
▁Hydrocarbons	13
▁maximization	13
▁multitasking	13
ButtonClicked	13
RepeatedField	13
▁Spirituality	13
ifferentiated	13
▁unrecognized	13
▁transporters	13
transcription	13
▁Transforming	13
▁connotations	13
illustrations	13
▁Illumination	13
▁motherfucker	13
▁Neurological	13
▁delightfully	13
▁specialising	13
▁unreasonably	13
▁Integrations	13
▁ethnographic	13
ResponseModel	13
inspirational	13
▁MATHEMATICAL	13
▁snowboarding	13
StylePriority	13
professionals	13
▁commendation	13
▁complementar	13
▁marketplaces	13
▁MainAxisSize	13
▁minimalistic	13
▁cancelamento	13
SqlDataReader	13
Accreditation	13
▁Celebrations	13
▁constriction	13
▁legalization	13
unfortunately	13
▁impressively	13
▁neutralizing	13
▁TRANSMISSION	13
Presentations	13
▁excruciating	13
▁firefighting	13
▁Inequalities	13
▁naturalistic	13
Precipitation	13
▁bodybuilding	13
Collaborative	13
Distinguished	13
▁contenedores	13
▁thermometers	13
▁deregulation	13
▁interviewers	13
significantly	13
▁reflectivity	13
▁reinstalling	13
▁intermission	13
▁amortization	13
InsertCommand	13
▁precipitates	13
▁symbolically	13
CONFIGURATION	13
Technological	13
▁explications	13
QualifiedName	13
▁impartiality	13
centralwidget	13
▁approximates	13
▁ecologically	13
▁Czechoslovak	13
▁Transylvania	13
▁protagonisti	13
▁nanoparticle	13
▁Polarization	13
▁Representing	13
▁Authenticity	13
▁Programmable	13
▁consideradas	13
▁meaningfully	13
▁rehabilitate	13
Participating	13
▁entertainers	13
▁inapplicable	13
▁restorations	13
▁repatriation	13
▁peacekeeping	13
▁recognisable	13
▁intercession	13
▁relinquished	13
▁vicissitudes	13
▁prophylactic	13
▁Constituency	13
▁navigational	13
▁Consultative	13
▁Christiansen	13
▁exaggerating	13
▁insecurities	13
▁infographics	13
▁triumphantly	13
▁Chemotherapy	13
▁surrendering	13
▁erythrocytes	13
▁Permeability	13
▁Rechargeable	13
▁extrapolated	13
▁Dictionaries	13
▁invertebrate	13
▁Fermentation	13
▁entitlements	13
▁accelerators	13
▁interviewees	13
▁schoolmaster	13
Administrador	13
▁Standardized	13
▁disregarding	13
▁transparence	13
▁laboratorium	13
▁consummation	13
ColumnHeaders	13
▁interconnect	13
AlreadyExists	13
ConfigService	13
▁aromatherapy	13
▁Strawberries	13
▁scrapbooking	13
▁streamlining	13
▁interrogated	13
▁postdoctoral	13
▁administracy	13
▁disassembled	13
▁transference	13
architectural	13
AccountNumber	13
developmental	13
▁subordinated	13
▁beliebtesten	13
▁IMPLICATIONS	13
▁encephalitis	13
▁immeasurable	13
▁materialized	13
RotationOrder	13
TypeConverter	13
BindingResult	13
Manufacturers	13
CaseSensitive	13
▁compilations	13
ContentLoaded	13
▁sociologists	13
Pronunciation	13
AfterViewInit	13
Demonstration	13
<blockquote>	12
▁information	12
▁development	12
▁environment	12
▁performance	12
▁application	12
▁significant	12
▁Information	12
Introduction	12
▁temperature	12
▁description	12
▁interesting	12
▁opportunity	12
▁immediately	12
▁Development	12
▁Association	12
▁established	12
▁Description	12
▁traditional	12
▁individuals	12
▁Environment	12
▁responsible	12
▁independent	12
operatorname	12
▁recommended	12
▁differences	12
▁Engineering	12
▁comfortable	12
▁maintenance	12
▁competition	12
▁alternative	12
▁combination	12
▁Application	12
▁experienced	12
▁communities	12
▁experiences	12
▁composition	12
▁represented	12
▁preparation	12
▁improvement	12
INTRODUCTION	12
▁engineering	12
▁educational	12
▁authorities	12
▁measurement	12
▁publication	12
▁Corporation	12
▁transaction	12
thentication	12
▁experiments	12
▁possibility	12
▁consumption	12
▁considering	12
▁regulations	12
▁photography	12
▁UnityEngine	12
▁instruction	12
▁perspective	12
▁association	12
▁examination	12
▁interaction	12
▁probability	12
▁distributed	12
▁suggestions	12
▁Performance	12
▁destination	12
▁replacement	12
▁explanation	12
▁appointment	12
▁advertising	12
▁effectively	12
▁recognition	12
▁surrounding	12
▁integration	12
▁requirement	12
▁competitive	12
▁institution	12
▁participate	12
▁translation	12
▁implemented	12
▁appreciated	12
▁legislation	12
dependencies	12
▁transparent	12
▁observation	12
▁restaurants	12
▁connections	12
▁certificate	12
▁instruments	12
▁personality	12
▁cooperation	12
▁substantial	12
Notification	12
▁communicate	12
▁partnership	12
▁arrangement	12
▁Initialized	12
▁constructed	12
▁coronavirus	12
▁electricity	12
▁limitations	12
▁inspiration	12
▁sustainable	12
▁collections	12
▁outstanding	12
▁Agriculture	12
▁programming	12
▁researchers	12
▁essentially	12
▁accessories	12
▁contributed	12
▁complicated	12
▁agriculture	12
▁governments	12
▁correlation	12
displaystyle	12
OutputStream	12
▁potentially	12
▁anniversary	12
▁transferred	12
▁residential	12
▁accompanied	12
▁discussions	12
▁populations	12
▁statistical	12
▁challenging	12
▁acquisition	12
▁calculation	12
▁demonstrate	12
▁Furthermore	12
▁consequence	12
▁destruction	12
▁corporation	12
▁determining	12
▁maintaining	12
▁illustrated	12
▁INFORMATION	12
SQLException	12
▁preferences	12
▁declaration	12
▁sensitivity	12
▁departments	12
▁Netherlands	12
▁operational	12
▁orientation	12
▁Temperature	12
▁conclusions	12
▁achievement	12
▁investments	12
▁investigate	12
▁constraints	12
▁Mathematics	12
▁involvement	12
▁celebration	12
▁expressions	12
▁generations	12
▁theoretical	12
▁imagination	12
▁circulation	12
▁distinction	12
▁equilibrium	12
▁intelligent	12
▁photographs	12
▁practically	12
▁uncertainty	12
▁flexibility	12
▁Switzerland	12
▁internation	12
▁preliminary	12
▁Philippines	12
EventHandler	12
▁definitions	12
▁Preferences	12
▁manufacture	12
▁mathematics	12
ResponseBody	12
Registration	12
▁exclusively	12
▁differently	12
▁Christopher	12
▁accordingly	12
▁acknowledge	12
▁exceptional	12
▁compression	12
frastructure	12
▁encountered	12
▁reliability	12
Experimental	12
▁Independent	12
▁Mississippi	12
▁controlling	12
▁Conclusions	12
▁progressive	12
▁Maintenance	12
▁assumptions	12
▁supervision	12
▁obligations	12
▁interactive	12
▁initiatives	12
▁corresponds	12
▁inhabitants	12
notification	12
▁identifying	12
▁Statistical	12
▁exploration	12
▁Shakespeare	12
▁respondents	12
▁specialized	12
▁transformed	12
▁underground	12
▁expenditure	12
▁restoration	12
▁lightweight	12
▁anticipated	12
▁disappeared	12
Distribution	12
▁proposition	12
▁placeholder	12
▁legislative	12
▁importantes	12
▁encouraging	12
▁Educational	12
▁consecutive	12
▁Preparation	12
▁consistency	12
▁accommodate	12
▁Connecticut	12
▁controversi	12
▁frequencies	12
▁Afghanistan	12
▁functioning	12
▁approaching	12
▁enterprises	12
▁predictions	12
▁Certificate	12
▁distinguish	12
▁Alternative	12
RecyclerView	12
staticmethod	12
▁methodology	12
▁politicians	12
▁importantly	12
▁conjunction	12
▁respiratory	12
Presentation	12
▁interpreted	12
Instructions	12
▁cultivation	12
▁allegations	12
▁transmitted	12
▁backgrounds	12
Construction	12
▁Regulations	12
▁progression	12
▁efficiently	12
organization	12
▁approximate	12
▁participant	12
Professional	12
▁calibration	12
▁restriction	12
▁scholarship	12
▁DESCRIPTION	12
Installation	12
▁Photography	12
Subscription	12
▁controversy	12
displayquote	12
▁spectacular	12
▁competitors	12
▁Integration	12
▁expectation	12
▁Measurement	12
▁beautifully	12
Applications	12
▁permissions	12
▁inscription	12
▁Instruction	12
▁electronics	12
▁reservation	12
▁ventilation	12
▁undoubtedly	12
▁Electronics	12
▁Publication	12
▁introducing	12
▁concentrate	12
▁specialists	12
▁fascinating	12
▁magnificent	12
▁immigration	12
▁credentials	12
▁continually	12
▁documentary	12
▁unfortunate	12
▁formulation	12
▁temporarily	12
▁vaccination	12
▁rectangular	12
▁degradation	12
▁cooperative	12
Participants	12
▁comparative	12
▁Transaction	12
▁computation	12
▁Accessories	12
▁grandmother	12
▁appearances	12
▁assessments	12
▁comparisons	12
▁celebrating	12
▁unconscious	12
▁grandfather	12
▁Institution	12
▁distinctive	12
▁permanently	12
▁recruitment	12
▁precautions	12
▁utilization	12
▁Competition	12
▁Explanation	12
Organization	12
▁assignments	12
▁proportions	12
▁medications	12
▁incorporate	12
ScopeManager	12
▁termination	12
▁attractions	12
DataGridView	12
▁derivatives	12
illustration	12
▁Composition	12
declarations	12
▁prosecution	12
▁simulations	12
▁Legislature	12
subscription	12
▁Recommended	12
distribution	12
▁prospective	12
▁stimulation	12
▁technically	12
▁foundations	12
▁conferences	12
▁responsable	12
▁Republicans	12
▁subscribers	12
▁atmospheric	12
▁legislature	12
▁Coordinator	12
▁Programming	12
▁continental	12
▁Translation	12
▁threatening	12
GetComponent	12
▁Collections	12
Bibliography	12
▁illustrates	12
▁variability	12
▁constitutes	12
Requirements	12
▁contractors	12
▁susceptible	12
▁merchandise	12
▁decorations	12
▁convergence	12
withstanding	12
▁Renaissance	12
▁tablespoons	12
professional	12
▁interrupted	12
▁businessman	12
▁hospitality	12
▁Improvement	12
registration	12
▁journalists	12
▁elimination	12
▁propagation	12
▁understands	12
▁transported	12
▁Sustainable	12
▁Examination	12
▁accumulated	12
▁calculating	12
▁extensively	12
▁unavailable	12
synchronized	12
▁enhancement	12
▁marketplace	12
▁influential	12
▁conditional	12
disciplinary	12
▁supplements	12
▁inheritance	12
instructions	12
▁transitions	12
▁Advertising	12
▁territories	12
▁cholesterol	12
▁referenties	12
▁impressions	12
informations	12
ResumeLayout	12
▁fabrication	12
▁Declaration	12
▁contributes	12
▁interviewed	12
▁undertaking	12
▁disturbance	12
▁compilation	12
▁compartment	12
▁qualitative	12
▁speculation	12
▁frustration	12
▁informative	12
▁Springfield	12
▁PlayStation	12
▁transformer	12
▁countryside	12
▁commodities	12
▁Traditional	12
▁controllers	12
▁Interesting	12
▁innovations	12
▁Minneapolis	12
▁resolutions	12
▁Proposition	12
▁Partnership	12
▁constituted	12
▁projections	12
▁frustrating	12
▁beneficiary	12
▁territorial	12
▁penetration	12
▁eligibility	12
▁reflections	12
▁groundwater	12
▁Recognition	12
▁indications	12
ErrorMessage	12
▁dimensional	12
▁corrections	12
▁entreprises	12
▁Instruments	12
installation	12
▁positioning	12
▁promotional	12
▁complaining	12
▁realization	12
▁condolences	12
▁productions	12
▁coordinator	12
bibliography	12
▁citizenship	12
▁generalized	12
▁substituted	12
▁Coronavirus	12
▁Accordingly	12
construction	12
▁Westminster	12
▁descriptive	12
▁Anniversary	12
▁settlements	12
▁homogeneous	12
▁commitments	12
▁willingness	12
▁deformation	12
▁designation	12
▁questioning	12
▁disciplines	12
▁financially	12
▁neighboring	12
AppComponent	12
▁quarterback	12
▁DEVELOPMENT	12
▁destructive	12
▁Continental	12
▁demographic	12
PathVariable	12
▁nutritional	12
tablissement	12
Ingredientes	12
▁spontaneous	12
▁Replacement	12
▁Scholarship	12
Availability	12
▁accelerated	12
▁Illustrated	12
▁celebrities	12
▁commissions	12
▁directement	12
▁instability	12
▁advancement	12
▁Interaction	12
▁prestigious	12
▁supermarket	12
▁conventions	12
▁Legislative	12
▁Communities	12
▁Experiments	12
▁Permissions	12
▁Interactive	12
Additionally	12
Publications	12
▁exponential	12
▁eliminating	12
▁coordinated	12
RequestParam	12
▁contraction	12
▁downloading	12
▁sympathetic	12
▁comfortably	12
MainActivity	12
▁resignation	12
▁initialized	12
▁emotionally	12
Relationship	12
▁procurement	12
▁politically	12
▁perceptions	12
▁credibility	12
▁remembering	12
▁fashionable	12
▁alterations	12
▁Opportunity	12
StateToProps	12
▁devastating	12
▁occupations	12
▁Ingredients	12
▁Perspective	12
▁dysfunction	12
▁consultants	12
▁UITableView	12
▁Definitions	12
▁Cooperative	12
▁negotiation	12
▁replication	12
▁terminology	12
▁accountable	12
▁interacting	12
LayoutParams	12
▁Residential	12
▁inexpensive	12
▁integrating	12
▁antibiotics	12
▁percentages	12
▁forthcoming	12
▁screenshots	12
▁forgiveness	12
▁aspirations	12
▁exhibitions	12
Manufacturer	12
▁overlooking	12
▁Fortunately	12
architecture	12
▁entertained	12
▁Comparative	12
ItemSelected	12
▁Preliminary	12
▁feasibility	12
▁Cooperation	12
▁Productions	12
▁fundraising	12
▁radioactive	12
▁discovering	12
transactions	12
▁submissions	12
▁discoveries	12
presentation	12
▁dissolution	12
▁constituent	12
▁desperately	12
▁coincidence	12
▁Electricity	12
▁technicians	12
▁distributor	12
▁Methodology	12
▁particulars	12
▁Restoration	12
▁embarrassed	12
▁possessions	12
▁Probability	12
▁cylindrical	12
▁philosopher	12
▁principally	12
▁Enforcement	12
▁nonetheless	12
Transactions	12
▁conflicting	12
▁persistence	12
▁contracting	12
▁Governments	12
▁inspections	12
▁attachments	12
▁recognizing	12
▁adolescents	12
▁Respondents	12
▁technologie	12
▁liabilities	12
▁denominator	12
▁evaluations	12
▁convictions	12
▁Acquisition	12
relationship	12
▁intentional	12
ActionResult	12
▁proprietary	12
introduction	12
Dependencies	12
▁Achievement	12
▁exceedingly	12
▁counterpart	12
▁Immigration	12
recyclerview	12
▁containment	12
▁constrained	12
▁Restaurants	12
▁Differences	12
▁Underground	12
▁predecessor	12
▁contributor	12
▁battlefield	12
▁collaborate	12
▁overlapping	12
▁stimulating	12
▁Limitations	12
▁trafficking	12
▁Personality	12
Architecture	12
FileNotFound	12
▁respiration	12
▁masterpiece	12
▁specificity	12
▁implication	12
▁vectoriales	12
▁Considering	12
▁psychiatric	12
▁indifferent	12
▁Southampton	12
Verification	12
▁Significant	12
▁supervisors	12
Measurements	12
▁manuscripts	12
▁circulating	12
▁tournaments	12
▁professions	12
▁Observatory	12
▁voluntarily	12
▁Maharashtra	12
▁butterflies	12
▁superiority	12
▁Exploration	12
▁componentes	12
▁conspicuous	12
▁multiplayer	12
▁cleanliness	12
ActionButton	12
▁transmitter	12
▁prohibition	12
▁alternating	12
▁establishes	12
▁illuminated	12
▁conditioned	12
▁nationality	12
▁Calculation	12
▁convertible	12
▁sponsorship	12
▁Immediately	12
▁Corinthians	12
▁universally	12
▁crystalline	12
▁subordinate	12
▁UserService	12
▁thermometer	12
applications	12
▁Consumption	12
▁Enterprises	12
▁obstruction	12
ContentAsync	12
▁diffraction	12
▁Theoretical	12
▁aggregation	12
▁influencing	12
▁Calibration	12
Repositories	12
▁butterknife	12
▁fluorescent	12
authenticate	12
▁negotiating	12
▁accusations	12
▁transporter	12
▁directories	12
▁accessoires	12
▁incorrectly	12
▁nominations	12
stringstream	12
▁chromosomes	12
▁equivalence	12
IntegerField	12
▁APPLICATION	12
availability	12
▁ideological	12
▁Appointment	12
▁combustible	12
▁Correlation	12
▁mathvariant	12
▁Celebration	12
▁Operational	12
▁Distributed	12
▁Observation	12
▁concessions	12
▁exaggerated	12
▁registering	12
▁Investments	12
▁abstraction	12
▁irradiation	12
▁protagonist	12
▁affirmative	12
▁drastically	12
▁regenerated	12
▁compromised	12
▁occurrences	12
▁unanimously	12
▁Departments	12
Conversation	12
repositories	12
▁Progressive	12
▁researching	12
▁astonishing	12
▁Orientation	12
▁Connections	12
▁annotations	12
▁persecution	12
▁plantations	12
▁restrictive	12
▁Destination	12
▁forecasting	12
Confirmation	12
▁ineffective	12
▁Individuals	12
▁Inspiration	12
▁undesirable	12
▁unpublished	12
▁Intelligent	12
▁everlasting	12
▁facilitated	12
▁playstation	12
▁identificar	12
▁emergencies	12
▁conversions	12
▁discouraged	12
▁Authorities	12
▁theological	12
▁Sensitivity	12
▁InputStream	12
▁shareholder	12
▁satisfactor	12
▁terrestrial	12
▁AlertDialog	12
StringBuffer	12
▁spreadsheet	12
▁Reservation	12
▁countenance	12
▁aniversario	12
▁workmanship	12
▁polynomials	12
governmental	12
▁diagnostics	12
confirmation	12
▁CORPORATION	12
▁prosecutors	12
conversation	12
▁invitations	12
▁Hamiltonian	12
requirements	12
▁Outstanding	12
▁wonderfully	12
▁meaningless	12
▁Attribution	12
experimental	12
▁synthesized	12
▁provisional	12
▁ascertained	12
▁imaginative	12
▁ImportError	12
▁enlightened	12
▁precipitate	12
▁substantive	12
▁ASSOCIATION	12
▁Reliability	12
▁multiplying	12
▁friendships	12
▁CONCLUSIONS	12
▁Lightweight	12
▁affiliation	12
▁seventeenth	12
▁handicapped	12
▁compensated	12
▁earthquakes	12
▁trustworthy	12
▁centralized	12
▁engagements	12
▁motherboard	12
▁biochemical	12
Cancellation	12
▁Atmospheric	12
Philadelphia	12
NSDictionary	12
▁Requirement	12
▁Competitive	12
▁centimeters	12
AnchorStyles	12
▁landscaping	12
▁specializes	12
▁Foundations	12
▁considerado	12
▁necessities	12
▁counselling	12
Transmission	12
Informations	12
▁contrasting	12
TypedDataSet	12
particularly	12
▁unsubscribe	12
▁intelectual	12
▁Internation	12
▁distraction	12
▁legislators	12
▁Established	12
▁handwriting	12
▁motorcycles	12
▁corresponde	12
▁FormControl	12
▁instrumento	12
▁convolution	12
▁surrendered	12
▁versatility	12
▁fingerprint	12
▁presumption	12
▁nationalism	12
Conservation	12
▁empowerment	12
▁PERFORMANCE	12
▁transcripts	12
▁germination	12
NumberFormat	12
Demographics	12
Prerequisite	12
▁Unsupported	12
▁Consultants	12
▁discrepancy	12
▁spokeswoman	12
▁Suggestions	12
▁Responsible	12
▁originating	12
▁symmetrical	12
▁subtraction	12
▁speculative	12
▁Reformation	12
▁protections	12
▁dynamically	12
▁Legislation	12
CommonModule	12
▁confortable	12
▁Directorate	12
▁confidently	12
▁enlargement	12
▁Sicherheits	12
▁explanatory	12
▁Compression	12
▁dissipation	12
▁familiarity	12
Connectivity	12
▁seriousness	12
▁troublesome	12
intelligence	12
mbggenerated	12
intervention	12
Illustration	12
GraphicsUnit	12
AddTagHelper	12
▁Marketplace	12
▁frightening	12
▁Albuquerque	12
▁Nonetheless	12
▁consolation	12
▁Combination	12
▁Confederate	12
▁suitability	12
▁Experiences	12
▁Comfortable	12
▁correctness	12
▁directional	12
▁consciously	12
▁interchange	12
ByPrimaryKey	12
▁abandonment	12
▁deprivation	12
▁contingency	12
cinogenicity	12
▁ultraviolet	12
▁topological	12
▁genetically	12
▁Archaeology	12
▁substitutes	12
Significance	12
Intermediate	12
DataProvider	12
▁Researchers	12
▁electrolyte	12
▁rappresenta	12
Quantitative	12
▁manipulated	12
▁businessmen	12
intersection	12
▁interfering	12
▁diversified	12
▁attenuation	12
▁adventurous	12
▁Australians	12
▁Recruitment	12
conditioning	12
Nevertheless	12
▁stereotypes	12
▁advertisers	12
▁grammatical	12
▁duplication	12
▁ventricular	12
▁furnishings	12
verification	12
▁accelerator	12
▁concurrence	12
▁adaptations	12
▁oscillation	12
personalised	12
▁Computation	12
▁punctuation	12
▁specialised	12
▁inaugurated	12
▁Circulation	12
▁penetrating	12
renewcommand	12
▁subsistence	12
▁Enhancement	12
▁interessant	12
▁progressing	12
▁transgender	12
▁incompetent	12
Optimization	12
▁newsletters	12
▁unrealistic	12
▁encompasses	12
▁wavelengths	12
SearchResult	12
alimentation	12
▁Contracting	12
▁Photographs	12
▁translating	12
▁identifiers	12
▁geometrical	12
▁sensational	12
▁Brotherhood	12
▁intervening	12
▁Christensen	12
▁Constraints	12
▁conceptions	12
▁consolidate	12
▁volunteered	12
Capabilities	12
HasMaxLength	12
Successfully	12
▁calligraphy	12
ArrayAdapter	12
▁consultancy	12
▁intensities	12
▁disciplined	12
Observations	12
Restrictions	12
Neighborhood	12
▁Transparent	12
▁restricting	12
▁complainant	12
▁articulated	12
▁synchronous	12
▁Automobiles	12
▁stratigraph	12
▁Acknowledge	12
▁contestants	12
▁Groundwater	12
▁immortality	12
▁appreciable	12
▁indignation	12
▁preparatory	12
▁hydrocarbon	12
▁fortunately	12
▁intensified	12
▁illustrator	12
publications	12
▁Polytechnic	12
▁macrophages	12
▁inventories	12
CodeAnalysis	12
StringLength	12
▁emphasizing	12
▁Constantine	12
▁excessively	12
Implications	12
MouseClicked	12
▁revolutions	12
▁pedestrians	12
▁Hospitality	12
▁recombinant	12
▁bureaucracy	12
▁allocations	12
▁permutation	12
▁metabolites	12
▁supervisory	12
configurable	12
successfully	12
▁commercials	12
▁stakeholder	12
▁Discussions	12
▁Respiratory	12
▁motivations	12
▁screwdriver	12
▁Eligibility	12
Flammability	12
▁particulate	12
▁Territories	12
Modification	12
▁Reflections	12
▁equivalents	12
▁AuthService	12
▁festivities	12
▁Populations	12
Differential	12
▁Rockefeller	12
▁periodicals	12
▁diminishing	12
▁touchscreen	12
▁aftermarket	12
▁fascination	12
▁originality	12
▁Procurement	12
▁fluctuation	12
▁impermeable	12
AbsolutePath	12
▁sedimentary	12
▁Supervision	12
respectively	12
Contribution	12
▁instructive	12
▁personalize	12
Achievements	12
Pennsylvania	12
▁nationalist	12
▁Brandenburg	12
▁Conferences	12
▁Identifying	12
▁Destruction	12
▁influencers	12
transmission	12
▁furthermore	12
personalized	12
▁billionaire	12
Localization	12
▁mountainous	12
Unauthorized	12
▁dehydration	12
▁importation	12
Descriptions	12
▁Transformer	12
▁impeachment	12
▁commonplace	12
▁Assessments	12
▁illustrious	12
▁isomorphism	12
▁lymphocytes	12
▁Equilibrium	12
▁reinforcing	12
ModelAndView	12
▁municipales	12
▁prehistoric	12
▁Utilization	12
▁cauliflower	12
▁Persistence	12
▁referencing	12
manufacturer	12
▁Aeronautics	12
▁accompanies	12
▁liquidation	12
▁Kombination	12
CharSequence	12
▁methylation	12
▁existential	12
▁compounding	12
▁Corrections	12
TableAdapter	12
▁revelations	12
▁numerically	12
▁programmers	12
▁Contractors	12
▁intravenous	12
▁specialties	12
▁affirmation	12
▁renovations	12
▁strengthens	12
▁terminating	12
▁adolescence	12
▁audiovisual	12
▁sacrificing	12
▁restitution	12
▁officiating	12
Supplemental	12
autocomplete	12
▁flourishing	12
StateChanged	12
▁Bloomington	12
SystemColors	12
▁objectively	12
▁commemorate	12
▁behavioural	12
▁Supervisors	12
ServiceModel	12
▁Technologie	12
▁Northampton	12
▁Expenditure	12
▁Flexibility	12
▁Yellowstone	12
▁confronting	12
▁infestation	12
▁extremities	12
▁Illustrator	12
▁ministerial	12
▁intolerance	12
▁brotherhood	12
▁conceivable	12
▁cellspacing	12
▁Propagation	12
▁brilliantly	12
▁Documentary	12
▁handwritten	12
▁cooperating	12
▁involuntary	12
▁Manufacture	12
▁spiritually	12
▁humiliation	12
▁unimportant	12
▁Linguistics	12
Mathematical	12
specialchars	12
Intervention	12
▁inoculation	12
▁Citizenship	12
▁outsourcing	12
Intersection	12
▁Participant	12
▁streamlined	12
AndroidJUnit	12
▁workstation	12
▁whereabouts	12
▁interviewer	12
▁petitioners	12
▁fabricantes	12
▁insensitive	12
▁ambassadors	12
▁excavations	12
▁alternately	12
▁Theological	12
▁refurbished	12
▁withdrawing	12
▁misdemeanor	12
▁subscribing	12
▁reluctantly	12
▁Comparisons	12
SelectedItem	12
▁Chairperson	12
Consequently	12
UserDefaults	12
AccessorType	12
▁prominently	12
SpringRunner	12
▁authorizing	12
▁Unpublished	12
▁dislocation	12
▁cultivating	12
▁Territorial	12
▁retaliation	12
▁imperialism	12
▁Involvement	12
▁entitlement	12
▁unsupported	12
localization	12
BIBLIOGRAPHY	12
▁withholding	12
▁selectively	12
▁withdrawals	12
▁AUTHORITIES	12
▁Inheritance	12
▁undisturbed	12
▁pornography	12
Contributors	12
technologies	12
▁selectivity	12
▁logarithmic	12
▁Expressions	12
Specifically	12
Agricultural	12
▁restraining	12
▁Commissions	12
▁UIImageView	12
▁AGRICULTURE	12
▁considerate	12
▁Innovations	12
▁heavyweight	12
ErrorHandler	12
▁MusicBrainz	12
▁compressive	12
▁unspecified	12
Contributing	12
contemporary	12
Contemporary	12
▁suspensions	12
▁commentator	12
▁Specialists	12
▁blueberries	12
▁desperation	12
▁Conditional	12
▁reconstruct	12
▁broadcaster	12
▁Advancement	12
translations	12
▁Formulation	12
▁Motorcycles	12
▁resistivity	12
PagerAdapter	12
▁Diagnostics	12
▁aerodynamic	12
intermediate	12
▁attribution	12
▁Qualitative	12
▁centrifugal	12
▁documenting	12
▁Protestants	12
▁complements	12
▁serializers	12
▁expeditions	12
Acceleration	12
▁Elimination	12
▁Guadalajara	12
ViewFeatures	12
▁sightseeing	12
▁foreclosure	12
BooleanField	12
▁intercambio	12
▁irreducible	12
▁apprehended	12
▁prohibiting	12
▁consecrated	12
capabilities	12
▁anonymously	12
▁Kickstarter	12
▁stipulation	12
▁Descriptive	12
▁Attractions	12
▁sensibility	12
Departamento	12
▁subtracting	12
▁councillors	12
▁cellpadding	12
InBackground	12
Respectfully	12
▁conductance	12
▁Initializes	12
MenuInflater	12
▁Credentials	12
▁campaigning	12
optimization	12
▁Battlefield	12
Reproductive	12
▁predeceased	12
▁interceptor	12
▁hostilities	12
▁superfluous	12
▁Imagination	12
▁Convergence	12
▁endeavoured	12
▁Fabrication	12
▁Fundraising	12
environments	12
▁auriculares	12
▁disregarded	12
▁locomotives	12
▁Geophysical	12
acceleration	12
▁Approximate	12
▁unification	12
▁quotidienne	12
▁tributaries	12
▁Determining	12
▁provocative	12
▁Coordinates	12
Intelligence	12
▁dangerously	12
▁Assumptions	12
▁incarnation	12
▁TextEditing	12
▁symptomatic	12
▁embellished	12
SafeAreaView	12
▁Introducing	12
▁Precautions	12
▁abbreviated	12
Alternatives	12
▁graphically	12
▁Initiatives	12
▁counterfeit	12
▁overheating	12
▁Essentially	12
▁remediation	12
Deserializer	12
▁Predictions	12
▁transcribed	12
▁embodiments	12
▁nourishment	12
interactions	12
▁MotionEvent	12
▁Accessoires	12
LocalStorage	12
▁Appalachian	12
▁Maintaining	12
▁topographic	12
▁disruptions	12
▁supernatant	12
Declarations	12
▁Kementerian	12
▁Pleistocene	12
▁prejudicial	12
▁repetitions	12
▁transistors	12
▁handcrafted	12
▁responsibly	12
▁intolerable	12
▁undersigned	12
▁elaboration	12
▁slaughtered	12
▁Lamborghini	12
▁millimeters	12
▁intercepted	12
▁overflowing	12
▁financement	12
▁Supplements	12
▁transformar	12
conventional	12
▁Generalized	12
Photographer	12
▁singularity	12
▁equivalente	12
▁PREPARATION	12
▁appreciates	12
DoubleQuotes	12
contributors	12
▁Illuminated	12
▁prescribing	12
▁considerada	12
▁disparities	12
▁communiquez	12
▁distracting	12
▁Marlborough	12
▁representan	12
▁Conventions	12
▁tradisional	12
URIComponent	12
▁archaeology	12
▁accountants	12
▁infertility	12
▁Termination	12
ResponseType	12
▁stewardship	12
Announcement	12
▁supposition	12
▁associative	12
▁temptations	12
▁reclamation	12
▁captivating	12
▁aquaculture	12
▁instantiate	12
▁electrician	12
▁distortions	12
▁Designation	12
accumulative	12
▁Consistency	12
▁vectorielle	12
Reproduction	12
Substituting	12
▁disclosures	12
▁aristocracy	12
▁MAINTENANCE	12
▁Specialized	12
▁Reclamation	12
▁Controlling	12
▁intoxicated	12
▁Bournemouth	12
▁Demographic	12
▁simplifying	12
▁antidepress	12
▁supervising	12
▁Simulations	12
▁cornerstone	12
▁selfishness	12
▁Accelerator	12
▁Psychiatric	12
▁JOptionPane	12
▁caracteriza	12
▁Congressman	12
▁representar	12
Shutterstock	12
▁Experienced	12
▁pregnancies	12
▁deliverance	12
▁translators	12
Interactions	12
▁prematurely	12
observations	12
▁hydrophobic	12
instancetype	12
▁superintend	12
▁retardation	12
▁stabilizing	12
▁ICollection	12
▁transfusion	12
▁firefighter	12
▁promulgated	12
▁compatibles	12
▁Scandinavia	12
▁Instantiate	12
▁confiscated	12
▁Provisional	12
▁treacherous	12
▁Evangelical	12
▁vectorstock	12
▁Ventilation	12
▁punishments	12
▁Counselling	12
▁Nutritional	12
cancellation	12
▁formulating	12
▁charismatic	12
measurements	12
▁prosecuting	12
VisualStudio	12
▁livelihoods	12
▁devastation	12
▁accumulator	12
▁tentatively	12
▁infographic	12
Transparency	12
▁Gainesville	12
▁thicknesses	12
▁complemento	12
▁Derivatives	12
AutoComplete	12
▁Scarborough	12
Independence	12
▁Catholicism	12
▁kitchenette	12
▁Contributor	12
▁unprotected	12
neighborhood	12
▁Deserialize	12
▁Bartholomew	12
Translations	12
▁Promotional	12
▁WooCommerce	12
Reservations	12
▁Controllers	12
▁capitalists	12
subequations	12
Testimonials	12
▁playthrough	12
transformers	12
▁culmination	12
▁notoriously	12
NOTIFICATION	12
StateMachine	12
accumulation	12
▁centerpiece	12
Associations	12
▁coagulation	12
▁memberships	12
DoesNotExist	12
▁approbation	12
▁countertops	12
▁aggregating	12
▁blockbuster	12
▁unqualified	12
▁behandeling	12
agricultural	12
▁commutative	12
▁fluctuating	12
commodations	12
▁Conservancy	12
PDOException	12
▁intensifies	12
▁concomitant	12
▁irregularly	12
▁suppressing	12
▁Positioning	12
▁recursively	12
▁secretaries	12
SceneManager	12
▁contradicts	12
▁classifying	12
▁miscarriage	12
▁Profesional	12
▁Compilation	12
differential	12
▁Forecasting	12
Certificates	12
▁compromises	12
▁FormBuilder	12
▁painstaking	12
▁deteriorate	12
▁girlfriends	12
▁evangelical	12
ServerSocket	12
▁CERTIFICATE	12
▁deployments	12
RegistryLite	12
▁unsaturated	12
▁Resolutions	12
ApiException	12
▁householder	12
▁holographic	12
generational	12
▁PrintWriter	12
▁momentarily	12
▁phosphatase	12
Occupational	12
▁delinquency	12
▁bestselling	12
▁minimalista	12
▁fortfarande	12
▁raspberries	12
▁cytoplasmic	12
▁Exceptional	12
▁biographies	12
▁disillusion	12
▁experimenta	12
▁perpetually	12
Appointments	12
▁exacerbated	12
▁torchvision	12
▁intimidated	12
▁contentious	12
▁Livingstone	12
▁philanthrop	12
▁Prohibition	12
▁scalability	12
▁marshmallow	12
▁monasteries	12
▁tranquility	12
▁distressing	12
▁portability	12
▁Impressions	12
▁distributes	12
▁erroneously	12
▁condominium	12
▁Nightingale	12
erialization	12
▁adversaries	12
▁rationality	12
▁disapproval	12
▁menimbulkan	12
▁linguistics	12
▁commandment	12
▁adventurers	12
▁walkthrough	12
footnotesize	12
▁situational	12
▁reformation	12
Interpolator	12
▁Gastroenter	12
▁perceptible	12
▁COMPOSITION	12
▁Grandfather	12
DataSnapshot	12
▁sufficiency	12
▁Subdivision	12
▁homogeneity	12
▁criticizing	12
▁watercolour	12
▁provocation	12
modification	12
▁comprennent	12
▁Vaccination	12
EmailAddress	12
▁emplacement	12
▁scaffolding	12
▁insecticide	12
culoskeletal	12
▁Accountants	12
▁effectually	12
▁intertwined	12
contribution	12
Incompatible	12
RequestQueue	12
▁PUBLICATION	12
▁Demonstrate	12
▁Ministerial	12
▁recognising	12
▁implementar	12
▁instinctive	12
▁industrious	12
▁keselamatan	12
▁collectible	12
▁Generations	12
▁configuring	12
▁culminating	12
▁Nationality	12
shutterstock	12
▁internships	12
▁Empowerment	12
▁empirically	12
▁Professions	12
▁reproducing	12
▁champignons	12
Abbreviation	12
▁nucleotides	12
▁parenthesis	12
▁Informatics	12
▁hardworking	12
▁preposition	12
▁Merchandise	12
▁reassurance	12
▁indentation	12
▁Secretaries	12
▁observatory	12
▁discontinue	12
▁colonialism	12
▁Affiliation	12
▁Replication	12
▁bombardment	12
CancelButton	12
▁initializer	12
▁accelerates	12
▁checkpoints	12
▁Biochemical	12
QueryBuilder	12
▁Communicate	12
▁chairperson	12
OrWhiteSpace	12
▁sublimation	12
▁contentment	12
Disconnected	12
AddComponent	12
▁Terminology	12
▁Magistrates	12
ShoppingCart	12
▁prerogative	12
▁disseminate	12
▁pertinentes	12
▁Participate	12
Commissioner	12
▁Screenshots	12
▁commerciaux	12
▁matchmaking	12
▁woodworking	12
▁Caterpillar	12
APPLICATIONS	12
▁Petitioners	12
augmentation	12
▁overpowered	12
Expectations	12
▁entertainer	12
▁atmospheres	12
▁pedagogical	12
DrawerLayout	12
ValueChanged	12
▁Restriction	12
Compensation	12
▁objectivity	12
▁propagating	12
▁UnityEditor	12
▁deportation	12
▁undeveloped	12
▁unstoppable	12
▁Pythagorean	12
▁Thunderbolt	12
▁structuring	12
▁capitalized	12
▁cucharadita	12
▁reciprocity	12
▁obligatorio	12
▁Possibility	12
▁superheroes	12
Instrumental	12
▁chronograph	12
▁commendable	12
▁Exhibitions	12
▁masculinity	12
▁archipelago	12
▁parallelism	12
displacement	12
Technologies	12
▁antagonists	12
▁Transitions	12
▁Westchester	12
▁disassemble	12
▁Arabidopsis	12
▁Elizabethan	12
▁depressions	12
▁Herzegovina	12
SqlParameter	12
StreamWriter	12
ToggleButton	12
▁Distributor	12
Constitution	12
connectivity	12
▁housekeeper	12
▁preoccupied	12
▁rudimentary	12
specifically	12
Transformers	12
▁playgrounds	12
▁resistances	12
▁Playstation	12
▁CommandType	12
▁vibrational	12
▁accessibles	12
▁Grandmother	12
▁readability	12
▁undermining	12
compromising	12
▁Cholesterol	12
NotSupported	12
▁nonexistent	12
▁upholstered	12
▁defensively	12
▁Degradation	12
▁Manuscripts	12
▁abnormality	12
▁estimations	12
▁undisclosed	12
▁Integrating	12
▁requisition	12
▁synchronize	12
DebuggerStep	12
▁Medications	12
▁Feasibility	12
▁Decorations	12
▁universelle	12
▁bookkeeping	12
▁Submissions	12
▁Tallahassee	12
▁misfortunes	12
▁EXAMINATION	12
▁familiarize	12
▁intuitively	12
▁UserProfile	12
▁patriarchal	12
▁Exponential	12
▁Kooperation	12
▁Meteorology	12
▁sacrificial	12
▁testimonial	12
Autocomplete	12
▁serviceable	12
▁Mindfulness	12
ynchronously	12
▁confessions	12
▁DECLARATION	12
▁deactivated	12
▁prestations	12
▁Mecklenburg	12
▁disarmament	12
▁Inspections	12
▁unambiguous	12
Authenticate	12
▁coexistence	12
independence	12
▁refrigerant	12
▁humiliating	12
Conventional	12
▁Inquisition	12
▁matrimonial	12
▁sweatshirts	12
REGISTRATION	12
▁constituyen	12
▁Worthington	12
▁assemblages	12
▁appreciably	12
▁pharmacists	12
conductivity	12
▁reactionary	12
StateManager	12
▁peculiarity	12
▁Aquaculture	12
▁Uttarakhand	12
apimachinery	12
▁METHODOLOGY	12
▁anticipates	12
▁compressors	12
▁obstructive	12
HTTPResponse	12
▁Journalists	12
QApplication	12
▁Consultancy	12
▁overcrowded	12
▁bloodstream	12
▁organically	12
▁oscillating	12
▁refreshment	12
▁Progression	12
▁partitioned	12
BaseActivity	12
▁hippocampus	12
MessageState	12
▁Cultivation	12
▁prospecting	12
▁restructure	12
▁Tetrahedron	12
NewUrlParser	12
▁Calculating	12
▁retribution	12
▁instructing	12
RestTemplate	12
▁projectiles	12
▁variational	12
▁Christendom	12
ActiveRecord	12
▁forefathers	12
▁prostitutes	12
▁Premiership	12
▁recomendada	12
▁appartenant	12
▁resurrected	12
▁cultivators	12
RefreshToken	12
▁millennials	12
▁overarching	12
▁impairments	12
▁delegations	12
appointments	12
▁capillaries	12
Conservative	12
▁hypertrophy	12
▁Projections	12
▁circulatory	12
▁Multiplayer	12
▁INGREDIENTS	12
▁perpetrated	12
▁convulsions	12
▁heartbroken	12
▁testimonies	12
▁Recognizing	12
descriptions	12
▁identically	12
▁restorative	12
▁Technically	12
▁leaderboard	12
▁assimilated	12
▁Dimensional	12
PropertyType	12
▁consignment	12
Affiliations	12
announcement	12
▁Convolution	12
▁Lewandowski	12
▁sustainably	12
▁Settlements	12
Distinctions	12
▁skyscrapers	12
▁dismantling	12
▁Rectangular	12
▁memorabilia	12
▁perforation	12
▁Bakersfield	12
▁Entreprises	12
Dissertation	12
conservation	12
▁underscores	12
▁multipliers	12
▁frantically	12
Displacement	12
▁intensively	12
INGREDIENTES	12
▁metamorphic	12
▁democracies	12
representing	12
▁transplants	12
▁inferiority	12
▁Butterworth	12
▁UserDetails	12
AuthProvider	12
▁regressions	12
▁Bridgewater	12
▁subtropical	12
inflammation	12
▁gravitation	12
▁calculators	12
▁vertebrates	12
▁photographe	12
intelligible	12
▁brightening	12
▁Penetration	12
ResourceType	12
▁gestational	12
conservative	12
Prescription	12
▁materialism	12
▁prototyping	12
▁Thunderbird	12
EventEmitter	12
▁classifiers	12
▁cranberries	12
▁Celebrities	12
▁geophysical	12
▁expositions	12
▁accumulates	12
▁Antiquities	12
▁unwarranted	12
▁Newsletters	12
▁mercenaries	12
quantitative	12
▁Practically	12
▁Convertible	12
▁pollination	12
▁separations	12
CategoryName	12
▁recoverable	12
▁perpetrator	12
▁pretentious	12
▁MongoClient	12
▁extradition	12
▁bifurcation	12
▁resistentes	12
▁Stewardship	12
▁transportar	12
▁Aggregation	12
▁Attachments	12
ysaccharides	12
DialogResult	12
▁Inscription	12
▁Controversy	12
▁impatiently	12
▁summarizing	12
OrderService	12
▁REGULATIONS	12
▁dealerships	12
▁retractable	12
▁impregnated	12
▁Oxfordshire	12
▁metaphysics	12
▁centrifuged	12
▁preventable	12
▁understated	12
▁Variability	12
Implementing	12
▁FormsModule	12
▁fellowships	12
FieldBuilder	12
KeyValuePair	12
Thanksgiving	12
▁deleterious	12
▁obliterated	12
Calculations	12
▁Radioactive	12
Instrumented	12
Improvements	12
Initializing	12
▁prioritized	12
DropDownList	12
▁stethoscope	12
Substitution	12
▁Archipelago	12
▁Ambassadors	12
▁Magnificent	12
▁AstraZeneca	12
▁Landscaping	12
▁ProgressBar	12
ProcessEvent	12
▁Adjustments	12
combinations	12
▁hairdresser	12
▁religiously	12
▁contentions	12
▁Lepidoptera	12
▁ApiResponse	12
Consequences	12
▁peripherals	12
▁worshippers	12
StreamReader	12
▁Frankfurter	12
▁shenanigans	12
▁unsolicited	12
▁TableColumn	12
considerable	12
EventManager	12
▁breadcrumbs	12
▁Biosciences	12
▁solicitudes	12
▁nonnegative	12
AudioManager	12
▁associating	12
▁Springsteen	12
MemoryStream	12
▁Nationalism	12
▁Preparatory	12
prescription	12
▁fragmentary	12
▁hydrostatic	12
VideoCapture	12
▁irreparable	12
▁appellation	12
▁proactively	12
▁pleasurable	12
▁Supermarket	12
FirebaseUser	12
▁speedometer	12
WriteBarrier	12
Continuation	12
▁kepercayaan	12
▁expectativa	12
▁hierarchies	12
InitialState	12
▁crossorigin	12
▁pretensions	12
▁formalities	12
Cryptography	12
▁prophylaxis	12
▁Evaluations	12
▁integrative	12
▁warehousing	12
▁drunkenness	12
▁Heavyweight	12
▁rescheduled	12
▁Nationalist	12
▁shortlisted	12
▁TripAdvisor	12
▁Subscribers	12
▁overwritten	12
▁transfected	12
▁Confederacy	12
▁Transmitter	12
▁Nickelodeon	12
▁dilapidated	12
reservations	12
bootstrapcdn	12
▁songwriting	12
▁interpolate	12
institutions	12
▁Investigate	12
▁proclaiming	12
▁Remembering	12
▁Negotiating	12
▁concurrency	12
▁altercation	12
▁bureaucrats	12
▁meritorious	12
▁considerato	12
▁imperialist	12
▁Negotiation	12
▁Liabilities	12
▁Implemented	12
▁considerare	12
Perspectives	12
ChromeDriver	12
▁MEASUREMENT	12
SplashScreen	12
Christianity	12
▁Terrestrial	12
▁disciplinas	12
▁MediaPlayer	12
compensation	12
▁ADVERTISING	12
▁Prospective	12
▁reorganized	12
▁competitivo	12
Purification	12
▁cardinality	12
continuation	12
▁Commodities	12
commissioned	12
▁Appearances	12
SharedModule	12
▁depositions	12
▁confounding	12
▁Concentrate	12
▁DEFINITIONS	12
SerialNumber	12
▁TRANSACTION	12
ResponseData	12
Satisfaction	12
toJSONString	12
Commonwealth	12
icestershire	12
▁consumables	12
▁officinalis	12
▁Dermatology	12
▁remittances	12
▁geolocation	12
▁diagnostica	12
▁bridesmaids	12
▁dignitaries	12
▁complacency	12
ResponseCode	12
▁Nominations	12
▁Occupations	12
▁Importantly	12
▁Kirkpatrick	12
▁explication	12
▁holomorphic	12
▁Interchange	12
▁Accelerated	12
▁Leaderboard	12
▁FixedUpdate	12
▁Mathematica	12
Segmentation	12
▁permanentes	12
▁Thermometer	12
▁beantworten	12
▁Diffraction	12
▁replaceable	12
▁commutation	12
Personalized	12
▁neutrophils	12
▁participado	12
▁pressurized	12
▁furtherance	12
▁MATHEMATICS	12
▁abomination	12
▁disgraceful	12
▁PROCEEDINGS	12
▁wildflowers	12
▁observables	12
▁Erwachsenen	12
▁chronically	12
▁Obligations	12
▁experimento	12
▁earnestness	12
▁Effectively	12
▁experimente	12
JRadioButton	12
▁encompassed	12
▁lamborghini	12
▁Californian	12
▁Motorsports	12
▁posteriorly	12
▁accentuated	12
Epidemiology	12
contaminated	12
▁pathologies	12
▁FontAwesome	12
▁Spreadsheet	12
▁discography	12
▁imperfectly	12
▁exquisitely	12
▁manifesting	12
Configurable	12
MouseAdapter	12
▁Competitors	12
▁transducers	12
▁mechanistic	12
ExternalTask	12
UNIDENTIFIED	12
▁JScrollPane	12
▁vegetarians	12
▁unspeakable	12
RenderTarget	12
associations	12
disconnected	12
▁Collingwood	12
▁delineation	12
▁resourceful	12
expectations	12
▁gastroenter	12
▁Constructed	12
▁specialises	12
▁Stakeholder	12
▁algorithmic	12
transparency	12
▁Butterflies	12
▁Supervisory	12
chromedriver	12
LastModified	12
Transcriptie	12
▁meditations	12
▁conscientes	12
▁materialize	12
▁philosophic	12
degenerative	12
NamedQueries	12
▁prohibitive	12
Manufactured	12
Productivity	12
theoremstyle	12
▁Prosecution	12
▁Challenging	12
ColumnHeader	12
Fluorescence	12
▁UserManager	12
▁Substantial	12
▁Confessions	12
Metropolitan	12
▁devaluation	12
▁Referential	12
▁evidentiary	12
▁reparations	12
Interstitial	12
▁Mississauga	12
▁psychologie	12
▁underserved	12
▁Spectacular	12
▁incessantly	12
certificates	12
▁Psychologie	12
▁loudspeaker	12
▁subsections	12
▁Containment	12
▁hyperplasia	12
DBConnection	12
▁quarantined	12
▁Deformation	12
Presidential	12
▁Subtraction	12
▁connotation	12
preservation	12
▁Celebrating	12
▁designating	12
▁Distinction	12
▁Specialties	12
▁underscored	12
Surprisingly	12
▁televisions	12
satisfaction	12
▁efficacious	12
▁illuminates	12
▁electrified	12
▁footballers	12
DrawerToggle	12
▁attentively	12
▁rearranging	12
▁socializing	12
unrecognized	12
▁Indications	12
▁periodicity	12
▁Remediation	12
▁initializes	12
▁Frequencies	12
▁Trafficking	12
▁contactless	12
▁Conversions	12
entification	12
getJSONArray	12
backtracking	12
▁fingernails	12
Championship	12
▁synergistic	12
▁ALTERNATIVE	12
▁hummingbird	12
▁aberrations	12
▁administers	12
▁redirection	12
▁consectetur	12
▁overloading	12
▁republicans	12
▁declarative	12
▁inquisitive	12
▁lengthening	12
▁standardize	12
▁libertarian	12
▁Forgiveness	12
interceptors	12
▁conformance	12
▁immobilized	12
StringWriter	12
▁Millennials	12
▁adversarial	12
▁financieras	12
▁advertencia	12
▁backpacking	12
MILLISECONDS	12
Performances	12
▁Sponsorship	12
BeforeMethod	12
▁Dysfunction	12
▁speculating	12
manufactured	12
▁nothingness	12
▁contraintes	12
Hierarchical	12
interference	12
▁grasshopper	12
▁conjectures	12
▁validations	12
▁disassembly	12
▁greenhouses	12
PostInfinity	12
▁Fingerprint	12
Headquarters	12
▁disapproved	12
▁EXPLANATION	12
▁presentarse	12
▁Enumeration	12
▁neutralized	12
restrictions	12
▁synthesizer	12
▁cinematogra	12
▁philippines	12
▁unsatisfied	12
▁hydrophilic	12
▁Laboratorio	12
▁retroactive	12
▁Philosopher	12
▁alternation	12
▁Technicians	12
▁outnumbered	12
▁Perceptions	12
▁irrevocable	12
▁worshipping	12
▁equilateral	12
▁customizing	12
▁spontaneity	12
WarningLevel	12
▁Periodicals	12
▁gallbladder	12
▁OPPORTUNITY	12
▁intercooler	12
▁unwittingly	12
Geographical	12
photographer	12
▁Abstraction	12
▁conceivably	12
▁demarcation	12
▁Discovering	12
ListActivity	12
Coordination	12
▁mutagenesis	12
▁Highlanders	12
▁aggravating	12
▁complementa	12
administered	12
▁congressman	12
▁anaesthesia	12
▁antiquities	12
▁Scientology	12
▁Fellowships	12
▁lentejuelas	12
▁cockroaches	12
▁orthodontic	12
▁bereavement	12
Establishing	12
▁exportation	12
▁highlighter	12
▁concentrado	12
▁vinaigrette	12
▁Antibiotics	12
▁indigestion	12
▁infuriating	12
segmentation	12
▁denominated	12
▁CascadeType	12
▁calorimeter	12
romechanical	12
ARCHITECTURE	12
▁reflexionar	12
▁presupposes	12
▁GameManager	12
▁Evaporation	12
▁GoogleFonts	12
▁MessageType	12
▁regrettable	12
▁Proprietary	12
▁AdapterView	12
▁pathologist	12
TimeInterval	12
▁Sightseeing	12
▁Glastonbury	12
▁Walkthrough	12
▁excellently	12
▁Witherspoon	12
▁RadioButton	12
▁Outsourcing	12
▁Synchronous	12
▁Handicapped	12
▁perpetuated	12
▁collapsible	12
▁diffusivity	12
CornerRadius	12
▁superpowers	12
alternatives	12
▁endangering	12
▁maneuvering	12
transmitters	12
▁StringField	12
ModelBuilder	12
▁habitations	12
▁commerciali	12
▁infiltrated	12
▁coordenadas	12
▁hemispheres	12
▁disparition	12
IntentFilter	12
Multivariate	12
ORGANIZATION	12
▁Earthquakes	12
▁Respiration	12
▁Spontaneous	12
VertexBuffer	12
▁refrigerate	12
▁COMPETITION	12
▁concatenate	12
▁Contingency	12
Synchronized	12
▁subsequence	12
▁wheelchairs	12
▁exasperated	12
▁Integrative	12
▁cheerleader	12
▁TRANSLATION	12
▁culturelles	12
▁endometrial	12
▁geochemical	12
OrderDetails	12
▁reinstalled	12
Confidential	12
REQUIREMENTS	12
▁Baillargeon	12
▁Deuteronomy	12
▁Inhabitants	12
▁offensively	12
Destinations	12
▁activations	12
▁prostagland	12
▁AppDelegate	12
▁candlestick	12
entrepreneur	12
▁freelancers	12
mathematical	12
▁allegorical	12
▁hibernation	12
Historically	12
▁Precambrian	12
LoadBalancer	12
▁Workstation	12
▁Prehistoric	12
▁dumbfounded	12
▁tachycardia	12
▁embarazadas	12
▁polymorphic	12
Unemployment	12
▁substandard	12
▁thunderbolt	12
Jacksonville	12
Manipulation	12
▁Particulars	12
▁annihilated	12
▁Beautifully	12
▁chandeliers	12
▁salespeople	12
▁unconnected	12
calculations	12
establishing	12
▁Borderlands	12
▁percolation	12
▁thoughtless	12
Accomplished	12
CacheManager	12
BaseResponse	12
▁negotiators	12
▁Fluorescent	12
abbreviation	12
▁Inventories	12
ILLUSTRATION	12
▁spearheaded	12
FunctionName	12
RegisterType	12
▁receptacles	12
▁unknowingly	12
▁celebratory	12
Mutagenicity	12
▁surfactants	12
▁mesmerizing	12
▁alleviation	12
▁Behavioural	12
▁overhanging	12
destinations	12
▁consciences	12
▁Seventeenth	12
▁Instability	12
SearchParams	12
▁declaratory	12
▁tribulation	12
▁discounting	12
Unmarshaller	12
Biographical	12
ographically	12
▁buttercream	12
▁obstructing	12
▁criminality	12
▁Butterfield	12
▁Expectation	12
ImageContext	12
RelativePath	12
▁preexisting	12
▁trespassing	12
▁PopupWindow	12
▁apologizing	12
▁angiography	12
▁Aspergillus	12
▁attestation	12
▁AudioSource	12
▁Silverstone	12
▁sociologist	12
▁attainments	12
▁visualizing	12
productivity	12
▁Transporter	12
▁hypotension	12
▁compatriots	12
▁republished	12
GEBURTSDATUM	12
▁ambiguities	12
▁ImageButton	12
bouncycastle	12
▁foolishness	12
▁Cauliflower	12
▁centralised	12
▁disgruntled	12
▁ferrocarril	12
▁apportioned	12
▁generalised	12
▁suplementos	12
▁Directional	12
SneakyThrows	12
▁refinancing	12
▁pronouncing	12
▁LIMITATIONS	12
▁compactness	12
▁DisplayPort	12
Occasionally	12
▁condividere	12
▁excitations	12
▁intractable	12
FunctionType	12
▁reputations	12
ThemeOverlay	12
▁intersected	12
▁disesuaikan	12
▁unsurpassed	12
▁infractions	12
▁undervalued	12
▁processions	12
▁Interceptor	12
▁Affirmative	12
▁physiologic	12
PrivateRoute	12
▁Motherboard	12
▁deliciously	12
▁exhortation	12
▁unrelenting	12
▁IMPROVEMENT	12
▁Responsable	12
▁uninstalled	12
[toxicity=0]	12
▁University	11
▁experience	11
▁understand	11
Description	11
▁particular	11
▁individual	11
▁background	11
▁government	11
▁conditions	11
▁everything	11
▁production	11
▁management	11
translation	11
▁Department	11
▁especially	11
▁collection	11
▁considered	11
▁activities	11
▁themselves	11
▁difference	11
▁additional	11
▁California	11
▁technology	11
description	11
▁Government	11
▁connection	11
▁correspond	11
▁expression	11
▁throughout	11
▁Commission	11
▁protection	11
▁properties	11
Collections	11
▁Washington	11
▁associated	11
▁Management	11
▁completely	11
Application	11
▁definitely	11
▁characters	11
▁increasing	11
▁interested	11
▁determined	11
▁successful	11
▁operations	11
▁commercial	11
▁discussion	11
▁components	11
▁importance	11
▁restaurant	11
▁investment	11
▁industrial	11
application	11
▁facilities	11
▁department	11
placeholder	11
▁Technology	11
▁previously	11
▁definition	11
▁Foundation	11
▁generation	11
▁processing	11
Transaction	11
▁techniques	11
▁identified	11
▁containing	11
▁photograph	11
▁appearance	11
▁experiment	11
▁resistance	11
▁assistance	11
▁absolutely	11
▁introduced	11
▁commission	11
▁implements	11
▁developing	11
Conclusions	11
▁assessment	11
▁comparison	11
▁impossible	11
▁applicable	11
▁instrument	11
▁Conference	11
▁relatively	11
▁resolution	11
▁conference	11
▁calculated	11
▁businesses	11
▁transition	11
▁percentage	11
▁originally	11
▁confidence	11
▁scientific	11
▁efficiency	11
▁structures	11
▁reasonable	11
▁employment	11
▁frequently	11
▁literature	11
▁procedures	11
▁UNIVERSITY	11
▁principles	11
fortunately	11
▁represents	11
vailability	11
▁leadership	11
▁equivalent	11
▁Collection	11
▁evaluation	11
▁permission	11
▁eventually	11
▁university	11
▁discovered	11
▁historical	11
▁statements	11
multicolumn	11
▁screenshot	11
▁atmosphere	11
persistence	11
▁appreciate	11
▁conclusion	11
▁controller	11
resentation	11
Information	11
▁consistent	11
▁continuous	11
▁registered	11
▁monitoring	11
▁proportion	11
▁categories	11
▁concerning	11
▁recognized	11
▁understood	11
▁Australian	11
▁continuing	11
▁difficulty	11
▁provisions	11
▁controlled	11
▁situations	11
▁Protection	11
InputStream	11
▁supporting	11
▁apparently	11
Environment	11
▁statistics	11
▁foundation	11
▁maintained	11
▁revolution	11
▁television	11
▁functional	11
▁electronic	11
▁attributes	11
▁constantly	11
▁instanceof	11
▁horizontal	11
▁accordance	11
tifications	11
▁electrical	11
▁directions	11
▁commitment	11
▁mechanical	11
▁Discussion	11
▁contribute	11
▁objectives	11
▁industries	11
▁subsequent	11
▁everywhere	11
▁approaches	11
▁completion	11
▁personally	11
▁integrated	11
▁impression	11
▁laboratory	11
▁conversion	11
▁Industrial	11
information	11
▁possession	11
▁Parliament	11
▁references	11
▁candidates	11
▁strengthen	11
▁guidelines	11
▁advantages	11
▁artificial	11
▁Properties	11
▁membership	11
▁opposition	11
▁accessible	11
▁incredible	11
▁Illuminate	11
▁navigation	11
▁regulation	11
▁Experience	11
▁engagement	11
▁attractive	11
▁supplement	11
▁structural	11
▁compliance	11
▁Laboratory	11
transaction	11
▁performing	11
▁differenti	11
▁Statistics	11
▁settlement	11
▁Assessment	11
▁vegetables	11
▁accomplish	11
▁philosophy	11
▁innovation	11
▁respective	11
▁inspection	11
▁compatible	11
▁surprising	11
▁simulation	11
▁impressive	11
▁smartphone	11
▁Conditions	11
▁depression	11
▁NAVIGATION	11
▁ultimately	11
▁validation	11
▁extraordin	11
▁Controller	11
▁perception	11
Ingredients	11
▁reputation	11
dimensional	11
▁innovative	11
▁Revolution	11
▁variations	11
▁basketball	11
▁underlying	11
Statistical	11
▁protective	11
▁thoroughly	11
▁afterwards	11
▁exhibition	11
▁treatments	11
▁separation	11
▁biological	11
▁scientists	11
▁encouraged	11
▁acceptable	11
▁classified	11
▁tournament	11
▁remembered	11
▁suggestion	11
▁mechanisms	11
▁authorized	11
▁initiative	11
▁remarkable	11
▁assignment	11
▁colleagues	11
▁enterprise	11
▁unexpected	11
▁surrounded	11
▁activation	11
▁retirement	11
▁Additional	11
▁complement	11
lementation	11
▁suspension	11
▁affordable	11
▁Evaluation	11
▁healthcare	11
annotations	11
▁reflection	11
▁quantities	11
▁JavaScript	11
▁Convention	11
▁AliExpress	11
▁Everything	11
▁assumption	11
▁boundaries	11
▁initialize	11
▁diagnostic	11
▁administer	11
Diagnostics	11
▁designated	11
▁substances	11
▁newsletter	11
▁separately	11
▁collective	11
▁accounting	11
▁prevention	11
▁Connection	11
▁Restaurant	11
▁restricted	11
▁References	11
▁correction	11
▁connecting	11
▁Scientific	11
▁attachment	11
▁Commercial	11
▁highlights	11
▁Parameters	11
▁consisting	11
▁Publishing	11
▁indicating	11
▁conception	11
▁acceptance	11
▁discipline	11
▁convention	11
▁wallpapers	11
▁Population	11
▁hypothesis	11
▁complexity	11
environment	11
▁complaints	11
▁prediction	11
Acknowledge	11
▁friendship	11
▁decoration	11
▁interviews	11
▁specialist	11
▁Republican	11
▁Operations	11
▁passengers	11
▁Background	11
▁Generation	11
▁attendance	11
▁Democratic	11
▁dictionary	11
▁preference	11
▁absorption	11
▁Individual	11
▁celebrated	11
▁regulatory	11
▁beneficial	11
Controllers	11
▁influenced	11
▁Comparison	11
▁repository	11
▁officially	11
▁coordinate	11
breviations	11
▁regression	11
Performance	11
▁developers	11
▁curriculum	11
▁incredibly	11
▁extraction	11
Constraints	11
▁Christians	11
▁agreements	11
▁guaranteed	11
▁Historical	11
▁Initialize	11
▁struggling	11
▁Activities	11
▁submission	11
▁purchasing	11
▁phenomenon	11
▁motivation	11
▁Conclusion	11
▁Investment	11
▁Literature	11
▁productive	11
▁containers	11
▁capability	11
▁elementary	11
▁Federation	11
▁volunteers	11
▁infections	11
Preferences	11
▁physically	11
▁prescribed	11
▁exceptions	11
▁Processing	11
▁obligation	11
▁manuscript	11
▁conviction	11
▁aggressive	11
▁parliament	11
▁threatened	11
▁medication	11
▁Definition	11
ratulations	11
▁comparable	11
▁collecting	11
▁corruption	11
▁algorithms	11
▁occurrence	11
▁translated	11
▁substitute	11
▁constitute	11
▁meaningful	11
ActionEvent	11
▁completing	11
▁describing	11
Recommended	11
▁punishment	11
▁occupation	11
▁indication	11
▁invitation	11
▁defendants	11
▁discretion	11
▁projection	11
▁reasonably	11
▁travelling	11
▁Monitoring	11
▁approached	11
▁representa	11
▁vegetation	11
▁altogether	11
▁moderators	11
▁girlfriend	11
▁influences	11
Development	11
▁dependence	11
▁Experiment	11
▁supporters	11
▁Psychology	11
▁protecting	11
▁disability	11
▁traditions	11
development	11
▁attributed	11
▁attempting	11
▁identifier	11
▁perfection	11
▁households	11
▁undertaken	11
▁adaptation	11
▁accurately	11
destination	11
▁suggesting	11
▁discussing	11
▁apartments	11
▁EdgeInsets	11
▁migrations	11
▁repeatedly	11
▁systematic	11
▁allocation	11
▁creativity	11
▁Innovation	11
▁extensions	11
▁conducting	11
▁popularity	11
▁generating	11
▁widespread	11
▁Regulation	11
▁Electrical	11
▁isinstance	11
▁delivering	11
▁democratic	11
▁Navigation	11
▁explaining	11
millimeters	11
▁conscience	11
Explanation	11
▁decorative	11
▁Expression	11
▁preventing	11
▁pronounced	11
▁prohibited	11
▁Enterprise	11
▁proceeding	11
▁inequality	11
▁provincial	11
▁psychology	11
▁Leadership	11
▁Employment	11
comfortable	11
performance	11
▁contractor	11
▁addressing	11
▁presenting	11
▁newspapers	11
▁publishing	11
▁passionate	11
▁illustrate	11
▁derivative	11
▁sweatshirt	11
▁analytical	11
▁Industries	11
▁motorcycle	11
temperature	11
▁Pittsburgh	11
▁Principles	11
▁GameObject	11
▁tremendous	11
▁excellence	11
DESCRIPTION	11
▁Dimensions	11
▁Newsletter	11
▁priorities	11
▁inevitable	11
▁mysterious	11
▁irrigation	11
Interesting	11
▁Associated	11
▁Correspond	11
▁Philosophy	11
▁attraction	11
▁installing	11
▁likelihood	11
▁limitation	11
▁recreation	11
▁satisfying	11
Temperature	11
▁metabolism	11
▁occasional	11
▁explicitly	11
▁compassion	11
▁Respondent	11
▁downloaded	11
▁disappoint	11
▁Electronic	11
▁governance	11
▁relaxation	11
▁Elementary	11
▁visibility	11
▁wavelength	11
▁Birmingham	11
▁irritation	11
instruction	11
▁enthusiasm	11
▁profitable	11
▁eliminated	11
▁Prevention	11
▁Instrument	11
▁constraint	11
▁determines	11
▁respondent	11
▁comprising	11
▁withdrawal	11
▁deployment	11
▁conceptual	11
▁persistent	11
▁Mechanical	11
▁simplicity	11
▁transporte	11
▁automation	11
CONCLUSIONS	11
▁compromise	11
▁distribute	11
▁succession	11
▁Resolution	11
Preparation	11
Publication	11
▁recognised	11
▁consultant	11
▁graduation	11
▁Guidelines	11
▁Validation	11
▁meditation	11
▁appliances	11
Instruction	11
▁physicians	11
▁adventures	11
▁consulting	11
▁journalist	11
independent	11
▁Especially	11
▁deposition	11
▁Portuguese	11
▁questioned	11
▁Transcript	11
▁Associates	11
▁committees	11
▁scattering	11
▁successive	11
▁Components	11
▁documented	11
Translation	11
▁deficiency	11
▁underneath	11
▁securities	11
▁responding	11
Declaration	11
▁insulation	11
▁incomplete	11
▁vocabulary	11
▁Objectives	11
constraints	11
▁responsive	11
▁intentions	11
▁prosperity	11
▁Cincinnati	11
▁expressing	11
▁customized	11
classmethod	11
▁Biological	11
Initialized	11
▁Geological	11
▁supportive	11
orientation	11
▁networking	11
▁Facilities	11
▁Simulation	11
▁ecological	11
Permissions	11
▁applicants	11
▁positively	11
▁calculator	11
▁similarity	11
▁Bangladesh	11
▁combustion	11
▁Highlights	11
▁challenged	11
▁violations	11
▁expedition	11
▁evaluating	11
▁decreasing	11
▁thereafter	11
▁structured	11
▁DevExpress	11
▁plaintiffs	11
▁Integrated	11
▁automotive	11
▁propaganda	11
▁polynomial	11
▁promotions	11
▁continuity	11
▁magnifying	11
Credentials	11
▁earthquake	11
▁Publishers	11
▁transplant	11
▁interfaces	11
▁brightness	11
▁playground	11
▁Lieutenant	11
▁DEPARTMENT	11
▁conspiracy	11
▁supervisor	11
▁practicing	11
▁Richardson	11
▁sunglasses	11
▁Montgomery	11
controllers	11
▁immigrants	11
▁Resistance	11
Destination	11
▁configured	11
Certificate	11
▁ValueError	11
▁emphasized	11
▁Television	11
▁Artificial	11
▁headphones	11
▁privileges	11
▁dedication	11
▁Transition	11
atisfaction	11
▁recommends	11
▁incentives	11
▁Accounting	11
collections	11
▁complained	11
▁organizing	11
▁Queensland	11
▁antibodies	11
▁disclosure	11
▁instructed	11
transparent	11
▁Procedures	11
▁politician	11
▁blockchain	11
▁summarized	11
▁Initiative	11
▁concurrent	11
▁durability	11
▁Sacramento	11
▁reproduced	11
▁cumulative	11
▁stationary	11
▁dependency	11
▁companions	11
▁cultivated	11
▁reflecting	11
▁microphone	11
▁Functional	11
▁inhibition	11
APPLICATION	11
▁transcript	11
▁behavioral	11
▁adequately	11
▁Healthcare	11
▁greenhouse	11
▁mainstream	11
▁compressed	11
▁Specialist	11
▁negligence	11
▁commentary	11
Association	11
▁correlated	11
▁Providence	11
▁microscope	11
Annotations	11
▁simplified	11
Orientation	11
▁peripheral	11
▁stretching	11
▁guarantees	11
▁normalized	11
▁executives	11
▁neighbours	11
▁suspicious	11
▁delightful	11
▁Difference	11
▁prevalence	11
erequisites	11
▁nationwide	11
▁Structural	11
▁amendments	11
▁researcher	11
▁subjective	11
▁compelling	11
▁Consulting	11
integration	11
▁participar	11
composition	11
atification	11
RadioButton	11
▁petitioner	11
▁litigation	11
▁wilderness	11
▁Depression	11
▁counseling	11
▁kilometers	11
▁Exhibition	11
ServiceImpl	11
Interaction	11
▁Ambassador	11
Measurement	11
▁convincing	11
▁frustrated	11
▁noticeable	11
▁geographic	11
▁reinforced	11
▁watercolor	11
DisplayName	11
Limitations	11
commodation	11
VERTISEMENT	11
▁Inspection	11
precedented	11
▁Membership	11
▁presumably	11
▁refreshing	11
▁nomination	11
Composition	11
▁downstream	11
▁displaying	11
▁scheduling	11
▁landscapes	11
▁recipients	11
▁sequencing	11
▁Recreation	11
▁recordings	11
▁Engagement	11
▁Efficiency	11
AlertDialog	11
▁Wellington	11
▁terminated	11
▁Basketball	11
▁contention	11
▁vaccinated	11
▁CONCLUSION	11
▁acquainted	11
▁signatures	11
VisualStyle	11
▁underwater	11
credentials	11
▁positioned	11
▁diplomatic	11
Engineering	11
▁enrollment	11
▁multimedia	11
▁tensorflow	11
Definitions	11
▁formations	11
▁irrelevant	11
▁Structures	11
▁Petersburg	11
JOptionPane	11
▁delegation	11
▁indirectly	11
▁quarantine	11
▁identifies	11
▁associates	11
▁strawberry	11
▁prevailing	11
Alternative	11
▁subsidiary	11
▁MANAGEMENT	11
▁introduces	11
RequestBody	11
▁encryption	11
▁Supplement	11
▁destroying	11
▁Provincial	11
SaveChanges	11
▁contracted	11
▁objections	11
▁revelation	11
▁JSONObject	11
Interceptor	11
▁expiration	11
▁Philippine	11
▁dispersion	11
▁Percentage	11
▁infectious	11
▁distancing	11
▁annotation	11
▁inevitably	11
▁requesting	11
▁Tournament	11
▁Profession	11
▁Difficulty	11
▁disturbing	11
▁Directions	11
▁intestinal	11
permissions	11
▁paragraphs	11
▁submitting	11
▁preferably	11
▁thoughtful	11
▁Conversion	11
▁saturation	11
▁originated	11
▁Characters	11
▁accidental	11
▁Throughout	11
▁mitigation	11
▁accelerate	11
▁economical	11
▁vocational	11
traditional	11
▁qualifying	11
▁formulated	11
▁overlooked	11
▁entreprise	11
▁converting	11
▁referenced	11
▁competence	11
Implemented	11
▁distortion	11
▁weaknesses	11
ProgressBar	11
▁recruiting	11
▁Excellence	11
▁admiration	11
▁matrimonio	11
▁discomfort	11
▁Chancellor	11
▁publishers	11
Furthermore	11
▁repetition	11
▁Curriculum	11
▁resilience	11
▁harassment	11
▁aggression	11
▁triangular	11
▁Regulatory	11
▁ambassador	11
▁arithmetic	11
▁FontWeight	11
▁compressor	11
▁autonomous	11
▁Automation	11
▁internally	11
▁microscopy	11
Maintenance	11
▁distinctly	11
▁compulsory	11
▁bargaining	11
▁unpleasant	11
Integration	11
Persistence	11
▁Understand	11
▁disruption	11
▁initiation	11
▁transforma	11
▁serialized	11
▁Identifier	11
▁vegetarian	11
▁Consultant	11
▁reductions	11
▁preserving	11
▁Definitely	11
▁Securities	11
▁multiplied	11
▁StyleSheet	11
▁harvesting	11
▁animations	11
▁alteration	11
▁Adventures	11
▁capacities	11
urlpatterns	11
▁generators	11
▁standpoint	11
▁recognizes	11
▁misleading	11
▁undergoing	11
▁phosphorus	11
▁pertaining	11
▁architects	11
▁favourable	11
▁selections	11
▁iterations	11
▁redemption	11
▁deliberate	11
▁Developing	11
Christopher	11
▁moderately	11
▁imperative	11
▁Luxembourg	11
association	11
▁professors	11
▁Protestant	11
▁frightened	11
▁recovering	11
▁documentos	11
▁Calculator	11
▁exercising	11
UserService	11
▁respecting	11
▁CONDITIONS	11
▁confession	11
▁renovation	11
▁negatively	11
▁encounters	11
▁morphology	11
▁Repository	11
▁Apparently	11
▁Statements	11
PrintWriter	11
▁diminished	11
▁chromosome	11
▁critically	11
▁terrifying	11
▁reflective	11
▁contradict	11
▁anticipate	11
▁cigarettes	11
▁Frequently	11
Methodology	11
▁reversible	11
Independent	11
▁admissions	11
▁transforms	11
▁affiliated	11
▁Alexandria	11
▁Continuous	11
established	11
▁capitalism	11
▁collectors	11
▁subsection	11
▁Charleston	11
▁travellers	11
▁assistants	11
▁attraverso	11
▁identities	11
▁Analytical	11
OwnProperty	11
▁ecosystems	11
▁filtration	11
▁Petitioner	11
▁journalism	11
▁hairstyles	11
▁ceremonies	11
▁formidable	11
▁confronted	11
bibnamefont	11
▁plantation	11
▁foreigners	11
▁deviations	11
▁concession	11
▁sandwiches	11
▁celebrates	11
▁inhibitors	11
▁mentioning	11
▁extinction	11
▁charitable	11
▁Absolutely	11
▁definitive	11
▁worthwhile	11
▁concernant	11
▁advertised	11
LayoutPanel	11
▁performers	11
FormsModule	11
▁Vietnamese	11
omenclature	11
▁congestion	11
▁soundtrack	11
▁foreground	11
▁unemployed	11
▁fellowship	11
▁modulation	11
connections	11
▁Prediction	11
▁JTextField	11
▁Louisville	11
Proposition	11
▁elasticity	11
▁formatting	11
▁Physiology	11
CreateModel	11
▁vertically	11
▁Supervisor	11
▁solidarity	11
▁transports	11
▁Regression	11
▁temptation	11
▁kilometres	11
▁separating	11
▁Registered	11
▁ammunition	11
▁sacrifices	11
initialized	11
▁Geographic	11
▁pedestrian	11
▁suppressed	11
▁processors	11
▁yourselves	11
▁descending	11
▁prosecutor	11
▁dishwasher	11
▁compromiso	11
Coordinates	11
▁Constantin	11
▁nationally	11
▁criticized	11
▁linguistic	11
▁missionary	11
▁contacting	11
▁classrooms	11
▁impairment	11
▁wheelchair	11
▁remarkably	11
▁regulating	11
▁disconnect	11
▁collateral	11
▁Fellowship	11
▁privileged	11
▁clustering	11
▁respectful	11
▁deliveries	11
▁midfielder	11
▁permitting	11
▁competitor	11
▁supposedly	11
▁geological	11
▁endangered	11
▁localities	11
▁collisions	11
▁committing	11
▁wastewater	11
crimination	11
identiality	11
▁historians	11
▁injunction	11
▁excitation	11
▁Williamson	11
▁confirming	11
▁disgusting	11
▁connectors	11
▁satellites	11
▁currencies	11
▁multiplier	11
▁fulfilling	11
Propagation	11
▁Extraction	11
▁exposition	11
▁liberation	11
▁Newtonsoft	11
▁Horizontal	11
▁infinitely	11
▁Automotive	11
▁regulators	11
▁succeeding	11
▁faithfully	11
▁Settlement	11
▁Importance	11
▁Successful	11
▁predictive	11
▁Permission	11
Connections	11
▁Eventually	11
▁vibrations	11
▁livelihood	11
▁invariably	11
▁usefulness	11
▁velocities	11
▁electrodes	11
▁california	11
Traditional	11
▁Heidelberg	11
▁predicting	11
Participant	11
▁announcing	11
▁Canterbury	11
▁commenting	11
▁pesticides	11
▁sculptures	11
▁Applicable	11
▁technician	11
▁trademarks	11
▁Governance	11
▁Supporting	11
▁preventive	11
▁stimulated	11
Transformer	11
▁potentials	11
▁Increasing	11
▁mitsubishi	11
▁graduating	11
▁indicative	11
▁protesters	11
Reservation	11
▁accumulate	11
▁inoxidable	11
▁tendencies	11
▁terrorists	11
▁ultrasound	11
AccessToken	11
▁supervised	11
▁forgetting	11
▁sequential	11
▁favourites	11
▁peacefully	11
▁enrichment	11
▁capitalist	11
▁observable	11
PhoneNumber	11
▁Architects	11
interactive	11
▁comprehend	11
▁referendum	11
▁Ecological	11
▁embodiment	11
▁Collective	11
▁Retirement	11
▁adsorption	11
▁subprocess	11
▁attracting	11
ContentType	11
interaction	11
▁Archbishop	11
▁lieutenant	11
▁procession	11
▁decorating	11
▁minorities	11
▁manifested	11
forgettable	11
Descriptors	11
▁Originally	11
Unsupported	11
▁beforehand	11
▁accredited	11
▁distracted	11
Appointment	11
▁minimalist	11
▁hesitation	11
▁GOVERNMENT	11
▁asymmetric	11
▁generosity	11
▁WASHINGTON	11
▁Veterinary	11
▁presidency	11
▁Nottingham	11
▁commanding	11
▁Constraint	11
▁injections	11
▁distressed	11
engineering	11
▁freshwater	11
▁incubation	11
▁physiology	11
▁Interstate	11
▁negotiated	11
▁Fitzgerald	11
▁Apartments	11
▁engineered	11
Mathematics	11
▁domination	11
▁disappears	11
▁preferable	11
Photography	11
▁intriguing	11
▁Submission	11
▁Appearance	11
interesting	11
Interactive	11
▁Cunningham	11
▁recurrence	11
▁Confidence	11
▁Ressources	11
▁ressources	11
▁contingent	11
▁conformity	11
compression	11
▁COMMISSION	11
▁sanitation	11
▁Advantages	11
responsible	11
▁Opposition	11
▁programmer	11
▁Committees	11
▁Motivation	11
▁Winchester	11
▁Scriptures	11
▁Superhosts	11
▁indictment	11
▁misconduct	11
▁frameworks	11
▁volatility	11
▁prosperous	11
▁discounted	11
▁subscriber	11
▁Adjustable	11
▁beginnings	11
▁disrespect	11
▁reconsider	11
▁proclaimed	11
INFORMATION	11
proposition	11
▁measurable	11
▁repetitive	11
▁Substances	11
▁checkpoint	11
▁possessing	11
appointment	11
▁Huntington	11
▁translator	11
▁gatherings	11
▁emphasizes	11
▁Interviews	11
▁phenomenal	11
▁aesthetics	11
▁Madagascar	11
▁partitions	11
▁sensations	11
▁Javascript	11
▁Photograph	11
▁Contractor	11
▁ViewHolder	11
▁Scientists	11
▁adolescent	11
▁ornamental	11
Recognition	11
▁fractional	11
▁requisitos	11
▁melancholy	11
▁hydrochlor	11
▁organizers	11
▁programmed	11
▁middleware	11
Expressions	11
▁disastrous	11
▁veterinary	11
▁homeowners	11
▁instituted	11
correlation	11
▁translates	11
▁noteworthy	11
▁Protective	11
Calculation	11
observation	11
▁Algorithms	11
▁randomized	11
predictions	11
▁solubility	11
▁expressive	11
▁classifier	11
Transparent	11
▁theatrical	11
Programming	11
▁memorandum	11
WebControls	11
▁Plaintiffs	11
▁uniformity	11
reservation	11
Cyfeiriadau	11
▁excavation	11
▁imprisoned	11
UITableView	11
▁reciprocal	11
▁Activation	11
▁Networking	11
▁assortment	11
▁subscribed	11
measurement	11
▁Variations	11
▁spacecraft	11
▁turbulence	11
▁loneliness	11
▁Behavioral	11
▁derivation	11
▁quotations	11
▁tenderness	11
▁dealership	11
▁ordinarily	11
restriction	11
significant	11
▁excelentes	11
▁concluding	11
▁Meditation	11
▁fundraiser	11
▁authorised	11
▁interstate	11
▁pretending	11
▁sentencing	11
▁Performing	11
▁casualties	11
▁constructs	11
▁eliminates	11
▁Disability	11
▁Injectable	11
▁dispatched	11
▁Blockchain	11
certificate	11
couragement	11
▁spectators	11
▁Aboriginal	11
▁divergence	11
▁attainment	11
▁inaccurate	11
▁consequent	11
Eligibility	11
▁Completion	11
▁Burlington	11
BackPressed	11
▁COLLECTION	11
▁javascript	11
▁continents	11
▁considerar	11
▁procedural	11
▁deflection	11
▁sacrificed	11
BibitemOpen	11
▁percussion	11
▁substrates	11
▁progressed	11
▁moderation	11
examination	11
ButtonStyle	11
Attachments	11
▁economists	11
▁hemisphere	11
▁resembling	11
▁Expedition	11
▁specialize	11
▁Cumberland	11
Observation	11
▁internship	11
initializer	11
▁MainWindow	11
TextChanged	11
▁Institutes	11
▁Azerbaijan	11
▁unfinished	11
▁goalkeeper	11
▁circunstan	11
▁irrational	11
▁evacuation	11
▁conjecture	11
▁classmates	11
▁inherently	11
▁Essentials	11
▁disciplina	11
publication	11
Agriculture	11
▁overweight	11
▁Alessandro	11
▁Affordable	11
▁reservoirs	11
▁Correction	11
▁Adjustment	11
Considering	11
continental	11
▁garantizar	11
▁Guaranteed	11
▁projecting	11
▁presidents	11
Sensitivity	11
▁reactivity	11
Personality	11
FormControl	11
▁footballer	11
▁recommande	11
▁Portsmouth	11
▁Friendship	11
▁materially	11
AdapterView	11
alternative	11
▁narratives	11
▁Preference	11
▁Attachment	11
▁rappresent	11
experienced	11
▁conduction	11
▁Chronicles	11
▁impurities	11
▁Counseling	11
▁Psychiatry	11
▁insecurity	11
▁dielectric	11
▁appellants	11
▁Decoration	11
▁Irrigation	11
▁Memorandum	11
Coordinator	11
▁calibrated	11
▁rotational	11
bleshooting	11
▁Excellency	11
▁principals	11
▁directives	11
▁transistor	11
▁covariance	11
▁affections	11
▁monumental	11
▁rebuilding	11
Significant	11
represented	11
▁relocation	11
▁accountant	11
▁topography	11
▁Smartphone	11
▁Motorcycle	11
▁Georgetown	11
▁Vocational	11
Educational	11
▁homosexual	11
Competition	11
▁thresholds	11
Respiratory	11
maintenance	11
▁PRODUCTION	11
▁exhaustion	11
probability	11
▁allegation	11
▁Hutchinson	11
▁circulated	11
▁Separation	11
▁equilibrio	11
▁minimizing	11
Suggestions	11
▁managerial	11
▁Humanities	11
▁Wilderness	11
▁Candidates	11
▁Versailles	11
▁standalone	11
ImageButton	11
ReturnValue	11
▁Mitsubishi	11
informatics	11
▁Extensions	11
Introducing	11
▁Approaches	11
▁locomotive	11
▁contextual	11
▁exhaustive	11
BeforeClass	11
▁clinically	11
preferences	11
▁PROTECTION	11
▁Volunteers	11
bridization	11
Initializer	11
distributed	11
▁vigorously	11
recommended	11
Advertising	11
▁residences	11
Replacement	11
▁successors	11
▁Vocabulary	11
▁deductions	11
▁Complexity	11
▁externally	11
▁inspectors	11
BorderStyle	11
▁exhibiting	11
Probability	11
▁incidental	11
▁Identities	11
▁expectancy	11
▁intelligen	11
▁explosions	11
▁institutes	11
▁demolition	11
▁Strawberry	11
▁resentment	11
▁patrimonio	11
▁victorious	11
Switzerland	11
▁anesthesia	11
▁Commentary	11
▁Previously	11
▁Businesses	11
▁fascinated	11
▁unquestion	11
▁summarizes	11
▁inhalation	11
▁Gloucester	11
Screenshots	11
Accessories	11
▁aspiration	11
▁executable	11
▁misfortune	11
▁underrated	11
Requirement	11
▁watermelon	11
StringValue	11
▁detachment	11
▁organising	11
conditioned	11
▁throughput	11
▁fabricated	11
▁touchdowns	11
▁sustaining	11
▁scratching	11
Calibration	11
GreaterThan	11
▁heightened	11
▁overcoming	11
▁stipulated	11
▁Automobile	11
▁comforting	11
▁Yugoslavia	11
▁inventions	11
▁Continuing	11
▁generously	11
▁hereditary	11
▁skateboard	11
interrupted	11
▁criticisms	11
▁complexion	11
▁conclusive	11
▁corrective	11
▁aggregated	11
▁hydrolysis	11
▁discourage	11
interpreted	11
▁Acceptance	11
▁Attendance	11
▁Buckingham	11
▁devastated	11
▁Wilmington	11
▁Revelation	11
▁aggravated	11
tikzpicture	11
▁belongings	11
▁componente	11
▁culturally	11
▁windshield	11
▁honourable	11
Deserialize	11
▁projectile	11
▁lighthouse	11
▁harmonious	11
▁prominence	11
▁suggestive	11
LayoutStyle	11
▁Kazakhstan	11
▁ionization	11
▁Visibility	11
▁unaffected	11
▁excursions	11
▁Developers	11
▁restrained	11
▁endforeach	11
▁sportswear	11
definitions	11
▁correcting	11
▁Provisions	11
▁Sutherland	11
▁aggregates	11
▁WARRANTIES	11
▁commanders	11
attachments	11
▁Exceptions	11
▁Translated	11
▁cartridges	11
▁influencer	11
▁infantiles	11
▁AspNetCore	11
Correlation	11
▁Lighthouse	11
▁researched	11
▁convection	11
▁courageous	11
▁allegiance	11
▁depressing	11
▁Personally	11
▁Livingston	11
▁Coordinate	11
▁composites	11
▁Mechanisms	11
▁Multimedia	11
▁behaviours	11
▁Liberation	11
▁PARAMETERS	11
▁duplicates	11
▁Disclosure	11
▁ceremonial	11
▁MessageBox	11
ApiResponse	11
estinations	11
▁Jacqueline	11
▁pancreatic	11
▁therapists	11
Outstanding	11
▁disclaimer	11
▁caregivers	11
▁furnishing	11
▁Controlled	11
▁reiterated	11
▁Ultimately	11
Netherlands	11
agriculture	11
Fortunately	11
▁sweetheart	11
Conditional	11
▁Vegetation	11
▁prioritize	11
▁Strasbourg	11
▁Cretaceous	11
▁horsepower	11
participant	11
threatening	11
▁deprecated	11
▁Particular	11
unsubscribe	11
▁Suspension	11
AppDelegate	11
▁Innovative	11
▁Deployment	11
▁relational	11
▁federation	11
UserDetails	11
programming	11
▁progresses	11
▁visitation	11
▁credential	11
▁explosives	11
▁waterfront	11
▁warehouses	11
▁profoundly	11
▁articulate	11
▁navigating	11
▁flashlight	11
▁triggering	11
▁ordinances	11
▁contagious	11
▁penelitian	11
▁Absorption	11
▁sanctioned	11
▁invocation	11
▁consortium	11
▁Consortium	11
▁INDUSTRIAL	11
▁repentance	11
▁nucleotide	11
▁synonymous	11
▁Allocation	11
▁Lancashire	11
Compression	11
▁pilgrimage	11
▁tightening	11
▁turnaround	11
▁librarians	11
▁Adaptation	11
▁Physicians	11
▁unofficial	11
▁chocolates	11
▁demolished	11
▁affiliates	11
OptionsMenu	11
▁Journalism	11
▁auditorium	11
▁Impression	11
▁Sequential	11
▁assertions	11
▁polymerase	11
▁elevations	11
▁inhibitory	11
businessman	11
▁patriotism	11
▁astonished	11
ENVIRONMENT	11
▁positivity	11
▁Commitment	11
▁Treatments	11
▁landowners	11
▁implicitly	11
▁unreliable	11
▁Redemption	11
▁ministries	11
▁Millennium	11
affiliation	11
replacement	11
forestation	11
databinding	11
▁Dependency	11
▁neutrality	11
▁typography	11
▁starvation	11
▁prosecuted	11
▁pleasantly	11
▁serializer	11
▁Perception	11
▁Lightboxes	11
▁endogenous	11
▁prototypes	11
▁Mitigation	11
▁regularity	11
▁Kensington	11
Competitive	11
coronavirus	11
Distributed	11
▁legitimacy	11
▁seamlessly	11
▁Presidents	11
JScrollPane	11
implemented	11
▁advocating	11
▁irritating	11
▁Hypothesis	11
▁LITERATURE	11
▁Verantwort	11
▁pioneering	11
▁empowering	11
▁reluctance	11
▁Exposition	11
Operational	11
▁Bernardino	11
▁sufferings	11
▁maturation	11
▁nutritious	11
▁imposition	11
▁grievances	11
▁Impossible	11
MediaPlayer	11
photography	11
▁anatomical	11
▁stabilized	11
▁democracia	11
▁manageable	11
▁extracting	11
▁Vegetables	11
▁researches	11
Precautions	11
▁Occupation	11
▁Montenegro	11
▁nightmares	11
▁remodeling	11
▁assembling	11
▁unilateral	11
▁detectives	11
▁chemically	11
▁accusation	11
▁Conversely	11
Preliminary	11
▁cheesecake	11
▁fingertips	11
▁sleeveless	11
▁forwarding	11
MessageInfo	11
▁dominating	11
▁Enrollment	11
PopupWindow	11
▁criticised	11
▁intimately	11
▁Agreements	11
▁tomography	11
▁commencing	11
institution	11
▁amplitudes	11
▁Universite	11
▁metropolis	11
▁Concerning	11
conditional	11
▁workaround	11
▁ACTIVITIES	11
Residential	11
▁republican	11
▁compounded	11
▁Presidency	11
▁safeguards	11
WriteString	11
▁Magistrate	11
Sustainable	11
ButterKnife	11
▁percentile	11
Compilation	11
▁stimulates	11
▁Salesforce	11
▁Antarctica	11
▁Discipline	11
▁Harrington	11
CreateTable	11
▁conveyance	11
▁competency	11
▁Wonderland	11
▁Arithmetic	11
▁administra	11
▁clinicians	11
▁Englishman	11
UserProfile	11
▁congenital	11
▁Technician	11
Experiments	11
▁prejudices	11
▁Biomedical	11
▁disruptive	11
Philippines	11
▁enumerated	11
▁futuristic	11
▁MediaQuery	11
▁activating	11
Authorities	11
▁Earthquake	11
FileVersion	11
▁Annotation	11
▁fraternity	11
▁portfolios	11
▁persuasion	11
termination	11
▁repression	11
▁formulario	11
▁Cumulative	11
▁worksheets	11
▁cautiously	11
▁participer	11
▁staggering	11
▁protesting	11
▁signalling	11
▁censorship	11
▁abundantly	11
▁FileReader	11
▁exemptions	11
▁calculates	11
transformer	11
▁caracteres	11
▁importants	11
▁epithelium	11
▁Communists	11
Ingredienti	11
▁witnessing	11
▁toothbrush	11
▁Ministries	11
MessageType	11
▁redundancy	11
▁Projection	11
▁initiating	11
▁expansions	11
▁stationery	11
▁Amendments	11
▁Concurrent	11
▁swallowing	11
▁adjectives	11
▁confection	11
▁deductible	11
▁duplicated	11
competitive	11
▁capitalize	11
▁Creativity	11
▁kidnapping	11
MotionEvent	11
▁showcasing	11
Theoretical	11
▁broadcasts	11
INGREDIENTS	11
▁countrymen	11
▁Strengthen	11
▁flattering	11
▁periodical	11
Responsible	11
▁myocardial	11
▁relentless	11
▁existentes	11
mybatisplus	11
competition	11
▁pharmacist	11
Shakespeare	11
UnityEngine	11
▁absolument	11
▁contrasted	11
▁benchmarks	11
▁hemoglobin	11
▁relevantes	11
▁gymnastics	11
ServerError	11
▁Conceptual	11
▁exhausting	11
▁obtainable	11
▁glittering	11
▁dependable	11
▁responders	11
▁Unexpected	11
▁Encryption	11
▁penetrated	11
▁degenerate	11
electronics	11
▁Metabolism	11
▁Calculated	11
declaration	11
▁occasioned	11
▁refractive	11
▁Greenville	11
▁counselors	11
residential	11
▁quantified	11
▁implementa	11
ContainsKey	11
▁Sunderland	11
▁Translator	11
▁observance	11
▁marvellous	11
▁Scheduling	11
DataService	11
▁insightful	11
▁Missionary	11
▁Incredible	11
XtraEditors	11
breadcrumbs	11
▁weathering	11
▁smartwatch	11
▁DataSource	11
▁assemblage	11
▁connective	11
▁underlined	11
▁Interested	11
▁Completely	11
▁shortening	11
▁universite	11
▁Admissions	11
▁inferences	11
▁implicated	11
indications	11
▁Vanderbilt	11
▁consumidor	11
▁placements	11
▁Honourable	11
▁optimizing	11
Enumeration	11
▁assurances	11
▁Autonomous	11
▁perforated	11
▁inclusions	11
▁Persistent	11
CrossOrigin	11
RuleContext	11
▁impeccable	11
▁persuasive	11
▁upholstery	11
▁Interfaces	11
▁ASSESSMENT	11
▁registrado	11
▁triumphant	11
inscription	11
▁exchanging	11
▁transducer	11
▁streamline	11
Immediately	11
▁reassuring	11
transformed	11
▁Interessen	11
▁fatalities	11
▁partnering	11
▁elaborated	11
▁EVALUATION	11
▁Screenshot	11
ViewImports	11
▁relativity	11
▁franchises	11
transferase	11
▁PROCEDURES	11
▁Medication	11
▁sponsoring	11
Restaurants	11
▁Quaternion	11
▁verantwort	11
▁occidental	11
▁scriptures	11
▁diminution	11
▁Subsequent	11
▁Donnerstag	11
▁overturned	11
▁Marguerite	11
▁totalement	11
hydrogenase	11
▁rainforest	11
inspiration	11
▁laundering	11
▁propulsion	11
Combination	11
▁purchasers	11
▁apologized	11
DataAdapter	11
ContentView	11
Comfortable	11
▁gratefully	11
▁songwriter	11
▁Stephenson	11
▁undercover	11
▁Transplant	11
Discography	11
▁Purchasing	11
▁Chesapeake	11
▁Promotions	11
▁stratified	11
▁converters	11
▁diligently	11
▁Manuscript	11
▁peculiarly	11
Perspective	11
▁themſelves	11
▁toothpaste	11
▁Mastercard	11
Coronavirus	11
▁waterfalls	11
▁dreamstime	11
▁speechless	11
serializers	11
▁evaporated	11
▁Installing	11
▁Hemisphere	11
▁differenza	11
▁millennium	11
▁Microscopy	11
▁exploiting	11
▁Consistent	11
▁departures	11
▁ubiquitous	11
▁motivating	11
▁optionally	11
▁Connecting	11
▁replicated	11
LookAndFeel	11
▁Combustion	11
▁plasticity	11
▁fiberglass	11
ClassLoader	11
▁obligatory	11
Inspiration	11
▁elongation	11
▁Wordsworth	11
▁OBJECTIVES	11
▁elliptical	11
▁fragmented	11
Established	11
▁retrieving	11
▁thankfully	11
▁hemorrhage	11
▁invincible	11
CommandLine	11
▁brainstorm	11
▁insistence	11
Examination	11
▁discontent	11
▁reconciled	11
▁Ingredient	11
▁LABORATORY	11
concatenate	11
Institution	11
▁McLaughlin	11
▁oppressive	11
Dimensional	11
recognition	11
▁insulating	11
▁achievable	11
▁flourished	11
▁ACKNOWLEDG	11
▁Transporte	11
contributed	11
▁thirteenth	11
▁concentric	11
Demographic	11
▁prognostic	11
▁illuminate	11
▁Thereafter	11
▁clarifying	11
▁decomposed	11
▁Applicants	11
▁pathogenic	11
▁Newspapers	11
▁Reactivity	11
Reliability	11
▁Soundtrack	11
▁Responsive	11
▁Afterwards	11
▁noticeably	11
▁blacksmith	11
ChangeEvent	11
▁behandling	11
▁restraints	11
▁Lagrangian	11
▁worshipped	11
▁endeavours	11
▁biomedical	11
▁Atmosphere	11
▁enormously	11
SendMessage	11
▁overshadow	11
transitions	11
▁Plantation	11
▁vegetative	11
operability	11
▁Reputation	11
▁magnitudes	11
▁subsurface	11
▁Professors	11
▁electorate	11
▁refraction	11
restaurants	11
▁Journalist	11
▁Playground	11
Electricity	11
▁Angleterre	11
▁whispering	11
▁Evaluating	11
▁Montevideo	11
▁menghadapi	11
sourceforge	11
▁Graduation	11
▁fourteenth	11
▁Centennial	11
▁extinguish	11
▁MasterCard	11
DeclareMath	11
▁biomarkers	11
▁deportivas	11
▁impatience	11
Differences	11
▁Insulation	11
educational	11
▁financiera	11
▁practising	11
▁restarting	11
Comparative	11
▁rhetorical	11
▁Resilience	11
▁Proportion	11
▁wonderland	11
calculation	11
▁simplifies	11
▁invalidate	11
FrameLayout	11
▁CONFERENCE	11
▁blackboard	11
▁Cinderella	11
▁rectangles	11
▁luminosity	11
▁Corruption	11
combination	11
▁Represents	11
▁Considered	11
▁galvanized	11
▁propensity	11
Approximate	11
▁envisioned	11
▁Comparator	11
▁unresolved	11
theguardian	11
otechnology	11
▁unanswered	11
▁Endangered	11
expressions	11
Researchers	11
▁modalities	11
▁admittedly	11
Intelligent	11
▁unbearable	11
▁maximizing	11
▁Uzbekistan	11
▁Dominicana	11
Electronics	11
▁inoculated	11
▁linebacker	11
▁collegiate	11
▁subdivided	11
consumption	11
▁childbirth	11
▁catalogues	11
▁grapefruit	11
opportunity	11
▁Wednesdays	11
▁perceptual	11
constrained	11
CommandType	11
▁corrugated	11
companyname	11
FontAwesome	11
▁ventilated	11
▁constituye	11
▁dispatcher	11
▁rebellious	11
▁Infectious	11
▁Conception	11
▁generality	11
▁chancellor	11
▁intangible	11
▁emphasised	11
▁hyperbolic	11
▁footprints	11
▁powerhouse	11
perspective	11
OutOfBounds	11
▁originates	11
▁abandoning	11
▁depressive	11
directional	11
▁leveraging	11
▁undisputed	11
TestFixture	11
▁negativity	11
▁humanities	11
▁henceforth	11
▁bridesmaid	11
▁filmmakers	11
ministerium	11
▁equipments	11
▁comparator	11
▁irradiated	11
▁Containers	11
▁Assumption	11
▁Generating	11
QueryString	11
▁Simplified	11
▁provenance	11
▁predefined	11
▁Undeclared	11
▁cheerfully	11
▁lifestyles	11
▁centimeter	11
▁infarction	11
▁Boundaries	11
▁unbalanced	11
▁stereotype	11
▁alienation	11
GetInstance	11
▁Pediatrics	11
▁dermatitis	11
▁convergent	11
▁pharmacies	11
▁propagated	11
▁inoxydable	11
▁escalation	11
▁Motorsport	11
▁SearchView	11
▁coloration	11
▁Classified	11
▁dependents	11
▁conductive	11
▁dissection	11
▁appointing	11
▁naturelles	11
▁alternator	11
▁gracefully	11
▁Scholastic	11
CreateIndex	11
▁recyclable	11
▁Propulsion	11
▁breathless	11
▁residentes	11
▁gratifying	11
▁alcoholism	11
▁priesthood	11
CurrentUser	11
Designation	11
suggestions	11
▁redirected	11
▁SqlCommand	11
directories	11
▁Comparable	11
emplacement	11
▁DeviantArt	11
woocommerce	11
▁revocation	11
▁Typography	11
▁Secretaria	11
acquisition	11
improvement	11
▁compaction	11
▁typewriter	11
▁Invitation	11
▁dismissing	11
▁Researcher	11
▁benefiting	11
Achievement	11
▁enchanting	11
BorderColor	11
Opportunity	11
▁viewpoints	11
Consumption	11
▁amplifiers	11
▁nourishing	11
Evaporation	11
▁Israelites	11
▁intestines	11
▁geothermal	11
▁inspecting	11
▁chronicles	11
▁POPULATION	11
AntiForgery	11
▁ransomware	11
▁washington	11
▁permanence	11
▁redesigned	11
▁realizando	11
▁undeniable	11
▁metastatic	11
▁playwright	11
▁warranties	11
▁dissolving	11
▁Authorized	11
▁providence	11
homogeneous	11
PostExecute	11
▁effortless	11
▁contestant	11
▁Accountant	11
▁emigration	11
constructed	11
▁Complaints	11
Acquisition	11
▁overpriced	11
▁Litigation	11
▁Decorative	11
▁Capability	11
▁terminates	11
▁subtracted	11
Directories	11
FieldOffset	11
▁astounding	11
▁PowerShell	11
ProductName	11
▁Prosecutor	11
▁neglecting	11
▁postseason	11
▁contenders	11
▁Numerology	11
▁protracted	11
Restriction	11
CardContent	11
▁Withdrawal	11
▁Prometheus	11
▁astronauts	11
▁absorbance	11
▁Sequencing	11
▁documental	11
▁cumbersome	11
▁borderline	11
▁mattresses	11
▁motherhood	11
▁penicillin	11
▁stagnation	11
▁Limitation	11
▁Rothschild	11
▁screenings	11
▁stormwater	11
Identifying	11
▁snowflakes	11
▁courthouse	11
Afghanistan	11
▁dispensing	11
▁Thankfully	11
▁Harrisburg	11
▁recipiente	11
▁filesystem	11
▁immobilier	11
▁Recordings	11
▁upbringing	11
▁valentines	11
▁immaterial	11
▁submarines	11
▁Inhibition	11
▁Perfection	11
▁witchcraft	11
▁colombiano	11
Filmography	11
▁mascarilla	11
▁Irrelevant	11
▁cancelling	11
Nationality	11
▁atrocities	11
▁photoshoot	11
Instruments	11
▁broadening	11
▁inhibiting	11
▁replicates	11
▁counteract	11
▁cristianos	11
▁Occidental	11
▁Toxicology	11
▁motionless	11
calibration	11
▁authorship	11
Descriptive	11
▁Councillor	11
▁Reasonable	11
Cyfarwyddwr	11
▁actionable	11
Württemberg	11
▁Relaxation	11
▁persecuted	11
▁segregated	11
▁phenotypes	11
specialized	11
▁Phosphorus	11
▁fictitious	11
▁interfered	11
Contributed	11
▁projective	11
▁colorectal	11
▁collapsing	11
Recruitment	11
▁Traditions	11
▁concussion	11
crystalline	11
▁birthplace	11
FileChooser	11
complicated	11
▁meticulous	11
communities	11
▁intervened	11
▁Salmonella	11
▁overriding	11
▁COMMERCIAL	11
▁transgenic	11
▁ironically	11
▁PARTICULAR	11
▁suministro	11
▁ErrInvalid	11
Mississippi	11
sustainable	11
Aggregation	11
▁Colleagues	11
▁Organizing	11
▁Customized	11
▁penampilan	11
▁overseeing	11
romolecules	11
▁Aliexpress	11
▁strikingly	11
immediately	11
▁messengers	11
▁campground	11
▁wickedness	11
▁Deposition	11
▁IconButton	11
PlayStation	11
▁Freshwater	11
▁undermined	11
▁Metropolis	11
ProgressHUD	11
▁Sanitation	11
▁binoculars	11
breakpoints	11
▁Montessori	11
▁receptions	11
▁visualized	11
▁satisfacer	11
▁Infections	11
▁cucharadas	11
▁geometries	11
▁stabilizer	11
Indications	11
▁INDIVIDUAL	11
▁fanfiction	11
▁happenings	11
experiments	11
▁dissipated	11
▁Substitute	11
▁coincident	11
▁Fertilizer	11
▁Prefecture	11
▁councillor	11
ArrowToggle	11
▁powerfully	11
▁Accessible	11
▁attainable	11
InetAddress	11
▁vernacular	11
▁workplaces	11
▁Occurrence	11
▁executions	11
playstation	11
▁accidentes	11
▁Immunology	11
▁entusiasmo	11
▁drawstring	11
instruments	11
UIImageView	11
▁afternoons	11
▁illiterate	11
usercontent	11
▁undefeated	11
▁CONNECTION	11
▁FOUNDATION	11
explanation	11
▁herbicides	11
▁RESPONDENT	11
▁negotiable	11
▁Eurovision	11
▁tolerances	11
▁difficiles	11
▁Morphology	11
ButtonGroup	11
▁thickening	11
▁regenerate	11
▁maquillage	11
▁speculated	11
▁chronology	11
capsulation	11
▁Clustering	11
▁recognises	11
▁deactivate	11
▁constantes	11
ButtonClick	11
▁BlackBerry	11
▁mitigating	11
Consistency	11
▁exhibitors	11
▁inductance	11
Termination	11
▁Priorities	11
DataManager	11
▁embarazada	11
▁fragrances	11
Replication	11
▁livestream	11
▁Dependence	11
▁complicate	11
Departments	11
▁annexation	11
▁stronghold	11
▁figurative	11
anticipated	11
propagation	11
▁STATISTICS	11
▁Scattering	11
▁psychiatry	11
▁ideologies	11
▁Widerstand	11
▁tangential	11
Contributor	11
▁isomorphic	11
▁Constructs	11
▁Restricted	11
▁PROCESSING	11
InputBorder	11
Referencies	11
▁consonants	11
▁indistingu	11
▁Delegation	11
▁Punishment	11
▁Greenfield	11
▁MONITORING	11
▁wrongdoing	11
▁crossroads	11
▁dehydrated	11
▁Visitation	11
Identifiers	11
▁royaltyfri	11
▁semifinals	11
XtraReports	11
displaymath	11
▁preferring	11
▁smoothness	11
▁homecoming	11
▁overloaded	11
▁reposition	11
▁creatively	11
advertising	11
requirement	11
▁caoutchouc	11
▁valuations	11
▁snorkeling	11
▁underworld	11
▁Courthouse	11
PERFORMANCE	11
Technically	11
▁generalize	11
▁Nationwide	11
▁Possession	11
▁Dishwasher	11
▁PostgreSQL	11
▁Compassion	11
▁punishable	11
▁reinforces	11
▁Charitable	11
▁Disconnect	11
PrintStream	11
▁Collecting	11
Calculating	11
▁foreshadow	11
▁fabricants	11
▁Watercolor	11
▁Advertiser	11
▁Microphone	11
▁contending	11
▁Addressing	11
▁Capitalism	11
Reflections	11
electricity	11
▁allocating	11
▁flickering	11
BoundingBox	11
lottesville	11
▁Bloomfield	11
▁Estimating	11
▁skepticism	11
▁marginally	11
expandafter	11
▁monotonous	11
▁chalkboard	11
▁receptacle	11
▁Gegenstand	11
▁mistakenly	11
▁positional	11
Individuals	11
AspectRatio	11
▁sharpening	11
interceptor	11
▁Kalimantan	11
▁countertop	11
▁InputMaybe	11
▁prejudiced	11
METHODOLOGY	11
▁validating	11
Illustrated	11
▁intersects	11
▁microbiota	11
▁Modulation	11
▁Peripheral	11
OrderDetail	11
▁Collegiate	11
Affiliation	11
▁discourses	11
▁verstanden	11
▁Internship	11
Lightweight	11
ObjectModel	11
▁Waterfront	11
sensitivity	11
▁operatives	11
▁sweatpants	11
▁Entomology	11
▁Propaganda	11
▁symbolizes	11
individuals	11
▁Continuity	11
▁Compressor	11
▁disrupting	11
▁resumption	11
▁Protecting	11
▁timberland	11
▁Structured	11
▁extensible	11
▁hurricanes	11
▁CGRectMake	11
▁summarised	11
Transitions	11
departments	11
▁consideran	11
▁postulated	11
▁simulating	11
▁storyboard	11
ysaccharide	11
▁trampoline	11
▁Venezuelan	11
▁remastered	11
GetHashCode	11
▁meningitis	11
▁Derbyshire	11
▁homologous	11
▁retrospect	11
VertexArray	11
Celebrating	11
▁Antibodies	11
▁homeschool	11
TableColumn	11
▁testimonio	11
▁unintended	11
▁straighten	11
▁caricature	11
middlewares	11
▁equatorial	11
▁horrifying	11
degradation	11
▁respirator	11
▁telescopes	11
▁Englishmen	11
▁nationales	11
▁Maintenant	11
▁compulsion	11
▁depositing	11
▁qualifiers	11
▁dissimilar	11
amphetamine	11
▁Durability	11
▁logistical	11
▁proponents	11
Promotional	11
▁Introduced	11
▁roundabout	11
▁screenplay	11
▁Containing	11
Continental	11
IntOverflow	11
▁beginnetje	11
▁centrifuge	11
▁entrenched	11
KeyListener	11
▁hypothalam	11
bigliamento	11
▁Solidarity	11
▁confounded	11
▁Chichester	11
▁impersonal	11
GameManager	11
MeasureSpec	11
▁granulated	11
▁insurgents	11
AuthService	11
photobucket	11
▁HasFactory	11
▁diminishes	11
▁perpetuate	11
ambiguation	11
preparation	11
▁meditating	11
▁reinstated	11
Concurrency	11
▁NEWSLETTER	11
▁apparition	11
Improvement	11
▁Accidental	11
▁dissenting	11
hamdulillah	11
▁timestamps	11
▁disordered	11
▁justifying	11
interpolate	11
▁nutrientes	11
▁primitives	11
▁investigar	11
▁multitudes	11
▁resurgence	11
OrderStatus	11
CompanyName	11
NetworkInfo	11
▁Confession	11
▁purposeful	11
Assumptions	11
ScreenState	11
▁Zimmermann	11
▁billboards	11
▁subsystems	11
▁surfactant	11
▁improvised	11
▁Subscriber	11
assignments	11
▁affidavits	11
▁onboarding	11
▁attenuated	11
▁graciously	11
▁delicately	11
QPushButton	11
Inheritance	11
▁millimeter	11
▁customised	11
▁protruding	11
demographic	11
▁indistinct	11
▁asistentes	11
▁kemenangan	11
▁subsidized	11
▁certificat	11
▁thrombosis	11
InjectMocks	11
InputChange	11
▁Inequality	11
▁unprepared	11
▁motorsport	11
▁Appreciate	11
▁FACILITIES	11
▁Lithuanian	11
▁Reinforced	11
▁cappuccino	11
▁Greensboro	11
▁strategist	11
denominator	11
Progressive	11
authorities	11
▁Attraction	11
▁IndexError	11
▁devotional	11
▁forcefully	11
▁engravings	11
▁Bridgeport	11
▁discerning	11
▁blackberry	11
▁aumentando	11
▁presidenta	11
intelligent	11
AudioSource	11
▁toiletries	11
▁inactivity	11
▁conquering	11
▁hysterical	11
▁plagiarism	11
CommandText	11
▁interferes	11
Groundwater	11
▁Households	11
▁transitive	11
▁recoveries	11
subscribers	11
Accordingly	11
▁condemning	11
▁underscore	11
▁rheumatoid	11
achievement	11
▁Shrewsbury	11
▁Girlfriend	11
▁scoreboard	11
▁Ukrainians	11
▁Ressourcen	11
▁relegation	11
▁curricular	11
▁randomness	11
▁Middletown	11
aggregation	11
▁Chromebook	11
▁Cataloging	11
▁conforming	11
▁orchestral	11
Photographs	11
▁Carmichael	11
designation	11
▁inflection	11
▁CORRESPOND	11
▁Darlington	11
▁perceiving	11
▁synthesize	11
Qualitative	11
▁realizaron	11
BottomSheet	11
▁Ultrasound	11
▁FileWriter	11
Hospitality	11
▁Occasional	11
▁infrequent	11
▁Preventive	11
▁Wallpapers	11
▁preprocess	11
▁Quaternary	11
Coordenadas	11
statechange	11
▁prophecies	11
ApiProperty	11
▁indywidual	11
AndPassword	11
▁Somerville	11
nationality	11
UserManager	11
▁composants	11
▁culminated	11
▁resonances	11
▁vertebrate	11
▁microbiome	11
▁legislator	11
▁bipartisan	11
Technologie	11
▁powerpoint	11
▁authorizes	11
▁Erwachsene	11
▁Sunglasses	11
QueryParams	11
destructive	11
▁eyeglasses	11
▁receivable	11
▁progenitor	11
fontawesome	11
FileManager	11
▁believable	11
▁undertakes	11
▁hospitable	11
▁Designated	11
Computation	11
Flexibility	11
▁equestrian	11
▁Programmer	11
Downloading	11
▁EMPLOYMENT	11
▁moratorium	11
▁Clearwater	11
▁retreating	11
NoteOnEvent	11
▁speciality	11
▁Headphones	11
▁rigorously	11
▁reimbursed	11
ActionTypes	11
progressive	11
▁singularly	11
▁biologists	11
▁predicated	11
▁orthopedic	11
▁archbishop	11
▁portraying	11
▁coronation	11
Connecticut	11
▁Intelligen	11
▁circumvent	11
▁dismantled	11
▁quadrangle	11
▁Formations	11
odeficiency	11
accompanied	11
ServiceName	11
▁scholastic	11
▁prostitute	11
▁interacted	11
▁palliative	11
▁Hurricanes	11
▁diagonally	11
▁Huntsville	11
▁recitation	11
WriteHeader	11
▁maternelle	11
▁Homecoming	11
▁flashbacks	11
Possibility	11
▁scrambling	11
exploration	11
▁Polynomial	11
▁BorderSide	11
▁copyrights	11
marketplace	11
▁competente	11
▁frequented	11
▁identifica	11
▁overridden	11
imagination	11
corporation	11
▁Wallflower	11
▁traversing	11
▁adventurer	11
Interviewer	11
▁Succession	11
▁summertime	11
▁FontFamily	11
transmitter	11
▁groundwork	11
grandfather	11
▁pernicious	11
▁whiteboard	11
▁participan	11
convolution	11
Instantiate	11
▁Strickland	11
▁phenotypic	11
▁embeddings	11
▁DEFINITION	11
▁SCIENTIFIC	11
▁Thumbnails	11
▁Ecosystems	11
▁considérer	11
▁landscaped	11
▁strtolower	11
▁cytochrome	11
▁rightfully	11
▁Gettysburg	11
▁Travelling	11
▁subroutine	11
▁Incentives	11
▁liberalism	11
▁interchang	11
▁physicists	11
▁escalating	11
Framebuffer	11
▁alignments	11
▁delusional	11
classifiers	11
CountryCode	11
▁tirelessly	11
▁extraneous	11
▁COMPARISON	11
communicate	11
▁exclusives	11
▁Aesthetics	11
▁Expressway	11
▁Formatting	11
▁philosophi	11
differences	11
▁ordination	11
▁anesthetic	11
▁Identified	11
accessories	11
▁Scottsdale	11
▁princesses	11
▁Regensburg	11
Communities	11
▁communists	11
▁ornamented	11
Appearances	11
▁Biotechnol	11
▁ELECTRICAL	11
▁converging	11
▁Dorchester	11
▁rehearsals	11
▁Recruiting	11
▁Conspiracy	11
▁judgements	11
▁imbalances	11
▁aberration	11
▁rendezvous	11
▁Brightness	11
▁subreddits	11
▁Generators	11
▁sprinkling	11
▁delineated	11
▁coursework	11
▁breakdowns	11
▁Normalized	11
experiences	11
personality	11
▁Underwater	11
▁Ereignisse	11
▁Milliarden	11
▁buttermilk	11
Distributor	11
▁innovators	11
TRANSACTION	11
▁antagonism	11
▁breakpoint	11
▁shimmering	11
▁streetwear	11
▁projectors	11
▁Enrichment	11
▁assaulting	11
▁supersonic	11
ProductList	11
▁mantenerse	11
▁preparando	11
Springfield	11
sufficiency	11
userdetails	11
▁blueprints	11
▁Commanding	11
▁TypeScript	11
▁abnormally	11
▁composting	11
▁postmodern	11
▁mentorship	11
▁PHILOSOPHY	11
▁Selections	11
Nonetheless	11
deprecation	11
▁presenters	11
▁Suggestion	11
unconfirmed	11
entreprises	11
▁Cartwright	11
▁defamation	11
▁Presumably	11
▁superpower	11
Discussions	11
▁informants	11
▁aboriginal	11
▁condominio	11
▁pendapatan	11
▁surpassing	11
▁Willoughby	11
▁Composites	11
▁Adolescent	11
▁Mysterious	11
▁carelessly	11
Regulations	11
▁battalions	11
▁probiotics	11
▁Deficiency	11
▁Initiation	11
▁Incomplete	11
▁heartbreak	11
▁metabolite	11
limitations	11
Corporation	11
▁neutralize	11
▁Blackstone	11
▁americanos	11
▁diagnosing	11
▁Collectors	11
▁rhinestone	11
▁sustenance	11
▁Terminator	11
▁infidelity	11
BaseAdapter	11
▁selectable	11
▁appetizers	11
▁terminator	11
▁hospitales	11
compilation	11
QMessageBox	11
▁Attractive	11
Underground	11
▁suspending	11
▁Percussion	11
Inscription	11
operational	11
Condolences	11
▁subsidence	11
▁ostensibly	11
outstanding	11
▁condolence	11
▁Antoinette	11
▁limestones	11
CERTIFICATE	11
InfoService	11
▁serpentine	11
▁Divisional	11
▁manifestly	11
▁castellano	11
▁DataLoader	11
▁Chromecast	11
▁Middleware	11
permutation	11
▁seasonally	11
DEVELOPMENT	11
▁Coronation	11
populations	11
▁prosthetic	11
▁Californie	11
▁breakfasts	11
▁conquistar	11
▁paraphrase	11
▁refineries	11
Minneapolis	11
▁Dispersion	11
▁abstinence	11
▁sinusoidal	11
arrangement	11
▁refundable	11
▁unsettling	11
Specialized	11
▁insolvency	11
▁retrograde	11
▁Patrimonio	11
▁Zoological	11
Directional	11
▁desolation	11
▁extremists	11
▁paranormal	11
▁Villeneuve	11
Renaissance	11
▁Franciscan	11
▁unbeatable	11
▁paramedics	11
equilibrium	11
▁Colchester	11
▁Buccaneers	11
▁Crossroads	11
▁forbidding	11
▁chargeable	11
▁profitably	11
▁Beginnings	11
▁Harvesting	11
▁visualizar	11
▁corrientes	11
▁Inhalation	11
▁covariates	11
▁Predictive	11
▁generative	11
▁maquinaria	11
▁standstill	11
▁capricious	11
▁distillery	11
coordinator	11
Exploration	11
▁floodplain	11
fileprivate	11
fingerprint	11
▁INVESTMENT	11
▁tumultuous	11
▁secretions	11
subcategory	11
▁prodigious	11
▁kinematics	11
▁resounding	11
▁Executives	11
▁Passengers	11
▁immunosupp	11
▁convective	11
Remembering	11
Principales	11
▁betterment	11
▁marketable	11
▁subclasses	11
▁invertible	11
Configuring	11
▁concealing	11
▁penetrates	11
▁Complement	11
▁Acceptable	11
▁histograms	11
▁habitually	11
▁Geophysics	11
Restoration	11
spreadsheet	11
▁GENERATION	11
▁PUBLISHING	11
▁FileSystem	11
▁mandibular	11
▁renewables	11
FieldNumber	11
▁counsellor	11
▁complacent	11
▁disclosing	11
▁reaffirmed	11
▁Adsorption	11
▁fluttering	11
BankAccount	11
▁Villanueva	11
▁conversely	11
▁TensorFlow	11
▁monolithic	11
▁Prevalence	11
Exceptional	11
▁grandchild	11
▁Barrington	11
▁recompensa	11
▁mouthpiece	11
Maintaining	11
▁possessive	11
▁unfriendly	11
Illustrator	11
▁fireplaces	11
QueryResult	11
▁distinguir	11
▁watersheds	11
▁cushioning	11
▁naturalist	11
Integrating	11
▁imputation	11
▁sunflowers	11
▁Harassment	11
▁Similarity	11
▁perfecting	11
▁RESOLUTION	11
▁Farmington	11
▁informally	11
inheritance	11
▁prospectus	11
▁humiliated	11
descriptors	11
▁McAllister	11
▁narcissist	11
Partnership	11
▁secretaria	11
▁disorderly	11
▁neuropathy	11
▁millennial	11
▁oftentimes	11
▁manifiesta	11
destruction	11
▁Deprecated	11
▁phosphoric	11
Immigration	11
▁advertiser	11
▁obstructed	11
▁testifying	11
▁thumbnails	11
▁undulating	11
▁dashboards	11
▁Warrington	11
▁cementerio	11
▁despatched	11
FormBuilder	11
MouseButton	11
▁caballeros	11
ceptibility	11
▁INDUSTRIES	11
▁Bellingham	11
▁peritoneal	11
▁conserving	11
instantiate	11
▁Serializer	11
▁temperance	11
Determining	11
▁Ironically	11
▁prestation	11
▁relocating	11
▁Solubility	11
Scholarship	11
▁phosphates	11
consistency	11
Internation	11
▁Derivative	11
▁Prosperity	11
▁herstellen	11
▁signifying	11
▁rationally	11
immigration	11
▁protocolos	11
▁Wavelength	11
▁Contribute	11
▁intervento	11
AppSettings	11
▁affinities	11
▁hysteresis	11
▁municipale	11
▁Blackberry	11
▁benefitted	11
▁cemeteries	11
▁locomotion	11
▁palindrome	11
definecolor	11
Essentially	11
▁lightening	11
▁intermedia	11
▁setuptools	11
Dispatchers	11
▁accomplice	11
▁surmounted	11
▁tropicales	11
▁bronchitis	11
▁bituminous	11
GetResponse	11
▁carreteras	11
▁Predicting	11
▁Conducting	11
▁GridLayout	11
▁suavemente	11
▁Reflective	11
▁Stationary	11
▁decryption	11
▁freelancer	11
▁hyaluronic	11
▁Classifier	11
▁lengthened	11
▁QuickBooks	11
▁ungrateful	11
Controlling	11
▁functioned	11
▁liberating	11
▁incapacity	11
▁equilibria	11
▁creatinine	11
▁skyscraper	11
▁promissory	11
substituted	11
▁porcelaine	11
▁Equatorial	11
exponential	11
▁Parenthood	11
▁downloader	11
▁industrias	11
▁tranquille	11
▁INSPECTION	11
▁socialista	11
▁Macedonian	11
unpublished	11
Microkernel	11
substantial	11
▁Babylonian	11
▁DataAccess	11
▁Landscapes	11
▁iridescent	11
RequiresApi	11
▁intolerant	11
underground	11
▁Belleville	11
▁HelloWorld	11
▁decorators	11
▁retrovisor	11
▁participle	11
BibitemShut	11
licitations	11
▁barbarians	11
▁SoundCloud	11
▁interesses	11
▁culturelle	11
Convolution	11
▁intimidate	11
▁Housewives	11
▁Shropshire	11
▁Campground	11
▁dilatation	11
▁amputation	11
▁Influences	11
▁cornstarch	11
▁Simplicity	11
▁amphibians	11
▁nucleation	11
▁Bernadette	11
▁abstracted	11
▁macrophage	11
WindowEvent	11
▁malignancy	11
▁cultivator	11
▁ASSISTANCE	11
▁Carrington	11
▁Supporters	11
▁drowsiness	11
▁Competence	11
▁solicitors	11
Predictions	11
▁assimilate	11
▁landslides	11
▁registrada	11
▁inhabitant	11
MongoClient	11
▁lymphocyte	11
computation	11
▁herbaceous	11
▁Activision	11
▁admittance	11
▁soliciting	11
▁Qualifying	11
▁Inspectors	11
Fabrication	11
Republicans	11
▁shattering	11
▁Statistica	11
▁intonation	11
▁Penelitian	11
accumulator	11
appreciated	11
VolleyError	11
InInspector	11
▁Valentines	11
▁overburden	11
▁Popularity	11
▁inflexible	11
▁skillfully	11
▁tragically	11
▁hydrologic	11
▁unlawfully	11
essentially	11
▁clearances	11
grandmother	11
▁cooperated	11
▁handlebars	11
Formulation	11
columnwidth	11
▁incoherent	11
▁Concluding	11
▁appendages	11
▁Microscope	11
▁unangemess	11
▁Huffington	11
Precalculus	11
expectation	11
frontmatter	11
▁Relatively	11
Diweddarwch	11
▁Cheesecake	11
▁Subsection	11
Submissions	11
▁attentions	11
▁recruiters	11
▁unoccupied	11
PrototypeOf	11
▁rearranged	11
▁substation	11
▁fullscreen	11
diagnostics	11
▁Renovation	11
▁procrastin	11
▁Preventing	11
▁Pesticides	11
▁Margherita	11
▁burgeoning	11
▁Distortion	11
▁Dispatcher	11
▁Extinction	11
▁sculptural	11
▁MethodInfo	11
▁Pennington	11
▁DIMENSIONS	11
▁BaseEntity	11
▁benefactor	11
fficiencies	11
▁glistening	11
▁truncation	11
ImageLoader	11
StrictEqual	11
▁Influencer	11
▁McCullough	11
ProjectName	11
▁consummate	11
▁Relativity	11
▁recomendar	11
▁apologised	11
▁Diplomatic	11
▁patrolling	11
▁Relocation	11
▁calamities	11
PlayerPrefs	11
▁Librarians	11
▁uneducated	11
▁universale	11
▁lithograph	11
Nutritional	11
▁blossoming	11
collapsible	11
cooperative	11
▁definately	11
accessoires	11
▁consenting	11
▁overthrown	11
▁endowments	11
▁Skyscanner	11
▁cohomology	11
▁distinguer	11
▁favourably	11
▁randomised	11
▁solidified	11
▁unwavering	11
▁Conscience	11
ResponseDto	11
▁transpired	11
Fingerprint	11
▁biographer	11
▁subversive	11
Expectation	11
introducing	11
▁referentes	11
Convergence	11
▁Compressed	11
▁EconPapers	11
replaceable	11
▁insurgency	11
▁argentinos	11
▁convoluted	11
▁conflicted	11
▁contributo	11
▁symmetries	11
▁carpenters	11
▁windscreen	11
▁divisional	11
▁nonfiction	11
▁chopsticks	11
▁interferon	11
▁liturgical	11
▁vestibular	11
▁expandable	11
▁storylines	11
▁colesterol	11
▁Palmerston	11
progressbar	11
▁prosthesis	11
▁ambulances	11
▁repeatable	11
Spreadsheet	11
▁housewives	11
Experienced	11
▁Connectors	11
▁battleship	11
▁auxquelles	11
▁Chatterjee	11
EmptyString	11
illustrated	11
▁personable	11
Exponential	11
Marketplace	11
acknowledge	11
legislation	11
technologie	11
▁contenedor	11
cobacterium	11
▁Bluestacks	11
▁Quantities	11
▁conferring	11
mathematics	11
▁geologists	11
UserAccount	11
▁Ultrasonic	11
▁petitioned	11
▁vehemently	11
▁engraçadas	11
▁outperform	11
▁strikeouts	11
▁Invocation	11
attribution	11
▁insensible	11
▁reparation	11
ventricular	11
▁Situations	11
▁undeniably	11
▁Commanders	11
▁superhuman	11
CultureInfo	11
▁Recipients	11
▁lengthwise	11
rectangular	11
▁symbolized	11
▁installers	11
ChatMessage	11
▁Watermelon	11
▁destroyers	11
RemoveField	11
▁Metallurgy	11
▁helplessly	11
RequestType	11
▁Violations	11
▁countryman	11
StateChange	11
▁exaggerate	11
algorithmic	11
▁Naturalist	11
▁Socialists	11
▁flawlessly	11
validations	11
Terminology	11
▁interwoven	11
▁reproduces	11
▁captivated	11
testimonial	11
▁veneration	11
CascadeType	11
Upgradeable	11
▁Asymmetric	11
▁REVOLUTION	11
statistical	11
▁femininity	11
▁detections	11
makeatother	11
▁ergonomics	11
Generalized	11
▁displeased	11
▁Inadequate	11
▁repayments	11
▁lightsaber	11
▁Aggression	11
▁datasource	11
▁stimulants	11
Enforcement	11
▁centrality	11
replication	11
▁transporta	11
▁contesting	11
▁personages	11
frequencies	11
▁electrolux	11
Specificity	11
▁Dedication	11
▁stuttering	11
▁Altogether	11
▁Residences	11
▁Compromise	11
▁cornerback	11
▁epigenetic	11
▁programmet	11
TextEditing	11
▁seasonings	11
▁Wainwright	11
▁homogenous	11
▁Khrushchev	11
▁congruence	11
vertebrates	11
▁persuading	11
▁peroxidase	11
▁filmmaking	11
▁fortsetter	11
▁prochaines	11
Transferred	11
▁frictional	11
▁Temperance	11
concurrency	11
▁Animations	11
▁liquidated	11
▁Alessandra	11
▁diminutive	11
▁Responding	11
▁expediency	11
▁variegated	11
▁Gymnastics	11
▁colourless	11
▁reconocida	11
▁Credential	11
▁ASSOCIATES	11
▁succulents	11
▁Companions	11
▁CATEGORIES	11
Atmospheric	11
DisplayMode	11
▁conquerors	11
▁designates	11
Permutation	11
▁humidifier	11
▁verticales	11
fortawesome	11
▁Monographs	11
▁problemlos	11
▁verificare	11
geolocation	11
▁Saturation	11
▁changeable	11
DoubleClick	11
▁Locomotive	11
▁abundances	11
Attractions	11
Unsubscribe	11
▁loveliness	11
▁Piccadilly	11
▁realizarse	11
ServiceTest	11
toISOString	11
▁dilaporkan	11
▁retraction	11
▁superstars	11
▁truthfully	11
▁centerline	11
Destruction	11
▁derogatory	11
▁isothermal	11
▁Obligation	11
▁homophobic	11
▁renovating	11
Multiplayer	11
lightweight	11
▁overlapped	11
integrating	11
▁modernized	11
▁univariate	11
Foundations	11
▁Distillery	11
operatively	11
▁compulsive	11
▁detalladas	11
▁expediente	11
▁inducement	11
unsupported	11
▁addictions	11
considering	11
▁Engineered	11
▁quadrature	11
▁prioritise	11
▁Implements	11
▁accessoire	11
▁furthering	11
KindOfClass	11
Unspecified	11
Southampton	11
▁churchyard	11
Procurement	11
DataBinding	11
UserContext	11
▁publicized	11
Legislative	11
▁Cardiology	11
submissions	11
▁condensing	11
▁Aggressive	11
▁insertions	11
▁Underworld	11
▁Remastered	11
▁disallowed	11
▁prescribes	11
▁Converting	11
▁Paddington	11
▁Bargaining	11
▁Excavation	11
synchronize	11
▁Gothenburg	11
▁brightened	11
▁sacraments	11
▁peringatan	11
▁Relational	11
Naphthalene	11
functioning	11
▁Travellers	11
▁Fractional	11
PreInfinity	11
effectively	11
▁constructi	11
▁Signatures	11
▁RESTAURANT	11
▁Principals	11
ScreenWidth	11
▁Derivation	11
▁pendekatan	11
Attribution	11
Fundraising	11
▁Stormwater	11
▁Evansville	11
▁Tajikistan	11
punctuation	11
▁carbonates	11
Redirection	11
▁Worksheets	11
▁initialise	11
▁idealistic	11
▁diinginkan	11
▁verbinding	11
▁formalized	11
▁resolutely	11
AccountName	11
▁preescolar	11
▁Longfellow	11
▁reelection	11
▁Kyrgyzstan	11
▁certiorari	11
▁scavenging	11
PlaceHolder	11
▁calcetines	11
▁MECHANICAL	11
PENDAHULUAN	11
▁socialists	11
▁combatants	11
▁repressive	11
Cooperation	11
CurrentPage	11
▁Pernambuco	11
▁Impressive	11
▁delectable	11
▁Brookfield	11
▁Prudential	11
▁Evangelist	11
▁Pedestrian	11
Maharashtra	11
Respondents	11
▁gravidanza	11
▁regionally	11
▁Proceeding	11
▁tramontina	11
▁Physically	11
convergence	11
▁bootloader	11
▁intentando	11
▁DIFFERENCE	11
▁originator	11
▁Fraternity	11
DECLARATION	11
▁multiverse	11
▁transgress	11
▁Frameworks	11
▁monographs	11
discussions	11
▁Obstetrics	11
▁Craigslist	11
▁carboxylic	11
AddressBook	11
PREPARATION	11
Biochemical	11
Supervision	11
explanatory	11
▁hamburgers	11
▁Encounters	11
theoretical	11
▁Definitive	11
Ecotoxicity	11
▁Procedural	11
▁burdensome	11
▁secondhand	11
Celebration	11
overlapping	11
▁abominable	11
▁Downloader	11
▁bellissima	11
DEFINITIONS	11
▁liberality	11
▁Accredited	11
▁capacitive	11
AsyncResult	11
▁antidesliz	11
▁ciphertext	11
▁flattening	11
▁transients	11
▁meditative	11
Responsable	11
▁RESISTANCE	11
▁subjection	11
BorderWidth	11
distributor	11
▁Compostela	11
▁testicular	11
FilterChain	11
▁inaugurate	11
▁Woodbridge	11
▁stepfather	11
▁unrivalled	11
TextMessage	11
▁telehealth	11
▁triplicate	11
▁Underlying	11
partnership	11
ColumnIndex	11
▁distraught	11
▁appendices	11
▁Managerial	11
▁eyewitness	11
▁ASSIGNMENT	11
▁Checkpoint	11
▁resiliency	11
▁beachfront	11
▁ASSOCIATED	11
Disclosures	11
Progression	11
ostructures	11
▁vanguardia	11
▁Chromosome	11
▁Stillwater	11
TextWatcher	11
▁Waterhouse	11
▁undetected	11
▁neoliberal	11
▁vanquished	11
▁Expiration	11
▁illiteracy	11
▁transferir	11
▁hydropower	11
▁Inhibitors	11
▁undermines	11
▁Discovered	11
ontological	11
▁Randomized	11
▁intercepts	11
▁minimalism	11
productions	11
▁Demolition	11
unsaturated	11
▁methodical	11
▁Lippincott	11
▁echocardio	11
▁Endocrinol	11
▁discarding	11
▁monumentos	11
▁Uniwersyte	11
▁directorio	11
▁inhabiting	11
▁blistering	11
▁desorption	11
Comparisons	11
▁Decorating	11
▁Directives	11
Biographies	11
▁pictograms	11
▁repertorio	11
▁flamboyant	11
▁Blackboard	11
▁Officially	11
▁admonition	11
▁multimeter	11
▁Christiane	11
▁ambulatory	11
▁transparan	11
Leaderboard	11
▁Valenzuela	11
▁Belarusian	11
▁inflicting	11
▁Indication	11
▁rheumatism	11
▁producenta	11
▁Volatility	11
▁Vulnerable	11
▁appraisals	11
▁CHARACTERS	11
▁Temptation	11
▁remittance	11
▁reschedule	11
▁Trajectory	11
▁directores	11
ToListAsync	11
▁Everglades	11
▁journaling	11
▁Wheelchair	11
▁campaigned	11
▁antiquated	11
▁protestors	11
▁HomeScreen	11
▁coalitions	11
ProductType	11
▁simulators	11
▁tourmaline	11
▁permissive	11
▁tranquillo	11
▁stepmother	11
▁Konkurrenz	11
▁STRUCTURES	11
▁Distribute	11
PhysRevLett	11
Equilibrium	11
▁checklists	11
▁SIMULATION	11
▁toxicology	11
omorphology	11
▁perceptive	11
Legislation	11
▁Transports	11
▁genotyping	11
▁ELECTRONIC	11
regulations	11
▁directrice	11
▁depictions	11
Positioning	11
Ventilation	11
▁DEPOSITORY	11
▁Immigrants	11
▁brevemente	11
▁Multiplier	11
▁dissonance	11
▁quaternion	11
▁STATEMENTS	11
▁detonation	11
Cooperative	11
Referenties	11
▁Mauritania	11
▁intrusions	11
▁modificare	11
circulation	11
▁alternates	11
▁Rainforest	11
▁australian	11
▁modulating	11
▁readership	11
▁outsourced	11
▁Reversible	11
▁syndicated	11
Vaccination	11
▁antithesis	11
▁patterning	11
▁governador	11
▁Ordovician	11
▁Queenstown	11
▁Sandwiches	11
▁infinitive	11
▁eradicated	11
compromised	11
▁divination	11
comfortably	11
▁Monticello	11
▁certifying	11
▁wrongfully	11
COMPOSITION	11
▁paragraphe	11
Populations	11
Battlefield	11
▁ApiService	11
▁Chronology	11
▁exchangers	11
▁porcentual	11
▁Geothermal	11
▁meridional	11
Amicalement	11
▁hesitating	11
UnitTesting	11
Testimonial	11
▁diversions	11
▁interposed	11
▁southbound	11
▁veranderen	11
Prosecutors	11
▁submissive	11
▁particules	11
▁Solicitors	11
▁antifungal	11
▁Postmaster	11
anniversary	11
▁Topography	11
▁logarithms	11
▁Highlander	11
controlling	11
▁conversing	11
▁depository	11
▁Pellegrini	11
▁verdieping	11
▁subtleties	11
▁Merseyside	11
▁typescript	11
▁channeling	11
▁APPLICABLE	11
▁Bonneville	11
▁informaron	11
▁configurer	11
FactoryBean	11
▁insatiable	11
commutative	11
transporter	11
▁eloquently	11
▁woodpecker	11
Controversy	11
Discografia	11
▁preliminar	11
▁subjecting	11
▁controlado	11
▁Binghamton	11
▁compendium	11
insensitive	11
▁contemplar	11
possibility	11
▁Shenandoah	11
▁connexions	11
▁unplayable	11
uncertainty	11
▁guerrillas	11
▁propellant	11
approximate	11
▁Sweatshirt	11
Discovering	11
▁REGULATION	11
▁immorality	11
▁metallurgy	11
▁Moderately	11
componentes	11
▁Ferdinando	11
▁Huntingdon	11
CloseHandle	11
▁innocently	11
▁scepticism	11
▁recompense	11
▁mechanized	11
photographe	11
▁unmodified	11
▁sculptured	11
▁StringUtil	11
▁allotments	11
potentially	11
▁Stretching	11
▁Turbulence	11
▁Repetition	11
▁speciation	11
PackageInfo	11
Investments	11
provisional	11
▁Remodeling	11
conversions	11
▁perplexing	11
▁suplemento	11
Documentary	11
StructField	11
▁widerrufen	11
AccessLevel	11
uminescence	11
▁aristocrat	11
▁engendered	11
▁translateY	11
SurfaceView	11
▁Competency	11
Assessments	11
▁tyrannical	11
Beautifully	11
importation	11
▁northbound	11
UNIVERSIDAD	11
▁judiciales	11
▁regeringen	11
▁Negotiable	11
▁Kingfisher	11
▁franquicia	11
▁nominating	11
▁stubbornly	11
▁collectons	11
DialogTitle	11
▁emblematic	11
Nominations	11
▁ecosistema	11
▁Presenting	11
▁Verbrechen	11
▁senescence	11
▁convaincre	11
▁ThreadPool	11
▁Downloaded	11
▁assignable	11
▁reappeared	11
StringField	11
▁transposed	11
ventilation	11
Subscribers	11
▁immemorial	11
▁manifiesto	11
▁negotiator	11
▁Elasticity	11
▁Councilman	11
▁Smithfield	11
▁controlada	11
▁sketchbook	11
positioning	11
▁fracturing	11
identifiers	11
▁downgraded	11
▁Polynesian	11
▁Transistor	11
MAINTENANCE	11
▁Ceremonies	11
▁multimodal	11
disciplinar	11
▁postulates	11
fashionable	11
▁Bloomsbury	11
▁provocando	11
Conversions	11
ORIENTATION	11
▁succinctly	11
contributor	11
▁pretrained	11
▁Hildebrand	11
▁unchanging	11
▁Preferably	11
▁humanistic	11
▁overtaking	11
▁punctuated	11
▁unlicensed	11
▁sputtering	11
▁Collateral	11
▁perpetuity	11
▁Productive	11
▁subversion	11
▁EFFICIENCY	11
▁berkunjung	11
▁maravillas	11
▁HIEROGLYPH	11
▁Somaliland	11
SetPosition	11
▁creditable	11
▁organelles	11
▁outfitters	11
▁retraining	11
Occurrences	11
▁Shakspeare	11
▁assailants	11
▁hornblende	11
▁overworked	11
▁prefrontal	11
Manufacture	11
▁Initialise	11
▁infraction	11
▁unreleased	11
▁Litchfield	11
cooperation	11
▁Cordillera	11
▁Rasulullah	11
objPHPExcel	11
▁Socialista	11
▁assistente	11
▁audiobooks	11
▁betrekking	11
▁Armageddon	11
▁Recognized	11
▁Compulsory	11
▁encampment	11
▁accessions	11
▁Concession	11
▁Transparen	11
▁Undertaker	11
▁uncovering	11
▁Discretion	11
▁highschool	11
WithDefault	11
TypeService	11
▁Satellites	11
▁Beneficial	11
Componentes	11
▁Intestinal	11
▁Completing	11
Chairperson	11
▁automating	11
▁degeneracy	11
▁nothwendig	11
▁Aleksandra	11
▁shopkeeper	11
▁convenable	11
Accumulator	11
▁depositors	11
▁needlessly	11
▁Estructura	11
▁Wittenberg	11
▁barbershop	11
▁mobiliario	11
▁cavitation	11
BeanFactory	11
screenshots	11
▁follicular	11
▁guesthouse	11
▁spotlights	11
▁cerebellar	11
▁downloaden	11
▁rhinoceros	11
▁Provenance	11
▁boyfriends	11
GetProperty	11
▁surgically	11
▁inaccuracy	11
▁insulators	11
▁linearized	11
Utilization	11
▁multilayer	11
▁sandalwood	11
▁Paglinawan	11
▁SCHOLASTIC	11
▁Shreveport	11
▁vindicated	11
▁Processors	11
▁chattering	11
▁underlines	11
▁Brainstorm	11
Constructed	11
▁Projectile	11
blockquote	10
▁different	10
▁following	10
▁available	10
▁something	10
▁important	10
subsection	10
▁character	10
▁including	10
▁PICTOGRAM	10
Controller	10
▁questions	10
▁relations	10
setcounter	10
▁community	10
▁represent	10
▁according	10
▁condition	10
▁beautiful	10
▁treatment	10
▁September	10
▁education	10
▁structure	10
▁knowledge	10
▁countries	10
▁recommend	10
▁potential	10
▁situation	10
▁therefore	10
References	10
▁difficult	10
▁President	10
▁attention	10
▁reference	10
▁materials	10
▁statement	10
▁political	10
▁resources	10
tification	10
▁companies	10
▁described	10
Conclusion	10
▁direction	10
Repository	10
▁increased	10
▁transport	10
▁equipment	10
▁operation	10
background	10
▁financial	10
▁sometimes	10
annotation	10
▁developed	10
▁effective	10
▁published	10
▁currently	10
▁implement	10
▁customers	10
▁interface	10
▁functions	10
Background	10
▁exception	10
▁Education	10
▁beginning	10
▁Committee	10
Connection	10
▁presented	10
▁generally	10
▁continued	10
▁interview	10
▁excellent	10
▁Institute	10
▁principal	10
▁Instagram	10
▁Microsoft	10
▁Christian	10
▁establish	10
▁mentioned	10
▁performed	10
▁solutions	10
▁component	10
▁determine	10
▁otherwise	10
▁selection	10
Discussion	10
▁Exception	10
▁influence	10
▁Australia	10
▁employees	10
▁completed	10
▁marketing	10
▁provision	10
▁providing	10
▁attribute	10
▁Christmas	10
▁connected	10
▁transform	10
▁agreement	10
▁variables	10
▁president	10
▁insurance	10
▁certainly	10
▁Community	10
▁advantage	10
▁processes	10
▁announced	10
▁technical	10
▁supported	10
▁standards	10
▁ArrayList	10
components	10
▁authority	10
▁extremely	10
▁challenge	10
▁procedure	10
▁regarding	10
Collection	10
▁operating	10
▁frequency	10
▁Wednesday	10
▁formation	10
▁concerned	10
▁interests	10
▁documents	10
▁expressed	10
▁wonderful	10
▁extension	10
Properties	10
▁generated	10
▁container	10
▁Secretary	10
Parameters	10
▁Professor	10
AspNetCore	10
▁discussed	10
controller	10
▁suggested	10
▁religious	10
▁remaining	10
▁Therefore	10
▁installed	10
▁explained	10
▁continues	10
▁technique	10
▁committee	10
connection	10
▁officials	10
▁buildings	10
▁According	10
▁indicated	10
▁estimated	10
▁decisions	10
▁expensive	10
▁reduction	10
▁conducted	10
▁increases	10
▁collected	10
boldsymbol	10
ifications	10
▁Francisco	10
▁tradition	10
▁confirmed	10
▁undefined	10
▁existence	10
▁defendant	10
▁wallpaper	10
▁positions	10
▁plaintiff	10
▁programme	10
▁principle	10
▁Resources	10
▁residents	10
▁personnel	10
▁Component	10
▁locations	10
▁chocolate	10
▁committed	10
▁carefully	10
newcommand	10
▁delivered	10
▁resulting	10
▁Questions	10
▁yesterday	10
▁household	10
▁Transport	10
▁depending	10
▁dangerous	10
▁perfectly	10
▁contained	10
▁submitted	10
▁thousands	10
▁afternoon	10
▁emergency	10
▁secondary	10
▁expansion	10
▁immediate	10
▁calculate	10
▁Champions	10
collection	10
▁receiving	10
▁permanent	10
▁comprehen	10
▁ourselves	10
▁apartment	10
▁breakfast	10
▁christmas	10
▁dimension	10
▁protected	10
▁dedicated	10
▁Copyright	10
▁algorithm	10
▁executive	10
▁evolution	10
▁appointed	10
▁equations	10
cknowledge	10
▁indicates	10
▁literally	10
Definition	10
▁framework	10
▁Executive	10
▁Character	10
▁purchased	10
▁basically	10
▁surprised	10
▁happening	10
▁obviously	10
▁Elizabeth	10
▁stability	10
▁conscious	10
▁spiritual	10
Expression	10
▁landscape	10
▁intention	10
▁objective	10
varepsilon	10
▁exclusive	10
▁encounter	10
▁mechanism	10
▁infection	10
▁responses	10
▁Marketing	10
▁listening	10
▁universal	10
▁directory	10
▁extensive	10
structions	10
▁seriously	10
▁delicious	10
▁Relations	10
▁Americans	10
University	10
Additional	10
▁typically	10
▁organized	10
Components	10
▁particles	10
▁substance	10
▁correctly	10
▁corporate	10
▁emotional	10
▁Materials	10
▁candidate	10
▁Alexander	10
▁reporting	10
▁satisfied	10
▁furniture	10
▁requested	10
▁somewhere	10
▁Available	10
▁Wikipedia	10
▁recording	10
▁behaviour	10
▁execution	10
Identifier	10
▁variation	10
properties	10
▁Technical	10
▁detection	10
▁preferred	10
▁signature	10
▁guarantee	10
▁sensitive	10
▁paragraph	10
▁regularly	10
▁languages	10
▁favourite	10
▁mountains	10
▁scheduled	10
▁naturally	10
▁Financial	10
▁dependent	10
▁suffering	10
▁addressed	10
▁Insurance	10
▁awareness	10
production	10
parameters	10
▁authentic	10
▁destroyed	10
▁champions	10
▁temporary	10
▁thickness	10
▁producing	10
▁recognize	10
▁reactions	10
Navigation	10
▁Assistant	10
▁returning	10
▁intensity	10
▁everybody	10
usepackage	10
▁consumers	10
▁involving	10
▁animation	10
Descriptor	10
▁threshold	10
▁construct	10
▁instances	10
▁Statement	10
▁movements	10
▁happiness	10
▁Reference	10
▁Container	10
▁introduce	10
Department	10
▁adventure	10
dification	10
▁Chemistry	10
validation	10
▁improving	10
Appearance	10
▁packaging	10
▁radiation	10
▁discovery	10
▁investors	10
▁residence	10
▁promotion	10
▁describes	10
▁territory	10
▁complaint	10
▁Singapore	10
▁operators	10
▁confident	10
▁diagnosis	10
▁architect	10
▁separated	10
javascript	10
Visibility	10
▁professor	10
▁compounds	10
▁qualified	10
▁Wisconsin	10
▁Sometimes	10
repository	10
▁Barcelona	10
▁diversity	10
▁telephone	10
expression	10
▁wondering	10
▁contracts	10
Validation	10
sibilities	10
▁permitted	10
▁Authority	10
navigation	10
▁assistant	10
▁worldwide	10
▁inventory	10
Management	10
▁preparing	10
attributes	10
▁contribut	10
▁newspaper	10
▁testimony	10
▁concluded	10
endsection	10
▁identical	10
▁classroom	10
▁Treatment	10
▁celebrate	10
▁childhood	10
▁platforms	10
▁strategic	10
▁highlight	10
▁Solutions	10
▁gradually	10
▁reception	10
▁emissions	10
▁addresses	10
▁initially	10
TagHelpers	10
▁stainless	10
▁elections	10
▁acknowled	10
▁copyright	10
▁measuring	10
▁exercises	10
▁Minnesota	10
Initialize	10
▁Argentina	10
formations	10
▁subreddit	10
▁expertise	10
containing	10
▁pollution	10
▁municipal	10
▁broadcast	10
▁Structure	10
▁providers	10
▁ownership	10
▁inflation	10
▁lifestyle	10
▁Represent	10
▁districts	10
ditionally	10
▁searching	10
▁molecular	10
▁converted	10
▁attempted	10
▁incorrect	10
▁neighbour	10
▁pregnancy	10
▁Hollywood	10
witzerland	10
▁realistic	10
migrations	10
▁relatives	10
Horizontal	10
▁streaming	10
unfinished	10
▁portfolio	10
▁alongside	10
▁magnitude	10
▁necessity	10
▁generator	10
▁liability	10
▁Equipment	10
▁PropTypes	10
initialize	10
▁confusion	10
▁occasions	10
▁Condition	10
▁responded	10
▁instagram	10
▁prominent	10
▁Operation	10
▁processed	10
▁forgotten	10
▁admission	10
▁followers	10
▁Interview	10
stylesheet	10
▁secretary	10
▁criticism	10
▁migration	10
CONCLUSION	10
▁reflected	10
▁predicted	10
Dimensions	10
categories	10
▁classical	10
▁qualities	10
▁Standards	10
▁libraries	10
▁varieties	10
▁Economics	10
▁centuries	10
▁certified	10
▁hospitals	10
▁abandoned	10
▁featuring	10
▁nutrition	10
▁traveling	10
▁intervals	10
▁molecules	10
▁recovered	10
▁breathing	10
▁comercial	10
DataSource	10
▁appellant	10
▁Agreement	10
▁Political	10
▁injection	10
▁suspended	10
▁reconstru	10
▁Liverpool	10
transition	10
▁abilities	10
JSONObject	10
▁Bluetooth	10
▁Published	10
▁evaluated	10
▁accompany	10
▁integrity	10
▁desirable	10
▁passenger	10
▁Beautiful	10
Permission	10
▁violation	10
▁computers	10
▁impressed	10
▁requiring	10
▁halloween	10
▁decreased	10
▁Plaintiff	10
▁chemistry	10
▁ecosystem	10
▁aesthetic	10
▁machinery	10
▁breakdown	10
management	10
▁synthesis	10
▁batteries	10
▁irregular	10
▁attending	10
▁deviation	10
▁preceding	10
▁convinced	10
▁Universal	10
▁shoulders	10
▁Challenge	10
▁excessive	10
▁Following	10
▁democracy	10
▁physician	10
Everything	10
▁identific	10
▁precisely	10
▁chemicals	10
▁eliminate	10
▁screening	10
▁narrative	10
▁sentences	10
ographical	10
▁gathering	10
▁sequences	10
processing	10
▁affecting	10
▁Tennessee	10
▁resistant	10
▁invention	10
▁Municipal	10
▁partition	10
▁sacrifice	10
▁Amsterdam	10
horizontal	10
▁partially	10
▁developer	10
▁Procedure	10
▁vegetable	10
▁placement	10
▁engineers	10
▁paintings	10
▁isolation	10
▁uncertain	10
▁producers	10
Serializer	10
▁Selection	10
▁employers	10
▁disorders	10
▁Knowledge	10
▁belonging	10
▁considers	10
▁departure	10
stereotype	10
▁instantly	10
▁mortality	10
▁sustained	10
▁satellite	10
▁neighbors	10
operations	10
▁hopefully	10
▁expecting	10
▁promoting	10
▁synthetic	10
▁referring	10
Serialized	10
▁succeeded	10
▁offensive	10
▁virtually	10
Attendance	10
▁directors	10
▁Employees	10
▁affection	10
Constraint	10
▁preserved	10
▁Charlotte	10
▁daughters	10
▁composite	10
▁finishing	10
▁creatures	10
▁Cleveland	10
▁Melbourne	10
▁rendering	10
▁Halloween	10
Extensions	10
▁Different	10
Originally	10
▁clearance	10
▁WordPress	10
Correspond	10
▁gentleman	10
▁unlimited	10
▁inclusive	10
▁elevation	10
▁elementos	10
▁validated	10
▁Important	10
▁financing	10
▁apparatus	10
▁constants	10
definition	10
ligibility	10
ViewHolder	10
▁inclusion	10
▁Extension	10
▁processor	10
▁Functions	10
▁remainder	10
▁furnished	10
▁Programme	10
▁distribut	10
▁franchise	10
▁comparing	10
▁defensive	10
▁volunteer	10
▁perceived	10
▁Something	10
▁obtaining	10
▁purchases	10
▁collision	10
▁overnight	10
▁configure	10
Annotation	10
▁accidents	10
Washington	10
mendations	10
▁extending	10
▁activated	10
▁Baltimore	10
▁Emergency	10
▁Jerusalem	10
▁Principal	10
▁expanding	10
▁abundance	10
▁attitudes	10
▁associate	10
decoration	10
▁TextStyle	10
▁witnesses	10
SpringBoot	10
Injectable	10
▁privilege	10
▁alignment	10
▁distances	10
concurrent	10
▁geometric	10
▁computing	10
▁scattered	10
▁graduated	10
▁amendment	10
▁Migration	10
▁workplace	10
▁occurring	10
▁publisher	10
▁Evolution	10
▁regulated	10
▁conflicts	10
▁EventArgs	10
Transition	10
▁continent	10
▁explosion	10
▁donations	10
▁exploring	10
▁alternate	10
▁promising	10
▁replacing	10
▁Associate	10
▁tolerance	10
▁Otherwise	10
▁attracted	10
Statistics	10
▁mechanics	10
▁companion	10
▁cognitive	10
▁competing	10
Directions	10
▁sophistic	10
▁Interface	10
▁suspected	10
generation	10
positories	10
▁Edinburgh	10
▁commander	10
▁september	10
▁boyfriend	10
▁decorated	10
▁Similarly	10
▁Catherine	10
▁investing	10
▁specially	10
▁suppliers	10
▁aluminium	10
▁selecting	10
▁Framework	10
permission	10
▁bluetooth	10
▁Formation	10
▁Excellent	10
▁campaigns	10
▁switching	10
▁workshops	10
▁societies	10
cellaneous	10
▁appearing	10
▁reasoning	10
▁phenomena	10
▁Louisiana	10
▁transfers	10
▁achieving	10
▁applicant	10
▁lightning	10
▁spreading	10
▁invisible	10
ACKNOWLEDG	10
▁aggregate	10
technology	10
▁dismissed	10
▁intensive	10
▁commented	10
Reflection	10
▁timestamp	10
▁electrons	10
▁Companies	10
▁divisions	10
▁primitive	10
▁opponents	10
▁Venezuela	10
▁incidents	10
▁surrender	10
▁prevented	10
▁Jefferson	10
▁induction	10
▁organisms	10
▁Corporate	10
▁designers	10
▁competent	10
▁Caribbean	10
▁prisoners	10
▁extracted	10
conditions	10
▁corrected	10
▁governing	10
▁Frequency	10
visibility	10
▁projected	10
▁Calculate	10
▁subscribe	10
▁initiated	10
constraint	10
▁Parameter	10
▁objection	10
Comparison	10
government	10
▁warehouse	10
▁pressures	10
▁retention	10
▁Engineers	10
Decoration	10
▁Frederick	10
▁voluntary	10
▁recipient	10
Typography	10
▁sculpture	10
▁economics	10
▁prospects	10
▁automated	10
▁favorites	10
Sequential	10
▁Mountains	10
▁consisted	10
▁similarly	10
descriptor	10
▁accepting	10
▁sponsored	10
▁decreases	10
▁Analytics	10
▁incidence	10
identifier	10
▁Directory	10
▁subjected	10
▁assembled	10
▁allegedly	10
▁justified	10
▁demanding	10
▁criterion	10
▁particuli	10
▁foregoing	10
▁amplitude	10
▁deposited	10
▁Direction	10
▁Potential	10
▁symmetric	10
▁substrate	10
▁Directors	10
▁anonymous	10
▁Transform	10
▁assurance	10
▁dissolved	10
▁designing	10
▁diagnosed	10
▁hazardous	10
▁legendary	10
▁Meanwhile	10
▁contacted	10
▁Telephone	10
▁consensus	10
▁connector	10
Multimedia	10
▁elaborate	10
Absolutely	10
▁cancelled	10
▁collector	10
▁comprises	10
▁provinces	10
▁butterfly	10
▁amenities	10
▁possessed	10
functional	10
▁strongest	10
▁Inventory	10
centration	10
▁Secondary	10
cyclopedia	10
▁allocated	10
▁Variables	10
▁spokesman	10
▁Adventure	10
▁standardi	10
dependency	10
▁Amendment	10
▁hydraulic	10
▁Operating	10
▁dominated	10
▁Biography	10
▁conductor	10
▁obstacles	10
Evaluation	10
▁Currently	10
▁behaviors	10
ForeignKey	10
Individual	10
▁protocols	10
Middleware	10
▁ministers	10
▁exhibited	10
▁catalogue	10
▁nutrients	10
▁corrosion	10
Conditions	10
Government	10
▁prototype	10
▁Southeast	10
▁gentlemen	10
▁disappear	10
▁memorable	10
Illuminate	10
▁Generator	10
▁organised	10
▁sensation	10
▁rectangle	10
▁Molecular	10
▁Commander	10
Highlights	10
restaurant	10
Objectives	10
▁motivated	10
▁Documents	10
▁Nutrition	10
▁Anonymous	10
resolution	10
▁indispens	10
▁embarrass	10
▁Friedrich	10
▁seemingly	10
Assessment	10
Processing	10
responsive	10
▁convicted	10
▁Discovery	10
▁musicians	10
▁schedules	10
▁analytics	10
▁Valentine	10
▁duplicate	10
▁Princeton	10
▁targeting	10
endforeach	10
▁recycling	10
▁testified	10
▁ignorance	10
population	10
ScrollView	10
Population	10
▁scientist	10
▁proceeded	10
▁Customers	10
▁enjoyable	10
especially	10
▁combining	10
▁reservoir	10
California	10
▁attacking	10
▁righteous	10
▁Chocolate	10
▁magazines	10
▁Libraries	10
▁Hampshire	10
▁vibration	10
▁difficile	10
▁reporters	10
▁converter	10
▁bacterial	10
▁witnessed	10
▁audiences	10
Attachment	10
Technology	10
▁respected	10
▁salvation	10
▁wholesale	10
Generation	10
▁answering	10
▁Detection	10
LinkedList	10
▁hilarious	10
pendicular	10
▁strengths	10
▁empirical	10
▁oxidation	10
successful	10
▁confusing	10
IgnoreCase	10
Advantages	10
▁Breakfast	10
activation	10
▁graduates	10
MessageBox	10
▁sanctions	10
▁curiosity	10
▁utilities	10
▁Subscribe	10
▁welcoming	10
▁microwave	10
▁exceeding	10
▁neglected	10
timestamps	10
▁discounts	10
begingroup	10
▁Communist	10
▁potassium	10
▁limestone	10
extensions	10
department	10
▁Animation	10
▁northeast	10
Foundation	10
▁Algorithm	10
Experience	10
▁offerings	10
▁workforce	10
▁dashboard	10
▁Effective	10
▁maintains	10
▁versatile	10
▁factories	10
▁Stockholm	10
▁Automatic	10
▁livestock	10
▁stretched	10
▁portraits	10
▁presently	10
▁reproduce	10
▁selective	10
▁renewable	10
Resolution	10
▁accounted	10
▁chevrolet	10
▁Henderson	10
▁economies	10
▁Mechanics	10
▁examining	10
▁struggles	10
▁countless	10
▁Establish	10
GameObject	10
▁undertake	10
▁southeast	10
▁triggered	10
TestMethod	10
controlled	10
OptionPane	10
Instrument	10
▁Brazilian	10
▁complexes	10
▁Architect	10
▁disclosed	10
▁Cathedral	10
▁fortunate	10
▁addiction	10
▁Signature	10
▁exhausted	10
▁Situation	10
▁intellect	10
▁interfere	10
▁celebrity	10
▁Northwest	10
▁inspiring	10
▁additions	10
▁Milwaukee	10
▁Orchestra	10
▁backwards	10
▁sentenced	10
▁prolonged	10
JTextField	10
▁Dimension	10
▁mushrooms	10
▁depressed	10
▁logistics	10
▁signaling	10
▁penalties	10
erequisite	10
▁Boulevard	10
▁exchanges	10
▁Reporting	10
▁assertion	10
Operations	10
▁citations	10
▁Newcastle	10
▁Developer	10
▁Pinterest	10
Definitely	10
screenshot	10
▁retailers	10
▁Provision	10
▁satisfies	10
▁resonance	10
▁defending	10
▁mutations	10
▁Computing	10
▁proximity	10
▁ambitious	10
▁Ukrainian	10
middleware	10
▁accessory	10
▁disciples	10
▁abdominal	10
▁institute	10
▁reviewing	10
▁predecess	10
▁Reduction	10
ighborhood	10
▁commenced	10
▁benchmark	10
▁fireplace	10
Foreground	10
▁fulfilled	10
PrimaryKey	10
▁Constants	10
▁Sebastian	10
▁launching	10
▁recommand	10
▁generates	10
▁commodity	10
▁prejudice	10
▁phosphate	10
▁ancestors	10
▁rejection	10
▁fractions	10
▁LIBRARIES	10
▁Increased	10
▁compelled	10
▁believing	10
▁cigarette	10
▁appealing	10
▁enjoyment	10
▁Armstrong	10
▁evidently	10
▁inquiries	10
▁discourse	10
▁Strategic	10
▁Generally	10
▁Obviously	10
▁metabolic	10
▁nominated	10
▁conceived	10
▁fertility	10
individual	10
JavaScript	10
▁contradic	10
▁regulator	10
▁successor	10
▁filtering	10
▁databases	10
▁modelling	10
interfaces	10
Commercial	10
Restaurant	10
Characters	10
experience	10
▁disturbed	10
▁Certified	10
▁electrode	10
▁nightmare	10
▁Symposium	10
▁relevance	10
▁incentive	10
▁electoral	10
▁simulator	10
additional	10
ScrollPane	10
▁therapist	10
▁customize	10
▁releasing	10
dictionary	10
▁Christine	10
▁Inspector	10
▁observing	10
▁documento	10
▁Landscape	10
▁cardboard	10
inheritdoc	10
▁classific	10
Dispatcher	10
▁medicines	10
MainWindow	10
▁Practical	10
▁fragrance	10
▁Languages	10
Preference	10
▁Equations	10
▁responder	10
▁bathrooms	10
▁sincerely	10
▁simulated	10
▁unchanged	10
▁condemned	10
▁Countries	10
▁processus	10
breadcrumb	10
attachment	10
▁nonlinear	10
▁inherited	10
▁forbidden	10
▁inference	10
▁Roosevelt	10
▁Practices	10
▁Treasurer	10
▁industria	10
worthiness	10
▁genuinely	10
Migrations	10
▁merchants	10
▁inability	10
titutional	10
▁Quarterly	10
▁programas	10
▁specialty	10
▁Fisheries	10
▁Publisher	10
▁defective	10
▁strangers	10
serialized	10
▁survivors	10
▁Schneider	10
▁valuation	10
▁Robertson	10
▁discusses	10
▁exquisite	10
▁receptors	10
▁administr	10
Percentage	10
▁minecraft	10
▁transient	10
▁emphasize	10
▁travelers	10
▁petroleum	10
▁revealing	10
▁explosive	10
▁localized	10
▁Rodriguez	10
▁delegates	10
▁screaming	10
▁Essential	10
▁Nashville	10
VersionUID	10
▁originals	10
▁Minecraft	10
▁listeners	10
vitational	10
▁multitude	10
▁utilizing	10
▁bandwidth	10
prehensive	10
▁withdrawn	10
▁consuming	10
▁christian	10
▁exercised	10
▁Yorkshire	10
Activities	10
reasonable	10
▁amplifier	10
▁Territory	10
▁Norwegian	10
▁comprised	10
▁vectorial	10
▁probation	10
▁surviving	10
▁concludes	10
Associated	10
acceptable	10
▁saturated	10
▁affiliate	10
▁stimulate	10
▁blessings	10
▁Petroleum	10
▁assessing	10
▁terrorist	10
associated	10
▁adjusting	10
▁Furniture	10
▁analyzing	10
▁recognise	10
serializer	10
▁festivals	10
Interfaces	10
▁intermedi	10
▁Hopefully	10
Unexpected	10
▁orchestra	10
▁travelled	10
▁insertion	10
▁commanded	10
▁Rochester	10
▁biography	10
▁Committed	10
Experiment	10
▁magnesium	10
▁licensing	10
▁collapsed	10
Dependency	10
▁luxurious	10
▁Scripture	10
Collectors	10
▁Influence	10
entreprise	10
▁Peninsula	10
tilization	10
completion	10
▁Victorian	10
▁historian	10
▁wrestling	10
▁Attention	10
▁balancing	10
Commission	10
▁premature	10
▁Northeast	10
▁Stability	10
industrial	10
Deprecated	10
▁printable	10
authorized	10
▁beginners	10
▁intuitive	10
▁Implement	10
▁Southwest	10
▁STATEMENT	10
▁educators	10
▁Configure	10
▁colleague	10
▁supplying	10
▁trademark	10
▁emergence	10
▁northwest	10
▁Dashboard	10
DataMember	10
▁viscosity	10
▁Promotion	10
exceptions	10
▁Synthesis	10
Compatible	10
▁repeating	10
▁digestion	10
▁entertain	10
▁messenger	10
▁mitochond	10
▁Processes	10
▁criminals	10
▁artifacts	10
▁Geography	10
▁terminals	10
▁ordinance	10
Coordinate	10
▁Lightning	10
▁Diversity	10
▁auxiliary	10
▁uniformly	10
▁Beginning	10
structures	10
▁footprint	10
▁Photoshop	10
Referanser	10
Assertions	10
▁practiced	10
▁privately	10
compatible	10
commercial	10
▁Pollution	10
▁populares	10
Australian	10
▁Alignment	10
confidence	10
▁manifesta	10
▁Unlimited	10
everything	10
▁installer	10
Completion	10
ynchronous	10
▁registers	10
▁Continued	10
▁alcoholic	10
▁negotiate	10
▁terminate	10
▁retaining	10
▁pertinent	10
▁possesses	10
▁Buildings	10
▁EDUCATION	10
▁advancing	10
MouseEvent	10
▁pulmonary	10
▁teammates	10
▁Objective	10
▁inversion	10
▁quarterly	10
▁geography	10
▁energetic	10
▁advocates	10
▁southwest	10
▁judgement	10
▁directing	10
▁terrorism	10
▁Stainless	10
▁carbonate	10
▁recession	10
difference	10
▁worksheet	10
▁Religious	10
▁exemption	10
advantages	10
statistics	10
▁publicity	10
newtheorem	10
▁Ministers	10
Literature	10
▁observers	10
identified	10
▁Certainly	10
▁exchanged	10
Successful	10
▁Methodist	10
▁Household	10
▁religions	10
▁technolog	10
▁sandstone	10
activities	10
percentage	10
▁employing	10
▁attentive	10
ticultural	10
▁excluding	10
references	10
▁withstand	10
assignment	10
▁reinforce	10
disconnect	10
▁flowering	10
▁truncated	10
▁normalize	10
instrument	10
▁prevalent	10
▁triangles	10
▁apologize	10
▁meanwhile	10
Simulation	10
▁declining	10
▁Lancaster	10
▁spotlight	10
▁Veranstal	10
▁messaging	10
▁Radiation	10
▁assisting	10
▁Sequelize	10
▁Execution	10
▁splitting	10
▁acquiring	10
▁displaced	10
▁considera	10
▁offspring	10
▁judgments	10
▁spherical	10
▁Stephanie	10
▁Locations	10
▁watershed	10
IconButton	10
▁Depending	10
▁rewarding	10
▁Chronicle	10
▁enhancing	10
▁presenter	10
▁activists	10
▁detective	10
▁expresses	10
Registered	10
Protection	10
Electronic	10
▁Responses	10
▁unwilling	10
▁Bootstrap	10
▁cosmetics	10
Conversion	10
▁Permanent	10
ordination	10
▁beverages	10
ensitivity	10
▁Messenger	10
▁discrepan	10
▁Packaging	10
▁ascertain	10
▁Portfolio	10
▁sparkling	10
▁inspector	10
▁directive	10
▁detention	10
▁swallowed	10
▁electroly	10
Monitoring	10
▁Telegraph	10
▁surprises	10
▁ornaments	10
▁completes	10
▁aforesaid	10
▁Exclusive	10
▁Honorable	10
▁connexion	10
▁Bloomberg	10
▁retrieval	10
▁Rectangle	10
▁advisable	10
▁Estimated	10
▁remembers	10
Calculator	10
▁porcelain	10
▁headlines	10
▁expressly	10
registered	10
▁concealed	10
▁Brunswick	10
reditation	10
▁appliance	10
Industrial	10
▁contacter	10
▁Ferdinand	10
▁Churchill	10
▁cathedral	10
▁encrypted	10
▁artillery	10
▁Technique	10
▁ambulance	10
▁imperfect	10
▁analogous	10
▁Awareness	10
▁inhibitor	10
Comparator	10
▁modificar	10
▁Composite	10
▁Utilities	10
▁discontin	10
▁readiness	10
Conference	10
▁Tradition	10
▁safeguard	10
▁socialist	10
Historical	10
▁Apartment	10
▁Patterson	10
▁gardening	10
▁endeavour	10
▁executing	10
▁Leicester	10
▁CHARACTER	10
▁medicinal	10
▁Christina	10
Functional	10
▁courtyard	10
▁fisheries	10
▁treasures	10
▁averaging	10
▁forecasts	10
▁curvature	10
▁accessing	10
▁rebellion	10
▁wellbeing	10
▁quotation	10
▁dismissal	10
▁wandering	10
▁Katherine	10
▁realizing	10
▁Expansion	10
valuations	10
▁superhero	10
▁civilians	10
▁successes	10
▁adjoining	10
▁customary	10
▁slightest	10
▁Construct	10
▁Organizer	10
▁cartridge	10
characters	10
▁supporter	10
▁milestone	10
▁cocktails	10
▁documenta	10
▁Democracy	10
▁dividends	10
coordinate	10
▁DataTypes	10
▁digestive	10
▁Generated	10
▁organizer	10
▁seedlings	10
▁Classical	10
▁perimeter	10
▁announces	10
StyleSheet	10
▁Chemicals	10
intestinal	10
▁Presbyter	10
▁dominance	10
▁workspace	10
▁cooperate	10
▁AllAfrica	10
▁oversized	10
Pagination	10
▁Hungarian	10
▁equitable	10
▁harvested	10
▁downloads	10
▁Recording	10
▁stiffness	10
▁Sheffield	10
▁consulted	10
▁retrieved	10
▁reluctant	10
▁fictional	10
▁waterfall	10
NAVIGATION	10
Newsletter	10
▁Admission	10
▁stressful	10
▁creditors	10
▁Residence	10
▁fireworks	10
implements	10
Ingredient	10
▁specifies	10
▁lettering	10
▁shipments	10
▁malicious	10
▁arthritis	10
▁poisoning	10
▁upgrading	10
▁densities	10
foundation	10
▁pneumonia	10
▁presentes	10
▁Macmillan	10
IFICATIONS	10
▁valentine	10
▁cylinders	10
▁afterward	10
▁liquidity	10
▁Authentic	10
Invocation	10
▁Satellite	10
▁histories	10
▁Principle	10
proportion	10
▁inspected	10
orological	10
▁borrowing	10
▁Simulator	10
Membership	10
▁telescope	10
▁Volunteer	10
▁Carpenter	10
▁Variation	10
▁diligence	10
▁formatted	10
▁teachings	10
▁ImageView	10
▁Riverside	10
▁preaching	10
▁staircase	10
▁Spiritual	10
▁unrelated	10
▁Guarantee	10
▁differing	10
tensorflow	10
▁attendees	10
▁populated	10
▁Including	10
▁innocence	10
IDENTIFIER	10
Difference	10
▁admirable	10
▁declaring	10
▁ascending	10
▁performer	10
▁pineapple	10
▁royalties	10
▁incapable	10
▁cleansing	10
▁superstar	10
▁threading	10
Electrical	10
Inhalation	10
▁scratches	10
▁summarize	10
prediction	10
▁Coalition	10
▁capturing	10
JoinColumn	10
▁removable	10
▁creations	10
▁realities	10
▁sanctuary	10
▁interesse	10
▁hereafter	10
▁underwear	10
▁secretion	10
▁imitation	10
▁postponed	10
▁greatness	10
Difficulty	10
▁offenders	10
▁distilled	10
▁hairstyle	10
▁Chevrolet	10
▁ViewGroup	10
▁viability	10
▁Everybody	10
▁viewpoint	10
▁discarded	10
▁recruited	10
▁Lifestyle	10
▁intercept	10
▁Alexandra	10
▁Europeans	10
importance	10
▁appraisal	10
Frequently	10
▁TextField	10
▁Catholics	10
conference	10
Laboratory	10
▁Stateless	10
▁deduction	10
Exceptions	10
▁canonical	10
▁Exercises	10
impression	10
▁receivers	10
Regression	10
▁disasters	10
▁Worldwide	10
▁victories	10
▁restraint	10
▁galleries	10
▁Wrestling	10
▁Worcester	10
▁insulated	10
▁QUESTIONS	10
▁Hurricane	10
▁Parkinson	10
▁lawmakers	10
▁preschool	10
▁statistic	10
PLICATIONS	10
▁Augustine	10
▁serialize	10
▁hurricane	10
Scientific	10
▁pronounce	10
▁compliant	10
BigInteger	10
▁Stevenson	10
currencies	10
▁recurring	10
▁villagers	10
▁Collector	10
▁doctrines	10
▁slaughter	10
▁continuer	10
▁COMMITTEE	10
▁Paragraph	10
▁Diagnosis	10
▁persuaded	10
▁paperwork	10
▁portrayed	10
▁therapies	10
Prediction	10
▁restoring	10
▁Nigerians	10
▁Basically	10
▁Classroom	10
containers	10
▁authorize	10
commission	10
▁purchaser	10
Supporting	10
▁debugging	10
▁Complaint	10
▁cultivate	10
TableModel	10
▁Bangalore	10
▁subsidies	10
▁ambitions	10
▁underwent	10
▁unusually	10
▁seventeen	10
Personally	10
▁Assurance	10
▁Logistics	10
▁monastery	10
▁algebraic	10
▁turbulent	10
▁fishermen	10
▁Directive	10
Executives	10
▁americana	10
protection	10
▁Liability	10
▁communion	10
▁passwords	10
▁parenting	10
▁fractures	10
▁touchdown	10
▁Activated	10
▁carretera	10
▁descargar	10
▁taxpayers	10
▁registrar	10
▁intuition	10
▁Hyderabad	10
▁oversight	10
▁resultant	10
▁Tottenham	10
Subscriber	10
▁detailing	10
experiment	10
▁nostalgia	10
▁prevailed	10
invalidate	10
▁colourful	10
▁wholesome	10
▁Scientist	10
▁Sociology	10
deployment	10
▁detecting	10
▁Canadians	10
▁trembling	10
▁Fantastic	10
▁Numerical	10
▁Screening	10
pointments	10
▁conferred	10
▁penetrate	10
▁Rotterdam	10
▁vengeance	10
▁rehabilit	10
▁recurrent	10
▁Cognitive	10
▁operative	10
▁rationale	10
▁pathology	10
Mechanical	10
▁repairing	10
▁Emissions	10
▁illnesses	10
▁mentality	10
▁Socialist	10
normalized	10
▁Contracts	10
▁Lexington	10
▁Completed	10
▁recursive	10
▁wikipedia	10
▁pleasures	10
▁graphical	10
▁Converter	10
▁multiples	10
evaluation	10
assistance	10
▁parasites	10
▁marriages	10
Screenshot	10
foreground	10
▁submarine	10
▁dispersed	10
Apparently	10
▁Warehouse	10
▁notorious	10
▁allergies	10
▁Butterfly	10
observable	10
▁honorable	10
▁treasurer	10
▁Naturally	10
▁Streaming	10
▁phosphory	10
▁Bollywood	10
▁occupancy	10
▁shattered	10
checkpoint	10
▁Advantage	10
▁ambiguous	10
▁immigrant	10
▁renovated	10
▁believers	10
structural	10
▁Computers	10
▁Lafayette	10
▁schooling	10
▁entrusted	10
Recognizer	10
▁construed	10
▁benefited	10
changeable	10
▁erroneous	10
▁forwarded	10
▁shortages	10
▁confessed	10
▁enquiries	10
▁excursion	10
▁Arlington	10
▁replicate	10
▁counselor	10
▁AVAILABLE	10
regulation	10
Projection	10
▁participa	10
▁uncovered	10
▁interessi	10
▁Connected	10
▁condensed	10
▁tentative	10
▁augmented	10
▁Gentlemen	10
▁mysteries	10
▁Typically	10
▁Machinery	10
▁Schematic	10
▁interesar	10
▁defenders	10
Principles	10
assessment	10
▁bootstrap	10
▁communist	10
▁undergone	10
▁RESOURCES	10
▁QtWidgets	10
dependence	10
▁microbial	10
Classifier	10
▁Athletics	10
▁traveller	10
▁intricate	10
▁revisions	10
▁Reservoir	10
▁Detective	10
▁Librarian	10
▁Childhood	10
Submission	10
▁requisite	10
▁embedding	10
conversion	10
▁hollywood	10
▁moderator	10
▁inception	10
▁adherence	10
▁agreeable	10
▁botanical	10
▁delantero	10
Persistent	10
▁naturelle	10
▁terrified	10
▁worthless	10
▁Candidate	10
▁Submitted	10
▁projector	10
▁celestial	10
chargeable	10
▁TypeError	10
IsRequired	10
▁apoptosis	10
▁controlar	10
▁distorted	10
▁Hernandez	10
▁exposures	10
▁engraving	10
googleapis	10
DESCRIPTOR	10
STRUCTIONS	10
▁minimalis	10
▁Behaviour	10
▁kebutuhan	10
▁longevity	10
▁Regarding	10
▁railroads	10
▁Processor	10
connecting	10
calculator	10
▁Antworten	10
▁Beethoven	10
electronic	10
▁modifiers	10
compressed	10
▁incubated	10
▁sweetness	10
▁presentar	10
▁modifying	10
Especially	10
▁sexuality	10
▁elemental	10
▁exploited	10
▁gastronom	10
▁Hospitals	10
▁continuum	10
▁verificar	10
▁routinely	10
▁Broadcast	10
▁empowered	10
▁statewide	10
▁residency	10
▁clipboard	10
▁inaugural	10
Television	10
▁sunflower	10
▁Compounds	10
▁avantages	10
▁Wonderful	10
▁intestine	10
Credential	10
processors	10
▁Interesse	10
▁Billboard	10
▁Measuring	10
Deployment	10
▁advertise	10
BeforeEach	10
comparison	10
▁elephants	10
▁hydroxide	10
▁maternity	10
▁modelleri	10
Prevention	10
▁incumbent	10
▁Ecosystem	10
▁socialism	10
Translated	10
cipitation	10
▁intervene	10
▁Protected	10
▁Salisbury	10
▁Reactions	10
▁Dominican	10
interested	10
▁immersion	10
▁obsession	10
▁resolving	10
▁aftermath	10
continuous	10
Activation	10
▁Gentleman	10
reflection	10
▁admitting	10
▁evidenced	10
▁visualize	10
▁Mechanism	10
▁whichever	10
▁Disorders	10
▁Donations	10
▁Integrity	10
▁avoidance	10
▁Argentine	10
university	10
ricultural	10
▁broadband	10
▁charities	10
▁peninsula	10
▁Temporary	10
▁Greenwood	10
▁malignant	10
simulation	10
▁Reception	10
▁Injection	10
▁inserting	10
▁vergessen	10
Facilities	10
▁Synthetic	10
▁scrolling	10
▁hepatitis	10
▁responsab	10
Structural	10
projection	10
▁Dangerous	10
▁depicting	10
synthesize	10
startswith	10
▁DataTable	10
Investment	10
▁poisonous	10
correspond	10
▁traumatic	10
▁Elections	10
▁yellowish	10
▁governors	10
▁Placement	10
deprecated	10
structured	10
▁Middleton	10
▁mythology	10
▁Holocaust	10
▁Battalion	10
▁patriotic	10
▁agradable	10
▁histogram	10
▁paramount	10
▁Infection	10
datepicker	10
▁Providing	10
▁COMMUNITY	10
▁textbooks	10
▁depletion	10
▁Pregnancy	10
▁Newspaper	10
▁absorbing	10
▁historias	10
▁Ordinance	10
▁Botanical	10
▁corrupted	10
▁servicing	10
Enterprise	10
Translator	10
▁mediation	10
▁scholarly	10
▁Registrar	10
andinavian	10
FileSystem	10
▁courteous	10
▁cellulose	10
▁alleviate	10
▁violating	10
▁Rajasthan	10
▁stationed	10
▁Ownership	10
▁derselben	10
▁patiently	10
▁faculties	10
▁importing	10
▁inorganic	10
Motivation	10
▁greetings	10
ologically	10
▁Highlands	10
▁Pathology	10
▁clarified	10
▁Listening	10
Leadership	10
▁Astronomy	10
▁Societies	10
▁abolished	10
Interested	10
▁hostility	10
▁thrilling	10
▁awakening	10
Supplement	10
iterations	10
▁Improving	10
▁Timestamp	10
▁Alternate	10
▁cherished	10
▁arranging	10
▁untreated	10
▁proactive	10
AlterField	10
▁Cardinals	10
▁bracelets	10
transforms	10
▁Interests	10
▁Financing	10
▁perennial	10
AnswerStep	10
▁Electoral	10
▁ActionBar	10
▁Wallpaper	10
▁Partition	10
▁Happiness	10
coroutines	10
▁oxidative	10
▁accession	10
▁freelance	10
▁heartbeat	10
▁Emotional	10
Disclosure	10
▁Downloads	10
versations	10
▁conglomer	10
▁raspberry	10
▁formulate	10
▁Thickness	10
▁endpoints	10
▁Dickinson	10
▁uninstall	10
▁TRANSPORT	10
▁librarian	10
▁additives	10
▁Sanctuary	10
▁occupying	10
▁Pakistani	10
▁Translate	10
▁prescribe	10
▁Supported	10
▁persisted	10
▁Collected	10
▁reverence	10
typescript	10
Analytical	10
rification	10
▁advocated	10
▁academics	10
▁Karnataka	10
▁ethnicity	10
placements	10
▁proposing	10
▁willingly	10
▁FormGroup	10
▁appellate	10
▁threatens	10
classified	10
▁Substance	10
FileReader	10
▁forefront	10
▁dinosaurs	10
▁Greenwich	10
▁ambiguity	10
▁moonlight	10
▁panoramic	10
▁groceries	10
▁Aerospace	10
▁davantage	10
▁illegally	10
▁exporting	10
▁positives	10
▁Initially	10
Employment	10
▁inhabited	10
▁polishing	10
▁regulates	10
▁Benchmark	10
▁prognosis	10
appearance	10
▁recorrido	10
▁Superhost	10
▁Wilkinson	10
▁Hydraulic	10
annulation	10
employment	10
▁contested	10
▁unanimous	10
▁pathogens	10
▁phenotype	10
▁departing	10
▁kilometer	10
▁deadlines	10
▁intersect	10
▁publishes	10
▁ancestral	10
Transcript	10
▁occupants	10
▁economist	10
▁conserved	10
▁tolerated	10
▁Decisions	10
▁abolition	10
▁pediatric	10
▁Fernandez	10
▁catalytic	10
▁designate	10
▁Gallagher	10
▁inscribed	10
Animations	10
▁Seriously	10
▁MacDonald	10
▁landmarks	10
PictureBox	10
engagement	10
▁Workshops	10
▁deportiva	10
▁dwellings	10
Formatting	10
▁contrasts	10
▁compartil	10
Continuous	10
▁Residents	10
ViewModels	10
▁Cristiano	10
▁patronage	10
classifier	10
Throughout	10
▁Découvrez	10
ouncements	10
▁semantics	10
▁shortened	10
▁capillary	10
▁Vegetable	10
▁Operators	10
▁Immediate	10
▁completar	10
increasing	10
integrated	10
▁DOCUMENTS	10
▁australia	10
revolution	10
▁Abstracts	10
▁Magazines	10
▁dispenser	10
ModelState	10
▁Governors	10
▁reviewers	10
productive	10
▁adversely	10
▁Spotlight	10
mechanical	10
irectional	10
▁submerged	10
▁SEPTEMBER	10
Automation	10
▁Saturdays	10
▁landlords	10
▁flattened	10
▁informing	10
▁acclaimed	10
ObjectType	10
▁farmhouse	10
▁francisco	10
▁nationals	10
▁hydration	10
Biological	10
▁reminders	10
▁reminding	10
▁Greenland	10
▁civilized	10
▁violently	10
▁petitions	10
difficulty	10
▁transfert	10
urlencoded	10
▁EQUIPMENT	10
SearchView	10
▁discovers	10
▁adjective	10
degradable	10
▁pointless	10
▁Salvation	10
▁adjourned	10
Accessible	10
▁Passenger	10
statements	10
Composable	10
▁patriarch	10
▁specifics	10
▁stringent	10
▁seasoning	10
▁Recycling	10
▁warranted	10
▁strangely	10
▁Malaysian	10
▁storyline	10
Integrated	10
▁undertook	10
▁relevante	10
▁antiquity	10
▁immensely	10
▁athletics	10
▁extremity	10
▁scheduler	10
▁Inflation	10
▁supremacy	10
▁Connector	10
▁Modelling	10
▁diplomacy	10
▁imbalance	10
▁Applicant	10
compliance	10
▁apologies	10
▁Inclusion	10
▁controllo	10
▁smoothing	10
attractive	10
▁Episcopal	10
▁Nicholson	10
enterprise	10
▁Investors	10
▁teaspoons	10
▁plentiful	10
▁Celebrity	10
▁centrifug	10
▁profiling	10
▁blueprint	10
▁reconcile	10
▁rewritten	10
▁formatter	10
▁sectional	10
▁skeptical	10
▁contended	10
▁preserves	10
▁itertools	10
▁Delicious	10
▁sociology	10
▁Sculpture	10
▁fisherman	10
Innovation	10
▁Physician	10
preference	10
▁branching	10
▁surrounds	10
candidates	10
▁fortnight	10
inspection	10
Correction	10
▁countdown	10
Suggestion	10
▁prochaine	10
▁undermine	10
▁Mackenzie	10
▁Presented	10
▁Lithuania	10
▁integrals	10
▁pipelines	10
▁sincerity	10
occupation	10
▁protested	10
▁freshness	10
▁astronomy	10
WireFormat	10
Allocation	10
▁carpenter	10
Revolution	10
▁intensely	10
investment	10
▁Guillermo	10
▁scratched	10
▁coastline	10
▁photoshop	10
Occupation	10
historical	10
▁surpassed	10
▁stitching	10
dispatcher	10
▁intrusion	10
▁whitening	10
▁reprinted	10
▁corridors	10
Understand	10
understand	10
Inspection	10
▁repayment	10
▁signifies	10
▁condenser	10
Connecting	10
physiology	10
animations	10
Regulation	10
idemiology	10
SqlCommand	10
rophoresis	10
submission	10
▁assigning	10
▁guideline	10
▁Yesterday	10
Installing	10
▁stabilize	10
▁Automated	10
▁logically	10
▁amounting	10
monitoring	10
Downloaded	10
▁Officials	10
▁unfolding	10
▁defeating	10
▁navigator	10
▁overthrow	10
▁inhibited	10
Expiration	10
▁homestead	10
Importance	10
▁inflicted	10
▁PROCEDURE	10
▁INSURANCE	10
▁oppressed	10
▁Bernstein	10
▁shoreline	10
scientific	10
▁Mukherjee	10
▁reopening	10
▁attaching	10
Multiplier	10
▁Conscious	10
▁reinstall	10
DISCLAIMER	10
Reactivity	10
▁Elevation	10
subscriber	10
▁factorial	10
▁artesanal	10
▁hesitated	10
▁vacancies	10
▁elongated	10
▁snowboard	10
▁Limestone	10
▁Wholesale	10
FileWriter	10
▁permainan	10
▁temperate	10
▁deserving	10
▁lingering	10
▁Antarctic	10
▁liberties	10
▁Districts	10
consistent	10
▁Nathaniel	10
Concurrent	10
▁mammalian	10
▁guitarist	10
▁casserole	10
▁Macedonia	10
▁Continent	10
Previously	10
▁parallels	10
▁Navigator	10
Accounting	10
▁Narrative	10
innovation	10
▁Industrie	10
▁especific	10
▁diaphragm	10
▁Batteries	10
▁rejecting	10
▁Scheduled	10
▁lucrative	10
▁polarized	10
▁Workplace	10
▁exemplary	10
▁coherence	10
performing	10
▁Wimbledon	10
▁commended	10
▁conducive	10
▁patterned	10
▁decidedly	10
▁earnestly	10
▁outbreaks	10
▁radically	10
translator	10
▁Highlight	10
▁mentoring	10
restricted	10
Angleterre	10
▁educating	10
▁Magnesium	10
▁symposium	10
▁demonstra	10
▁Gibraltar	10
Networking	10
▁blindness	10
▁presentan	10
▁Watershed	10
▁amplified	10
Photograph	10
Supervisor	10
▁diameters	10
▁refreshed	10
Applicable	10
▁Forgotten	10
UNIVERSITY	10
resistance	10
ButtonText	10
▁Microwave	10
▁enforcing	10
▁disrupted	10
▁registros	10
Solubility	10
▁planetary	10
▁negatives	10
▁STRUCTURE	10
▁Mansfield	10
Profession	10
▁impending	10
▁uploading	10
▁originate	10
▁Investing	10
▁evacuated	10
WASHINGTON	10
▁unpopular	10
ColumnName	10
sification	10
▁microsoft	10
▁pesticide	10
Eventually	10
▁RECOMMEND	10
▁impartial	10
▁provenant	10
▁Increases	10
▁Blackwell	10
▁assaulted	10
▁alliances	10
▁ViewModel	10
▁deception	10
FileDialog	10
▁kidnapped	10
Disconnect	10
▁bourgeois	10
▁Thousands	10
multiplier	10
▁colouring	10
▁headphone	10
FromString	10
▁APPELLANT	10
paralleled	10
▁telegraph	10
▁referrals	10
▁Licensing	10
▁Guardians	10
▁bilingual	10
▁Consumers	10
▁boulevard	10
breviation	10
▁timetable	10
▁hamburger	10
▁Extremely	10
Developing	10
Encryption	10
Javascript	10
▁rotations	10
▁downwards	10
▁fournisse	10
expiration	10
▁paperback	10
▁Paramount	10
▁delimiter	10
▁unnatural	10
membership	10
▁revolving	10
▁startling	10
nerability	10
▁marketers	10
▁numbering	10
Resistance	10
Convention	10
▁lifecycle	10
discussion	10
▁Induction	10
▁sheltered	10
opposition	10
▁perhatian	10
▁Ethiopian	10
▁isometric	10
▁cessation	10
▁composers	10
▁horseback	10
▁Duckworth	10
▁battalion	10
▁Davenport	10
▁Paperback	10
▁Developed	10
WithFormat	10
▁communism	10
▁contraste	10
▁coworkers	10
▁Preparing	10
▁adulthood	10
▁confirmar	10
▁kilograms	10
▁Bulgarian	10
▁everytime	10
Capability	10
▁favoritos	10
▁roughness	10
▁REFERENCE	10
▁summaries	10
▁expansive	10
▁cognition	10
ShowDialog	10
▁Retention	10
▁machining	10
CategoryId	10
CreateTime	10
▁delantera	10
▁porcelana	10
▁Intensity	10
▁rehearsal	10
▁relocated	10
▁Economist	10
▁scripture	10
▁keyboards	10
▁marvelous	10
▁digitally	10
▁Magdalena	10
Curriculum	10
▁verpflich	10
▁appareils	10
directions	10
biological	10
▁Primitive	10
▁TextInput	10
▁Dedicated	10
▁TREATMENT	10
▁nightclub	10
▁reconocer	10
▁syllables	10
▁untouched	10
persistent	10
particular	10
recognized	10
▁Rosenberg	10
▁expedient	10
▁honeymoon	10
▁vacations	10
▁stripping	10
▁annotated	10
▁Blueprint	10
▁Returning	10
▁Platforms	10
▁immersive	10
inguishing	10
▁Communion	10
▁Provinces	10
▁subtitles	10
▁Dentistry	10
▁Egyptians	10
InstanceOf	10
COMMERCIAL	10
DataAccess	10
▁insulting	10
▁shrinking	10
▁Gathering	10
▁divisible	10
▁Affiliate	10
▁liberated	10
▁captivity	10
▁Afternoon	10
▁crossings	10
▁hardships	10
▁amazingly	10
▁Renewable	10
▁addictive	10
▁iterative	10
HeaderText	10
▁shortcuts	10
equivalent	10
▁callbacks	10
Authorized	10
▁hatchback	10
▁freestyle	10
▁supervise	10
▁Encourage	10
▁musicales	10
exposition	10
▁Preferred	10
▁unloading	10
efficiency	10
▁badminton	10
▁CONDITION	10
▁outskirts	10
▁resisting	10
▁Worksheet	10
▁Providers	10
▁fortified	10
▁FUNCTIONS	10
▁filmmaker	10
▁dentistry	10
▁adaptable	10
▁Collision	10
Erreferent	10
▁Legendary	10
▁Josephine	10
determined	10
▁Cornelius	10
▁regretted	10
▁standings	10
▁heartfelt	10
▁judiciary	10
▁individuo	10
▁Qualified	10
calculated	10
▁conceptos	10
▁shillings	10
▁irritated	10
▁vineyards	10
▁courtroom	10
▁birthdays	10
▁ingenuity	10
▁summation	10
▁surgeries	10
▁symbolism	10
▁borrowers	10
▁BigNumber	10
unexpected	10
▁reversing	10
▁Specialty	10
▁adversary	10
▁converges	10
▁Featuring	10
▁Amenities	10
▁Vibration	10
▁propriety	10
▁afflicted	10
▁Comparing	10
▁speculate	10
AccessType	10
▁Byzantine	10
▁labourers	10
▁keputusan	10
▁mostrando	10
▁clockwise	10
▁downvoted	10
▁patchwork	10
▁commandes	10
▁tranquill	10
▁insisting	10
▁Employers	10
Regulatory	10
▁composing	10
▁crossbody	10
▁pragmatic	10
StrictMode	10
▁WebDriver	10
▁dominates	10
▁blueberry	10
Concluding	10
Candidates	10
Confidence	10
soundcloud	10
chandising	10
▁notebooks	10
▁criticize	10
▁Blackburn	10
▁Ressource	10
▁lowercase	10
▁Rebellion	10
▁juveniles	10
▁stockings	10
▁spectator	10
▁parchment	10
▁propeller	10
▁abstracts	10
▁Auxiliary	10
▁drawbacks	10
▁sanitized	10
▁Corrosion	10
GetCurrent	10
PushButton	10
▁preparado	10
applicable	10
▁impacting	10
▁demselben	10
Procedures	10
▁caballero	10
▁catalysts	10
▁compiling	10
▁dynamical	10
▁tightened	10
IComponent	10
▁Brilliant	10
▁prompting	10
▁apportion	10
similarity	10
▁MINNESOTA	10
▁evergreen	10
▁shrinkage	10
▁FRANCISCO	10
▁Assertion	10
▁Margarita	10
▁hexagonal	10
▁laminated	10
▁conquista	10
▁presiding	10
▁narration	10
▁Nonlinear	10
▁Breakdown	10
▁elegantes	10
▁astronaut	10
▁Livestock	10
InitStruct	10
▁Exploring	10
▁atteindre	10
▁Aggregate	10
▁purported	10
filtration	10
▁Artillery	10
▁producten	10
▁Nightmare	10
▁Addiction	10
Efficiency	10
▁waterways	10
▁centrally	10
▁newcomers	10
▁strtotime	10
▁policemen	10
▁respecter	10
▁antivirus	10
▁airplanes	10
▁Santander	10
▁monstrous	10
DataReader	10
▁subgroups	10
▁comprobar	10
Statements	10
Guidelines	10
▁illusions	10
▁aerospace	10
▁Administr	10
▁binocular	10
▁imagining	10
▁McCartney	10
▁fractured	10
▁Mortality	10
▁attackers	10
▁periphery	10
ValueError	10
▁manifesto	10
lification	10
▁cellphone	10
▁Guadalupe	10
▁dignified	10
▁Technolog	10
▁dibanding	10
▁Designing	10
▁intending	10
Artificial	10
▁disguised	10
datasource	10
▁ARCHITECT	10
attendance	10
▁Sponsored	10
▁unnoticed	10
▁promenade	10
▁Suggested	10
DataColumn	10
▁pelayanan	10
▁favorably	10
▁Accidents	10
▁scrambled	10
▁weighting	10
▁retriever	10
Increasing	10
▁integrado	10
▁approvals	10
▁budgeting	10
▁Invisible	10
▁intrigued	10
▁Berkshire	10
▁treadmill	10
▁Potassium	10
▁Positions	10
▁sanitizer	10
▁grounding	10
▁Sensitive	10
▁Filtering	10
▁approving	10
▁Bonaparte	10
▁asparagus	10
▁trainings	10
credential	10
▁venerable	10
▁cinematic	10
▁coincides	10
▁milliards	10
Ultimately	10
▁prohibits	10
▁steadfast	10
▁Apparatus	10
▁motorists	10
▁propagate	10
▁Expertise	10
curricular	10
▁Fairfield	10
▁possibles	10
frequently	10
▁conveying	10
▁normative	10
▁inconsist	10
▁Acknowled	10
▁Kilometer	10
▁painfully	10
▁surveying	10
figuration	10
▁soldering	10
showthread	10
▁McCormick	10
ThreadPool	10
▁Transfers	10
▁disparity	10
Containers	10
▁curiously	10
▁Franchise	10
▁weathered	10
▁Constance	10
▁asymmetry	10
▁grievance	10
▁massively	10
▁sarcastic	10
▁anonymity	10
▁promoters	10
▁Macdonald	10
▁unmarried	10
▁qualifier	10
BufferSize	10
▁contextos	10
▁flammable	10
▁ergonomic	10
▁recursion	10
▁Standardi	10
▁Constable	10
▁Schlüssel	10
▁excavated	10
▁priceless	10
▁connecter	10
▁Targeting	10
▁activates	10
electrical	10
▁colonists	10
▁ingestion	10
translated	10
▁usability	10
▁pamphlets	10
▁complains	10
▁distingue	10
▁brokerage	10
▁shielding	10
▁attaining	10
▁Bibliothe	10
▁contratos	10
CONNECTION	10
Reproduced	10
▁Monastery	10
▁inklusive	10
▁perfected	10
▁labelling	10
▁fountains	10
▁residuals	10
▁PUBLISHED	10
▁DIFFERENT	10
▁Frenchman	10
▁watermark	10
▁stressing	10
▁contented	10
▁outsiders	10
▁actresses	10
▁overwrite	10
WebService	10
▁recalling	10
▁cytometry	10
▁Excessive	10
▁prophetic	10
▁Hawthorne	10
LITERATURE	10
introduced	10
▁spiderman	10
ropolitana	10
▁vigilance	10
▁Recommend	10
▁constitue	10
▁injurious	10
Democratic	10
▁billboard	10
▁diagnoses	10
▁offending	10
▁Reasoning	10
▁Stratford	10
▁pneumatic	10
accessible	10
▁recreated	10
Extraction	10
▁consented	10
ApiService	10
▁solicitor	10
▁glamorous	10
Durability	10
▁APPELLATE	10
▁Photocase	10
▁underside	10
Vocabulary	10
americanos	10
▁offseason	10
▁obligated	10
▁contender	10
▁Knoxville	10
▁materiali	10
▁Geometric	10
StringCopy	10
▁cristiano	10
▁irrigated	10
▁asserting	10
▁mastering	10
▁consonant	10
watercolor	10
AppendLine	10
▁arrogance	10
▁subcontra	10
▁Permalink	10
▁stupidity	10
Healthcare	10
▁Tolerance	10
▁Prospects	10
▁adversity	10
▁Euclidean	10
Schedulers	10
▁finalists	10
▁Producers	10
▁pictorial	10
▁Dartmouth	10
Commentary	10
▁portrayal	10
▁therefrom	10
▁takeaways	10
▁Governing	10
PERMISSION	10
decorators	10
▁evidences	10
▁Departure	10
▁delegated	10
fullscreen	10
▁Prototype	10
▁tributary	10
Republican	10
▁childcare	10
▁McConnell	10
▁Explained	10
▁exporters	10
▁Patriarch	10
▁Duplicate	10
UpdateTime	10
▁Criticism	10
▁prosecute	10
artificial	10
Philosophy	10
▁frontiers	10
Refreshing	10
▁webdriver	10
▁northward	10
▁Extensive	10
▁eyeshadow	10
▁Invention	10
▁Telescope	10
likelihood	10
▁sclerosis	10
▁subsystem	10
[...]
