[UNUSED_TOKEN_132]	18
[UNUSED_TOKEN_26]	17
[UNUSED_TOKEN_31]	17
[UNUSED_TOKEN_32]	17
[UNUSED_TOKEN_48]	17
[UNUSED_TOKEN_58]	17
[UNUSED_TOKEN_61]	17
[UNUSED_TOKEN_67]	17
▁transformations	16
▁reproducibility	16
▁straightforward	16
abcdefghijklmnop	16
▁representations	16
▁characteristics	16
aaaaaaaaaaaaaaaa	16
▁Redistributions	16
▁electromagnetic	16
▁differentiation	16
AAAAAAAAAAAAAAAA	16
▁computationally	16
▁standardization	16
▁superconducting	16
▁Electromagnetic	16
▁tetrahydrofuran	16
▁chromatographed	16
methylideneamino	16
▁trifluoroacetic	16
methylmorpholine	16
[UNUSED_TOKEN_3]	16
<|action_start|>	16
springframework	15
▁representation	15
▁implementation	15
▁authentication	15
▁classification	15
▁multiplication	15
▁transformation	15
▁Authentication	15
▁simultaneously	15
▁regularization	15
▁characteristic	15
▁Classification	15
includegraphics	15
▁identification	15
▁responsibility	15
▁representative	15
▁reconstruction	15
▁multiplicative	15
▁differentiable	15
transformations	15
▁correspondence	15
▁generalization	15
▁mathematically	15
openlocfilehash	15
▁Communications	15
▁chromatography	15
▁experimentally	15
▁mathematicians	15
▁asymptotically	15
▁incompressible	15
representations	15
▁erforderlichen	15
trifluoromethyl	15
▁recrystallized	15
phenylphosphine	15
dimethoxyphenyl	15
methoxycarbonyl	15
methylpiperidin	15
tetrahydropyran	15
methylpiperazin	15
dihydrochloride	15
trifluoroacetic	15
▁configuration	14
▁corresponding	14
▁functionality	14
Authentication	14
▁Configuration	14
▁understanding	14
▁probabilities	14
▁authenticated	14
▁communication	14
▁compatibility	14
authentication	14
▁interpolation	14
▁convolutional	14
▁authorization	14
classification	14
▁normalization	14
▁relationships	14
▁approximation	14
▁distributions	14
▁Unfortunately	14
representation	14
▁approximately	14
Classification	14
▁significantly	14
implementation	14
▁decomposition	14
▁circumstances	14
▁international	14
▁concentration	14
▁independently	14
▁gravitational	14
▁International	14
▁differentiate	14
▁factorization	14
▁computational	14
▁circumference	14
transformation	14
▁contradiction	14
▁contributions	14
▁Convolutional	14
▁comprehensive	14
▁cryptographic	14
▁perpendicular	14
▁Communication	14
multiplication	14
▁environmental	14
▁complementary	14
▁reinforcement	14
▁exponentially	14
▁substantially	14
longrightarrow	14
▁participating	14
▁instantaneous	14
▁characterized	14
▁semiconductor	14
▁institutional	14
▁Entertainment	14
▁statistically	14
▁philosophical	14
▁methodologies	14
▁electrostatic	14
▁observational	14
▁Collaboration	14
▁Computational	14
▁electromagnet	14
▁hybridization	14
▁mathematician	14
▁thermodynamic	14
▁spectroscopic	14
▁Supplementary	14
▁hydrochloride	14
overrightarrow	14
▁algebraically	14
▁discontinuous	14
▁propositional	14
▁Gravitational	14
▁Corresponding	14
differentiable	14
characteristic	14
multiplicative	14
Communications	14
regularization	14
▁interessanten	14
▁erforderliche	14
Patyolattiszta	14
▁chromatograph	14
▁standardizing	14
▁triethylamine	14
methylsulfonyl	14
butoxycarbonyl	14
methylsulfanyl	14
dichlorophenyl	14
dimethylphenyl	14
trimethylsilyl	14
difluorophenyl	14
rystallization	14
▁deprotonation	14
chromatography	14
▁registriranim	14
▁Radiosarajevo	14
<|action_end|>	14
Configuration	13
▁dependencies	13
▁Initializing	13
stackoverflow	13
▁distribution	13
stackexchange	13
▁representing	13
▁relationship	13
▁successfully	13
Serialization	13
configuration	13
▁applications	13
▁dictionaries	13
▁instructions	13
Authorization	13
▁respectively	13
▁requirements	13
▁notification	13
▁registration	13
▁intersection	13
preprocessing	13
▁specifically	13
▁manipulation	13
documentclass	13
▁permutations	13
▁mathematical	13
documentation	13
▁authenticate	13
▁optimization	13
▁organization	13
▁architecture	13
▁calculations	13
▁continuously	13
▁asynchronous	13
▁construction	13
▁acceleration	13
▁particularly	13
▁observations	13
▁conversation	13
▁intermediate	13
▁redistribute	13
Unfortunately	13
▁measurements	13
▁Registration	13
▁temperatures	13
▁differential	13
▁substitution	13
▁interactions	13
▁professional	13
▁introduction	13
▁computations	13
▁transmission	13
▁neighborhood	13
▁Distribution	13
Communication	13
▁contribution	13
▁experimental	13
decomposition	13
▁constructing	13
▁proportional	13
▁Applications	13
▁eigenvectors	13
▁significance	13
▁displacement	13
▁cancellation	13
▁sufficiently	13
▁manipulating	13
distributions	13
communication	13
▁hierarchical	13
▁completeness	13
probabilities	13
specification	13
▁sequentially	13
▁conventional	13
▁Optimization	13
normalization	13
▁multivariate	13
▁publications	13
▁Transactions	13
international	13
▁interference	13
▁subsequently	13
International	13
▁correlations	13
▁simultaneous	13
▁demonstrated	13
understanding	13
▁conservation	13
▁homomorphism	13
▁Mathematical	13
automatically	13
▁considerable	13
▁perturbation	13
▁approximated	13
▁Differential	13
▁quantitative	13
▁automorphism	13
▁Intermediate	13
▁increasingly	13
▁investigated	13
▁incorporated	13
▁concentrated	13
▁purification	13
▁Publications	13
▁evolutionary	13
▁incorporates	13
▁conductivity	13
▁characterize	13
▁polarization	13
▁Experimental	13
▁inequalities	13
approximately	13
▁distillation	13
▁successively	13
▁precipitated	13
▁hydrochloric	13
environmental	13
▁entanglement	13
projecteuclid	13
▁relativistic	13
▁distributive	13
▁cosmological	13
corresponding	13
approximation	13
▁Substituting	13
Computational	13
perpendicular	13
concentration	13
factorization	13
gravitational	13
Supplementary	13
combinatorial	13
computational	13
circumference	13
probabilistic	13
exponentially	13
algebraically	13
independently	13
▁erforderlich	13
▁Informations	13
▁Investitions	13
▁Kooperations	13
▁Herausforder	13
atyolattiszta	13
▁kereskedelmi	13
▁Kereskedelmi	13
oxidanylidene	13
methoxyphenyl	13
dimethylamino	13
▁acetonitrile	13
hydroxymethyl	13
hydrochloride	13
carbonylamino	13
▁Purification	13
hydroxyphenyl	13
▁crystallized	13
methylpyridin	13
butyldimethyl	13
methylpyrazol	13
▁hydrogenated	13
dicarboxylate	13
butylammonium	13
hydroxylamine	13
ethylsulfanyl	13
ethylsulfonyl	13
ecarbonitrile	13
triethylamine	13
Radiosarajevo	13
▁Vietnamobile	13
cungquanghang	13
▁application	12
▁description	12
▁information	12
▁environment	12
▁distributed	12
▁collections	12
▁permissions	12
▁transaction	12
▁destination	12
▁temperature	12
▁Application	12
▁performance	12
▁Calculating	12
▁predictions	12
▁probability	12
▁implemented	12
▁placeholder	12
▁credentials	12
▁Description	12
▁limitations	12
▁development	12
▁directories	12
▁programming	12
▁combination	12
staticmethod	12
▁connections	12
Notification	12
▁initialized	12
Serializable	12
▁expressions	12
▁translation	12
▁serializers	12
▁differences	12
▁alternative	12
▁appreciated	12
▁represented	12
▁calculation	12
▁immediately	12
▁Environment	12
▁recursively	12
▁instruction	12
▁significant	12
▁responsible	12
▁Recursively	12
▁convolution	12
▁independent	12
Registration	12
▁interesting	12
▁explanation	12
▁consecutive	12
▁Initializes	12
▁Instantiate	12
▁constraints	12
▁requirement	12
▁permutation	12
▁correlation	12
▁declaration	12
▁definitions	12
▁integration	12
▁multiplying	12
▁replacement	12
▁corresponds	12
▁frequencies	12
▁observation	12
▁interacting	12
▁calculating	12
▁subtracting	12
▁computation	12
▁orientation	12
▁denominator	12
▁measurement	12
▁interaction	12
▁interactive	12
▁transformed	12
▁propagating	12
▁complicated	12
distribution	12
registration	12
▁essentially	12
▁considering	12
▁compression	12
▁conditional	12
▁constructed	12
▁Information	12
▁possibility	12
▁effectively	12
▁Development	12
▁identifiers	12
▁restriction	12
▁exponential	12
dependencies	12
Organization	12
intersection	12
▁potentially	12
Distribution	12
▁torchvision	12
▁Programming	12
▁Explanation	12
▁substantial	12
▁established	12
requirements	12
▁publication	12
incrementing	12
▁interpreted	12
applications	12
▁demonstrate	12
Transactions	12
▁composition	12
▁subtraction	12
crossentropy	12
Applications	12
▁Mathematica	12
▁traditional	12
▁participant	12
▁association	12
▁statistical	12
▁recognition	12
▁experiments	12
▁distinguish	12
▁Temperature	12
▁individuals	12
▁consumption	12
operatorname	12
▁reconstruct	12
▁transitions	12
▁efficiently	12
▁approximate	12
▁dimensional	12
▁opportunity	12
▁experienced	12
▁convergence	12
▁Performance	12
▁consistency	12
▁mathematics	12
▁derivatives	12
▁topological	12
▁calibration	12
▁assumptions	12
▁Integration	12
experimental	12
▁determining	12
▁comfortable	12
▁maintaining	12
▁expectation	12
▁descriptive	12
▁theoretical	12
▁engineering	12
▁polynomials	12
▁identifying	12
▁surrounding	12
▁sensitivity	12
▁simulations	12
displaystyle	12
▁interrupted	12
▁Independent	12
▁transferred	12
▁propagation	12
▁rectangular	12
▁distinction	12
▁uncertainty	12
▁equivalence	12
construction	12
Cancellation	12
▁equilibrium	12
▁progression	12
▁Hamiltonian	12
Introduction	12
▁Conditional	12
▁institution	12
dictionaries	12
▁isomorphism	12
▁Probability	12
acceleration	12
▁logarithmic	12
▁Engineering	12
▁consequence	12
introduction	12
▁Measurement	12
▁Pythagorean	12
intermediate	12
Optimization	12
▁generalized	12
measurements	12
▁acknowledge	12
▁irreducible	12
▁investigate	12
▁cardinality	12
optimization	12
▁Calculation	12
▁alternating	12
▁Multiplying	12
publications	12
Initializing	12
▁associative	12
▁practically	12
▁Publication	12
▁partitioned	12
▁commutative	12
▁proposition	12
▁Mathematics	12
▁Exponential	12
▁participate	12
▁standardize	12
▁homogeneous	12
▁formulation	12
▁functioning	12
▁numerically	12
mathoverflow	12
Intermediate	12
▁integrating	12
successfully	12
interactions	12
▁disappeared	12
▁substituted	12
▁eigenvector	12
▁educational	12
▁directional	12
transmission	12
▁approaching	12
▁manipulated	12
▁operational	12
▁methodology	12
multivariate	12
▁atmospheric	12
▁researchers	12
specifically	12
▁competitive	12
representing	12
professional	12
▁nonnegative	12
displacement	12
▁accompanied	12
▁adversarial	12
▁identically	12
▁illustrated	12
▁concentrate	12
▁equilateral	12
▁tablespoons	12
▁anticipated	12
▁Philippines	12
▁cylindrical	12
▁threatening	12
▁facilitated	12
▁Attribution	12
▁deformation	12
▁qualitative	12
▁desperately	12
▁unconscious	12
▁spontaneous	12
▁constitutes	12
▁realization	12
▁Considering	12
▁Ingredients	12
▁radioactive	12
▁Statistical	12
▁articulated	12
▁dissolution	12
▁diffraction	12
▁oscillation	12
Publications	12
particularly	12
▁Operational	12
▁Restaurants	12
▁embodiments	12
▁compressive	12
▁Theoretical	12
▁Proposition	12
▁Innovations	12
▁geometrical	12
▁Lamborghini	12
▁precipitate	12
▁vibrational	12
▁holomorphic	12
▁variational	12
▁Convergence	12
▁Generalized	12
differential	12
▁Computation	12
▁Topological	12
relativistic	12
▁algorithmic	12
▁bifurcation	12
▁mathematica	12
respectively	12
▁Variational	12
▁gravitation	12
▁Dimensional	12
encyclopedia	12
substitution	12
completeness	12
▁Gravitation	12
homomorphism	12
conventional	12
polarization	12
proportional	12
▁Acknowledge	12
conservation	12
sufficiently	12
constructing	12
eigenvectors	12
correlations	12
inequalities	12
significance	12
calculations	12
▁internation	12
▁Technologie	12
▁Kooperation	12
▁Investition	12
▁Frankfurter	12
▁Internation	12
▁nemovitosti	12
▁technologie	12
Feliratkozom	12
kereskedelmi	12
Csatlakozott	12
rendszeresen	12
fluorophenyl	12
chlorophenyl	12
methylphenyl	12
phenylmethyl	12
carbonitrile	12
benzimidazol	12
▁preparative	12
hydroxyethyl	12
methylpropyl	12
benzonitrile	12
▁articulates	12
▁neutralized	12
carbaldehyde	12
isoquinoline	12
phenylphenyl	12
carbodiimide	12
▁methanesulf	12
methylpropan	12
▁borohydride	12
ecarboxylate	12
acetonitrile	12
ethoxyphenyl	12
cyclopropane	12
▁portionwise	12
dioxaborolan	12
▁orchestrate	12
naphthyridin	12
▁Evaporation	12
▁reformatted	12
dicarboxylic	12
dihydrobenzo	12
fluoromethyl	12
hydrochloric	12
trimethylsil	12
oxidanyliden	12
Ministarstvo	12
Vietnamobile	12
▁Initialize	11
Collections	11
▁characters	11
▁connection	11
▁operations	11
▁migrations	11
▁collection	11
▁difference	11
▁expression	11
Application	11
description	11
▁represents	11
hentication	11
▁containing	11
▁understand	11
▁background	11
▁successful	11
Description	11
▁implements	11
▁indicating	11
▁associated	11
▁attributes	11
▁properties	11
application	11
▁definition	11
▁additional	11
▁validation	11
▁calculates	11
▁particular	11
▁isinstance	11
▁serializer	11
▁calculated	11
▁repository	11
▁subprocess	11
▁activation	11
▁conditions	11
▁initialize	11
▁everything	11
▁processing	11
Transaction	11
▁components	11
▁identifier	11
▁prediction	11
▁WARRANTIES	11
Environment	11
▁permission	11
▁applicable	11
▁experience	11
▁individual	11
▁equivalent	11
▁compliance	11
▁classifier	11
Implemented	11
▁CONDITIONS	11
▁considered	11
urlpatterns	11
Information	11
▁percentage	11
▁converting	11
▁Connection	11
▁conversion	11
▁Collection	11
▁iterations	11
▁completely	11
persistence	11
Diagnostics	11
▁simulation	11
▁Foundation	11
▁references	11
▁exceptions	11
▁Validation	11
classmethod	11
▁complexity	11
▁experiment	11
▁resolution	11
serializers	11
▁management	11
▁statistics	11
▁regression	11
▁transition	11
▁production	11
▁Properties	11
IEnumerable	11
▁serialized	11
transaction	11
▁comparison	11
▁statements	11
▁setuptools	11
▁Expression	11
▁horizontal	11
▁interested	11
▁mathematic	11
▁descending	11
▁comprehens	11
▁polynomial	11
placeholder	11
▁dependency	11
▁generating	11
fortunately	11
▁assignment	11
▁constraint	11
▁encryption	11
Programming	11
▁configured	11
▁especially	11
▁generation	11
▁evaluation	11
destination	11
▁algorithms	11
Deserialize	11
▁respective	11
environment	11
▁increasing	11
▁directions	11
predictions	11
▁normalized	11
▁submission	11
▁Definition	11
▁transforms	11
▁similarity	11
dimensional	11
▁derivative	11
▁Permission	11
▁compatible	11
▁projection	11
▁continuous	11
▁previously	11
▁structures	11
permissions	11
▁multiplied	11
▁determines	11
▁themselves	11
▁connecting	11
▁Dependency	11
temperature	11
Explanation	11
▁underlying	11
▁definitely	11
translation	11
▁determined	11
▁distribute	11
Integration	11
▁completion	11
▁impossible	11
collections	11
▁convention	11
▁functional	11
▁Sequential	11
Certificate	11
▁Migrations	11
▁arithmetic	11
▁performing	11
▁translated	11
categorical	11
directories	11
concatenate	11
information	11
▁consistent	11
▁cumulative	11
▁checkpoint	11
▁relatively	11
initializer	11
▁calculator	11
▁compressed	11
▁complement	11
▁reasonable	11
▁eventually	11
▁Quaternion	11
▁Regression	11
constraints	11
Instruction	11
▁discussion	11
Development	11
▁correspond	11
▁subsequent	11
Declaration	11
▁recognized	11
▁clustering	11
▁unexpected	11
▁Additional	11
▁attempting	11
▁proportion	11
▁University	11
▁developing	11
▁situations	11
▁appreciate	11
▁limitation	11
▁sequential	11
▁Management	11
▁describing	11
orientation	11
▁protection	11
sourceforge	11
▁covariance	11
▁multiplier	11
▁absolutely	11
▁activities	11
▁assumption	11
▁Concurrent	11
▁Complexity	11
tikzpicture	11
▁technology	11
▁apparently	11
▁understood	11
integration	11
▁frequently	11
▁resistance	11
▁discovered	11
development	11
▁techniques	11
connections	11
▁originally	11
probability	11
▁hypothesis	11
▁Identifier	11
▁reflection	11
performance	11
interactive	11
▁identified	11
▁introduced	11
composition	11
▁Processing	11
▁historical	11
▁Calculator	11
▁simplified	11
▁maintained	11
Performance	11
▁approaches	11
▁efficiency	11
▁throughout	11
▁likelihood	11
permutation	11
▁Department	11
▁KNeighbors	11
▁incomplete	11
▁personally	11
programming	11
▁scientific	11
▁vertically	11
▁commercial	11
▁observable	11
▁controlled	11
▁everywhere	11
initialized	11
▁correction	11
▁importance	11
▁appearance	11
▁decreasing	11
▁substitute	11
▁restricted	11
▁extraction	11
▁credential	11
▁consisting	11
▁government	11
Measurement	11
▁Horizontal	11
▁sublicense	11
▁structured	11
correlation	11
▁Coordinate	11
Probability	11
▁Restaurant	11
▁Statistics	11
▁variations	11
▁integrated	11
▁inequality	11
▁separation	11
measurement	11
distributed	11
▁Everything	11
definitions	11
expressions	11
defaultdict	11
▁Simulation	11
▁Polynomial	11
▁wavelength	11
▁conclusion	11
▁struggling	11
▁Experiment	11
▁Transition	11
▁collisions	11
▁constantly	11
▁reasonably	11
▁investment	11
▁triangular	11
combination	11
▁supporting	11
interaction	11
▁simplicity	11
▁quantities	11
▁literature	11
▁Constraint	11
transformed	11
▁conference	11
▁procedures	11
▁electrical	11
▁Annotation	11
▁contribute	11
▁References	11
▁guidelines	11
▁classified	11
▁atmosphere	11
▁Technology	11
▁fractional	11
▁impression	11
▁continuing	11
▁physically	11
▁elementary	11
▁Substitute	11
▁isomorphic	11
▁directives	11
▁saturation	11
experiments	11
▁mechanical	11
frequencies	11
publication	11
▁volatility	11
▁infinitely	11
conditional	11
▁illustrate	11
▁electronic	11
▁conjecture	11
Ingredients	11
alternative	11
▁comparable	11
calculation	11
independent	11
▁accurately	11
▁surrounded	11
▁Difference	11
▁artificial	11
▁underneath	11
engineering	11
Publication	11
implemented	11
▁Functional	11
▁Algorithms	11
▁satisfying	11
▁stationary	11
▁undirected	11
▁Population	11
▁derivation	11
▁structural	11
▁Arithmetic	11
convolution	11
calibration	11
▁deviations	11
▁California	11
▁projective	11
▁triggering	11
▁travelling	11
▁transistor	11
▁divergence	11
Furthermore	11
▁concerning	11
▁correlated	11
▁phenomenon	11
▁incredibly	11
appropriate	11
transitions	11
▁Especially	11
▁motivation	11
▁transitive	11
▁successive	11
▁recurrence	11
Engineering	11
▁introduces	11
▁cohomology	11
▁reciprocal	11
limitations	11
▁Scientific	11
▁Difficulty	11
Calculating	11
represented	11
▁navigating	11
exponential	11
consecutive	11
expandafter	11
▁measurable	11
▁accounting	11
significant	11
▁designated	11
Initializes	11
▁Continuous	11
▁analytical	11
▁continuity	11
▁identities	11
▁thoroughly	11
Exponential	11
▁suspicious	11
▁suspension	11
explanation	11
▁collective	11
▁Conference	11
▁hyperbolic	11
regularizer	11
▁Derivative	11
differences	11
interesting	11
▁conceptual	11
▁scattering	11
▁accelerate	11
▁remembered	11
computation	11
▁biological	11
▁relativity	11
▁generalize	11
▁attractive	11
▁attributed	11
Computation	11
▁dispersion	11
▁Washington	11
constructed	11
sensitivity	11
▁protecting	11
▁commitment	11
▁convergent	11
▁Lagrangian	11
restriction	11
▁luminosity	11
▁Australian	11
▁influenced	11
▁irrational	11
▁accordance	11
▁modulation	11
▁supervised	11
Restaurants	11
▁asymmetric	11
▁rotational	11
▁predictive	11
▁peripheral	11
▁absorption	11
▁surjective	11
▁occasional	11
▁representa	11
▁television	11
constrained	11
▁procedural	11
▁researcher	11
▁revolution	11
directional	11
▁negatively	11
▁leadership	11
▁protective	11
▁Elementary	11
▁threatened	11
▁approached	11
▁prescribed	11
▁substances	11
▁Innovation	11
▁positively	11
▁undergoing	11
▁embodiment	11
▁relaxation	11
▁systematic	11
▁perfection	11
otechnology	11
▁Electronic	11
▁Electrical	11
▁distracted	11
▁Wellington	11
▁conduction	11
▁Philippine	11
▁Originally	11
▁dielectric	11
▁Lieutenant	11
▁filtration	11
▁Vietnamese	11
▁Mechanical	11
▁reproduced	11
established	11
▁contingent	11
▁elasticity	11
▁worksheets	11
▁excitation	11
experienced	11
▁Correspond	11
▁Supplement	11
▁initiating	11
▁refractive	11
traditional	11
▁achievable	11
▁dissolving	11
responsible	11
▁evaporated	11
▁Meditation	11
▁vigorously	11
▁stipulated	11
complicated	11
▁attainable	11
▁Mitsubishi	11
▁complicate	11
▁regularity	11
▁straighten	11
▁Metropolis	11
▁metabolite	11
educational	11
▁Assumption	11
▁differenti	11
istribution	11
▁uncertaint	11
▁simplicial	11
▁symplectic	11
blacksquare	11
scriptstyle	11
Proposition	11
Topological	11
Dimensional	11
▁Fractional	11
convergence	11
generalized	11
holomorphic	11
topological	11
isomorphism	11
Convergence	11
logarithmic	11
approximate	11
theoretical	11
Hamiltonian	11
interacting	11
Statistical	11
polynomials	11
essentially	11
algorithmic	11
multiplying	11
irreducible	11
interpreted	11
▁Mathematic	11
derivatives	11
integrating	11
▁Subsection	11
statistical	11
rectangular	11
calculating	11
considering	11
expectation	11
potentially	11
alternating	11
ultaneously	11
subtraction	11
cylindrical	11
variational	11
▁Proceeding	11
eigenvector	11
▁Generalize	11
effectively	11
possibility	11
▁Milliarden	11
▁Verantwort	11
▁problemlos	11
▁Ressourcen	11
▁intensiven	11
▁weiblichen	11
Sicherheits	11
▁ultimative	11
Frankfurter	11
interessant	11
▁Koalitions	11
▁technologi	11
▁restaurace	11
▁Budějovice	11
▁nemovitost	11
Podrobnosti	11
kontaktujte	11
▁kattintson	11
▁felesleges	11
Szeretettel	11
szeretettel	11
alacsonyabb	11
szervezetek	11
folyamatban	11
kapcsolatos	11
automatikus	11
▁standardiz	11
carboxamide	11
carboxylate	11
▁tetrahydro	11
cyclopropyl	11
oxycarbonyl	11
pyrrolidine	11
methylidene	11
methylamino	11
▁methodolog	11
propanamide	11
nitrophenyl	11
tetramethyl	11
cyclopentyl	11
methanesulf	11
▁triturated	11
bromophenyl	11
isoquinolin	11
aminomethyl	11
▁delineated	11
▁prescribes	11
azatricyclo	11
ntermediate	11
phenanthren	11
cyclohexane	11
diisopropyl	11
methanamine	11
thiazolidin	11
cyclopropan	11
▁apotheosis	11
▁colourless	11
naphthalene	11
benzodioxol	11
borohydride	11
benzoxazine	11
▁elucidated	11
▁elucidates	11
ethylphenyl	11
ylcarbamate	11
ylpiperidin	11
ylpiperazin	11
▁Aleksandar	11
▁Aleksandra	11
predsjednik	11
▁prdelivery	11
▁Vietnamgsm	11
Collection	10
▁Importing	10
▁directory	10
▁following	10
▁character	10
▁different	10
▁Calculate	10
▁interface	10
▁represent	10
▁variables	10
▁something	10
▁migration	10
Controller	10
▁functions	10
Repository	10
▁implement	10
▁attribute	10
▁libraries	10
▁exception	10
▁protected	10
▁reference	10
▁condition	10
▁calculate	10
▁Exception	10
▁available	10
▁operation	10
Connection	10
Serializer	10
▁Copyright	10
▁statement	10
▁generated	10
▁algorithm	10
annotation	10
▁component	10
Enumerable	10
Extensions	10
▁structure	10
▁direction	10
▁extension	10
▁specifies	10
connection	10
▁otherwise	10
Properties	10
▁frequency	10
▁questions	10
▁currently	10
▁correctly	10
▁remaining	10
▁installed	10
components	10
Expression	10
▁timestamp	10
▁connected	10
▁execution	10
collection	10
Parameters	10
controller	10
▁Construct	10
Definition	10
▁framework	10
▁determine	10
▁Migration	10
Validation	10
▁converted	10
▁positions	10
processing	10
▁important	10
▁partition	10
▁threshold	10
▁commented	10
Dictionary	10
▁including	10
▁dimension	10
▁temporary	10
▁construct	10
▁resources	10
▁divisible	10
▁processed	10
parameters	10
validation	10
▁according	10
Classifier	10
▁operating	10
migrations	10
▁rectangle	10
▁beginning	10
repository	10
▁Component	10
▁recommend	10
▁lowercase	10
▁selection	10
▁supported	10
usepackage	10
▁performed	10
Identifier	10
background	10
▁governing	10
▁formatted	10
▁processes	10
▁serialize	10
properties	10
▁threading	10
▁predicted	10
▁Uncomment	10
▁webdriver	10
▁potential	10
▁mentioned	10
▁resulting	10
▁itertools	10
▁difficult	10
Background	10
dictionary	10
▁solutions	10
▁separated	10
Descriptor	10
▁incorrect	10
javascript	10
▁remainder	10
▁recursive	10
▁situation	10
Management	10
Components	10
startswith	10
▁signature	10
▁animation	10
Dependency	10
ategorical	10
▁returning	10
Permission	10
exceptions	10
▁depending	10
▁sequences	10
▁completed	10
▁candidate	10
▁sentences	10
▁wondering	10
categories	10
▁sometimes	10
▁embedding	10
▁published	10
▁histogram	10
▁languages	10
Regression	10
▁generally	10
▁ascending	10
Reflection	10
▁Directory	10
▁basically	10
▁deviation	10
▁extracted	10
▁searching	10
attributes	10
▁therefore	10
coordinate	10
▁requested	10
▁copyright	10
Initialize	10
▁normalize	10
▁described	10
▁confusion	10
expression	10
▁neighbors	10
prediction	10
▁technique	10
▁typically	10
Navigation	10
serializer	10
▁Framework	10
▁paragraph	10
▁somewhere	10
▁detection	10
classifier	10
Constraint	10
▁Character	10
▁knowledge	10
▁functools	10
▁procedure	10
inheritdoc	10
▁operators	10
▁Reference	10
Processing	10
▁importing	10
definition	10
▁processor	10
▁suggested	10
▁Rectangle	10
matplotlib	10
▁regarding	10
permission	10
▁executing	10
▁behaviour	10
▁transport	10
subprocess	10
▁Blueprint	10
▁community	10
▁happening	10
statistics	10
▁splitting	10
initialize	10
▁principal	10
▁equations	10
rightarrow	10
identifier	10
▁certainly	10
functional	10
▁obviously	10
▁advantage	10
▁replacing	10
conditions	10
Observable	10
▁Operation	10
Annotation	10
Horizontal	10
▁continues	10
▁introduce	10
▁attention	10
▁collision	10
difference	10
▁comparing	10
Calculator	10
▁identical	10
Visibility	10
Comparison	10
experiment	10
▁magnitude	10
▁describes	10
▁Condition	10
▁blueprint	10
▁secondary	10
▁mechanism	10
decorators	10
▁particles	10
▁Wikipedia	10
▁challenge	10
newcommand	10
▁tokenizer	10
Statistics	10
▁receiving	10
Sequential	10
▁objective	10
▁listening	10
▁effective	10
▁initially	10
▁anonymous	10
▁expensive	10
transition	10
▁providing	10
▁evaluated	10
population	10
dependency	10
resolution	10
activation	10
▁explained	10
horizontal	10
▁preferred	10
▁companies	10
characters	10
▁publisher	10
▁recording	10
▁Functions	10
▁establish	10
▁computing	10
▁adjacency	10
checkpoint	10
▁bootstrap	10
stylesheet	10
▁constexpr	10
percentage	10
▁aggregate	10
▁increases	10
▁intensity	10
▁symmetric	10
▁Algorithm	10
▁tradition	10
▁technical	10
▁perimeter	10
distribute	10
normalized	10
▁reduction	10
▁referring	10
▁expansion	10
▁Recursive	10
▁developed	10
iterations	10
Foundation	10
▁repeating	10
▁recognize	10
▁Something	10
▁sensitive	10
transforms	10
operations	10
▁equipment	10
▁thickness	10
production	10
Convention	10
▁primitive	10
▁worksheet	10
▁collected	10
▁expecting	10
Department	10
regression	10
▁inference	10
▁principle	10
▁increased	10
submission	10
▁concerned	10
similarity	10
sqlalchemy	10
constraint	10
References	10
▁existence	10
▁obtaining	10
▁switching	10
assignment	10
▁criterion	10
▁estimated	10
▁injection	10
▁destroyed	10
▁triangles	10
▁interview	10
▁variation	10
▁composite	10
descriptor	10
▁influence	10
▁Statement	10
▁confirmed	10
▁Translate	10
▁guarantee	10
preprocess	10
projection	10
▁intention	10
▁Structure	10
▁combining	10
▁amplitude	10
▁presented	10
▁permanent	10
▁relations	10
calculator	10
▁canonical	10
▁fractions	10
simulation	10
▁Dimension	10
additional	10
▁expressed	10
▁dedicated	10
▁satisfies	10
conversion	10
serialized	10
▁classical	10
▁excellent	10
▁iterative	10
▁Sometimes	10
▁multiplic	10
generation	10
▁thousands	10
▁universal	10
tensorflow	10
▁financial	10
evaluation	10
algorithms	10
▁immediate	10
▁satisfied	10
successful	10
▁According	10
structures	10
consistent	10
Restaurant	10
▁Bluetooth	10
▁precisely	10
Diagnostic	10
▁associate	10
▁yesterday	10
▁indicated	10
▁inclusive	10
isinstance	10
▁Available	10
▁reproduce	10
▁dangerous	10
experience	10
▁Frequency	10
▁Community	10
▁Transport	10
confidence	10
▁discussed	10
▁agreement	10
▁partially	10
▁furnished	10
▁beautiful	10
individual	10
▁electrons	10
▁attempted	10
▁statistic	10
references	10
▁algebraic	10
▁Different	10
▁truncated	10
▁treatment	10
▁Challenge	10
▁Questions	10
▁graphical	10
▁geometric	10
▁carefully	10
▁logarithm	10
▁measuring	10
continuous	10
▁passenger	10
▁similarly	10
comparison	10
▁surprised	10
▁committed	10
▁evolution	10
▁education	10
▁insurance	10
▁molecules	10
Algorithms	10
▁preceding	10
▁producing	10
▁auxiliary	10
▁naturally	10
▁involving	10
▁scripting	10
▁Processor	10
Everything	10
likelihood	10
▁simulated	10
▁radiation	10
▁answering	10
▁Publisher	10
▁mechanics	10
▁reasoning	10
▁smoothing	10
▁reflected	10
▁disappear	10
▁Similarly	10
encryption	10
varepsilon	10
▁satellite	10
▁summation	10
▁localized	10
▁stability	10
▁inclusion	10
▁authentic	10
▁reactions	10
▁unchecked	10
especially	10
Quaternion	10
▁intuitive	10
▁decreases	10
recognized	10
statements	10
▁bluetooth	10
▁Principal	10
clustering	10
▁apartment	10
▁Computing	10
▁spherical	10
polynomial	10
▁September	10
Rightarrow	10
▁projected	10
▁curvature	10
derivative	10
▁countable	10
▁induction	10
▁organized	10
▁cartesian	10
▁inversion	10
▁formation	10
▁intuition	10
▁continued	10
reflection	10
everything	10
▁instantly	10
complement	10
▁Following	10
▁Universal	10
generators	10
▁lightning	10
▁Australia	10
importance	10
▁seriously	10
▁belonging	10
▁synthetic	10
▁converges	10
University	10
▁transient	10
protection	10
▁traveling	10
supervised	10
▁Solutions	10
imensional	10
historical	10
Appearance	10
▁political	10
Polynomial	10
Newtonsoft	10
restricted	10
Continuous	10
dependence	10
▁molecular	10
▁compounds	10
▁nonlinear	10
equivalent	10
▁emergency	10
▁seemingly	10
increasing	10
▁marketing	10
decreasing	10
▁resultant	10
▁finishing	10
▁extensive	10
▁Discovery	10
▁Institute	10
▁household	10
calculated	10
correction	10
▁Professor	10
covariance	10
▁substance	10
playground	10
▁elaborate	10
classified	10
sequential	10
containing	10
▁forgotten	10
hypothesis	10
▁subgroups	10
▁corporate	10
discussion	10
▁Iteration	10
romagnetic	10
▁varieties	10
▁alongside	10
▁gradually	10
▁initiated	10
boldsymbol	10
▁ourselves	10
▁empirical	10
responding	10
▁rewritten	10
Conference	10
complexity	10
substitute	10
▁integrals	10
▁President	10
arithmetic	10
proportion	10
▁wonderful	10
▁suspended	10
▁analogous	10
▁interfere	10
descending	10
▁achieving	10
▁Financial	10
▁conductor	10
centration	10
▁companion	10
connecting	10
▁religious	10
▁Important	10
determined	10
▁Symmetric	10
▁intensive	10
commercial	10
▁manifolds	10
▁Numerical	10
associated	10
▁branching	10
▁irregular	10
▁preserves	10
simplified	10
wavelength	10
▁microwave	10
▁retention	10
▁convinced	10
▁Published	10
▁responded	10
▁injective	10
generating	10
▁overnight	10
▁afternoon	10
▁Wednesday	10
▁Technical	10
efficiency	10
▁announced	10
▁Quadratic	10
▁abandoned	10
▁spacetime	10
▁vibration	10
converting	10
▁breakfast	10
implements	10
▁mountains	10
▁Interview	10
▁unbounded	10
▁exponents	10
▁intermedi	10
▁vegetable	10
▁Evolution	10
scientific	10
▁utilizing	10
▁Exercises	10
▁scattered	10
integrated	10
▁resonance	10
▁bijection	10
▁stretched	10
▁Potential	10
identified	10
government	10
▁Effective	10
▁Marketing	10
▁breathing	10
▁Commander	10
▁uncertain	10
▁Classical	10
reasonable	10
investment	10
triangular	10
▁chemicals	10
▁conducted	10
understand	10
▁cognitive	10
▁conserved	10
resistance	10
respective	10
▁emotional	10
▁phenomena	10
underbrace	10
▁exchanged	10
▁comprises	10
▁invention	10
▁discloses	10
▁contribut	10
▁executive	10
▁delicious	10
▁defensive	10
▁spiritual	10
▁childhood	10
▁electrode	10
▁strategic	10
▁Elizabeth	10
▁Liverpool	10
▁Hollywood	10
▁Champions	10
▁hydraulic	10
▁Singapore	10
▁distribut	10
▁suspected	10
▁Halloween	10
▁motivated	10
▁dominated	10
▁shoulders	10
▁subjected	10
▁Argentina	10
▁Nutrition	10
▁revealing	10
▁Sheffield	10
▁dissolved	10
▁oxidation	10
▁teaspoons	10
▁Tottenham	10
▁energetic	10
▁potassium	10
roximately	10
▁magnesium	10
▁spectrosc	10
▁saturated	10
▁reinforce	10
▁petroleum	10
▁Sebastian	10
▁Riverside	10
▁Molecular	10
cyclopedia	10
Originally	10
▁Hungarian	10
▁Detective	10
▁Symposium	10
▁Chevrolet	10
▁planetary	10
▁viscosity	10
▁turbulent	10
▁unwilling	10
performing	10
Manchester	10
▁customary	10
▁Regarding	10
▁Submitted	10
▁amorphous	10
▁polarized	10
▁continuum	10
▁tightened	10
▁Unlimited	10
▁hydroxide	10
▁depiction	10
▁Mechanics	10
▁distilled	10
Electronic	10
▁elucidate	10
ccessfully	10
electronic	10
▁spatially	10
▁Estimated	10
▁inductive	10
▁dynamical	10
interested	10
supporting	10
Electrical	10
▁Situation	10
previously	10
structural	10
formations	10
absolutely	10
▁navigated	10
▁Variation	10
▁enlighten	10
ossibility	10
mechanical	10
plementary	10
▁palladium	10
Newsletter	10
▁vanishing	10
plications	10
▁Equations	10
▁Algebraic	10
▁Nonlinear	10
▁morphisms	10
▁congruent	10
▁piecewise	10
▁Hermitian	10
▁countably	10
▁comprehen	10
▁Integrals	10
▁Existence	10
▁covariant	10
▁reflexive	10
▁Boltzmann	10
▁Dynamical	10
▁theoretic	10
▁Universit	10
istinguish	10
▁perturbed	10
▁adiabatic	10
measurable	10
differenti	10
▁radiative	10
isomorphic	10
stationary	10
▁Corollary	10
transitive	10
projective	10
▁tetration	10
hyperbolic	10
elementary	10
allelogram	10
continuity	10
ionization	10
invertible	10
Elementary	10
rotational	10
ignificant	10
fractional	10
particular	10
convergent	10
▁idealized	10
regularity	10
represents	10
inequality	10
Lagrangian	10
infinitely	10
correspond	10
multiplied	10
relatively	10
scattering	10
completely	10
correlated	10
understood	10
analytical	10
separation	10
ependently	10
onditional	10
excitation	10
irrational	10
relaxation	10
everywhere	10
Supplement	10
considered	10
▁associati	10
opological	10
introduced	10
▁anhydrous	10
electrical	10
assumption	10
transverse	10
▁Theoretic	10
undirected	10
▁projectiv	10
approaches	10
▁Restauran	10
▁Antworten	10
▁Kilometer	10
▁Schlüssel	10
▁inklusive	10
▁Trainings	10
▁Hamburger	10
▁Schwanger	10
▁Studenten	10
▁Technolog	10
▁Immobilie	10
▁Koalition	10
▁geplanten	10
▁positiven	10
▁Vermieter	10
▁Automobil	10
ministerin	10
▁Mobilfunk	10
▁Ansonsten	10
▁Rezension	10
▁Insolvenz	10
Donnerstag	10
▁negativen	10
▁weibliche	10
▁Differenz	10
▁Religions	10
Smartphone	10
▁Milliarde	10
▁differenz	10
▁Schülerin	10
▁Megapixel	10
Wohnzimmer	10
Badezimmer	10
Dostupnost	10
▁parametry	10
▁republice	10
▁prakticky	10
▁pneumatik	10
▁Stanislav	10
konstrukce	10
▁Parametry	10
▁Budějovic	10
dostupnost	10
restaurace	10
Amennyiben	10
▁csillagos	10
▁Debreceni	10
szeptember	10
▁rendellen	10
rendszerek	10
Ugyanakkor	10
Budapesten	10
paradicsom	10
klasszikus	10
mennyezeti	10
amennyiben	10
jelentette	10
carboxylic	10
tetrahydro	10
pyrrolidin	10
ethylamine	10
piperidine	10
▁methylene	10
cyclohexyl	10
pyrimidine	10
icarbonate	10
ethanamide	10
benzofuran	10
piperazine	10
▁acidified	10
ethylamino	10
naphthalen	10
cyclopenta	10
▁furnishes	10
quinazolin	10
orohydride	10
propanoate	10
azabicyclo	10
phosphoryl	10
▁expounded	10
▁signified	10
thiadiazol	10
cyclohexan	10
▁anhydride	10
ethanamine	10
oxadiazole	10
diazaspiro	10
ylsulfonyl	10
▁affording	10
ethylidene	10
▁hydrazine	10
methylprop	10
ylsulfanyl	10
evaporated	10
▁triphenyl	10
enylmethyl	10
▁Activated	10
softverski	10
Objavljeno	10
▁Cleansing	10
▁Campuchia	10
▁Vinaphone	10
▁photocopy	10
Vietnamgsm	10
Vietnamese	10
▁Authentic	10
▁Photocopy	10
▁Moonlight	10
smartphone	10
▁Philippin	10
▁Sponsored	10
▁variable	9
namespace	9
Exception	9
▁response	9
formation	9
▁position	9
▁Function	9
▁question	9
▁elements	9
▁specific	9
vironment	9
▁override	9
▁possible	9
Component	9
▁required	9
▁requests	9
▁contains	9
▁expected	9
▁continue	9
▁Defining	9
▁provided	9
ification	9
framework	9
▁solution	9
▁Creating	9
▁filename	9
▁settings	9
▁original	9
▁sequence	9
▁distance	9
▁operator	9
▁language	9
▁username	9
▁Solution	9
▁training	9
▁Printing	9
▁previous	9
Parameter	9
▁standard	9
▁multiple	9
transform	9
▁location	9
▁directly	9
Threading	9
▁resource	9
▁internal	9
questions	9
▁encoding	9
▁features	9
▁addition	9
▁sentence	9
▁creating	9
▁software	9
▁consider	9
▁category	9
wikipedia	9
▁register	9
▁inherits	9
▁redirect	9
▁commands	9
▁selected	9
Container	9
▁complete	9
▁starting	9
▁actually	9
▁Checking	9
Interface	9
▁download	9
▁anything	9
▁probably	9
▁callback	9
▁provides	9
▁returned	9
ategories	9
Reference	9
exception	9
Framework	9
▁existing	9
▁positive	9
▁executed	9
Directory	9
▁Response	9
▁negative	9
avascript	9
▁relation	9
▁Register	9
container	9
Generator	9
▁received	9
struction	9
▁contents	9
▁absolute	9
▁includes	9
▁endpoint	9
▁included	9
▁services	9
directory	9
▁Licensed	9
Converter	9
▁computer	9
Operation	9
algorithm	9
▁relative	9
Transform	9
▁approach	9
▁comments	9
▁accuracy	9
▁learning	9
▁validate	9
Migration	9
endregion	9
▁Optional	9
reference	9
Serialize	9
orizontal	9
▁children	9
microsoft	9
interface	9
▁handling	9
▁modified	9
▁retrieve	9
▁problems	9
▁unsigned	9
▁increase	9
▁together	9
▁followed	9
▁examples	9
▁Software	9
timestamp	9
▁reserved	9
▁duration	9
▁interest	9
▁platform	9
▁customer	9
▁requires	9
▁products	9
▁behavior	9
structure	9
▁checking	9
▁division	9
protected	9
▁converts	9
selection	9
condition	9
Constants	9
▁security	9
Formatter	9
▁dispatch	9
▁triangle	9
▁creation	9
▁smallest	9
▁assigned	9
▁Category	9
Extension	9
component	9
▁matching	9
▁designed	9
▁activity	9
▁equation	9
▁external	9
Condition	9
▁Language	9
Resources	9
▁building	9
▁imported	9
Character	9
▁provider	9
▁queryset	9
direction	9
Processor	9
▁priority	9
▁vertices	9
resources	9
▁keyboard	9
Direction	9
▁changing	9
generator	9
▁compiler	9
▁Variable	9
▁selenium	9
▁maintain	9
▁Standard	9
dependent	9
▁Settings	9
▁channels	9
developer	9
▁velocity	9
▁schedule	9
▁removing	9
▁intended	9
parameter	9
▁purposes	9
▁pipeline	9
functions	9
▁practice	9
▁students	9
▁accessed	9
attribute	9
▁deleting	9
▁filtered	9
▁finished	9
Selection	9
▁transfer	9
▁signific	9
▁Redirect	9
▁identify	9
generated	9
shortcuts	9
▁reversed	9
available	9
velopment	9
▁relevant	9
▁describe	9
▁vertical	9
▁replaced	9
minecraft	9
▁remember	9
Animation	9
▁Position	9
character	9
▁plotting	9
▁Question	9
Statement	9
▁identity	9
typeparam	9
dimension	9
▁demonstr	9
▁capacity	9
▁Customer	9
Namespace	9
Microsoft	9
▁Retrieve	9
▁Location	9
▁exchange	9
serialize	9
variables	9
▁yourself	9
translate	9
▁articles	9
extension	9
▁repeated	9
▁multiply	9
▁performs	9
▁supports	9
Execution	9
▁detected	9
threshold	9
▁business	9
▁thinking	9
▁Validate	9
▁accounts	9
copyright	9
▁assembly	9
▁incoming	9
▁research	9
▁recently	9
▁supposed	9
▁strategy	9
▁exponent	9
▁warnings	9
constants	9
connected	9
▁boundary	9
configure	9
Configure	9
bootstrap	9
▁geometry	9
Arguments	9
▁scenario	9
▁movement	9
Completed	9
▁distinct	9
▁neighbor	9
▁straight	9
▁Gaussian	9
▁trailing	9
arguments	9
▁hardware	9
▁uploaded	9
▁physical	9
▁floating	9
▁Download	9
▁decision	9
prototype	9
▁adjacent	9
▁personal	9
▁Assembly	9
▁fraction	9
▁pressure	9
Algorithm	9
Generated	9
▁occurred	9
webdriver	9
▁slightly	9
▁dividing	9
▁programs	9
operation	9
▁although	9
▁graphics	9
supported	9
Available	9
construct	9
▁accepted	9
embedding	9
▁bounding	9
▁normally	9
Something	9
▁clusters	9
processed	9
▁criteria	9
transpose	9
Inventory	9
calculate	9
▁assuming	9
rocessing	9
▁simulate	9
▁whenever	9
▁possibly	9
▁Security	9
▁Required	9
something	9
▁attached	9
▁particle	9
▁Keyboard	9
neighbors	9
Substring	9
partition	9
▁attempts	9
▁shortest	9
▁compared	9
sequences	9
▁Facebook	9
▁Encoding	9
Transport	9
▁defining	9
▁official	9
▁decrease	9
▁applying	9
frequency	9
▁Training	9
▁frequent	9
▁Expected	9
Rectangle	9
▁electron	9
▁detailed	9
▁restrict	9
▁computed	9
▁exercise	9
▁discount	9
Signature	9
▁workflow	9
▁happened	9
▁feedback	9
▁produces	9
rectangle	9
▁allowing	9
▁anywhere	9
▁integral	9
▁Exchange	9
▁searched	9
▁sections	9
Connector	9
▁everyone	9
optimizer	9
▁counting	9
▁estimate	9
▁released	9
▁favorite	9
▁strength	9
positions	9
▁declared	9
Alignment	9
▁Internet	9
▁Sequence	9
▁confused	9
normalize	9
According	9
Publisher	9
ictionary	9
▁tracking	9
▁noexcept	9
Variables	9
▁Logistic	9
▁WARRANTY	9
▁notation	9
▁opposite	9
▁consists	9
implement	9
▁entirely	9
precision	9
▁suitable	9
▁backward	9
▁Internal	9
Copyright	9
▁Multiply	9
undefined	9
tablename	9
▁involved	9
constexpr	9
▁Decision	9
▁somewhat	9
Questions	9
statement	9
▁preserve	9
▁weighted	9
▁Continue	9
▁licenses	9
factorial	9
omitempty	9
endencies	9
▁networks	9
▁sampling	9
Frequency	9
▁singular	9
▁embedded	9
▁Examples	9
▁Callback	9
▁produced	9
▁critical	9
▁creature	9
▁captured	9
▁answered	9
signature	9
completed	9
instances	9
transport	9
documents	9
published	9
▁reaction	9
Regressor	9
▁Analysis	9
▁observer	9
▁IService	9
▁pointing	9
▁suggests	9
▁Learning	9
▁commonly	9
▁infinity	9
community	9
▁accurate	9
▁circular	9
▁markdown	9
▁activate	9
Dimension	9
predicted	9
Calculate	9
▁affected	9
separated	9
▁concrete	9
▁Graphics	9
▁electric	9
Iteration	9
▁Assuming	9
▁balanced	9
▁advanced	9
timedelta	9
Construct	9
Separator	9
▁spectrum	9
formatted	9
▁explains	9
including	9
▁observed	9
▁delivery	9
Collector	9
▁majority	9
▁diameter	9
▁Duration	9
▁evidence	9
recursive	9
levelname	9
▁involves	9
▁Distance	9
▁substant	9
▁powerful	9
▁simplify	9
▁Computer	9
▁compress	9
▁breaking	9
▁managing	9
▁entering	9
histogram	9
▁accident	9
▁speaking	9
▁momentum	9
▁topology	9
▁prepared	9
lowercase	9
▁computes	9
▁birthday	9
detection	9
▁Consider	9
▁Multiple	9
publisher	9
▁Exercise	9
▁Applying	9
▁planning	9
▁quotient	9
intervals	9
▁Selenium	9
▁residual	9
intercept	9
▁universe	9
▁tempfile	9
▁equality	9
▁Building	9
▁reported	9
▁adjusted	9
▁measures	9
▁Markdown	9
▁achieved	9
▁compound	9
▁distingu	9
▁measured	9
▁directed	9
remaining	9
distances	9
▁stopping	9
▁strongly	9
installed	9
▁strictly	9
▁American	9
▁External	9
▁centered	9
▁portions	9
different	9
important	9
▁shopping	9
▁logistic	9
▁choosing	9
matically	9
paragraph	9
solutions	9
▁Transfer	9
secondary	9
▁discover	9
▁Original	9
▁pressing	9
▁cleaning	9
▁thoughts	9
▁Relation	9
Wikipedia	9
threading	9
▁designer	9
▁investig	9
▁referred	9
confusion	9
languages	9
▁concepts	9
▁communic	9
processes	9
▁Triangle	9
▁Modified	9
▁Although	9
▁friendly	9
migration	9
▁surround	9
▁magnetic	9
▁district	9
▁Fraction	9
▁Advanced	9
▁molecule	9
▁ignoring	9
collision	9
uppercase	9
Therefore	9
portfolio	9
itertools	9
▁Positive	9
▁resistor	9
▁wireless	9
▁throwing	9
▁shipping	9
▁occasion	9
represent	9
▁proposed	9
▁director	9
Challenge	9
▁Geometry	9
▁realized	9
▁manifold	9
▁rational	9
operators	9
Different	9
▁industry	9
▁Particle	9
principal	9
ublicense	9
specified	9
▁improved	9
▁chemical	9
following	9
▁Comments	9
magnitude	9
▁Vertical	9
▁mountain	9
▁Verifica	9
intersect	9
Community	9
libraries	9
▁reducing	9
linewidth	9
▁switched	9
▁Relative	9
▁homework	9
▁cylinder	9
▁appeared	9
▁incident	9
▁conclude	9
▁watching	9
Published	9
▁standing	9
converted	9
Unmanaged	9
▁stronger	9
▁formulas	9
▁rotating	9
objective	9
▁Remember	9
▁thousand	9
mplements	9
▁Absolute	9
particles	9
▁symmetry	9
▁Keywords	9
▁subgroup	9
▁Research	9
Sometimes	9
▁graphene	9
criterion	9
▁ensemble	9
intensity	9
▁announce	9
education	9
▁suddenly	9
remainder	9
▁scanning	9
▁instruct	9
▁governed	9
▁surfaces	9
▁indirect	9
▁outcomes	9
incorrect	9
▁studying	9
▁visiting	9
perimeter	9
Intercept	9
▁Shopping	9
▁incorpor	9
▁Designer	9
procedure	9
▁reaching	9
▁calories	9
inference	9
sensitive	9
▁becoming	9
▁National	9
▁modeling	9
▁European	9
▁hospital	9
▁isolated	9
▁sleeping	9
▁limiting	9
▁teaching	9
▁Contacts	9
Otherwise	9
▁friction	9
predictor	9
▁tomorrow	9
temporary	9
canonical	9
omorphism	9
▁avoiding	9
▁February	9
▁academic	9
relations	9
▁engineer	9
Solutions	9
potential	9
▁spending	9
▁Previous	9
▁December	9
Bluetooth	9
primitive	9
▁covering	9
▁steering	9
▁numbered	9
▁Physical	9
ascending	9
▁national	9
knowledge	9
▁Negative	9
▁Specific	9
▁dynamics	9
▁convince	9
materials	9
▁interior	9
▁surprise	9
▁hydrogen	9
composite	9
▁military	9
Universal	9
▁thorough	9
▁Division	9
currently	9
▁Accepted	9
▁numerous	9
effective	9
functools	9
▁charging	9
▁Received	9
▁linearly	9
▁Actually	9
▁diagrams	9
ervations	9
thickness	9
ributions	9
permalink	9
▁Hardware	9
▁oriented	9
otherwise	9
▁daughter	9
▁Students	9
▁touching	9
symmetric	9
▁November	9
mentioned	9
▁offering	9
▁families	9
▁converge	9
Blueprint	9
contained	9
statistic	9
▁Addition	9
Financial	9
▁elliptic	9
▁Electron	9
▁overcome	9
▁inspired	9
▁energies	9
▁carrying	9
▁fighting	9
▁spanning	9
Similarly	9
▁revealed	9
▁indented	9
reduction	9
▁crossing	9
▁finitely	9
triangles	9
deviation	9
▁emission	9
▁Circular	9
underline	9
▁adaptive	9
▁Practice	9
▁nonlocal	9
amplitude	9
▁coupling	9
▁Rational	9
universal	9
setlength	9
▁Revision	9
ferential	9
computing	9
▁calculus	9
▁arranged	9
▁carriage	9
▁creative	9
▁theories	9
technical	9
depending	9
▁marriage	9
financial	9
▁Compound	9
▁relating	9
▁bringing	9
extracted	9
explained	9
geometric	9
▁ultimate	9
▁everyday	9
according	9
Symmetric	9
▁Mountain	9
ordinates	9
displayed	9
▁focusing	9
▁District	9
▁silently	9
estimated	9
▁additive	9
▁graduate	9
divisible	9
Importing	9
▁Electric	9
▁homotopy	9
▁informed	9
▁pendulum	9
▁Networks	9
▁attacked	9
beginning	9
▁drinking	9
expensive	9
▁Director	9
grayscale	9
alternate	9
▁football	9
▁Equation	9
▁bathroom	9
▁grateful	9
▁emotions	9
▁catching	9
Exercises	9
September	9
▁believed	9
▁stumbled	9
▁entrance	9
sometimes	9
▁contrary	9
▁Boundary	9
▁soldiers	9
▁mutually	9
evolution	9
▁outlined	9
comparing	9
▁regional	9
▁wondered	9
▁sometime	9
chemistry	9
▁formally	9
expansion	9
▁Engineer	9
localized	9
▁economic	9
▁Problems	9
▁Topology	9
▁employed	9
iterative	9
▁shoulder	9
▁Creative	9
▁journals	9
▁algebras	9
mediately	9
▁stepping	9
Interview	9
glyphicon	9
▁yielding	9
▁aluminum	9
treatment	9
typically	9
▁Reaction	9
variation	9
▁Canadian	9
▁morphism	9
Exclusive	9
▁theorems	9
countable	9
Computing	9
essential	9
▁Critical	9
equations	9
▁feelings	9
technique	9
marketing	9
▁Homework	9
▁criminal	9
Marketing	9
Professor	9
correctly	9
▁Wireless	9
basically	9
▁Birthday	9
reactions	9
Euclidean	9
continued	9
▁remained	9
▁grabbing	9
operating	9
▁regarded	9
▁Everyone	9
▁Lagrange	9
▁domestic	9
commented	9
▁proceeds	9
▁mechanic	9
conscious	9
▁nitrogen	9
▁Dividing	9
Instagram	9
▁Recently	9
▁realised	9
▁homology	9
obviously	9
▁seasonal	9
invariant	9
linestyle	9
immediate	9
▁Integral	9
▁entitled	9
▁claiming	9
beautiful	9
▁historic	9
▁darkness	9
▁cellular	9
Numerical	9
Geometric	9
projected	9
▁admitted	9
▁enormous	9
▁operated	9
imaginary	9
▁Official	9
▁cultural	9
▁outlines	9
▁Detailed	9
▁dissolve	9
fractions	9
described	9
▁Simplify	9
▁bilinear	9
▁sounding	9
▁Exponent	9
classical	9
▁judgment	9
▁pleasant	9
▁Champion	9
▁localize	9
▁pleasure	9
▁geodesic	9
emergency	9
identical	9
▁Dynamics	9
▁opportun	9
▁experien	9
▁independ	9
▁Minister	9
▁clinical	9
▁suffered	9
ventional	9
▁stirring	9
▁southern	9
▁northern	9
▁concentr	9
▁enjoying	9
▁phenomen	9
▁Sciences	9
▁Regional	9
▁Victoria	9
lementary	9
▁examined	9
▁emerging	9
▁mathemat	9
▁Hamilton	9
▁reminded	9
mentation	9
▁promised	9
▁dressing	9
▁precious	9
ationally	9
▁electrom	9
▁literary	9
iological	9
President	9
▁Malaysia	9
▁catalyst	9
▁Athletic	9
▁Citation	9
▁Thailand	9
▁Margaret	9
▁recalled	9
▁Academic	9
▁Princess	9
▁Graduate	9
▁Benjamin	9
▁infrared	9
unctional	9
▁listened	9
▁Mathemat	9
▁exhibits	9
▁comprise	9
▁insisted	9
▁laughing	9
▁regulate	9
▁Chemical	9
▁innocent	9
▁fracture	9
▁Workshop	9
▁instinct	9
▁laughter	9
▁shredded	9
▁Brisbane	9
▁belonged	9
▁eventual	9
▁reciproc	9
▁conveyed	9
▁Vladimir	9
▁motivate	9
▁utilizes	9
requently	9
▁depicted	9
Christian	9
▁peculiar	9
▁threaten	9
▁stubborn	9
Christmas	9
▁purified	9
▁reacting	9
▁Visitors	9
▁collagen	9
▁Shanghai	9
sectional	9
▁Religion	9
▁helpless	9
▁squeezed	9
▁Springer	9
▁cheerful	9
developed	9
▁coincide	9
▁Sergeant	9
▁Leonardo	9
▁unsalted	9
Liverpool	9
▁forehead	9
producing	9
Elizabeth	9
▁narrowed	9
Sponsored	9
▁afforded	9
▁Modeling	9
▁Lighting	9
▁fluoride	9
▁Oriental	9
▁Suddenly	9
▁Clifford	9
▁Magnetic	9
▁resonant	9
intensive	9
▁Californ	9
▁unbiased	9
▁solvents	9
▁screamed	9
▁dictates	9
▁Hydrogen	9
▁dictated	9
▁clinging	9
Institute	9
Singapore	9
▁Calories	9
Barcelona	9
▁breathed	9
religious	9
molecular	9
announced	9
ificantly	9
▁showroom	9
▁Galactic	9
Molecular	9
ifference	9
▁modality	9
▁covalent	9
emotional	9
▁neutrons	9
afternoon	9
Detective	9
carbonate	9
extremely	9
Tottenham	9
▁dimethyl	9
ependence	9
rotective	9
stretched	9
▁shrugged	9
oxidation	9
performed	9
radiation	9
Chemistry	9
▁Relevant	9
▁inertial	9
generally	9
▁Entering	9
difficult	9
▁Calculus	9
receiving	9
existence	9
▁therefor	9
▁conforms	9
▁approxim	9
plication	9
▁hyperbol	9
itational	9
therefore	9
▁neutrino	9
manifolds	9
widetilde	9
entations	9
theoretic	9
downarrow	9
▁nonempty	9
▁Binomial	9
onsistent	9
▁Elliptic	9
▁monoidal	9
▁preprint	9
▁Legendre	9
▁graphing	9
▁Analytic	9
Algebraic	9
algebraic	9
Equations	9
imization	9
textstyle	9
logarithm	9
pectation	9
▁arithmet	9
vanishing	9
separable	9
Universit	9
Corollary	9
spherical	9
Boltzmann	9
saturated	9
Bernoulli	9
Nonlinear	9
principle	9
ultaneous	9
▁differen	9
Classical	9
polarized	9
Dirichlet	9
uniformly	9
stability	9
converges	9
Frobenius	9
morphisms	9
dynamical	9
curvature	9
Newtonian	9
nonlinear	9
electrons	9
conformal	9
induction	9
molecules	9
▁quenched	9
mathstrut	9
Chebyshev	9
parabolic	9
planetary	9
expressed	9
empirical	9
splitting	9
inductive	9
Sebastian	9
▁Bernhard	9
similarly	9
integrals	9
resonance	9
▁Szabolcs	9
covariant	9
partially	9
piecewise	9
mechanics	9
continuum	9
increases	9
▁Aleksand	9
regarding	9
resulting	9
synthetic	9
evaluated	9
presented	9
involving	9
olynomial	9
otational	9
electrode	9
switching	9
initially	9
naturally	9
branching	9
osciences	9
decreases	9
▁Debrecen	9
▁gefunden	9
▁individu	9
▁Probleme	9
▁trotzdem	9
▁erforder	9
▁darunter	9
▁Senioren	9
▁privaten	9
▁neuesten	9
▁schweren	9
▁dringend	9
▁Trotzdem	9
Antworten	9
▁dahinter	9
▁geringen	9
lafzimmer	9
adezimmer	9
▁Liebling	9
▁Referenz	9
onnerstag	9
Rezension	9
Frankfurt	9
▁sexuelle	9
▁weiblich	9
Patienten	9
▁Holstein	9
Charakter	9
Schlüssel	9
Trainings	9
inklusive	9
Situation	9
bezogenen	9
▁Showroom	9
Halloween	9
▁Titanium	9
▁Milliard	9
Hamburger	9
anagement	9
Kilometer	9
Terrassen	9
Rheinland	9
Nordrhein	9
▁Collagen	9
Kontrolle	9
▁nemovito	9
Informace	9
Parametry	9
▁pneumati	9
▁prostoru	9
▁prostory	9
Zobrazeno	9
▁Jaroslav	9
▁Miroslav	9
▁dostatek	9
▁kyseliny	9
▁expedice	9
▁asistent	9
▁soukromé	9
▁Ladislav	9
zobrazeno	9
▁kyselina	9
▁proveden	9
▁Speciali	9
▁soumraku	9
▁identifi	9
listopadu	9
▁pojišťov	9
▁nastaven	9
parametry	9
velikosti	9
▁december	9
▁november	9
▁keresked	9
▁tartalom	9
▁hatalmas	9
▁hangulat	9
▁forgalom	9
szervezet	9
Kapcsolat	9
▁alaposan	9
▁villamos	9
▁azonnali	9
▁Ingatlan	9
helyettes	9
Napnyugta	9
▁Keresked	9
acsonyabb	9
politikai	9
kapcsolat	9
▁felkeres	9
Budapesti	9
csillagos	9
rendszert	9
augusztus	9
foglalkoz	9
programok	9
gyakorlat	9
katolikus	9
csoportos	9
fontosabb	9
tanfolyam	9
rendszere	9
ismeretek	9
▁bútorlap	9
feladatok	9
▁paradics	9
optimaliz	9
miniszter	9
szombaton	9
iszonylag	9
szerintem	9
gyakoribb	9
trifluoro	9
pyrimidin	9
piperidin	9
fluoranyl	9
chloranyl	9
▁precipit	9
cyclopent	9
benzamide	9
trimethyl	9
carbamoyl	9
formamide	9
quinoline	9
acetamide	9
dimethoxy	9
carbamate	9
▁Solvents	9
methanone	9
morpholin	9
phosphine	9
thiophene	9
benzyloxy	9
propanoyl	9
▁refluxed	9
methylene	9
propanoic	9
▁techniqu	9
ylmethoxy	9
palladium	9
▁organics	9
oxymethyl	9
dihydroxy	9
propionic	9
▁degassed	9
ethanoate	9
carbazole	9
pentanoic	9
butanoate	9
cyclohexa	9
magnesium	9
▁operandi	9
▁basified	9
triphenyl	9
petroleum	9
▁Stirring	9
oxyphenyl	9
dissolved	9
▁triethyl	9
iperidine	9
ylpyridin	9
sulfonate	9
anhydrous	9
potassium	9
tillation	9
▁obavesti	9
▁uputstva	9
▁utakmice	9
▁zanimati	9
Izdvojeno	9
Poslednji	9
Referrals	9
Losowanie	9
Poslednja	9
▁njihovim	9
Pogledano	9
Subtitles	9
superslot	9
ightarrow	9
Vinaphone	9
Campuchia	9
▁Fujifilm	9
Chevrolet	9
quanghang	9
Sheffield	9
photocopy	9
Riverside	9
▁current	8
▁private	8
▁request	8
▁element	8
Question	8
▁Initial	8
ctionary	8
▁command	8
lication	8
filename	8
▁numbers	8
▁example	8
▁program	8
▁provide	8
▁through	8
▁between	8
▁content	8
▁process	8
function	8
Response	8
Property	8
▁initial	8
▁version	8
▁include	8
▁project	8
▁problem	8
▁because	8
Override	8
template	8
icrosoft	8
▁maximum	8
▁correct	8
▁results	8
▁library	8
▁product	8
▁address	8
▁without	8
▁Convert	8
▁created	8
response	8
▁another	8
password	8
▁session	8
reponame	8
▁perform	8
▁counter	8
▁connect	8
▁logging	8
▁objects	8
▁success	8
Instance	8
position	8
instance	8
▁require	8
Provider	8
▁running	8
▁service	8
Resource	8
tributes	8
▁strings	8
▁account	8
▁support	8
register	8
document	8
username	8
▁working	8
▁network	8
▁methods	8
irection	8
cription	8
argument	8
Position	8
▁matches	8
▁minimum	8
▁control	8
▁classes	8
Settings	8
▁seconds	8
Listener	8
▁feature	8
▁channel	8
igration	8
▁similar	8
▁Setting	8
▁writing	8
location	8
▁related	8
▁details	8
▁virtual	8
▁regular	8
▁testing	8
settings	8
Function	8
Document	8
Argument	8
Template	8
Services	8
▁average	8
▁updated	8
Password	8
▁getting	8
atically	8
▁primary	8
▁Message	8
▁setting	8
▁present	8
▁suggest	8
resource	8
property	8
overflow	8
Required	8
Location	8
▁looking	8
iostream	8
▁execute	8
▁However	8
category	8
exchange	8
▁reading	8
▁section	8
▁license	8
Category	8
Serializ	8
▁foreach	8
Activity	8
▁missing	8
▁Version	8
▁written	8
▁subject	8
▁nothing	8
Database	8
▁develop	8
features	8
▁pointer	8
mplement	8
▁partial	8
▁machine	8
▁Getting	8
▁visited	8
▁complex	8
▁article	8
▁Request	8
▁student	8
▁Example	8
▁Command	8
sequence	8
▁builder	8
▁someone	8
▁profile	8
▁website	8
database	8
expected	8
▁special	8
Variable	8
▁payload	8
▁weights	8
▁Product	8
▁general	8
▁contact	8
▁changed	8
▁Process	8
▁answers	8
▁Execute	8
▁deleted	8
variable	8
▁warning	8
patterns	8
distance	8
required	8
▁company	8
Register	8
▁measure	8
▁Project	8
▁cluster	8
readline	8
▁Service	8
▁release	8
▁manager	8
▁compare	8
▁several	8
▁prevent	8
▁keyword	8
▁mention	8
▁records	8
▁disable	8
▁against	8
▁minutes	8
▁country	8
serializ	8
▁removed	8
▁printed	8
Callback	8
▁storing	8
▁Perform	8
▁compute	8
▁calling	8
▁actions	8
▁usually	8
▁various	8
▁Created	8
▁however	8
▁Program	8
Selector	8
contains	8
▁meaning	8
▁samples	8
Contract	8
▁started	8
Contains	8
▁smaller	8
▁mapping	8
licenses	8
▁English	8
▁trigger	8
services	8
▁applied	8
Selected	8
▁implied	8
Identity	8
▁largest	8
▁formula	8
operator	8
▁history	8
▁entries	8
▁Reading	8
▁defines	8
▁desired	8
▁capture	8
▁appears	8
internal	8
▁Content	8
children	8
download	8
security	8
callback	8
complete	8
▁thought	8
question	8
Security	8
▁choices	8
language	8
ferences	8
▁loading	8
▁follows	8
▁Replace	8
▁outputs	8
▁surface	8
generate	8
selected	8
▁segment	8
▁Calling	8
▁dynamic	8
packages	8
▁advance	8
▁entered	8
▁threads	8
▁outside	8
▁Counter	8
▁happens	8
Entities	8
▁factory	8
Customer	8
sentence	8
Distance	8
▁checked	8
▁receive	8
▁metrics	8
Sequence	8
▁collect	8
▁purpose	8
Language	8
▁filters	8
▁degrees	8
Abstract	8
▁longest	8
unittest	8
▁Account	8
▁members	8
continue	8
encoding	8
elements	8
Assembly	8
validate	8
commands	8
▁produce	8
▁finally	8
▁perfect	8
Internal	8
material	8
Username	8
▁Current	8
▁picture	8
Descript	8
Diagnost	8
products	8
▁coeffic	8
training	8
▁players	8
Controls	8
Interval	8
▁believe	8
▁foreign	8
▁runtime	8
▁achieve	8
▁compile	8
▁vectors	8
▁further	8
▁located	8
▁Student	8
▁devices	8
Solution	8
▁finding	8
▁summary	8
Duration	8
ribution	8
▁parsing	8
▁freopen	8
▁Testing	8
▁Compute	8
▁systems	8
▁Opening	8
iterator	8
▁sending	8
▁Network	8
▁General	8
solution	8
original	8
erialize	8
▁respons	8
customer	8
▁pressed	8
▁resolve	8
strftime	8
▁Session	8
▁obvious	8
▁publish	8
Progress	8
accuracy	8
▁becomes	8
▁passing	8
contents	8
platform	8
▁confirm	8
duration	8
▁highest	8
▁consist	8
▁leading	8
▁buttons	8
▁explain	8
interval	8
▁divided	8
▁opening	8
▁Contact	8
activity	8
Registry	8
Analysis	8
▁utility	8
▁Profile	8
▁Loading	8
Graphics	8
▁Library	8
Nullable	8
Material	8
PASSWORD	8
▁MongoDB	8
Platform	8
Endpoint	8
Iterator	8
pecially	8
relation	8
unsigned	8
▁payment	8
▁imports	8
channels	8
▁concept	8
provider	8
▁ordered	8
Operator	8
abstract	8
▁closing	8
▁cancell	8
▁showing	8
Redirect	8
deletion	8
Encoding	8
comments	8
Delegate	8
literals	8
▁quality	8
▁squares	8
Children	8
Optional	8
Standard	8
▁attempt	8
▁println	8
linspace	8
▁voltage	8
▁getchar	8
▁applies	8
▁sources	8
▁texture	8
▁lengths	8
itecture	8
dispatch	8
▁ability	8
▁reached	8
Protocol	8
leetcode	8
▁natural	8
geometry	8
▁failure	8
specific	8
▁playing	8
examples	8
▁station	8
catenate	8
▁matched	8
requests	8
learning	8
▁Problem	8
▁binding	8
▁destroy	8
▁drawing	8
redirect	8
▁shuffle	8
▁reasons	8
▁targets	8
graphics	8
articles	8
standard	8
pipeline	8
▁density	8
endpoint	8
requires	8
▁Include	8
constant	8
▁unknown	8
Generate	8
assembly	8
▁circuit	8
identity	8
▁DEFAULT	8
Download	8
▁perhaps	8
▁cleaned	8
problems	8
variance	8
negative	8
▁closest	8
subplots	8
progress	8
▁Article	8
▁friends	8
Rotation	8
▁percent	8
Calendar	8
Validate	8
▁trouble	8
▁limited	8
previous	8
Expected	8
absolute	8
▁prepare	8
Pipeline	8
▁Finally	8
▁squared	8
▁shouldn	8
quantity	8
▁quickly	8
Geometry	8
▁polygon	8
Business	8
describe	8
protocol	8
▁elapsed	8
Compiler	8
analysis	8
velocity	8
▁traffic	8
▁acceler	8
▁neither	8
▁nearest	8
▁waiting	8
optional	8
endswith	8
Behavior	8
▁managed	8
entially	8
priority	8
▁battery	8
▁Receive	8
Multiple	8
▁Finding	8
▁effects	8
▁helpful	8
▁noticed	8
Accessor	8
▁ignored	8
▁Compare	8
▁popular	8
▁Support	8
software	8
formance	8
▁welcome	8
▁inherit	8
makedirs	8
▁Promise	8
▁talking	8
Exchange	8
▁inplace	8
Transfer	8
contract	8
▁outfile	8
▁derived	8
uclidean	8
▁Prepare	8
Constant	8
capacity	8
Modified	8
▁Objects	8
▁somehow	8
▁handled	8
▁Texture	8
vertices	8
▁Company	8
▁belongs	8
▁Feature	8
▁seaborn	8
▁scatter	8
▁algebra	8
external	8
▁Attempt	8
Original	8
Software	8
timezone	8
▁declare	8
▁Instead	8
External	8
Relation	8
▁assumed	8
ulations	8
clusters	8
▁angular	8
students	8
▁putting	8
▁Maximum	8
relative	8
▁chapter	8
Requests	8
▁theorem	8
ographic	8
▁Methods	8
▁stopped	8
modified	8
▁logical	8
▁signals	8
Positive	8
▁towards	8
strategy	8
perience	8
business	8
multiple	8
▁Virtual	8
▁reports	8
creasing	8
▁causing	8
positive	8
▁Dynamic	8
Creating	8
▁Private	8
Relative	8
▁scaling	8
Training	8
▁overall	8
defaults	8
▁Chinese	8
▁keeping	8
includes	8
▁suppose	8
▁reduced	8
▁locally	8
▁overlap	8
▁teacher	8
▁parents	8
checkbox	8
▁arrange	8
▁persons	8
▁precise	8
▁opinion	8
Examples	8
markdown	8
Velocity	8
filtered	8
▁respond	8
▁digital	8
traction	8
▁strange	8
▁decided	8
▁Partial	8
multiply	8
▁suspect	8
queryset	8
▁regions	8
triangle	8
Comments	8
strptime	8
warnings	8
sections	8
Vertical	8
▁hundred	8
▁anymore	8
▁shorter	8
ervation	8
▁amounts	8
▁pointed	8
transfer	8
▁culture	8
equation	8
▁Publish	8
▁Section	8
ological	8
vertical	8
Consider	8
▁leaving	8
▁million	8
Defaults	8
selenium	8
▁compact	8
▁monthly	8
starting	8
▁subsets	8
▁Subject	8
existing	8
override	8
Absolute	8
▁trivial	8
▁Similar	8
▁diagram	8
▁granted	8
▁implies	8
▁circles	8
▁remains	8
▁Regular	8
computer	8
▁covered	8
▁holding	8
artifact	8
▁rotated	8
▁deliver	8
terminal	8
▁portion	8
▁typical	8
▁Minimum	8
▁preview	8
retrieve	8
▁gravity	8
▁outcome	8
▁decoder	8
▁solving	8
▁quantum	8
Accuracy	8
interest	8
▁typedef	8
descript	8
▁dealing	8
▁Collect	8
possible	8
▁opacity	8
▁physics	8
▁assumes	8
keyboard	8
finished	8
standing	8
▁learned	8
▁treated	8
research	8
▁colored	8
▁whereas	8
▁meeting	8
▁spatial	8
Computer	8
Particle	8
▁animals	8
compiler	8
▁Arrange	8
received	8
Specific	8
parallel	8
▁Require	8
NSString	8
▁biggest	8
▁serious	8
▁joining	8
▁knowing	8
▁protein	8
fraction	8
▁careful	8
▁totally	8
▁rewrite	8
▁Average	8
building	8
▁curious	8
backward	8
Division	8
▁turning	8
Previous	8
▁Angular	8
Learning	8
forecast	8
▁concent	8
▁promise	8
ibraries	8
▁variety	8
▁recover	8
▁Results	8
▁science	8
feedback	8
creation	8
Assuming	8
Extended	8
▁figures	8
neighbor	8
▁winning	8
delegate	8
▁bitwise	8
▁satisfy	8
▁conduct	8
▁Details	8
▁History	8
▁Special	8
▁Summary	8
▁outline	8
▁figsize	8
paramref	8
▁sharing	8
▁Nothing	8
sampling	8
▁filling	8
Retrieve	8
▁rolling	8
Negative	8
▁realize	8
▁telling	8
▁pooling	8
▁figured	8
▁exposed	8
together	8
▁opposed	8
▁neutral	8
▁partner	8
ivariate	8
▁edition	8
Parallel	8
▁serving	8
Decision	8
Debugger	8
matching	8
▁labeled	8
▁shifted	8
▁Science	8
Advanced	8
Gaussian	8
▁feeling	8
aaaaaaaa	8
Terminal	8
▁offline	8
▁routine	8
equality	8
▁clarify	8
optimize	8
▁Numbers	8
combined	8
▁himself	8
▁concern	8
▁closure	8
assuming	8
subtract	8
▁roughly	8
▁descent	8
▁fitting	8
▁Fourier	8
boundary	8
▁Chapter	8
Although	8
smallest	8
▁mission	8
▁Primary	8
▁morning	8
▁delimit	8
friendly	8
directed	8
▁trading	8
Students	8
personal	8
creating	8
▁comfort	8
▁scoring	8
▁observe	8
division	8
▁Perhaps	8
▁stories	8
▁willing	8
▁mounted	8
distinct	8
▁bounded	8
▁classic	8
▁involve	8
balanced	8
▁equival	8
Facebook	8
▁divides	8
▁driving	8
favorite	8
increase	8
Personal	8
ordinary	8
▁Actions	8
although	8
decision	8
practice	8
▁Digital	8
▁removal	8
▁plastic	8
Exercise	8
▁enhance	8
Checking	8
extended	8
▁quarter	8
▁Russian	8
weighted	8
▁emotion	8
particle	8
assigned	8
▁weapons	8
▁ostream	8
▁January	8
pressure	8
▁Updated	8
checking	8
▁placing	8
▁Physics	8
exercise	8
▁Keyword	8
Physical	8
▁cooking	8
▁individ	8
critical	8
Compound	8
Boundary	8
diagonal	8
▁reduces	8
▁Suppose	8
▁sampled	8
▁graphic	8
▁landing	8
▁walking	8
▁century	8
Selenium	8
electron	8
behavior	8
▁hitting	8
official	8
overline	8
▁reality	8
▁sliding	8
▁equally	8
Describe	8
▁Website	8
▁falling	8
▁TResult	8
▁pushing	8
Remember	8
olutions	8
▁brought	8
strength	8
▁focused	8
▁Calcula	8
▁ceiling	8
▁disease	8
Changing	8
▁twisted	8
printing	8
▁picking	8
Internet	8
▁college	8
▁sitting	8
▁medical	8
▁British	8
physical	8
▁cutting	8
▁Theorem	8
▁Systems	8
accepted	8
▁Correct	8
▁Edition	8
Research	8
minimize	8
▁Working	8
▁Foreign	8
estimate	8
▁raising	8
▁worried	8
▁cleared	8
ilibrium	8
integers	8
▁insight	8
AAAAAAAA	8
▁growing	8
Designer	8
▁Surface	8
▁attract	8
▁privacy	8
argparse	8
ffffffff	8
▁offered	8
simulate	8
▁varying	8
uploaded	8
▁tangent	8
bounding	8
Keywords	8
▁charges	8
remember	8
▁Archive	8
▁pulling	8
▁trusted	8
shortest	8
networks	8
▁passive	8
▁studies	8
▁massive	8
▁parking	8
▁antenna	8
▁charged	8
▁calcula	8
Accepted	8
▁carrier	8
addition	8
Pressure	8
subseteq	8
▁alcohol	8
energies	8
probably	8
▁closely	8
provided	8
▁bitcoin	8
computed	8
▁lecture	8
▁letting	8
▁wanting	8
Multiply	8
▁horizon	8
▁electro	8
interact	8
spectrum	8
▁backing	8
▁killing	8
election	8
▁forcing	8
▁helping	8
director	8
▁transit	8
▁Quantum	8
matrices	8
Director	8
ymmetric	8
▁defense	8
Topology	8
▁fingers	8
plotting	8
Electron	8
ogeneous	8
topology	8
▁October	8
▁Booking	8
handling	8
omorphic	8
universe	8
▁Related	8
▁reserve	8
reaction	8
▁watched	8
programs	8
▁residue	8
consider	8
▁Rewrite	8
residual	8
Recently	8
incoming	8
decrease	8
integral	8
▁Monster	8
▁heating	8
▁genetic	8
oriented	8
▁kitchen	8
▁emitted	8
▁optical	8
maximize	8
▁healthy	8
▁carried	8
▁nonzero	8
▁examine	8
▁univers	8
▁Natural	8
possibly	8
logistic	8
notation	8
orphisms	8
▁differs	8
Logistic	8
exponent	8
▁brother	8
detected	8
District	8
▁Spatial	8
Printing	8
▁denomin	8
▁planned	8
▁bearing	8
compound	8
explicit	8
▁istream	8
▁moments	8
changing	8
▁tension	8
▁ancient	8
homework	8
Problems	8
tainment	8
▁magical	8
floating	8
▁billion	8
▁married	8
discrete	8
▁arrived	8
▁weekend	8
▁Formula	8
implicit	8
▁touched	8
▁pricing	8
▁studied	8
▁refused	8
▁wearing	8
momentum	8
Telegram	8
Equation	8
manifold	8
repeated	8
▁cooling	8
▁largely	8
Practice	8
▁amazing	8
relevant	8
▁kinetic	8
returned	8
▁Printer	8
▁Looking	8
▁abelian	8
▁hearing	8
homology	8
▁Italian	8
setminus	8
▁Algebra	8
answered	8
▁textual	8
counting	8
ditional	8
contrast	8
hospital	8
▁promote	8
SOFTWARE	8
▁propose	8
Licensed	8
▁fiction	8
circular	8
▁feeding	8
actually	8
▁polymer	8
▁neutron	8
pairwise	8
rational	8
ordinate	8
▁Jackson	8
iliation	8
▁Visitor	8
▁burning	8
▁seeking	8
▁photons	8
ituation	8
▁seventh	8
released	8
periodic	8
▁Concept	8
included	8
▁perturb	8
shortcut	8
▁staying	8
▁forming	8
patients	8
▁squeeze	8
▁hanging	8
centered	8
▁Density	8
Saturday	8
Integral	8
▁husband	8
infinity	8
breaking	8
▁possess	8
electric	8
creative	8
▁Between	8
▁induced	8
▁Partner	8
▁England	8
▁Percent	8
ications	8
▁ongoing	8
incident	8
anything	8
▁College	8
▁proving	8
▁focuses	8
▁Classic	8
▁suffice	8
▁evening	8
Infinite	8
American	8
greatest	8
▁confuse	8
▁invited	8
dynamics	8
Homework	8
▁crossed	8
▁efforts	8
singular	8
▁Answers	8
binomial	8
football	8
citation	8
adaptive	8
infinite	8
▁younger	8
▁rapidly	8
measures	8
modeling	8
▁officer	8
separate	8
straight	8
▁musical	8
February	8
▁denoted	8
December	8
supports	8
simplify	8
▁analogy	8
removing	8
anaconda	8
▁Medical	8
▁radical	8
▁ranging	8
▁briefly	8
November	8
Rational	8
▁lifting	8
▁readily	8
▁yielded	8
▁thereby	8
planning	8
▁unitary	8
designer	8
molecule	8
▁Privacy	8
chemical	8
▁diffuse	8
▁village	8
▁washing	8
National	8
▁Solving	8
▁Through	8
followed	8
▁Respons	8
▁priorit	8
▁convers	8
Electric	8
prepared	8
national	8
accurate	8
Simplify	8
▁Western	8
▁coupled	8
▁Develop	8
▁replied	8
restrict	8
subclass	8
▁Graphic	8
spectral	8
Official	8
recently	8
▁excited	8
concrete	8
▁soldier	8
▁Imaging	8
▁flowing	8
imported	8
▁uncheck	8
journals	8
▁healing	8
▁wavelet	8
▁damping	8
▁shortly	8
definite	8
redshift	8
▁diction	8
▁Reviews	8
emptyset	8
eqnarray	8
▁handful	8
cleaning	8
localize	8
▁Perfect	8
replaced	8
▁Besides	8
analytic	8
▁halfway	8
▁dragged	8
▁Lecture	8
▁Captain	8
▁herself	8
▁Speaker	8
ransform	8
icularly	8
defining	8
▁tightly	8
▁leaders	8
numbered	8
▁Premium	8
measured	8
enerated	8
mountain	8
reported	8
▁exhibit	8
Calories	8
▁Flutter	8
▁Laplace	8
▁William	8
oooooooo	8
cylinder	8
approach	8
concaten	8
peration	8
▁Lorentz	8
▁Applied	8
▁settled	8
thousand	8
▁Fitness	8
▁worship	8
produces	8
thinking	8
▁Modular	8
Relevant	8
▁Univers	8
affected	8
▁intense	8
▁derives	8
▁Protein	8
normally	8
quotient	8
▁genuine	8
▁Society	8
▁imaging	8
disjoint	8
▁wedding	8
▁resting	8
harmonic	8
▁cracked	8
▁hunting	8
Defining	8
▁captain	8
▁fourier	8
Everyone	8
outcomes	8
▁mineral	8
▁bedroom	8
▁modeled	8
indrical	8
▁outdoor	8
opposite	8
European	8
▁vertice	8
▁Angeles	8
Modeling	8
▁Diamond	8
everyone	8
▁bending	8
▁stomach	8
▁Pacific	8
▁Explain	8
▁forgive	8
▁solvent	8
▁Fantasy	8
▁melting	8
▁western	8
▁statist	8
▁evident	8
▁torsion	8
speaking	8
▁differe	8
▁compris	8
▁profess	8
ccording	8
▁describ	8
▁complet	8
▁Council	8
▁organiz	8
▁fixedly	8
▁Florida	8
▁surpris	8
▁researc	8
▁enjoyed	8
▁Profess	8
▁African	8
▁council	8
▁complic	8
▁experim	8
▁conclud	8
ollowing	8
▁tonight	8
▁chopped	8
opyright	8
▁vaccine	8
▁fishing	8
▁Premier	8
▁Studies	8
▁Officer	8
anguages	8
▁pleased	8
▁Supreme	8
urrently	8
▁underst	8
▁Ukraine	8
▁Chelsea	8
resident	8
▁Sheriff	8
▁eastern	8
gression	8
▁coconut	8
▁beating	8
▁stepped	8
▁blessed	8
▁emerged	8
▁winding	8
▁singles	8
▁Arsenal	8
▁metabol	8
▁Vietnam	8
▁violent	8
▁Israeli	8
▁lightly	8
▁spotted	8
perature	8
▁devoted	8
▁assured	8
▁silicon	8
▁Stanley	8
▁dressed	8
▁skillet	8
▁reminds	8
▁knocked	8
▁sensing	8
▁undergo	8
attering	8
▁Jessica	8
olecular	8
▁anxious	8
▁Austria	8
velength	8
▁bonding	8
▁battles	8
requency	8
▁lowered	8
▁glimpse	8
▁climbed	8
▁roasted	8
reatment	8
▁thanked	8
▁Restaur	8
▁lithium	8
▁Preheat	8
▁hormone	8
▁quietly	8
▁fifteen	8
▁eternal	8
daughter	8
▁smiling	8
▁Gabriel	8
▁slipped	8
ifferent	8
▁shaking	8
▁sounded	8
▁conserv	8
▁abandon	8
ccessful	8
▁convinc	8
▁referen	8
▁Hungary	8
Citation	8
▁Shannon	8
▁Ancient	8
▁shining	8
▁whistle	8
▁greeted	8
▁aqueous	8
▁employs	8
▁Scholar	8
odynamic	8
▁Outside	8
▁concave	8
▁multipl	8
▁confess	8
▁dispers	8
▁gradual	8
▁ethanol	8
▁Various	8
▁staring	8
▁pressur	8
▁Outdoor	8
ependent	8
▁furnish	8
▁conical	8
▁Tickets	8
▁playful	8
▁Maxwell	8
▁reacted	8
▁leaning	8
▁Colonel	8
▁slammed	8
asonable	8
▁adhered	8
▁rubbing	8
Canadian	8
▁Hamburg	8
▁stirred	8
▁glowing	8
▁Vintage	8
aneously	8
▁telecom	8
▁trailed	8
▁foolish	8
▁Reality	8
▁Tiffany	8
produced	8
▁Fischer	8
▁Pension	8
▁Serving	8
▁polynom	8
▁Revised	8
▁tighten	8
▁roadmap	8
designed	8
laughter	8
▁acetate	8
▁shouted	8
▁Electro	8
▁furious	8
Minister	8
Northern	8
▁brushed	8
▁induces	8
bringing	8
Southern	8
▁diluted	8
arranged	8
aterials	8
ractions	8
informed	8
▁Optical	8
fighting	8
▁Admiral	8
stituted	8
intended	8
▁hydroxy	8
▁widened	8
Hamilton	8
reaching	8
▁kissing	8
pecified	8
Regional	8
ountains	8
▁conceal	8
watching	8
▁Figures	8
▁smelled	8
▁thereto	8
catching	8
▁Camping	8
▁Museums	8
covering	8
▁drifted	8
▁seeming	8
olecules	8
Chemical	8
▁protons	8
cellular	8
▁glacial	8
▁glaring	8
▁hurried	8
Graduate	8
▁flashed	8
pressing	8
ificance	8
unctions	8
▁conject	8
▁viscous	8
infrared	8
Catholic	8
magnetic	8
reducing	8
▁fucking	8
carrying	8
▁convent	8
shoulder	8
▁governs	8
▁Olympus	8
teaching	8
limiting	8
▁glanced	8
▁entitle	8
families	8
yourself	8
▁epistem	8
dimethyl	8
▁Washing	8
▁Hosting	8
▁adheres	8
metallic	8
crossing	8
▁epitome	8
Malaysia	8
compared	8
sounding	8
angerous	8
▁precond	8
Springer	8
aldehyde	8
hydrogen	8
▁duality	8
Entering	8
emission	8
iiiiiiii	8
omething	8
finition	8
oretical	8
entation	8
ineering	8
ifically	8
stackrel	8
▁neutrin	8
irichlet	8
▁demonst	8
ondition	8
algebras	8
▁reconst	8
ountable	8
▁compres	8
underset	8
nolimits	8
calculus	8
▁Experim	8
robenius	8
Calculus	8
▁Sobolev	8
volution	8
▁Coulomb	8
▁Replies	8
▁Feynman	8
symmetry	8
nonumber	8
Lagrange	8
subgroup	8
▁Kinetic	8
formally	8
additive	8
rization	8
ountably	8
Binomial	8
▁Weibull	8
ebastian	8
Magnetic	8
▁homotop	8
strictly	8
otically	8
morphism	8
Bayesian	8
rotating	8
Szabolcs	8
surfaces	8
finitely	8
Analytic	8
coupling	8
neutrino	8
linearly	8
orbitals	8
strongly	8
quations	8
friction	8
inertial	8
resonant	8
Appendix	8
obtained	8
Hydrogen	8
formulas	8
▁sequent	8
cccccccc	8
▁Physica	8
preprint	8
symbolic	8
interior	8
dividing	8
whenever	8
▁hydride	8
marginal	8
slightly	8
directly	8
Brownian	8
Vladimir	8
pointing	8
▁Technol	8
▁topolog	8
▁equilib	8
stablish	8
ogarithm	8
▁semicon	8
Sciences	8
somewhat	8
suitable	8
applying	8
vestment	8
boldmath	8
theorems	8
Reynolds	8
monoidal	8
theories	8
▁surject	8
alladium	8
randomly	8
survival	8
allowing	8
improved	8
arameter	8
converge	8
Rayleigh	8
studying	8
Clifford	8
▁associa	8
confused	8
diagrams	8
unbiased	8
resistor	8
▁mohamed	8
urnished	8
▁Schüler	8
▁Freitag	8
▁bringen	8
minister	8
▁anderem	8
▁Immobil	8
▁Antwort	8
▁mittler	8
▁welches	8
▁Schritt	8
▁Fenster	8
▁welcher	8
▁Zustand	8
▁anderes	8
▁Modelle	8
▁Gelegen	8
▁genauso	8
▁bislang	8
▁Fleisch	8
▁Komfort	8
▁registr	8
▁welchen	8
▁Teppich	8
▁Spiegel	8
▁offenen	8
▁welchem	8
▁Registr	8
▁Montage	8
ikations	8
▁schwere	8
▁Telekom	8
▁Buchung	8
ontrolle	8
▁mobilen	8
gefunden	8
▁Katalog	8
▁neueste	8
Dienstag	8
▁geringe	8
▁leckere	8
▁energie	8
Familien	8
Netzwerk	8
▁Kantons	8
▁goldene	8
▁Panoram	8
bezogene	8
gefallen	8
▁teppich	8
Kalender	8
Mercedes	8
Probleme	8
▁Karrier	8
Berliner	8
Wellness	8
geeignet	8
Senioren	8
▁Erwerbs	8
normalen	8
schweren	8
Terrasse	8
Branchen	8
Gedanken	8
▁magazin	8
Schatten	8
eptember	8
individu	8
Beitrags	8
stupnost	8
▁prostor	8
obrazeno	8
▁republi	8
▁rostlin	8
▁kvality	8
Hmotnost	8
▁standar	8
▁Olomouc	8
▁investi	8
▁teploty	8
▁hodinky	8
▁spousta	8
▁Celková	8
velikost	8
▁celková	8
Rychlost	8
Platnost	8
mailovou	8
▁miliony	8
obsahuje	8
Obsahuje	8
Vzhledem	8
▁schopen	8
hmotnost	8
Jaroslav	8
pravidel	8
Miroslav	8
▁kyselin	8
ovitosti	8
▁Detaily	8
objednat	8
rychlost	8
Rozbalit	8
▁Spartak	8
Michaela	8
produkty	8
▁vietnam	8
knihovna	8
existuje	8
kliknte	8
Budapest	8
hetetlen	8
▁hasonló	8
ennyiben	8
▁emberek	8
▁csillag	8
rendszer	8
Ingyenes	8
fejleszt	8
▁Központ	8
hatatlan	8
elmiszer	8
▁mintegy	8
almazott	8
Regisztr	8
▁anyagok	8
▁valamit	8
keresked	8
magasabb	8
▁Hivatal	8
▁alapvet	8
fogyaszt	8
▁feltünt	8
Jelenleg	8
nevezett	8
▁Gergely	8
▁elenged	8
Ingatlan	8
Figyelem	8
▁nehezen	8
▁villany	8
▁medence	8
amerikai	8
irodalom	8
▁harminc	8
Tisztelt	8
amarosan	8
tartalom	8
Weboldal	8
▁hatalom	8
▁kemping	8
frissebb	8
forgalom	8
ingatlan	8
regisztr	8
csatorna	8
december	8
Amerikai	8
amatosan	8
kattints	8
ingyenes	8
rendelet	8
alkalmaz	8
tartalma	8
apartman	8
november	8
Megjelen	8
Rendszer	8
▁fellebb	8
hosszabb	8
Emellett	8
kevesebb	8
szeretet	8
szoftver	8
alacsony	8
ranszfer	8
jelenleg	8
adatokat	8
egyetemi	8
▁koronav	8
valamint	8
bizonyos	8
▁amelybe	8
teljesen	8
harmadik	8
azonnali	8
fogalmaz	8
▁hatalma	8
Miskolci	8
szerepet	8
Egyetemi	8
rugalmas	8
wellness	8
szerelem	8
megjelen	8
folyamat	8
weboldal	8
villamos	8
hangulat	8
egyetlen	8
oxidanyl	8
carboxyl	8
carbonyl	8
pyridine	8
▁substan	8
onitrile	8
sulfonyl	8
agnesium	8
chloride	8
cyclohex	8
▁approac	8
sulfanyl	8
imidazol	8
ylmethyl	8
thiophen	8
otassium	8
quinolin	8
▁diethyl	8
methanol	8
▁eluting	8
▁dissolv	8
ustomary	8
difluoro	8
▁Solvent	8
benzoate	8
diphenyl	8
naphthal	8
bromanyl	8
ethanone	8
thiazole	8
phosphor	8
triazolo	8
biphenyl	8
propanol	8
butanoyl	8
isoindol	8
carbamic	8
ylphenyl	8
azetidin	8
adiazole	8
phenanth	8
azaspiro	8
pyrazine	8
ethanoic	8
naphthyr	8
triazine	8
triazole	8
dioxabor	8
▁elution	8
benzothi	8
thiazolo	8
butoxide	8
▁thionyl	8
bottomed	8
sulfonic	8
hexanoic	8
hydroxyp	8
orpholin	8
iperidin	8
phosphin	8
nitrogen	8
ylpropan	8
Telegraf	8
Napomena	8
▁Republi	8
▁pitanju	8
▁posebno	8
▁novosti	8
▁Espreso	8
▁zemalja	8
Ministar	8
▁najavio	8
▁blizini	8
Povezane	8
Sukladno	8
▁stepeni	8
▁postala	8
▁Brnabić	8
▁naredne	8
▁njihovo	8
▁nikakve	8
▁ljudska	8
Lokacija	8
Thailand	8
▁Fanpage	8
baccarat	8
▁fanpage	8
iverside	8
Showroom	8
▁trường	8
▁Exciter	8
Baccarat	8
▁Beeline	8
Collagen	8
showroom	8
▁nguyent	8
▁backlit	8
Sunshine	8
▁Ittihad	8
▁dongben	8
▁public	7
unction	7
▁number	7
▁System	7
▁result	7
▁object	7
ception	7
▁Import	7
▁method	7
▁static	7
summary	7
include	7
▁String	7
lection	7
▁Define	7
osition	7
▁specif	7
▁direct	7
▁should	7
ference	7
▁models	7
uration	7
Service	7
▁second	7
▁follow	7
nection	7
▁length	7
▁change	7
▁script	7
▁update	7
Message	7
ication	7
request	7
Request	7
tribute	7
▁target	7
▁assert	7
ression	7
▁vector	7
▁answer	7
▁client	7
Manager	7
assword	7
message	7
olution	7
ategory	7
reating	7
ository	7
▁system	7
▁select	7
ization	7
▁search	7
anguage	7
Generic	7
▁called	7
▁except	7
▁double	7
▁fields	7
▁multip	7
Command	7
Handler	7
Element	7
▁matrix	7
current	7
package	7
process	7
▁status	7
Builder	7
▁struct	7
content	7
private	7
▁comple	7
▁access	7
default	7
▁custom	7
▁height	7
▁option	7
▁action	7
perties	7
▁button	7
Content	7
version	7
Factory	7
▁player	7
▁filter	7
ensions	7
gorithm	7
▁points	7
▁single	7
Integer	7
▁thread	7
command	7
▁weight	7
▁record	7
element	7
▁sample	7
ailable	7
inition	7
plotlib	7
▁binary	7
▁trying	7
▁sorted	7
replace	7
mission	7
Options	7
▁person	7
Default	7
▁amount	7
▁either	7
▁within	7
product	7
▁images	7
▁assign	7
▁delete	7
▁Object	7
returns	7
service	7
resents	7
▁socket	7
connect	7
ocument	7
▁labels	7
println	7
typedef	7
project	7
objects	7
▁screen	7
▁author	7
▁device	7
ulation	7
ination	7
▁common	7
Control	7
▁cannot	7
example	7
▁prints	7
session	7
▁append	7
▁folder	7
▁really	7
▁reason	7
▁always	7
▁Method	7
latform	7
Process	7
Address	7
Version	7
Product	7
Current	7
▁people	7
▁better	7
ostream	7
address	7
▁stream	7
▁memory	7
options	7
display	7
▁Remove	7
pattern	7
ositive	7
▁associ	7
Windows	7
Session	7
▁inside	7
▁letter	7
Project	7
▁around	7
ispatch	7
▁expect	7
section	7
▁throws	7
▁partic	7
execute	7
▁figure	7
▁adding	7
predict	7
comment	7
▁square	7
▁things	7
▁switch	7
imation	7
Account	7
▁report	7
counter	7
results	7
▁Option	7
▁define	7
account	7
▁cursor	7
ullable	7
Changed	7
ibility	7
▁remain	7
reshold	7
▁effect	7
channel	7
ilities	7
▁Custom	7
▁domain	7
Display	7
▁Number	7
Example	7
actions	7
▁needed	7
▁driver	7
agement	7
▁passed	7
▁lambda	7
▁having	7
▁accept	7
▁center	7
▁applic	7
▁coding	7
Storage	7
ameters	7
aterial	7
columns	7
duction	7
▁Select	7
initial	7
▁enough	7
▁offset	7
▁printf	7
▁events	7
icensed	7
▁choice	7
library	7
classes	7
handler	7
profile	7
▁recurs	7
▁signal	7
▁modify	7
support	7
▁during	7
feature	7
▁though	7
▁kernel	7
Profile	7
defined	7
▁Action	7
Adapter	7
▁Adding	7
▁useful	7
▁Result	7
▁engine	7
▁active	7
control	7
correct	7
created	7
Details	7
autiful	7
▁Client	7
▁writer	7
▁linked	7
usiness	7
▁assume	7
article	7
▁camera	7
manager	7
▁symbol	7
ability	7
ragment	7
▁choose	7
headers	7
▁series	7
▁rather	7
orizont	7
▁layout	7
▁anyone	7
▁happen	7
numbers	7
▁recomm	7
Program	7
▁making	7
▁divide	7
Channel	7
Invalid	7
▁entire	7
▁period	7
▁little	7
▁typing	7
Initial	7
▁please	7
▁member	7
▁Delete	7
▁occurs	7
success	7
▁typeof	7
▁failed	7
seconds	7
▁compar	7
▁neighb	7
▁Player	7
logging	7
randint	7
ational	7
▁upload	7
ignment	7
▁counts	7
Console	7
▁design	7
▁likely	7
▁groups	7
▁pretty	7
▁Filter	7
▁reduce	7
network	7
▁radius	7
Success	7
However	7
▁secret	7
reshape	7
▁Author	7
▁attack	7
▁colors	7
▁submit	7
dirname	7
▁rights	7
console	7
compile	7
▁Change	7
Network	7
▁Button	7
install	7
raction	7
▁commun	7
▁volume	7
▁origin	7
Wrapper	7
testing	7
factory	7
▁stores	7
convert	7
▁parsed	7
getchar	7
▁recent	7
▁longer	7
▁hidden	7
▁scores	7
▁states	7
Boolean	7
Objects	7
▁commit	7
Convert	7
samples	7
subplot	7
▁pytest	7
contact	7
ivalent	7
▁future	7
endency	7
reverse	7
▁Public	7
▁transp	7
▁helper	7
▁layers	7
LICENSE	7
payload	7
Enabled	7
▁Stream	7
Connect	7
forward	7
details	7
▁closed	7
builder	7
modules	7
Counter	7
metrics	7
exports	7
Pattern	7
Package	7
▁dialog	7
▁bucket	7
▁taking	7
storage	7
Results	7
history	7
Library	7
extract	7
▁pixels	7
▁verify	7
CASCADE	7
▁wonder	7
cluster	7
▁higher	7
Created	7
▁energy	7
▁Format	7
require	7
Execute	7
▁others	7
Texture	7
▁places	7
Contact	7
▁Status	7
▁across	7
release	7
▁issues	7
collect	7
student	7
diction	7
ordered	7
Timeout	7
Section	7
▁rating	7
weights	7
▁shared	7
ography	7
Feature	7
program	7
▁router	7
company	7
▁detail	7
▁agreed	7
browser	7
▁review	7
▁moment	7
country	7
Binding	7
▁canvas	7
▁friend	7
▁branch	7
▁editor	7
▁larger	7
Support	7
▁logged	7
incipal	7
▁moving	7
scatter	7
▁prefer	7
▁blocks	7
▁listen	7
▁damage	7
▁nested	7
▁packet	7
▁Access	7
Replace	7
subject	7
▁asking	7
▁affect	7
▁comput	7
Returns	7
▁sealed	7
▁recogn	7
▁scrapy	7
▁online	7
▁declar	7
ynomial	7
▁Please	7
listdir	7
related	7
History	7
▁worked	7
balance	7
▁policy	7
artment	7
Warning	7
▁faster	7
▁decode	7
▁sizeof	7
strings	7
Trigger	7
▁raised	7
boolean	7
partial	7
▁scroll	7
▁cipher	7
loading	7
▁Multip	7
▁wanted	7
Setting	7
foreach	7
primary	7
▁immedi	7
▁finish	7
▁almost	7
timeout	7
warning	7
Student	7
Collect	7
▁ground	7
▁Linear	7
▁Matrix	7
Loading	7
Headers	7
▁Should	7
▁strict	7
vention	7
Visible	7
Desktop	7
▁degree	7
▁Double	7
▁months	7
▁levels	7
Seconds	7
▁decide	7
▁subset	7
▁approx	7
▁become	7
invalid	7
▁worker	7
initely	7
problem	7
windows	7
angular	7
inherit	7
Pointer	7
abspath	7
archive	7
▁lookup	7
average	7
Subject	7
DEFAULT	7
▁Taking	7
freopen	7
▁equals	7
▁bounds	7
ampling	7
▁rotate	7
Testing	7
▁cookie	7
backend	7
itional	7
▁Common	7
▁repeat	7
▁possib	7
integer	7
variant	7
▁opened	7
▁native	7
Numbers	7
Helpers	7
remarks	7
▁mechan	7
▁animal	7
Machine	7
▁Single	7
matches	7
Drawing	7
▁Target	7
logical	7
compare	7
▁saying	7
▁satisf	7
uniform	7
▁saving	7
▁charge	7
Extract	7
servlet	7
▁Script	7
▁strong	7
filters	7
▁wouldn	7
▁intent	7
▁writes	7
▁median	7
savefig	7
checked	7
Release	7
▁filled	7
updated	7
mapping	7
▁slight	7
▁employ	7
▁secure	7
▁family	7
Payment	7
▁mobile	7
▁minute	7
▁reject	7
▁merged	7
Utility	7
▁epochs	7
jupyter	7
ndarray	7
Scanner	7
▁Studio	7
unicode	7
Segment	7
weather	7
▁Commit	7
Country	7
▁pprint	7
▁theory	7
Another	7
generic	7
english	7
picture	7
resolve	7
Summary	7
Include	7
scripts	7
commons	7
Unknown	7
▁sounds	7
▁Report	7
runtime	7
Article	7
Methods	7
Culture	7
trained	7
▁travel	7
publish	7
Problem	7
▁regist	7
▁colour	7
compute	7
encoder	7
entries	7
▁concer	7
running	7
Widgets	7
▁Engine	7
visible	7
figsize	7
▁cancel	7
itation	7
▁flight	7
entropy	7
members	7
▁recipe	7
fixture	7
Columns	7
▁limits	7
▁orders	7
▁myself	7
VERSION	7
letters	7
umption	7
earning	7
▁giving	7
▁placed	7
Compare	7
▁neural	7
disable	7
Primary	7
▁school	7
mathcal	7
without	7
▁resist	7
riction	7
▁solved	7
virtual	7
▁styled	7
percent	7
Capture	7
▁splits	7
ocation	7
▁Length	7
visited	7
▁anyway	7
▁couldn	7
▁attach	7
records	7
▁market	7
▁Second	7
▁fourth	7
epsilon	7
Private	7
Browser	7
▁resize	7
▁Active	7
▁listed	7
catalog	7
mediate	7
outputs	7
encoded	7
▁invest	7
jupiter	7
cleaned	7
Average	7
▁raises	7
segment	7
▁mostly	7
▁credit	7
payment	7
missing	7
Updated	7
▁coming	7
machine	7
ickness	7
Dynamic	7
station	7
pointer	7
changed	7
similar	7
clusion	7
▁passes	7
▁Intent	7
▁conver	7
eclipse	7
▁speech	7
▁signed	7
setting	7
▁Dialog	7
refresh	7
▁pieces	7
Checked	7
players	7
▁artist	7
Measure	7
ulative	7
complex	7
between	7
groupby	7
covered	7
measure	7
dynamic	7
▁smooth	7
▁looked	7
keyword	7
choices	7
▁exceed	7
Require	7
license	7
shuffle	7
Combine	7
padding	7
Refresh	7
▁Member	7
Missing	7
▁Accept	7
squared	7
Matcher	7
Virtual	7
▁marked	7
▁inject	7
▁posted	7
▁broken	7
methods	7
▁refers	7
Correct	7
▁season	7
▁Schema	7
▁ranges	7
caption	7
▁turned	7
pective	7
▁conven	7
Without	7
contain	7
▁solver	7
▁supply	7
▁bigger	7
jectory	7
vectors	7
special	7
Welcome	7
website	7
imately	7
▁motion	7
surface	7
▁Series	7
emplace	7
portion	7
▁unders	7
maximum	7
▁seeing	7
▁Equals	7
▁photos	7
Regular	7
▁Submit	7
▁forget	7
General	7
arently	7
present	7
▁leaves	7
minutes	7
▁Direct	7
▁played	7
▁Fields	7
texture	7
sources	7
answers	7
unknown	7
▁Switch	7
elenium	7
threads	7
▁topics	7
chapter	7
▁angles	7
elihood	7
mozilla	7
icenses	7
▁Compar	7
▁Spring	7
regular	7
▁caused	7
builtin	7
Surface	7
utility	7
Buttons	7
▁Design	7
▁breaks	7
managed	7
written	7
▁Symbol	7
▁Verify	7
minimum	7
general	7
▁thrown	7
▁belong	7
▁impact	7
▁plural	7
Special	7
Mozilla	7
▁income	7
ometric	7
▁graphs	7
▁sphere	7
reflect	7
Forward	7
Partial	7
▁beyond	7
Contain	7
istream	7
▁bubble	7
▁thanks	7
binding	7
orphism	7
working	7
Picture	7
▁Helper	7
▁edited	7
▁powers	7
Maximum	7
prevent	7
heading	7
parents	7
▁effort	7
clicked	7
▁Square	7
allowed	7
quality	7
longest	7
Minimum	7
▁highly	7
friends	7
Because	7
▁spring	7
Preview	7
Percent	7
ractice	7
express	7
▁scaled	7
viously	7
▁skills	7
▁tagged	7
Complex	7
▁stroke	7
imators	7
Reading	7
▁permit	7
reviews	7
capital	7
▁formed	7
because	7
▁finger	7
▁meters	7
▁Serial	7
▁orange	7
Compute	7
▁yields	7
▁joined	7
symbols	7
another	7
▁Review	7
▁mirror	7
preview	7
▁bought	7
▁street	7
▁analog	7
▁office	7
reading	7
largest	7
ributed	7
▁Native	7
rolling	7
▁German	7
▁Mobile	7
writing	7
▁stated	7
▁differ	7
patient	7
asctime	7
jective	7
▁Center	7
▁Commun	7
Marshal	7
▁nature	7
▁Region	7
▁poster	7
▁Signal	7
deleted	7
greater	7
▁scient	7
▁avatar	7
factors	7
Finally	7
▁timing	7
▁UPDATE	7
inverse	7
▁medium	7
receive	7
Similar	7
started	7
▁French	7
▁bridge	7
buttons	7
▁lights	7
▁Weight	7
through	7
charset	7
rounded	7
▁closes	7
English	7
Compile	7
Archive	7
▁cycles	7
Pending	7
▁Divide	7
Provide	7
Instead	7
▁thresh	7
Working	7
▁offers	7
▁locked	7
Keyword	7
perform	7
▁facing	7
▁Volume	7
▁mother	7
uploads	7
consist	7
▁danger	7
dropout	7
▁expert	7
Suppose	7
lengths	7
central	7
Padding	7
Routing	7
▁closer	7
▁theore	7
utation	7
▁battle	7
▁father	7
Related	7
vehicle	7
Between	7
density	7
science	7
pressed	7
Getting	7
▁States	7
Uniform	7
▁slower	7
▁Europe	7
▁locate	7
species	7
▁ctypes	7
▁forces	7
discord	7
▁papers	7
squares	7
Unicode	7
Promise	7
pending	7
▁Launch	7
▁Detail	7
▁orient	7
failure	7
▁picked	7
lectric	7
teacher	7
authors	7
▁Online	7
suggest	7
▁living	7
▁former	7
▁harder	7
▁survey	7
matched	7
▁safety	7
▁summar	7
radians	7
changes	7
▁portal	7
▁Cancel	7
finally	7
spatial	7
▁growth	7
cellent	7
▁forgot	7
Dropout	7
▁caught	7
systems	7
▁vision	7
▁forest	7
▁sticky	7
digital	7
▁bottle	7
▁stands	7
▁Office	7
graphql	7
▁buying	7
degrees	7
▁missed	7
▁People	7
▁begins	7
istance	7
concept	7
indexed	7
formula	7
nearest	7
▁liquid	7
polygon	7
▁hoping	7
▁nearly	7
Physics	7
physics	7
▁female	7
provide	7
▁butter	7
circuit	7
▁killed	7
▁covers	7
▁mainly	7
▁frozen	7
Twitter	7
▁prepar	7
▁Figure	7
▁Ticket	7
desired	7
Nothing	7
▁pushed	7
closest	7
upytext	7
inplace	7
▁School	7
partner	7
Chapter	7
Express	7
▁Factor	7
▁Neural	7
aligned	7
▁fitted	7
stances	7
Website	7
▁doctor	7
lations	7
▁Rating	7
usually	7
depends	7
DOCTYPE	7
TResult	7
▁Market	7
▁studio	7
combine	7
getting	7
▁became	7
regions	7
▁Period	7
▁narrow	7
pmatrix	7
▁convex	7
removed	7
Looking	7
Concept	7
▁sudden	7
Systems	7
limited	7
▁excess	7
▁annual	7
nothing	7
instead	7
▁United	7
▁expose	7
▁seemed	7
▁forced	7
Perform	7
▁derive	7
▁island	7
▁served	7
▁losing	7
Inverse	7
▁Cookie	7
located	7
effects	7
▁eating	7
Digital	7
▁helped	7
Through	7
▁guitar	7
ociated	7
▁tunnel	7
▁centre	7
neutral	7
▁Social	7
inomial	7
natural	7
monthly	7
▁slowly	7
ipython	7
▁Regist	7
▁viewed	7
▁Street	7
▁bodies	7
waiting	7
▁flower	7
▁Battle	7
ivation	7
respons	7
bmatrix	7
▁cheese	7
Answers	7
asyncio	7
Further	7
Declare	7
▁merely	7
▁Credit	7
▁versus	7
INTEGER	7
▁stupid	7
Angular	7
ificial	7
▁bright	7
▁combat	7
▁parity	7
▁widely	7
algebra	7
▁Secure	7
Calling	7
inction	7
graphic	7
nonzero	7
▁arrive	7
rewrite	7
▁strike	7
serving	7
Formula	7
foreign	7
highest	7
▁rarely	7
Creates	7
▁Origin	7
▁Energy	7
already	7
Perhaps	7
▁pulled	7
fitting	7
▁invite	7
▁Doctor	7
parsing	7
▁rocket	7
offline	7
drawing	7
sklearn	7
traffic	7
▁Silver	7
▁paying	7
Reviews	7
overlap	7
▁flying	7
voltage	7
instant	7
▁afraid	7
theorem	7
gravity	7
▁suffer	7
▁rolled	7
handles	7
▁famous	7
Operand	7
▁Termin	7
tionary	7
▁affine	7
▁thinks	7
Spatial	7
respond	7
▁nobody	7
▁spoken	7
▁nearby	7
itative	7
meaning	7
▁batter	7
playing	7
develop	7
Density	7
▁notion	7
attempt	7
▁toward	7
Finding	7
▁brings	7
Central	7
finding	7
pytorch	7
▁intend	7
▁Canada	7
newline	7
▁namely	7
▁dragon	7
▁cyclic	7
▁acting	7
▁greedy	7
▁summer	7
optimal	7
▁threat	7
opening	7
▁thrust	7
persons	7
popular	7
▁invent	7
Attempt	7
scaling	7
leading	7
▁Bridge	7
▁Theory	7
▁mixing	7
▁sketch	7
bitwise	7
▁fixing	7
▁driven	7
▁Family	7
▁preser	7
▁unlike	7
meeting	7
▁France	7
▁hiding	7
compact	7
▁nation	7
Prepare	7
outside	7
▁proved	7
iterate	7
protein	7
▁thesis	7
explore	7
Partner	7
▁August	7
reduced	7
closing	7
figures	7
bounded	7
▁earned	7
▁Having	7
▁varies	7
stories	7
Elastic	7
▁police	7
colored	7
MongoDB	7
▁vacuum	7
▁surely	7
Whether	7
▁silver	7
thought	7
▁masses	7
operand	7
▁deeper	7
looking	7
outcome	7
etailed	7
▁During	7
Graphic	7
perfect	7
smaller	7
Capital	7
▁induct	7
closure	7
ativity	7
▁pounds	7
▁taught	7
implies	7
protect	7
Bitcoin	7
Authors	7
▁afford	7
minimal	7
trivial	7
▁assist	7
▁photon	7
▁Season	7
purpose	7
Natural	7
phantom	7
classic	7
▁dinner	7
▁resort	7
Michael	7
▁Recent	7
▁Though	7
▁career	7
▁League	7
▁sports	7
▁backed	7
▁garden	7
ordinal	7
ificant	7
▁convey	7
sharing	7
Fitness	7
▁clouds	7
▁Boston	7
▁Things	7
quarter	7
▁Legend	7
hundred	7
▁paused	7
▁Travel	7
diagram	7
▁victim	7
▁dashed	7
▁baking	7
instein	7
calling	7
▁Jewish	7
Chinese	7
▁mutual	7
▁golden	7
▁guides	7
Algebra	7
sitemap	7
categor	7
Overlap	7
cussion	7
▁experi	7
▁gained	7
▁conten	7
uations	7
▁Invest	7
▁cooked	7
▁corpor	7
January	7
rotated	7
▁sliced	7
▁Rather	7
▁Daniel	7
overall	7
perhaps	7
valores	7
▁twenty	7
Perfect	7
taining	7
▁advers	7
Science	7
circles	7
college	7
healthy	7
▁Turing	7
▁Moment	7
Respons	7
▁Arabic	7
▁attend	7
▁rescue	7
▁stereo	7
medical	7
▁pocket	7
▁ration	7
▁sister	7
explain	7
inciple	7
▁recept	7
derived	7
▁Korean	7
focused	7
conduct	7
▁Closed	7
quantum	7
Edition	7
eration	7
winning	7
Tuesday	7
fashion	7
fffffff	7
extends	7
▁triang	7
WITHOUT	7
acceler	7
subsets	7
persona	7
Quantum	7
Someone	7
▁riding	7
▁assess	7
descent	7
▁rubber	7
▁fusion	7
America	7
▁Church	7
keeping	7
Speaker	7
entered	7
▁vessel	7
▁Little	7
licable	7
▁steady	7
▁Taylor	7
assumed	7
▁arises	7
▁County	7
seaborn	7
whether	7
▁doubly	7
Jackson	7
Applied	7
▁Mirror	7
▁titled	7
jsonify	7
▁execut	7
carrier	7
▁church	7
▁Mechan	7
olecule	7
▁Strong	7
tkinter	7
▁severe	7
▁Russia	7
Youtube	7
shifted	7
irement	7
cooking	7
ilistic	7
horizon	7
▁Unlike	7
Medical	7
▁marble	7
▁shower	7
atively	7
▁dotted	7
▁Topics	7
▁barely	7
Classic	7
comfort	7
however	7
outhern	7
someone	7
Neither	7
▁Except	7
▁rising	7
▁refuse	7
▁senior	7
▁deduce	7
▁fellow	7
printed	7
▁glance	7
▁insist	7
passing	7
▁settle	7
▁remind	7
applied	7
holding	7
▁succes	7
▁overly	7
▁normed	7
creates	7
October	7
▁Orient	7
Besides	7
charges	7
rangian	7
▁murder	7
defense	7
▁voices	7
stellar	7
▁observ	7
Foreign	7
biggest	7
polymer	7
versely	7
defines	7
mounted	7
▁tissue	7
shields	7
▁talked	7
Optimal	7
▁sexual	7
▁Africa	7
▁beauty	7
heating	7
▁Joseph	7
specify	7
against	7
▁burned	7
▁Summer	7
undance	7
▁asleep	7
▁Brazil	7
▁estate	7
▁Finger	7
Lecture	7
▁curved	7
Iterate	7
transit	7
▁tongue	7
▁covari	7
▁Higher	7
▁anonym	7
▁coarse	7
lightly	7
iations	7
walking	7
emplate	7
▁eighth	7
Suspend	7
▁Winter	7
▁gaming	7
▁sooner	7
▁axioms	7
▁jumped	7
Crystal	7
Theorem	7
insight	7
College	7
picking	7
regress	7
kitchen	7
▁Bright	7
▁Victor	7
spectra	7
▁sodium	7
▁nights	7
charged	7
▁walked	7
Solving	7
▁desert	7
▁wooden	7
modular	7
modulus	7
▁multis	7
pathlib	7
▁plasma	7
strides	7
hashlib	7
▁defend	7
▁dipole	7
showing	7
driving	7
morning	7
▁priest	7
urement	7
▁Nature	7
exactly	7
thermal	7
▁Golden	7
million	7
▁kindly	7
bearing	7
divided	7
oupling	7
Explain	7
ropolis	7
Several	7
hasattr	7
respect	7
▁heated	7
alcohol	7
▁physic	7
▁stayed	7
▁saddle	7
Premium	7
Diamond	7
perator	7
▁buried	7
Chicago	7
precise	7
▁regret	7
Fourier	7
▁compos	7
extreme	7
▁warned	7
▁Summar	7
▁Beyond	7
▁waited	7
▁thirty	7
valence	7
several	7
▁pursue	7
oftware	7
fiction	7
▁disapp	7
ipeline	7
filling	7
married	7
imezone	7
▁Julian	7
▁vanish	7
follows	7
▁causal	7
▁predic	7
▁dating	7
▁Guitar	7
▁folded	7
▁hypers	7
Matthew	7
raining	7
▁Cheese	7
typical	7
fourier	7
▁includ	7
▁provid	7
▁announ	7
ruction	7
ovember	7
▁compan	7
ription	7
▁streng	7
aughter	7
▁compon	7
▁advant	7
▁histor	7
▁excell	7
▁Police	7
▁proced	7
▁incred	7
▁consid	7
▁Museum	7
▁cavity	7
▁sleeve	7
▁terror	7
▁struck	7
▁Senior	7
▁loving	7
ogether	7
izabeth	7
▁sevent	7
▁Comput	7
athered	7
▁guilty	7
▁Histor	7
Despite	7
▁Garden	7
▁sought	7
▁accord	7
▁cataly	7
▁drying	7
▁Nation	7
istical	7
▁cotton	7
▁dining	7
▁Annual	7
▁Junior	7
agnetic	7
▁rotary	7
▁symmet	7
▁fought	7
▁Justin	7
embered	7
▁cylind	7
▁excite	7
▁marine	7
western	7
ressing	7
attered	7
▁gently	7
atching	7
century	7
▁lifted	7
▁ginger	7
▁argued	7
▁guided	7
▁regime	7
induced	7
▁jacket	7
▁scream	7
▁melted	7
▁kicked	7
▁Arthur	7
▁honour	7
▁scared	7
lements	7
▁rushed	7
William	7
reement	7
portant	7
▁finely	7
▁Johnny	7
▁Oliver	7
▁washed	7
▁elabor	7
ighting	7
▁throat	7
▁crying	7
▁Wonder	7
▁refere	7
▁emerge	7
▁ounces	7
▁Impact	7
istence	7
▁perpet	7
▁attain	7
▁peanut	7
▁grated	7
▁clutch	7
ountain	7
▁Hannah	7
▁incons	7
▁cooled	7
▁intens	7
▁minced	7
▁fright	7
▁methyl	7
ounding	7
▁admire	7
▁peeled	7
organic	7
▁wished	7
▁breeze	7
idering	7
▁Twenty	7
▁Adrian	7
▁pillow	7
▁Sebast	7
▁flames	7
▁admits	7
ervices	7
herical	7
forming	7
▁Angela	7
Richard	7
▁assure	7
▁resear	7
▁gravel	7
alities	7
amiliar	7
▁waking	7
▁Olivia	7
lifting	7
▁Tennis	7
▁induce	7
▁incomp	7
▁Posted	7
▁Beauty	7
British	7
▁tossed	7
Preheat	7
olutely	7
▁sorrow	7
▁hydrox	7
▁Maggie	7
▁silica	7
feeding	7
growing	7
roduced	7
Charles	7
▁bloody	7
▁smiled	7
▁Rafael	7
▁electr	7
▁bodily	7
▁Sympos	7
▁Flying	7
▁multic	7
Council	7
▁tucked	7
▁attent	7
▁photoc	7
England	7
▁perfor	7
Stephen	7
Univers	7
▁wicked	7
Western	7
▁warmed	7
▁capita	7
▁funnel	7
▁rested	7
itching	7
▁Ranger	7
▁Terror	7
elected	7
▁Gaming	7
cutting	7
inished	7
▁Juliet	7
raising	7
reasing	7
▁sucked	7
▁Suzuki	7
▁Hammer	7
treated	7
solving	7
Patrick	7
▁graded	7
ranging	7
plastic	7
▁Priest	7
▁linger	7
Chelsea	7
hydroxy	7
ceiving	7
Captain	7
▁Lounge	7
uttered	7
▁Nguyen	7
requent	7
▁Baking	7
▁Conver	7
ossibly	7
▁Theore	7
▁conduc	7
Arsenal	7
Vitamin	7
▁Horror	7
▁quench	7
bedroom	7
▁Kosovo	7
▁Dating	7
otation	7
▁shakes	7
Charlie	7
▁yelled	7
▁cheeks	7
▁geomet	7
▁solemn	7
▁Minute	7
▁anisot	7
▁trivia	7
Philipp	7
▁Jeanne	7
husband	7
plement	7
▁genera	7
▁rinsed	7
uitable	7
▁stared	7
▁Sodium	7
brother	7
ractive	7
telling	7
Advisor	7
▁barric	7
Olympic	7
▁leaned	7
▁rubbed	7
▁servic	7
▁helium	7
▁sensed	7
accarat	7
▁Xiaomi	7
▁tilted	7
leaders	7
▁Accord	7
▁strang	7
▁overst	7
serious	7
Brother	7
electro	7
▁nodded	7
pecific	7
▁Subaru	7
▁illust	7
▁aligns	7
▁Luxury	7
▁Hubble	7
▁hugged	7
▁Sexual	7
hitting	7
burning	7
▁Batter	7
▁techno	7
fishing	7
▁Sergei	7
▁kissed	7
▁martyr	7
▁Suites	7
planned	7
individ	7
▁dilute	7
ostatic	7
▁unknow	7
falling	7
cooling	7
▁Hirsch	7
seeking	7
▁financ	7
▁Chiang	7
▁Acknow	7
Supreme	7
wearing	7
▁splint	7
▁hyperb	7
▁Lenovo	7
causing	7
▁acetic	7
optical	7
▁shoved	7
▁pissed	7
Premier	7
▁precon	7
▁citric	7
placing	7
Vietnam	7
redibly	7
▁immuno	7
freedom	7
chopped	7
further	7
imagine	7
▁thermo	7
hearing	7
leaning	7
turning	7
talking	7
believe	7
Shannon	7
massive	7
pectral	7
veloped	7
▁kinder	7
ciences	7
killing	7
ethanol	7
putting	7
Figures	7
pirical	7
romised	7
coupled	7
helpful	7
roughly	7
hanging	7
ouching	7
council	7
feeling	7
▁yester	7
nuclear	7
Fashion	7
▁proble	7
ividual	7
▁formul	7
▁repres	7
bstract	7
anation	7
pendent	7
onsider	7
omework	7
▁embedd	7
dsymbol	7
▁behavi	7
▁publis	7
widehat	7
ariance	7
overset	7
onormal	7
▁disper	7
ownload	7
ponents	7
uparrow	7
enclose	7
egative	7
abelian	7
▁Convex	7
▁monoid	7
▁Solved	7
▁develo	7
propert	7
SHOWING	7
hepdata	7
Schwarz	7
Poisson	7
rystall	7
ections	7
Hilbert	7
varying	7
locally	7
Laplace	7
Seminar	7
Nuclear	7
functor	7
concave	7
racting	7
chloric	7
nthetic	7
tangent	7
maximal	7
efinite	7
suppose	7
orbital	7
creases	7
cations	7
divides	7
Neumann	7
duality	7
unitary	7
obvious	7
paramet	7
denoted	7
proving	7
studied	7
Maxwell	7
Thermal	7
Sobolev	7
kinetic	7
onstant	7
matical	7
vations	7
creased	7
▁Balmer	7
▁Physic	7
bonding	7
acetime	7
knowled	7
introdu	7
Coulomb	7
variety	7
Fischer	7
Pearson	7
becomes	7
▁Triang	7
whereas	7
ccurate	7
Electro	7
▁curren	7
neutron	7
▁Hungar	7
▁Algebr	7
riangle	7
pointed	7
omplete	7
solvent	7
Feynman	7
Gerhard	7
Replies	7
clearly	7
Scholar	7
erminal	7
neither	7
Optical	7
tension	7
hydride	7
raphene	7
alactic	7
arallel	7
quation	7
▁biject	7
hydrous	7
photons	7
excited	7
totally	7
statist	7
fluence	7
towards	7
appears	7
implied	7
iagonal	7
Variety	7
simpler	7
▁Farkas	7
easures	7
▁scatte	7
▁Ration	7
protons	7
equally	7
viscous	7
mohamed	7
riginal	7
stellen	7
▁lassen	7
▁welche	7
steller	7
▁hatten	7
▁wissen	7
▁bisher	7
▁Straße	7
▁hinaus	7
ikation	7
bringen	7
▁Pflege	7
▁anders	7
▁prakti	7
▁Herbst	7
▁Fehler	7
frieden	7
▁danach	7
klusive	7
glichen	7
▁Praxis	7
ontroll	7
▁jungen	7
▁Blumen	7
▁langen	7
▁Rabatt	7
▁Studie	7
▁tollen	7
Beitrag	7
▁gering	7
zension	7
▁runter	7
▁ideale	7
▁Genuss	7
▁tolles	7
omputer	7
arakter	7
▁offene	7
ienstag	7
▁langer	7
▁Bewerb	7
▁Langen	7
▁Schatz	7
lenburg	7
▁Intens	7
Stellen	7
▁Chemie	7
▁Renten	7
solvenz	7
Antwort	7
Freitag	7
▁unterb	7
▁Erwerb	7
▁toller	7
▁kalten	7
Samstag	7
kontakt	7
▁Mangel	7
▁Merkur	7
Stunden	7
▁Servic	7
Versand	7
▁Völker	7
mittler	7
Hamburg	7
▁Gesell	7
▁Stereo	7
▁Seelen	7
Modelle	7
▁Kirsch	7
▁Lungen	7
▁enorme	7
teppich	7
▁Gewerb	7
Spiegel	7
▁Republ	7
▁energe	7
Branche	7
▁praxis	7
Schüler	7
Katalog	7
komplex	7
etzwerk	7
Schritt	7
energie	7
Fenster	7
▁Unterb	7
▁bringe	7
Joachim	7
▁lizenz	7
Zukunft	7
Sachsen	7
handelt	7
formate	7
Camping	7
Montage	7
▁Fitnes	7
Dennoch	7
Teppich	7
Hotline	7
Komfort	7
Fleisch	7
schwere	7
Zustand	7
Spenden	7
Schmuck	7
Kleider	7
normale	7
icheren	7
▁Würmer	7
Casinos	7
quarium	7
▁Qualit	7
▁hormon	7
Ausland	7
Philips	7
Alkohol	7
inneren	7
alkohol	7
▁beginn	7
Kletter	7
Martina	7
Telekom	7
Million	7
Schrank	7
hailand	7
Skladem	7
obrazit	7
motnost	7
tegorie	7
formace	7
▁techni	7
alizace	7
Doprava	7
skladem	7
▁restau	7
▁snadno	7
Rozmry	7
▁Olomou	7
poledne	7
▁hodiny	7
▁prosin	7
▁velkou	7
▁koupit	7
▁energi	7
▁tomuto	7
▁nebylo	7
▁hotely	7
▁nechat	7
Vyberte	7
Novinky	7
▁Podrob	7
jednodu	7
▁nebyly	7
Celková	7
▁VLTAVA	7
▁souvis	7
▁stovky	7
centrum	7
stranit	7
skytuje	7
doprava	7
Ostrava	7
▁noviny	7
▁Hotely	7
Olomouc	7
Divadlo	7
▁teplot	7
▁spojit	7
ovitost	7
elektro	7
▁Koupit	7
▁pujcky	7
obvykle	7
▁Poloha	7
elektri	7
▁Kerami	7
prodeji	7
▁Poslat	7
procent	7
celková	7
maticky	7
▁Vysoko	7
podpora	7
skupina	7
regionu	7
prostor	7
vitamin	7
diskuze	7
znalost	7
opravdu	7
stanice	7
nagyobb	7
▁rendez	7
ogatott	7
▁jelleg	7
Kapcsol	7
▁elmond	7
csoport	7
▁sokkal	7
engeteg	7
ennyire	7
▁emberi	7
elenleg	7
verseny	7
▁elején	7
▁mester	7
rissebb	7
sorozat	7
▁Szeged	7
▁alakul	7
osszabb	7
ezetten	7
kapcsol	7
helyett	7
anyagok	7
mailben	7
▁hasonl	7
▁embert	7
Csatlak	7
▁birtok	7
ecember	7
helyzet	7
Eredeti	7
▁normál	7
▁lassan	7
▁gyalog	7
Reggeli	7
▁gyöngy	7
egyetem	7
▁citrom	7
▁medenc	7
▁Foglal	7
asztott	7
Kedvenc	7
szombat	7
szerint	7
kereszt	7
gyermek	7
▁hirdet	7
▁vettek	7
ismeret	7
Gyermek	7
akoribb	7
szervez	7
viszony	7
▁titkos	7
Balaton	7
esebben	7
Miskolc	7
szerviz	7
Hasznos	7
csillag	7
szakasz	7
▁postai	7
Csillag	7
Legjobb	7
medence	7
artalom	7
iskolai	7
nyugati	7
Csoport	7
▁kanyar	7
reggeli	7
▁Pannon	7
hasznos	7
▁alapos	7
▁illata	7
umentum	7
Központ	7
Verseny	7
oldalon	7
▁hangos	7
visszav	7
Szakmai	7
▁Normál	7
egyedik	7
Hivatal	7
▁Konyha	7
emberek	7
Nemzeti	7
Egyszer	7
Kereszt	7
hallgat	7
▁maradj	7
▁embere	7
amennyi	7
eredeti	7
artalma	7
egyszer	7
▁Energi	7
szinten	7
motoros	7
fegyver	7
bajnoki	7
▁Gondol	7
feljebb	7
Szegedi	7
Viszont	7
Egyetem	7
szakmai	7
illetve	7
Kossuth	7
avicsos	7
tengely	7
szellem	7
csendes	7
nappali	7
Nappali	7
▁hatalm	7
feletti	7
legjobb	7
eljesen	7
fejlett	7
megoszt	7
oldalak	7
harminc	7
kedvenc	7
feladat	7
kiemelt	7
hatalom	7
▁Debrec	7
▁formál	7
alkalom	7
esetben	7
ismerte	7
negyven	7
szervek	7
motorok	7
esetleg	7
egyenes	7
nemzeti	7
betegek	7
holland	7
endszer	7
futball	7
sokszor	7
mindent	7
komment	7
rendben	7
▁Merced	7
szemely	7
hemical	7
methoxy	7
▁residu	7
pyridin	7
dihydro	7
▁achiev	7
methane	7
▁perfec	7
▁sequen	7
▁involv	7
phenoxy	7
▁suspen	7
thiazol	7
▁Consid	7
hexanes	7
morphol	7
pyrrolo	7
benzoic	7
propoxy	7
acetate	7
ylidene	7
ylamino	7
▁furnis	7
timated	7
propion	7
CCCCCCC	7
aniline	7
pyridyl	7
▁eluent	7
fluoren	7
oxylate	7
pyrazin	7
pyrrole	7
diamine	7
▁eluted	7
oxamide	7
ethenyl	7
piperid	7
triazin	7
ylamine	7
ticular	7
dioxane	7
boronic	7
diethyl	7
bicyclo	7
▁mmoles	7
acetoxy	7
chromen	7
carboxy	7
bromide	7
acetone	7
lithium	7
▁apogee	7
▁Methyl	7
▁purged	7
uctions	7
ylethyl	7
lighten	7
azanium	7
tingent	7
Oxazine	7
butyric	7
acrylic	7
phospho	7
eluting	7
hloride	7
carbamo	7
yridine	7
sulfate	7
dimethy	7
reacted	7
aqueous	7
opentyl	7
chlorop	7
fluorop	7
methano	7
recipit	7
arative	7
novosti	7
ercedes	7
elegraf	7
▁Aleksa	7
▁navode	7
tivated	7
▁arhiva	7
▁ponovo	7
▁zanima	7
▁Kosova	7
▁gotovo	7
Espreso	7
▁velike	7
▁ljubav	7
▁stanju	7
▁moraju	7
BEOGRAD	7
▁Kosovu	7
sowanie	7
▁Srpska	7
▁visoko	7
▁Srpski	7
▁Branko	7
▁Univer	7
Republi	7
Postovi	7
▁novost	7
▁sbobet	7
▁Longdo	7
▁lazada	7
Fanpage	7
▁trưởng	7
▁Phương	7
▁Trưởng	7
▁trương	7
▁Trương	7
vietnam	7
▁khoang	7
▁thuong	7
▁Saigon	7
▁thành	7
▁chính	7
▁lượng	7
▁thiết	7
▁trình	7
▁phòng	7
▁truyen	7
▁nguyen	7
▁trước	7
▁nguyễn	7
▁tháng	7
▁Vincom	7
▁thống	7
▁chuyen	7
▁truong	7
▁Pleiku	7
▁chống	7
▁Tháng	7
▁phuong	7
▁Truyen	7
▁khuynh	7
▁Thành	7
▁nguồn	7
▁Truong	7
▁Chính	7
▁thuận	7
viettel	7
hotline	7
▁Standa	7
▁congty	7
nguyent	7
▁Erling	7
▁bệnh	7
▁Pohang	7
▁nhập	7
Exciter	7
nhahang	7
▁vaccin	7
sanpham	7
hoahong	7
timviec	7
▁dichvu	7
VIETTEL	7
<0x0C>	6
<0x0E>	6
<0x2D>	6
<0x98>	6
<0xBA>	6
<0xCC>	6
▁print	6
▁class	6
▁value	6
▁model	6
urrent	6
lement	6
return	6
rivate	6
public	6
string	6
String	6
▁using	6
ations	6
▁range	6
▁which	6
▁field	6
▁image	6
ackage	6
▁first	6
gument	6
define	6
▁there	6
append	6
▁Title	6
▁Print	6
ameter	6
▁start	6
sponse	6
▁count	6
▁store	6
▁while	6
▁would	6
▁point	6
▁other	6
Object	6
length	6
ptions	6
umbers	6
attern	6
object	6
struct	6
format	6
anager	6
▁empty	6
▁state	6
▁right	6
python	6
result	6
Config	6
config	6
action	6
resent	6
▁final	6
quired	6
▁under	6
▁break	6
▁event	6
models	6
uilder	6
▁given	6
stance	6
Result	6
roller	6
▁order	6
▁about	6
▁found	6
▁train	6
▁query	6
Client	6
ferent	6
▁total	6
▁after	6
pected	6
▁could	6
ctions	6
assert	6
output	6
▁their	6
quence	6
actory	6
▁title	6
▁equal	6
indows	6
▁throw	6
Create	6
number	6
▁write	6
vector	6
▁email	6
▁group	6
client	6
▁means	6
▁match	6
ension	6
ternal	6
▁lines	6
▁being	6
▁super	6
search	6
ending	6
change	6
export	6
Entity	6
System	6
▁space	6
▁block	6
dition	6
update	6
Change	6
lasses	6
Number	6
Button	6
gorith	6
▁every	6
direct	6
▁level	6
status	6
ential	6
▁indic	6
Thread	6
andard	6
▁based	6
values	6
▁these	6
▁place	6
ground	6
▁await	6
Stream	6
server	6
Status	6
random	6
▁build	6
▁doesn	6
▁takes	6
stract	6
Select	6
method	6
▁graph	6
Length	6
target	6
Action	6
▁names	6
select	6
author	6
▁views	6
arning	6
Source	6
Column	6
filter	6
Method	6
▁think	6
entity	6
second	6
Format	6
tainer	6
script	6
source	6
▁again	6
▁child	6
▁enter	6
verage	6
column	6
delete	6
▁split	6
Server	6
▁times	6
ftware	6
▁solve	6
spring	6
▁limit	6
▁named	6
▁admin	6
Update	6
▁Flask	6
▁score	6
button	6
signed	6
▁still	6
Output	6
▁might	6
rowser	6
onents	6
▁works	6
Engine	6
▁users	6
▁Image	6
encies	6
matrix	6
sample	6
stream	6
▁issue	6
▁short	6
region	6
height	6
▁below	6
▁lists	6
common	6
static	6
engine	6
▁until	6
Parser	6
irtual	6
▁entry	6
kwargs	6
Logger	6
Reader	6
driver	6
insert	6
▁small	6
▁since	6
pecial	6
params	6
▁price	6
double	6
module	6
▁style	6
remove	6
ration	6
▁catch	6
▁nodes	6
Filter	6
Layout	6
▁types	6
Script	6
rapper	6
▁debug	6
Window	6
▁three	6
▁ident	6
system	6
ipedia	6
lambda	6
▁inher	6
parser	6
▁lower	6
points	6
active	6
▁power	6
▁close	6
google	6
Player	6
▁those	6
weight	6
ically	6
▁month	6
▁added	6
▁prime	6
▁seems	6
▁bytes	6
Search	6
▁tried	6
▁Unity	6
▁board	6
logger	6
▁bound	6
▁batch	6
Vector	6
▁route	6
Helper	6
▁appro	6
▁Error	6
▁doing	6
▁https	6
issing	6
inline	6
quency	6
▁setup	6
curacy	6
gative	6
images	6
adding	6
option	6
cessed	6
▁cases	6
Custom	6
solute	6
domain	6
Return	6
Writer	6
▁begin	6
sembly	6
▁video	6
▁yield	6
Access	6
player	6
verter	6
▁apply	6
Buffer	6
▁There	6
printf	6
header	6
ention	6
apache	6
window	6
▁speed	6
▁going	6
labels	6
Module	6
Header	6
Target	6
▁flask	6
ressed	6
▁wrong	6
Render	6
▁Class	6
Option	6
pyplot	6
pename	6
socket	6
center	6
▁pixel	6
▁thing	6
scribe	6
ynamic	6
▁occur	6
Record	6
curity	6
crease	6
Widget	6
holder	6
Author	6
▁upper	6
lation	6
comple	6
layout	6
fields	6
▁large	6
custom	6
SELECT	6
▁third	6
▁forms	6
layers	6
▁light	6
▁paths	6
Dialog	6
Height	6
▁exper	6
▁basic	6
encode	6
ixture	6
▁Field	6
Delete	6
folder	6
buffer	6
▁avoid	6
▁steps	6
quires	6
normal	6
▁scale	6
device	6
Common	6
member	6
utions	6
▁needs	6
access	6
thread	6
ometry	6
▁Store	6
ICENSE	6
▁evalu	6
▁makes	6
Member	6
▁Count	6
Assert	6
havior	6
ibrary	6
formed	6
render	6
screen	6
Remove	6
▁parts	6
▁saved	6
▁merge	6
▁round	6
▁links	6
decode	6
Equals	6
ograph	6
▁years	6
typeof	6
widget	6
record	6
▁sound	6
exists	6
▁Order	6
handle	6
Active	6
▁never	6
▁fetch	6
Should	6
Schema	6
cursor	6
reader	6
▁looks	6
Loader	6
vision	6
▁Other	6
Please	6
Editor	6
▁Query	6
report	6
writer	6
except	6
▁sever	6
Second	6
served	6
Params	6
Thanks	6
Device	6
commit	6
▁depth	6
plugin	6
Matrix	6
▁usage	6
equals	6
▁later	6
master	6
cision	6
▁gives	6
Single	6
Sample	6
▁inner	6
▁built	6
▁angle	6
future	6
▁tasks	6
▁sleep	6
▁dtype	6
finite	6
depend	6
▁embed	6
Offset	6
Random	6
▁fixed	6
Report	6
▁along	6
Person	6
anging	6
stdout	6
answer	6
▁rules	6
witter	6
figure	6
prefix	6
Screen	6
▁water	6
▁movie	6
lished	6
▁topic	6
▁audio	6
▁refer	6
▁quick	6
ensity	6
sorted	6
▁hours	6
person	6
energy	6
Python	6
global	6
Detail	6
ategor	6
detail	6
▁taken	6
offset	6
choice	6
onacci	6
Socket	6
django	6
▁quite	6
amount	6
▁State	6
▁Index	6
loader	6
Handle	6
allest	6
mathbb	6
router	6
intern	6
▁Label	6
imshow	6
▁often	6
ulture	6
▁front	6
▁Using	6
pragma	6
▁reads	6
Plugin	6
secret	6
Effect	6
▁Mongo	6
▁force	6
▁gover	6
Events	6
▁scope	6
Folder	6
▁known	6
Parent	6
errors	6
ylabel	6
▁delta	6
Simple	6
xlabel	6
binary	6
factor	6
multip	6
Append	6
liance	6
▁epoch	6
ulator	6
Global	6
▁mouse	6
nameof	6
ASCADE	6
▁white	6
▁logic	6
Import	6
upload	6
arange	6
▁units	6
▁delay	6
submit	6
urther	6
styles	6
▁While	6
Double	6
Compar	6
▁posts	6
▁Train	6
Memory	6
Struct	6
events	6
▁agent	6
tensor	6
▁tools	6
▁fails	6
Ignore	6
▁comes	6
▁alert	6
starts	6
coming	6
Policy	6
▁sheet	6
shared	6
should	6
letter	6
counts	6
letion	6
sizeof	6
▁drive	6
hidden	6
▁stuff	6
memory	6
riting	6
Amount	6
Multip	6
resize	6
▁media	6
▁Local	6
▁paper	6
digits	6
▁elect	6
▁piece	6
achine	6
▁multi	6
metric	6
groups	6
simple	6
▁cover	6
▁owner	6
Points	6
strong	6
▁shown	6
▁visit	6
levant	6
though	6
imator	6
▁green	6
▁maybe	6
opping	6
ternet	6
astype	6
ubuntu	6
inputs	6
colors	6
transp	6
Failed	6
ecause	6
▁ratio	6
▁stats	6
specif	6
single	6
Normal	6
Visual	6
Camera	6
▁Since	6
pytest	6
Shared	6
Public	6
Bundle	6
radius	6
▁noise	6
Before	6
ercise	6
▁Block	6
rating	6
extend	6
scores	6
agraph	6
▁theme	6
▁today	6
Exists	6
▁moves	6
switch	6
Linear	6
bottom	6
Fields	6
Binary	6
nother	6
▁house	6
Insert	6
bucket	6
▁Excel	6
▁scene	6
Invoke	6
▁Given	6
course	6
Inline	6
upyter	6
unwrap	6
▁cycle	6
square	6
▁panel	6
sender	6
Vertex	6
kernel	6
▁clock	6
symbol	6
Prefix	6
helper	6
▁adjac	6
series	6
▁leave	6
Center	6
▁mount	6
assign	6
▁helps	6
Series	6
jquery	6
▁Route	6
Tensor	6
cstdio	6
▁books	6
reduce	6
Weight	6
▁theta	6
▁grade	6
Export	6
Symbol	6
cedure	6
signal	6
▁cloud	6
ignore	6
▁quote	6
closed	6
ulated	6
coding	6
▁asked	6
▁fully	6
▁Admin	6
origin	6
Runner	6
▁comma	6
before	6
accept	6
idence	6
▁photo	6
imated	6
Region	6
▁finds	6
logout	6
▁haven	6
imread	6
▁slice	6
Packet	6
▁patch	6
▁deriv	6
canvas	6
▁wants	6
assets	6
alking	6
Arrays	6
Health	6
▁music	6
editor	6
volume	6
▁birth	6
▁Fetch	6
policy	6
▁offer	6
angles	6
▁attrs	6
aching	6
Factor	6
▁watch	6
Accept	6
Assets	6
Enable	6
▁games	6
▁agree	6
camera	6
▁sites	6
▁floor	6
Volume	6
review	6
UPDATE	6
▁sizes	6
period	6
Static	6
mitted	6
INSERT	6
Syntax	6
atives	6
Direct	6
▁usize	6
moving	6
states	6
▁hello	6
Answer	6
Intent	6
Google	6
▁stage	6
concat	6
pickle	6
▁worth	6
ensive	6
health	6
▁Cloud	6
▁outer	6
frames	6
Scroll	6
remote	6
expand	6
Cancel	6
derive	6
Styles	6
stderr	6
Cursor	6
CREATE	6
apping	6
▁focus	6
▁Power	6
orders	6
▁Match	6
▁hyper	6
Images	6
follow	6
native	6
Studio	6
Native	6
manual	6
Course	6
expect	6
vertex	6
▁faces	6
▁major	6
Switch	6
▁scrap	6
▁dynam	6
acters	6
Upload	6
uation	6
Origin	6
▁prior	6
▁sides	6
Groups	6
▁Audio	6
▁organ	6
▁magic	6
listen	6
▁plane	6
iation	6
cookie	6
▁asset	6
Radius	6
scroll	6
antage	6
around	6
▁Sleep	6
Worker	6
▁plain	6
amazon	6
▁aware	6
▁Right	6
mathrm	6
Remote	6
people	6
▁Files	6
border	6
▁tries	6
combin	6
Shader	6
margin	6
linked	6
ensors	6
▁holds	6
sqlite	6
Period	6
design	6
verify	6
▁basis	6
effect	6
Design	6
rename	6
repeat	6
friend	6
clipse	6
rocess	6
Master	6
family	6
toggle	6
▁bring	6
▁Users	6
coords	6
mobile	6
Errorf	6
Bottom	6
▁moved	6
▁paint	6
▁album	6
▁wrote	6
Signal	6
branch	6
Sensor	6
▁trees	6
sensor	6
▁speak	6
▁among	6
faster	6
▁arrow	6
Bounds	6
▁Multi	6
▁repro	6
Picker	6
blocks	6
throws	6
termin	6
▁opens	6
Chrome	6
▁Light	6
▁Range	6
▁older	6
worker	6
docker	6
tables	6
▁Short	6
▁meant	6
middle	6
mathbf	6
▁Score	6
rotate	6
calcul	6
Bucket	6
visual	6
failed	6
LENGTH	6
DELETE	6
limits	6
packet	6
topics	6
rivial	6
▁radio	6
undred	6
Serial	6
▁knows	6
▁NUnit	6
▁daily	6
turtle	6
▁keeps	6
▁truth	6
CSharp	6
epochs	6
Circle	6
selves	6
market	6
▁joint	6
Review	6
lename	6
degree	6
issues	6
▁votes	6
▁skill	6
yellow	6
▁trust	6
▁Break	6
▁trade	6
Border	6
stable	6
▁areas	6
▁heard	6
orange	6
median	6
Square	6
cancel	6
▁abort	6
rangle	6
plural	6
Cannot	6
Mobile	6
Throws	6
▁study	6
▁treat	6
▁accur	6
ansion	6
▁sales	6
States	6
subset	6
▁stuck	6
Metric	6
pygame	6
▁Board	6
Verify	6
bounds	6
▁Maybe	6
argmax	6
places	6
recogn	6
▁happy	6
▁orbit	6
▁minor	6
online	6
curren	6
▁adapt	6
onical	6
agrams	6
secure	6
▁night	6
respon	6
indent	6
▁Could	6
ysical	6
▁Hello	6
Letter	6
attack	6
Commit	6
reason	6
▁death	6
▁Analy	6
NUMBER	6
sphere	6
▁legal	6
▁Batch	6
parsed	6
ulates	6
marker	6
Commun	6
▁molec	6
rbegin	6
animal	6
▁Limit	6
Spring	6
▁ideal	6
▁wheel	6
Listen	6
iments	6
▁dense	6
istics	6
urable	6
called	6
inator	6
intent	6
xticks	6
ection	6
▁fruit	6
▁voice	6
scaled	6
raises	6
charge	6
▁Solve	6
▁Which	6
▁pitch	6
modify	6
▁weeks	6
▁drawn	6
▁drink	6
istant	6
▁worry	6
extern	6
Lambda	6
finish	6
setter	6
▁excel	6
school	6
▁slide	6
minute	6
reward	6
▁modal	6
shadow	6
▁staff	6
▁rooms	6
sparse	6
social	6
locked	6
▁rough	6
manage	6
▁plant	6
spaces	6
approx	6
Branch	6
▁Photo	6
commun	6
ferred	6
reated	6
flight	6
colour	6
medium	6
▁alive	6
▁Gecko	6
Online	6
bullet	6
▁spent	6
▁typed	6
▁Round	6
regist	6
Combin	6
▁Sound	6
photos	6
divide	6
pixels	6
solver	6
compar	6
orphic	6
Raises	6
credit	6
▁leads	6
atomic	6
Regist	6
askell	6
▁mixed	6
choose	6
wallet	6
ometer	6
ashion	6
Market	6
arrays	6
People	6
Office	6
invoke	6
▁Visit	6
▁Would	6
▁Types	6
office	6
please	6
▁Fixed	6
Adding	6
▁brief	6
roject	6
catter	6
ssions	6
▁Begin	6
▁atoms	6
likely	6
▁likes	6
▁Magic	6
tagged	6
javase	6
riding	6
street	6
Margin	6
▁Issue	6
levels	6
Manage	6
moment	6
▁miles	6
Avatar	6
Energy	6
Anchor	6
▁defin	6
season	6
Notice	6
▁fight	6
langle	6
logged	6
▁Month	6
▁Speed	6
bridge	6
▁judge	6
▁Thank	6
nested	6
Colour	6
▁Music	6
fillna	6
Scalar	6
▁brain	6
Resize	6
merged	6
meters	6
syntax	6
inside	6
▁divid	6
dropna	6
Define	6
▁kinds	6
▁Panel	6
months	6
▁White	6
filled	6
travel	6
▁signs	6
Shadow	6
scalar	6
browse	6
▁pulse	6
mester	6
▁Hyper	6
thanks	6
rogram	6
Theory	6
▁teach	6
appear	6
Recent	6
▁blood	6
▁lives	6
recent	6
▁tight	6
styled	6
Expand	6
thresh	6
▁glass	6
stride	6
aspect	6
▁resid	6
▁Bound	6
logits	6
▁fluid	6
angent	6
rained	6
▁Named	6
▁stone	6
Social	6
▁sugar	6
yticks	6
School	6
forces	6
Termin	6
▁noted	6
iliary	6
▁heads	6
pprint	6
▁polar	6
pretty	6
▁Prime	6
isnull	6
▁brown	6
income	6
▁Radio	6
▁jumps	6
Middle	6
psilon	6
▁House	6
Resume	6
mirror	6
ranges	6
Figure	6
▁plays	6
▁Album	6
▁Again	6
survey	6
strict	6
▁thank	6
Ubuntu	6
inches	6
female	6
▁alien	6
ateral	6
▁sorry	6
▁climb	6
smooth	6
▁Story	6
otimes	6
urllib	6
planet	6
▁solar	6
▁novel	6
always	6
stroke	6
▁greet	6
csharp	6
prints	6
rolled	6
motion	6
▁Watch	6
invert	6
forest	6
▁dirty	6
cember	6
▁draft	6
▁Steam	6
▁gradu	6
▁Small	6
▁feels	6
Unless	6
▁seven	6
▁Based	6
icular	6
textbf	6
Street	6
Concat	6
▁Third	6
wanted	6
tuples	6
▁owned	6
▁semic	6
corner	6
Ensure	6
▁north	6
cannot	6
▁loose	6
LOGGER	6
▁young	6
leader	6
rinsic	6
graphs	6
▁women	6
ggplot	6
▁south	6
needed	6
▁Below	6
hadoop	6
Minute	6
Amazon	6
detach	6
varphi	6
father	6
▁Mount	6
passed	6
▁woman	6
▁Stage	6
checks	6
ensure	6
better	6
papers	6
▁spher	6
almost	6
▁fired	6
Apache	6
▁plans	6
▁forth	6
▁Times	6
▁eight	6
▁enjoy	6
atches	6
ogonal	6
▁David	6
▁slave	6
within	6
▁anten	6
▁morph	6
▁waste	6
▁thick	6
▁Think	6
either	6
things	6
VALUES	6
▁pilot	6
▁quiet	6
▁Lower	6
Having	6
▁deals	6
mation	6
marked	6
▁waves	6
uction	6
coffee	6
unless	6
▁fewer	6
▁Jesus	6
▁omega	6
cycles	6
joined	6
purple	6
matter	6
▁Piece	6
▁Angle	6
▁lucky	6
lights	6
behind	6
aneous	6
otions	6
invest	6
chosen	6
ricted	6
dtypes	6
▁liked	6
▁April	6
▁virus	6
▁rigid	6
pieces	6
▁rapid	6
Atomic	6
▁Books	6
others	6
▁March	6
▁cream	6
finger	6
interp	6
▁truly	6
Assume	6
▁Quote	6
▁gauge	6
steady	6
▁India	6
actors	6
▁China	6
opened	6
stores	6
▁rings	6
▁Greek	6
Travel	6
Newton	6
▁ships	6
Retrie	6
seller	6
fusion	6
▁curly	6
▁Genre	6
assume	6
vature	6
▁doors	6
parity	6
ishing	6
▁truck	6
▁medic	6
flower	6
lowest	6
▁river	6
demand	6
▁crazy	6
Within	6
▁tense	6
▁smell	6
▁Games	6
neural	6
▁dream	6
little	6
Finger	6
iphone	6
▁repos	6
inform	6
making	6
▁Views	6
DEFINE	6
▁crime	6
▁court	6
writes	6
▁sight	6
sector	6
▁steam	6
Except	6
▁adopt	6
▁steel	6
Sparse	6
▁sixth	6
typing	6
Little	6
▁Staff	6
▁talks	6
▁valve	6
rocket	6
▁Voice	6
▁gross	6
Lesson	6
macros	6
proper	6
cosine	6
Topics	6
umbled	6
extent	6
broken	6
erator	6
▁Brown	6
▁James	6
theory	6
forced	6
▁defer	6
ecture	6
During	6
dagger	6
posted	6
▁Frank	6
esides	6
unders	6
Invest	6
Monday	6
▁Exist	6
League	6
scikit	6
sounds	6
leaves	6
▁conce	6
valued	6
driven	6
▁burst	6
United	6
Silver	6
listed	6
▁wider	6
remain	6
▁flood	6
▁civil	6
growth	6
angled	6
mechan	6
▁grows	6
edited	6
▁atten	6
Browse	6
solved	6
Thrown	6
centre	6
▁voted	6
▁admit	6
modern	6
hspace	6
iously	6
▁began	6
Divide	6
Moment	6
Remark	6
▁stead	6
Chance	6
▁tough	6
▁piano	6
▁Major	6
usband	6
▁lived	6
▁Forum	6
former	6
Though	6
sports	6
▁apost	6
Strong	6
▁drift	6
unting	6
▁Tower	6
annual	6
supply	6
Sunday	6
lfloor	6
chance	6
ctypes	6
▁weigh	6
▁faced	6
rfloor	6
▁broke	6
▁dealt	6
arctan	6
tained	6
▁Raven	6
▁award	6
silver	6
Neural	6
beyond	6
▁Today	6
pseudo	6
▁Study	6
▁Defin	6
triple	6
elling	6
▁dough	6
▁reson	6
bright	6
dragon	6
▁Night	6
▁labor	6
Recall	6
higher	6
carbon	6
nation	6
▁Cream	6
retrie	6
Friday	6
Extens	6
played	6
summer	6
▁Stand	6
▁sniff	6
isease	6
istent	6
▁birds	6
really	6
analog	6
powers	6
rather	6
▁juice	6
Intern	6
▁pulls	6
iative	6
▁shake	6
having	6
mother	6
▁memor	6
useful	6
impact	6
flickr	6
living	6
▁Skype	6
▁lying	6
▁ought	6
▁sheep	6
Dragon	6
County	6
plotly	6
Inform	6
August	6
facing	6
strand	6
modulo	6
nature	6
▁maths	6
graded	6
itable	6
▁Teams	6
▁tired	6
gaming	6
▁chair	6
textrm	6
texttt	6
▁peace	6
▁hydro	6
caling	6
island	6
▁Nikon	6
Taking	6
illion	6
▁contr	6
summar	6
▁Blood	6
ouched	6
▁Being	6
Modern	6
ancing	6
▁dance	6
ayment	6
▁Solar	6
German	6
permit	6
remark	6
allows	6
▁Later	6
Joined	6
liquid	6
invent	6
laptop	6
safety	6
▁Offic	6
icable	6
fourth	6
▁dozen	6
mostly	6
taking	6
Daniel	6
logram	6
French	6
winter	6
▁abuse	6
bigger	6
ratios	6
larger	6
▁binar	6
▁Metro	6
ortion	6
Finite	6
Expert	6
▁flame	6
covers	6
▁Happy	6
▁lemon	6
curves	6
fitted	6
▁Looks	6
bjects	6
▁accel	6
▁poker	6
hybrid	6
▁norms	6
obtain	6
▁Prior	6
OpenCV	6
Proper	6
convex	6
▁subst	6
▁dying	6
shaped	6
▁Judge	6
▁satis	6
▁grown	6
icated	6
ociety	6
Posted	6
Solved	6
▁Nancy	6
ervice	6
execut	6
▁pound	6
▁wings	6
ifting	6
▁Dream	6
strain	6
upport	6
butter	6
Indeed	6
▁ether	6
▁spoke	6
▁threw	6
▁Fluid	6
xtract	6
handed	6
▁exerc	6
DITION	6
magnet	6
pulumi	6
▁angry	6
▁drugs	6
▁genus	6
during	6
biased	6
Annual	6
enough	6
▁Votes	6
garden	6
formal	6
cyclic	6
Depend	6
longer	6
▁tooth	6
Higher	6
textit	6
trying	6
Robert	6
valent	6
arizer	6
burger	6
▁River	6
earing	6
rights	6
worked	6
▁neuro	6
vation	6
▁laugh	6
CAMERA	6
thesis	6
▁Omega	6
ointed	6
▁steep	6
Mother	6
pocket	6
George	6
▁scrub	6
▁steer	6
▁Mixed	6
▁funct	6
raised	6
▁coach	6
byshev	6
▁Covid	6
alling	6
priori	6
Father	6
▁Alexa	6
picked	6
itions	6
icates	6
▁tetra	6
Thomas	6
▁artic	6
parame	6
▁Court	6
photon	6
unning	6
▁synth	6
pepper	6
cation	6
▁inclu	6
Canada	6
▁loves	6
▁Robin	6
conver	6
▁Allen	6
▁dried	6
▁wrist	6
bility	6
spirit	6
▁towns	6
Sports	6
giving	6
Galaxy	6
bought	6
Andrew	6
bigcup	6
across	6
Winter	6
Unlike	6
police	6
Carbon	6
career	6
▁Rapid	6
▁dwarf	6
▁Runge	6
inters	6
urface	6
▁loved	6
Nation	6
urious	6
Convex	6
▁Lemma	6
▁Polar	6
Martin	6
▁Young	6
▁resol	6
Donald	6
altern	6
rising	6
▁naked	6
guitar	6
▁Hydro	6
robust	6
servic	6
rypton	6
▁acces	6
▁Ninja	6
minded	6
▁assoc	6
turned	6
asking	6
▁porta	6
flying	6
▁hatch	6
Golden	6
instal	6
tender	6
▁Among	6
urally	6
▁urban	6
Nature	6
▁witch	6
lative	6
multic	6
ontrol	6
narrow	6
erving	6
Contro	6
simply	6
earned	6
▁hedge	6
Parame	6
▁bulls	6
radial	6
▁Pauli	6
▁Tokyo	6
▁adata	6
ording	6
ission	6
ething	6
▁offic	6
erence	6
▁invol	6
▁chang	6
itting	6
aining	6
▁beaut	6
minist	6
ournal	6
overed	6
▁effic	6
ession	6
▁Afric	6
illing	6
rought	6
iction	6
urning	6
idered	6
▁regul	6
▁exhib	6
ildren	6
ightly	6
itchen	6
▁compl	6
ribute	6
▁Angel	6
porary	6
inding	6
▁Chief	6
▁chief	6
elines	6
▁yards	6
▁Louis	6
othing	6
▁subsc	6
▁Women	6
ilding	6
▁therm	6
▁horiz	6
▁assum	6
▁conve	6
ushing	6
ounter	6
▁appar	6
inally	6
▁olive	6
▁wound	6
▁Labor	6
inking	6
roduct	6
intend	6
▁Creek	6
ocated	6
▁Saint	6
▁Lewis	6
▁Diego	6
ritten	6
ceived	6
▁uncle	6
▁Sarah	6
▁overs	6
▁liver	6
isting	6
▁crown	6
ussion	6
▁urged	6
▁Andre	6
▁Kings	6
embers	6
▁Jacob	6
▁nurse	6
▁overt	6
▁cyber	6
▁oxide	6
▁overl	6
▁enorm	6
▁anger	6
▁Beaut	6
▁squee	6
▁Bring	6
▁Emily	6
▁fever	6
▁ninth	6
cluded	6
uthors	6
▁embod	6
▁woods	6
▁Medic	6
▁innoc	6
▁clust	6
mented	6
rowing	6
vement	6
owered	6
ologic	6
▁Czech	6
▁Neuro	6
prises	6
▁Danny	6
▁backs	6
▁brave	6
▁shred	6
▁energ	6
▁Costa	6
riving	6
▁Helen	6
▁towel	6
▁cough	6
ective	6
napped	6
assium	6
▁diced	6
inging	6
asonic	6
▁Ahmed	6
uclear	6
▁grave	6
▁opera	6
▁angel	6
▁centr	6
cepted	6
▁Eight	6
entric	6
rotein	6
▁Isaac	6
▁fluor	6
▁marry	6
▁guilt	6
▁uncon	6
itated	6
▁Ellen	6
placed	6
▁forty	6
isible	6
tended	6
headed	6
▁incom	6
▁overd	6
oulder	6
aughed	6
Senior	6
▁Olive	6
▁cared	6
▁nanop	6
inning	6
▁sheer	6
etooth	6
▁orche	6
▁Devon	6
▁prost	6
▁Plaza	6
ogical	6
▁twent	6
▁rocky	6
tering	6
queous	6
▁Chang	6
▁chees	6
▁slept	6
▁miser	6
▁ounce	6
▁mobil	6
ischer	6
▁overc	6
enberg	6
▁pleas	6
ienced	6
ailure	6
▁raced	6
church	6
omorph	6
contin	6
phosph	6
backed	6
Indian	6
racted	6
▁hated	6
▁Films	6
culiar	6
ounded	6
ischen	6
acting	6
▁cheek	6
heated	6
hydrox	6
Israel	6
▁faint	6
cience	6
▁Seoul	6
ribing	6
rative	6
▁Bella	6
▁devil	6
methyl	6
garten	6
dehyde	6
lectic	6
▁shook	6
Taylor	6
amping	6
Joseph	6
▁Caleb	6
▁Sunny	6
▁sixty	6
▁Zhang	6
▁Piano	6
▁condo	6
anding	6
enburg	6
▁swear	6
spoken	6
▁Subst	6
seeing	6
ucking	6
▁stalk	6
▁Lucky	6
Junior	6
guided	6
tailed	6
▁oppos	6
▁theor	6
▁Weiss	6
cooked	6
Brazil	6
Prince	6
rators	6
▁ofthe	6
abolic	6
▁cling	6
Jordan	6
▁forge	6
ausing	6
Justin	6
▁squat	6
belief	6
efined	6
loving	6
▁sanct	6
assing	6
arious	6
▁Liver	6
▁Novak	6
brough	6
onding	6
▁overr	6
rapped	6
reased	6
▁Sloan	6
▁prism	6
▁nanot	6
gotten	6
eating	6
▁Ideal	6
rictly	6
Marcus	6
▁Rolls	6
▁ethyl	6
Albert	6
Church	6
oblast	6
▁swung	6
▁waved	6
Morgan	6
▁Dante	6
▁Cheng	6
uously	6
enthal	6
▁Mazda	6
▁Ernst	6
lifted	6
titled	6
▁Maths	6
roduce	6
ecting	6
olding	6
▁Aleks	6
lichen	6
Edward	6
dating	6
▁scrib	6
ubishi	6
▁actin	6
▁secre	6
▁molar	6
Spirit	6
▁prick	6
oxygen	6
▁Cited	6
anders	6
essing	6
▁Chung	6
▁unsur	6
▁Eliza	6
rowned	6
compan	6
raphic	6
▁Lange	6
▁Turbo	6
comput	6
jected	6
cooled	6
▁Bowls	6
▁langu	6
Jewish	6
▁Valve	6
matics	6
▁Lexus	6
famous	6
paying	6
Sodium	6
▁dared	6
▁semis	6
rugged	6
haired	6
▁scree	6
acetyl	6
imilar	6
uality	6
▁cyclo	6
phenyl	6
ontent	6
▁moles	6
▁bowed	6
taught	6
Sister	6
onance	6
Garden	6
▁eaves	6
fought	6
acency	6
virgin	6
washed	6
Andrea	6
urpose	6
▁Angry	6
sister	6
▁Pavel	6
fluoro	6
Arabic	6
severe	6
▁pries	6
entral	6
sodium	6
stands	6
fixing	6
collar	6
mainly	6
▁insur	6
Comput	6
inates	6
▁Jiang	6
▁shrug	6
ectors	6
oretic	6
▁Demet	6
govern	6
▁nudge	6
▁polyg	6
transl	6
proven	6
▁Twent	6
apolog	6
terest	6
ridine	6
estate	6
▁camer	6
Beauty	6
strate	6
▁remov	6
enched	6
applic	6
▁Unite	6
carbox	6
struck	6
▁nitro	6
educed	6
fellow	6
prised	6
concer	6
plains	6
rested	6
▁Mobil	6
Papers	6
mixing	6
nights	6
▁Shang	6
▁reall	6
highly	6
killed	6
nearly	6
laying	6
buying	6
Terror	6
versus	6
senior	6
folded	6
Maggie	6
throat	6
▁Akira	6
▁mafia	6
acetic	6
▁Arsen	6
▁Siege	6
wonder	6
ettled	6
operat	6
▁tothe	6
▁plasm	6
Toyota	6
proced	6
▁infin	6
▁obser	6
uppose	6
ariant	6
plicit	6
nglish	6
icture	6
▁equil	6
▁charg	6
mathop	6
▁conne	6
mistry	6
▁cohom	6
mathsc	6
rouble	6
mathit	6
suming	6
▁impos	6
arting	6
anning	6
etails	6
▁advan	6
dinger	6
ponent	6
eprint	6
learly	6
▁syste	6
onsist	6
ooking	6
proton	6
▁diffe	6
▁trave	6
quares	6
bigcap	6
lbrace	6
essage	6
mathtt	6
tzmann	6
rbrace	6
Stokes	6
urated	6
▁Funct	6
fining	6
apunov	6
▁homot	6
onserv	6
permal	6
ptical	6
vestig	6
planar	6
▁Ising	6
ompact	6
arying	6
oppler	6
Banach	6
▁summa	6
Planck	6
peated	6
namely	6
proved	6
Markov	6
lbrack	6
rbrack	6
▁Theor	6
triang	6
Formal	6
raries	6
▁polyn	6
isches	6
Galois	6
Euclid	6
probab	6
weakly	6
proofs	6
▁equiv	6
stabil	6
dipole	6
ferenc	6
▁algeb	6
Probab	6
indeed	6
MATLAB	6
yields	6
▁emiss	6
slight	6
causal	6
Conver	6
▁coars	6
loride	6
normed	6
Turing	6
Cantor	6
Abstra	6
▁penta	6
▁Compu	6
▁affin	6
formul	6
stated	6
ethane	6
omplex	6
▁Infin	6
alized	6
compos	6
▁polys	6
metals	6
pounds	6
plasma	6
Kepler	6
bgroup	6
easily	6
multis	6
supers	6
odular	6
oupled	6
▁reine	6
maxima	6
▁wavel	6
▁Suppl	6
excess	6
Szeged	6
aption	6
igures	6
sional	6
▁recei	6
cussed	6
volved	6
anyone	6
itself	6
symmet	6
omials	6
Magnet	6
▁silic	6
curved	6
entire	6
ochlor	6
asiest	6
▁suppl	6
easure	6
chloro	6
▁Hoang	6
▁onair	6
itemap	6
Hotels	6
▁damit	6
▁dabei	6
rechen	6
kommen	6
zimmer	6
sammen	6
achten	6
licher	6
▁Thema	6
achsen	6
▁allen	6
▁Musik	6
▁offen	6
▁Damen	6
liches	6
worten	6
fallen	6
rieden	6
▁trotz	6
▁Dabei	6
▁deren	6
▁Damit	6
▁Ideen	6
sident	6
stelle	6
ativen	6
▁somit	6
ondere	6
iellen	6
▁perfe	6
▁anges	6
▁Tipps	6
▁Menge	6
artner	6
spruch	6
▁genug	6
▁tolle	6
▁Dinge	6
lassen	6
▁junge	6
handel	6
▁angen	6
wissen	6
▁legen	6
▁stets	6
passen	6
tionen	6
▁Leser	6
▁Trotz	6
▁darin	6
Unsere	6
astian	6
▁Immer	6
▁Luxus	6
▁Sinne	6
▁Autob	6
melden	6
Kunden	6
wenden	6
kaufen	6
▁Somit	6
kinder	6
▁tritt	6
gliche	6
kasten	6
Zimmer	6
▁Seele	6
▁Klang	6
Dollar	6
▁Konfl	6
furter	6
amstag	6
futter	6
▁relev	6
▁Kapit	6
Sterne	6
▁kenne	6
Straße	6
kredit	6
Sicher	6
onders	6
Kosten	6
amburg	6
kissen	6
kamera	6
Welche	6
Selbst	6
▁nette	6
Wetter	6
selben	6
leider	6
▁Modul	6
Dienst	6
Garten	6
▁lasse	6
Schutz	6
Hinter	6
profil	6
▁Draht	6
enster	6
Karten	6
helfen	6
prakti	6
Presse	6
Profil	6
▁Davon	6
klusiv	6
▁Schad	6
beding	6
Billig	6
▁resul	6
Wieder	6
Gerade	6
▁Tritt	6
▁ultim	6
Studie	6
frarot	6
Casino	6
▁Synth	6
▁wasch	6
▁Anker	6
▁Blume	6
langen	6
Kleine	6
funden	6
Pflege	6
Schuhe	6
Rezept	6
Wander	6
Handel	6
Marken	6
Grafik	6
Lizenz	6
Morgen	6
indern	6
Schwer	6
▁Kratz	6
▁Wachs	6
Metall	6
Muster	6
Fehler	6
Strand	6
Kredit	6
selbst	6
Unfall	6
handen	6
Herbst	6
Eltern	6
wendig	6
buchen	6
casino	6
Corona	6
Rabatt	6
kleine	6
Praxis	6
Privat	6
adidas	6
Rollen	6
Heraus	6
aktive	6
elchen	6
Dating	6
Ludwig	6
Kaffee	6
Geheim	6
▁provo	6
ontage	6
Gratis	6
▁welch	6
▁Lunge	6
▁plast	6
welche	6
Heimat	6
strick	6
Gaming	6
Zauber	6
▁Anwen	6
Tennis	6
Anders	6
Formel	6
Sabine	6
Langen	6
Schade	6
innere	6
▁angef	6
unterb	6
▁luxus	6
Genuss	6
Schaum	6
Monats	6
Laptop	6
▁Schwa	6
andere	6
formel	6
inland	6
Hammer	6
Alters	6
Decken	6
Futter	6
unsere	6
Strick	6
Himmel	6
▁Zubeh	6
▁wisse	6
Helmut	6
▁Quali	6
heraus	6
Solche	6
Fabrik	6
Banken	6
hinaus	6
Schnee	6
Hallen	6
Abwehr	6
Marcel	6
Messer	6
Reform	6
Untert	6
Schatz	6
Bastel	6
▁Inhal	6
teller	6
▁Outdo	6
jungen	6
bisher	6
langer	6
Lenovo	6
linken	6
Huawei	6
▁Massa	6
Monika	6
offene	6
ebruar	6
Stunde	6
Aussen	6
Textil	6
Gottes	6
Wellen	6
Benzin	6
Stelle	6
kladem	6
▁velmi	6
pozici	6
▁pohod	6
▁desig	6
hledem	6
Kontak	6
▁recep	6
▁schop	6
▁kolem	6
▁Tento	6
▁firem	6
kujeme	6
Prodej	6
sahuje	6
roslav	6
spvky	6
▁polov	6
platek	6
obchod	6
sledek	6
▁nepro	6
Chcete	6
▁novin	6
prodej	6
▁dohod	6
poruje	6
Celkem	6
▁sleva	6
ZDARMA	6
▁jenom	6
▁deska	6
Rozmr	6
liková	6
Platba	6
▁posta	6
▁uplat	6
Provoz	6
koupit	6
seznam	6
▁slovo	6
▁nehod	6
▁knize	6
Zobraz	6
Koupit	6
▁nepod	6
▁Vlast	6
▁nechá	6
znamen	6
nickou	6
vatele	6
Seznam	6
▁nepou	6
tickou	6
platit	6
istuje	6
VLTAVA	6
▁Denik	6
Zdarma	6
▁leten	6
Postup	6
Funkce	6
Poslat	6
▁obdob	6
vaceti	6
servis	6
Obchod	6
Olomou	6
Napsal	6
▁nutno	6
Dkuji	6
▁Miloš	6
zdarma	6
Michal	6
▁Rezer	6
Slunce	6
celkem	6
stanov	6
Hradec	6
provoz	6
▁nevyu	6
pravdu	6
▁Podob	6
▁Mnoho	6
hlaste	6
▁jasno	6
▁Desig	6
jistit	6
Branky	6
▁Panny	6
▁diabe	6
▁dochá	6
statek	6
artina	6
strana	6
energe	6
kupiny	6
Dostup	6
Kerami	6
▁nepla	6
centra	6
stnost	6
Xiaomi	6
▁Dušan	6
bankov	6
mlouva	6
funkce	6
▁rostl	6
psycho	6
staveb	6
Jejich	6
nnosti	6
povrch	6
bavlna	6
▁samoz	6
zobraz	6
nejsou	6
napsal	6
propyl	6
budeme	6
rychle	6
▁paraz	6
▁necha	6
jednot	6
rozhod	6
jestli	6
recept	6
vysoce	6
centru	6
vysoko	6
noviny	6
Slovan	6
soubor	6
tional	6
proces	6
kolika	6
snadno	6
▁ember	6
erseny	6
▁illet	6
gyenes	6
asztal	6
attint	6
usztus	6
atosan	6
mentes	6
folyam	6
▁enged	6
▁lenne	6
szerek	6
tekint	6
acsony	6
Magyar	6
▁benne	6
Minden	6
foglal	6
unkban	6
bajnok	6
ismert	6
csomag	6
fordul	6
▁nyilv	6
▁ablak	6
ikusan	6
▁takar	6
magyar	6
▁nehez	6
kezett	6
szerep	6
iskolc	6
Nagyon	6
aranci	6
▁ideig	6
▁csúcs	6
Csomag	6
iskola	6
szeres	6
Hogyan	6
helyek	6
tatott	6
imaliz	6
▁illat	6
olikus	6
▁csill	6
Kedves	6
szabad	6
Mutass	6
jelent	6
Szeret	6
iszony	6
asznos	6
adatok	6
Szabad	6
▁vette	6
Legyen	6
hetett	6
▁talaj	6
helyen	6
rosoft	6
teljes	6
▁barna	6
Milyen	6
atokat	6
szerda	6
Amikor	6
orozat	6
Fidesz	6
Ciklus	6
iszont	6
szalag	6
Fontos	6
Gyerek	6
csapat	6
▁Angol	6
Fekete	6
Vissza	6
szentm	6
elmint	6
▁kamat	6
emping	6
▁partn	6
orvosi	6
fekete	6
minden	6
biztos	6
▁Tisza	6
keleti	6
onikus	6
gyakor	6
gyerek	6
Normál	6
▁Ekkor	6
lampak	6
otthon	6
ozatos	6
Nemzet	6
fontos	6
Mindig	6
pontja	6
vissza	6
vastag	6
kozott	6
▁Kerek	6
▁Sokan	6
oftver	6
bizony	6
Elhely	6
csavar	6
azonos	6
helyet	6
negyed	6
nagyon	6
▁Üzlet	6
vizsga	6
▁Nemes	6
amatos	6
szezon	6
fiatal	6
Sziget	6
kilenc	6
Honlap	6
Borsod	6
Somogy	6
Olvass	6
tiszta	6
Biztos	6
Ingyen	6
Persze	6
mondta	6
Ferenc	6
Boldog	6
szervi	6
hozott	6
Vannak	6
▁gazda	6
konyha	6
Mennyi	6
Farkas	6
pszich	6
ereszt	6
szelep	6
sejtek	6
▁Menny	6
helyre	6
nemzet	6
szeret	6
nyugat	6
▁legel	6
maradt	6
Konyha	6
nappal	6
milyen	6
Reggel	6
hogyan	6
perces	6
ingyen	6
▁hason	6
birtok	6
szelet	6
idegen	6
postai	6
boldog	6
egyedi	6
▁Balog	6
Balogh	6
Szinte	6
amikor	6
▁Homok	6
szerel	6
szemes	6
Suzuki	6
citrom	6
jelleg	6
kaland	6
Hasonl	6
oldala	6
megyei	6
hossza	6
tegnap	6
szinte	6
honlap	6
esznek	6
▁adatt	6
normál	6
megold	6
rendel	6
Megyei	6
▁Konyh	6
oldalt	6
Nyugat	6
kezelt	6
nyelvi	6
Iskola	6
hangos	6
vagyis	6
vezett	6
helyes	6
embert	6
▁nevel	6
gyalog	6
reggel	6
gerinc	6
nyitva	6
Terasz	6
szuper	6
retett	6
forint	6
Rendel	6
persze	6
Transz	6
Nappal	6
valami	6
textil	6
mindig	6
▁Centr	6
linkek	6
vagyon	6
sajnos	6
▁alapt	6
felett	6
szakma	6
olatok	6
▁elege	6
klassz	6
gyomor	6
legyen	6
vegyes	6
valaki	6
pyrrol	6
▁struc	6
propan	6
▁vacuo	6
ELFIES	6
hexane	6
benzyl	6
ethoxy	6
▁affor	6
quinol	6
CCCCCC	6
azanyl	6
xample	6
naphth	6
methan	6
tioned	6
mework	6
phenol	6
aspiro	6
oxylic	6
silica	6
pentan	6
azetid	6
pentyl	6
thieno	6
▁mmole	6
butoxy	6
oxolan	6
dicarb	6
COCCOC	6
▁requi	6
▁direc	6
silane	6
enoate	6
ClCCCl	6
eluent	6
Chloro	6
▁Ethyl	6
formyl	6
oluble	6
heptan	6
essary	6
orithm	6
ocyclo	6
lacial	6
CCCCOc	6
borate	6
dioxan	6
COCCOc	6
iodide	6
ecular	6
eluted	6
▁ethan	6
▁elute	6
tilled	6
ofuran	6
▁ljudi	6
koliko	6
▁sluča	6
▁druga	6
zovano	6
▁putem	6
verski	6
▁Vučić	6
▁ljuba	6
spreso	6
vljeno	6
▁kazao	6
▁obave	6
cebook	6
▁vlada	6
▁posao	6
▁sutra	6
cernji	6
▁pored	6
▁naveo	6
▁nared	6
Srbija	6
▁novac	6
▁Prema	6
▁Posle	6
▁devet	6
Poveza	6
kladno	6
▁zanim	6
Budite	6
▁novim	6
Banned	6
▁drugu	6
▁Dejan	6
▁kovid	6
▁takve	6
Srpski	6
▁samom	6
▁Tokom	6
▁Pored	6
▁samog	6
Naslov	6
Pridru	6
Poslao	6
Poruka	6
Poruke	6
stavno	6
▁Mondo	6
lanovi	6
lanjen	6
Srpska	6
protiv	6
godine	6
▁okvir	6
Godina	6
njenog	6
njenom	6
dnosno	6
COBISS	6
▁gotov	6
smatra	6
srpske	6
ebsite	6
slotxo	6
▁gclub	6
sbobet	6
TOYOTA	6
▁Thong	6
pantip	6
UFABET	6
pgslot	6
▁Luang	6
Yamaha	6
Shopee	6
▁honda	6
▁những	6
▁trang	6
▁doanh	6
▁trung	6
▁nhanh	6
▁thanh	6
▁phong	6
▁chung	6
▁Thanh	6
▁tương	6
▁Trong	6
▁tranh	6
▁dưỡng	6
▁tưởng	6
▁Trang	6
▁chóng	6
▁Giang	6
otline	6
▁quanh	6
▁Quang	6
▁lương	6
▁dương	6
▁Phong	6
▁thẳng	6
▁khung	6
▁chẳng	6
▁Hương	6
▁trưng	6
▁khẳng	6
▁thang	6
▁phóng	6
▁quang	6
▁trứng	6
▁xương	6
▁Vương	6
▁xưởng	6
▁Lương	6
▁giang	6
▁Doanh	6
▁cương	6
▁hoang	6
▁sương	6
▁thăng	6
▁huynh	6
▁Huỳnh	6
▁chanh	6
▁Trinh	6
Phương	6
▁vương	6
▁Trưng	6
▁khổng	6
aphone	6
itcoin	6
anpage	6
▁CHÍNH	6
▁chăng	6
▁Tranh	6
▁phẳng	6
▁hàng	6
▁Thăng	6
▁phanh	6
▁lưỡng	6
▁Trịnh	6
▁dụng	6
▁THÀNH	6
▁Khang	6
▁Nhung	6
▁nhung	6
nguyen	6
▁Tương	6
▁nhất	6
▁trinh	6
▁cưỡng	6
▁THANH	6
▁chặng	6
▁nhang	6
▁Cương	6
▁quãng	6
▁trừng	6
▁Khung	6
▁ngoan	6
▁cũng	6
▁khong	6
▁hình	6
▁nhũng	6
▁nước	6
▁Dưỡng	6
▁NHANH	6
▁Tránh	6
▁loãng	6
▁Chẳng	6
▁DOANH	6
▁hành	6
▁cùng	6
▁mình	6
▁Thang	6
▁Phóng	6
▁Khanh	6
▁tuyen	6
▁toàn	6
▁nhận	6
▁nương	6
phuong	6
▁Phụng	6
▁chánh	6
▁Tưởng	6
▁thỉnh	6
▁CHÚNG	6
▁tính	6
truong	6
▁thong	6
▁thiet	6
▁dùng	6
▁tieng	6
truyen	6
▁khang	6
▁tình	6
Trưởng	6
▁Gương	6
▁Chỉnh	6
ietnam	6
▁sáng	6
▁tỉnh	6
▁chong	6
▁thung	6
chuyen	6
Trương	6
▁phụng	6
▁Bình	6
▁bệnh	6
thuong	6
▁quặng	6
▁phục	6
Nguyen	6
▁giằng	6
▁mạnh	6
▁THỊNH	6
▁tuổi	6
▁nhập	6
▁Khổng	6
▁Distr	6
▁bình	6
▁onlin	6
▁loang	6
▁cảnh	6
saigon	6
▁Thung	6
▁hồng	6
muaban	6
▁Thằng	6
Saigon	6
quocte	6
▁bánh	6
▁Montr	6
congty	6
▁lãnh	6
nguyễn	6
▁khơng	6
Thành	6
trưởng	6
▁Tình	6
tháng	6
Xperia	6
Luxury	6
Vincom	6
Subaru	6
khoang	6
▁Troom	6
▁cheng	6
Madrid	6
▁Estee	6
Ranger	6
cotton	6
▁gluco	6
▁Lenin	6
mport	5
ation	5
ction	5
ublic	5
▁with	5
▁that	5
▁from	5
using	5
▁this	5
▁self	5
▁file	5
ption	5
▁name	5
▁list	5
reate	5
bject	5
quest	5
umber	5
ystem	5
▁This	5
print	5
ssage	5
▁user	5
ition	5
class	5
▁have	5
▁will	5
clude	5
itial	5
ength	5
Reply	5
space	5
▁used	5
error	5
ample	5
▁code	5
ating	5
https	5
right	5
value	5
▁type	5
model	5
count	5
▁comp	5
Field	5
cript	5
▁some	5
iable	5
▁over	5
param	5
pecif	5
Quest	5
Model	5
▁main	5
andom	5
input	5
▁text	5
▁work	5
ution	5
indow	5
▁into	5
ename	5
arget	5
order	5
Error	5
eturn	5
▁case	5
const	5
ssion	5
▁pass	5
▁word	5
▁node	5
▁like	5
quire	5
ector	5
▁temp	5
▁List	5
▁than	5
▁does	5
index	5
▁part	5
▁view	5
perty	5
▁open	5
▁want	5
stack	5
▁oper	5
▁find	5
▁need	5
teger	5
▁only	5
▁page	5
▁size	5
ython	5
ustom	5
split	5
▁more	5
array	5
image	5
▁make	5
uthor	5
▁same	5
onent	5
thing	5
train	5
tings	5
start	5
utton	5
frame	5
ative	5
▁just	5
ccess	5
label	5
point	5
▁they	5
Gener	5
▁them	5
▁here	5
Event	5
▁back	5
▁loop	5
round	5
▁next	5
ender	5
State	5
alled	5
▁also	5
ultip	5
pdate	5
rough	5
valid	5
enter	5
▁sort	5
Frame	5
▁root	5
title	5
ssert	5
▁User	5
write	5
Equal	5
Array	5
▁look	5
lable	5
Count	5
False	5
▁elif	5
ility	5
▁know	5
imple	5
oding	5
viron	5
imgur	5
lease	5
ethod	5
state	5
inter	5
ities	5
Class	5
▁help	5
▁post	5
other	5
river	5
olean	5
cause	5
pport	5
▁writ	5
Input	5
annel	5
Query	5
ensor	5
older	5
ision	5
Index	5
query	5
creen	5
vices	5
▁head	5
trans	5
▁http	5
verse	5
ormal	5
ifier	5
Image	5
while	5
▁down	5
▁been	5
lobal	5
parse	5
aries	5
first	5
ining	5
board	5
table	5
▁plot	5
ithub	5
ready	5
close	5
Inter	5
Token	5
idget	5
shape	5
begin	5
group	5
Write	5
▁step	5
float	5
▁even	5
Color	5
ually	5
color	5
check	5
▁task	5
vious	5
event	5
riter	5
mount	5
▁mean	5
chema	5
angle	5
field	5
Point	5
ordin	5
▁copy	5
▁less	5
Trans	5
▁such	5
actor	5
▁Task	5
lugin	5
▁pair	5
▁both	5
ecute	5
▁Date	5
ories	5
ivity	5
stars	5
Async	5
orage	5
ither	5
pping	5
width	5
Valid	5
Table	5
false	5
▁must	5
email	5
ffect	5
▁most	5
ilter	5
▁tree	5
▁keep	5
▁move	5
items	5
▁save	5
Group	5
range	5
ather	5
Start	5
udent	5
wargs	5
local	5
▁seem	5
▁cons	5
▁very	5
learn	5
▁host	5
witch	5
words	5
▁play	5
▁Find	5
▁many	5
▁mark	5
ified	5
▁cell	5
lines	5
light	5
▁take	5
▁done	5
score	5
annot	5
abled	5
iddle	5
gener	5
admin	5
▁sure	5
adata	5
quare	5
until	5
aving	5
strip	5
login	5
Types	5
stamp	5
▁grid	5
▁well	5
ators	5
▁sets	5
Check	5
apter	5
▁best	5
amera	5
izing	5
Empty	5
▁full	5
Click	5
graph	5
Enter	5
▁much	5
▁edit	5
▁Main	5
▁high	5
Order	5
▁keys	5
total	5
▁draw	5
▁uses	5
lower	5
▁card	5
names	5
velop	5
click	5
▁side	5
▁year	5
level	5
▁were	5
store	5
views	5
▁stop	5
First	5
▁able	5
Tasks	5
build	5
▁real	5
Admin	5
uture	5
block	5
uring	5
ished	5
where	5
Level	5
ailed	5
▁View	5
▁happ	5
Label	5
match	5
▁cost	5
Tests	5
idden	5
▁home	5
Title	5
tains	5
Block	5
child	5
▁fast	5
Queue	5
ended	5
route	5
equal	5
▁axis	5
asure	5
▁area	5
place	5
react	5
ambda	5
ively	5
There	5
props	5
Range	5
▁once	5
users	5
Store	5
Stack	5
▁rate	5
atter	5
empty	5
▁made	5
price	5
▁appe	5
gment	5
sleep	5
▁give	5
Utils	5
style	5
ircle	5
Const	5
types	5
times	5
final	5
raint	5
▁Save	5
acter	5
stall	5
Graph	5
▁menu	5
Email	5
Items	5
Users	5
Entry	5
Parse	5
Cache	5
debug	5
▁loss	5
iment	5
Width	5
oring	5
ulate	5
▁html	5
▁Post	5
ately	5
inner	5
leted	5
ience	5
▁tell	5
▁mask	5
▁tool	5
cache	5
▁plan	5
Child	5
▁rect	5
Found	5
▁note	5
ested	5
tools	5
urtle	5
▁conn	5
trics	5
atist	5
▁supp	5
Style	5
ocket	5
delta	5
alpha	5
▁medi	5
acity	5
scale	5
▁join	5
cture	5
Match	5
batch	5
iness	5
pache	5
▁kind	5
forms	5
bound	5
loads	5
Local	5
Hello	5
Build	5
which	5
clear	5
short	5
ality	5
uting	5
▁idea	5
undle	5
riend	5
chron	5
entry	5
Print	5
aster	5
icles	5
zeros	5
▁fine	5
▁term	5
▁fail	5
▁Some	5
endif	5
▁rule	5
inary	5
efore	5
break	5
usion	5
Total	5
bytes	5
idual	5
istic	5
▁repe	5
▁four	5
aking	5
hello	5
scanf	5
Right	5
limit	5
urity	5
icker	5
▁curr	5
ought	5
Price	5
inder	5
▁room	5
tract	5
grade	5
▁desc	5
▁half	5
▁city	5
upper	5
month	5
▁seen	5
Debug	5
eries	5
▁lock	5
phone	5
known	5
stant	5
Param	5
▁easy	5
Close	5
ident	5
▁Line	5
iling	5
ATION	5
endar	5
▁Here	5
amily	5
▁adds	5
setup	5
▁circ	5
▁lead	5
front	5
▁runs	5
▁team	5
▁They	5
▁skip	5
Track	5
track	5
cover	5
Files	5
async	5
fetch	5
▁role	5
tuple	5
imate	5
losed	5
prime	5
otion	5
Panel	5
clean	5
Float	5
Space	5
aging	5
Route	5
▁prev	5
super	5
▁Temp	5
▁diff	5
▁said	5
▁week	5
▁tech	5
marks	5
cloud	5
▁hist	5
iving	5
After	5
nodes	5
Layer	5
▁bind	5
▁echo	5
ragma	5
▁says	5
iform	5
▁scra	5
Where	5
oment	5
▁pool	5
▁didn	5
apply	5
theta	5
Ident	5
craft	5
world	5
based	5
junit	5
mysql	5
lying	5
wards	5
▁ones	5
reset	5
▁Long	5
▁Auto	5
agent	5
video	5
topic	5
ogram	5
tests	5
stats	5
chain	5
okens	5
Split	5
grees	5
Score	5
▁bits	5
▁Part	5
▁core	5
allow	5
omial	5
Sharp	5
sheet	5
asing	5
▁rank	5
thers	5
Trace	5
speed	5
ERROR	5
media	5
scope	5
numpy	5
▁deal	5
power	5
chool	5
blank	5
mazon	5
Phone	5
Scene	5
allel	5
▁glob	5
▁fire	5
align	5
force	5
Agent	5
uming	5
hicle	5
eting	5
Media	5
ridge	5
World	5
allen	5
▁conv	5
posts	5
after	5
erial	5
Bound	5
▁hour	5
dumps	5
xpath	5
▁care	5
buntu	5
black	5
iding	5
EMAIL	5
Forms	5
depth	5
epoch	5
▁song	5
▁Used	5
Using	5
Scale	5
itive	5
books	5
Tools	5
Speed	5
white	5
ients	5
aring	5
acing	5
▁blog	5
watch	5
▁away	5
arrow	5
comes	5
embed	5
green	5
ology	5
merge	5
▁Also	5
activ	5
Video	5
Basic	5
▁goal	5
basic	5
optim	5
Props	5
osite	5
solve	5
Proxy	5
Alter	5
arent	5
regex	5
ously	5
▁cart	5
agram	5
Board	5
steps	5
rtype	5
ocker	5
ftime	5
voice	5
Mouse	5
Press	5
legal	5
apple	5
▁feel	5
grams	5
▁Guid	5
Train	5
torch	5
liter	5
▁pull	5
found	5
shift	5
ights	5
stock	5
Timer	5
agger	5
▁apps	5
Given	5
catch	5
Lower	5
ullet	5
Usage	5
fully	5
DEBUG	5
rices	5
crete	5
▁Down	5
sigma	5
acher	5
herit	5
▁wave	5
paths	5
▁tile	5
movie	5
links	5
▁Drop	5
Scope	5
small	5
issue	5
ledge	5
Audio	5
lists	5
Clear	5
about	5
icate	5
Asset	5
tasks	5
clock	5
audio	5
aming	5
Power	5
Since	5
arest	5
Limit	5
spath	5
ascii	5
zilla	5
Allow	5
gmail	5
Month	5
▁near	5
▁live	5
Batch	5
ables	5
COLOR	5
await	5
throw	5
▁came	5
▁Exit	5
▁nice	5
Place	5
▁jump	5
Nodes	5
Light	5
since	5
▁Core	5
Mixin	5
▁axes	5
▁life	5
Cloud	5
trace	5
boost	5
Short	5
▁Dist	5
owner	5
▁Last	5
ising	5
scene	5
anger	5
▁atom	5
stead	5
hesis	5
under	5
cross	5
Shape	5
▁deep	5
▁Does	5
cards	5
lista	5
▁star	5
pixel	5
patch	5
ollow	5
share	5
caled	5
▁verb	5
edges	5
▁tick	5
infty	5
Setup	5
Modal	5
Analy	5
proxy	5
mooth	5
▁ever	5
chart	5
clone	5
exist	5
unity	5
White	5
chunk	5
imize	5
Activ	5
beans	5
floor	5
timer	5
Exist	5
Stats	5
spark	5
alert	5
slice	5
Multi	5
Other	5
Begin	5
Views	5
▁elem	5
spect	5
▁gain	5
arily	5
Could	5
anted	5
Pages	5
house	5
Throw	5
▁beta	5
cases	5
Lines	5
Sound	5
linux	5
Topic	5
Reset	5
▁Unit	5
theme	5
multi	5
▁suit	5
today	5
photo	5
Chain	5
Azure	5
ering	5
Delta	5
▁aren	5
shell	5
mouse	5
lette	5
codes	5
Chart	5
▁hook	5
▁lost	5
antic	5
attrs	5
atial	5
means	5
▁memo	5
Prime	5
▁heat	5
urnal	5
delay	5
sites	5
rules	5
utter	5
redis	5
▁quit	5
▁freq	5
three	5
Shell	5
▁sing	5
analy	5
chars	5
▁band	5
ipped	5
▁stat	5
▁addr	5
dtype	5
Pixel	5
▁fair	5
separ	5
units	5
quote	5
parts	5
▁dead	5
▁puts	5
built	5
ratio	5
▁lang	5
Tuple	5
panel	5
Delay	5
▁bias	5
gamma	5
there	5
Which	5
paper	5
erved	5
metry	5
anded	5
▁disp	5
Angle	5
sound	5
folio	5
▁Next	5
extra	5
mkdir	5
boxes	5
▁wish	5
usage	5
▁five	5
metic	5
inalg	5
excel	5
▁went	5
Theme	5
▁doub	5
logic	5
brief	5
MODEL	5
▁Team	5
Upper	5
Regex	5
▁talk	5
▁grow	5
Dense	5
▁upon	5
▁took	5
Thank	5
Stock	5
▁ring	5
saved	5
▁stay	5
Final	5
notes	5
cycle	5
ysics	5
flags	5
enger	5
▁bins	5
▁risk	5
▁cube	5
Fetch	5
large	5
▁fund	5
guess	5
oking	5
▁demo	5
▁zone	5
hours	5
▁driv	5
forge	5
▁priv	5
▁cmap	5
ernel	5
▁bill	5
fixed	5
▁ship	5
Logic	5
▁soon	5
omega	5
asset	5
ctime	5
prise	5
▁wide	5
music	5
coord	5
matic	5
While	5
Watch	5
osing	5
▁Rule	5
money	5
Mongo	5
Rules	5
▁fuel	5
▁dark	5
moves	5
Depth	5
Black	5
Touch	5
▁meet	5
reply	5
merce	5
▁slic	5
ently	5
guide	5
Stage	5
Fixed	5
▁Flag	5
▁rout	5
drive	5
Photo	5
VALID	5
▁mine	5
Cross	5
Redis	5
▁Plan	5
INTER	5
Issue	5
▁Help	5
▁comm	5
pairs	5
visit	5
moved	5
Round	5
▁City	5
WIDTH	5
raise	5
Apply	5
modal	5
nable	5
▁gene	5
joint	5
proto	5
Super	5
plain	5
iliar	5
▁Cons	5
Clean	5
▁prob	5
water	5
Share	5
▁shop	5
tooth	5
▁Most	5
Force	5
Chunk	5
defer	5
▁leaf	5
▁meas	5
sales	5
Named	5
micro	5
inate	5
Extra	5
▁gold	5
brand	5
birth	5
▁scre	5
▁comb	5
orrow	5
Based	5
▁wasn	5
azure	5
works	5
stage	5
games	5
▁lots	5
ifdef	5
album	5
noise	5
Clone	5
stone	5
INPUT	5
Excel	5
Times	5
▁Conv	5
These	5
night	5
Focus	5
▁Left	5
named	5
▁wins	5
▁High	5
every	5
Shift	5
▁Supp	5
aises	5
▁told	5
Small	5
party	5
▁Keep	5
Links	5
going	5
▁seat	5
quick	5
added	5
sharp	5
▁logo	5
▁foot	5
faces	5
letes	5
▁Zero	5
apped	5
▁asks	5
addle	5
Front	5
Alpha	5
▁stub	5
swing	5
ORDER	5
given	5
alone	5
igure	5
valor	5
dummy	5
latex	5
cells	5
▁emit	5
About	5
TABLE	5
iated	5
Under	5
Motor	5
Every	5
sizes	5
JUDGE	5
▁huge	5
Music	5
hover	5
ieved	5
retch	5
major	5
illed	5
CHECK	5
radio	5
Align	5
lasse	5
union	5
trees	5
ocial	5
Slice	5
▁Orig	5
minus	5
▁miss	5
plane	5
attle	5
Ratio	5
terms	5
Hours	5
story	5
▁gave	5
Linux	5
Proto	5
▁spam	5
meter	5
phase	5
apper	5
magic	5
aches	5
Green	5
Mount	5
fruit	5
intro	5
Spawn	5
Merge	5
▁Many	5
Three	5
▁film	5
▁anim	5
▁poll	5
tbody	5
Optim	5
omite	5
ounds	5
▁Area	5
Notes	5
curve	5
outer	5
▁kept	5
▁Star	5
tight	5
Cells	5
daily	5
▁peak	5
ading	5
▁John	5
gence	5
romos	5
arity	5
forum	5
▁Lock	5
plate	5
Sleep	5
hyper	5
ander	5
Torch	5
Brush	5
▁gate	5
staff	5
▁paid	5
smart	5
focus	5
organ	5
▁Span	5
Posts	5
motor	5
▁pose	5
posed	5
scala	5
Maybe	5
Visit	5
Books	5
macro	5
▁ther	5
tical	5
▁fish	5
third	5
ravel	5
Curve	5
atest	5
Radio	5
▁rain	5
yield	5
▁race	5
▁doct	5
▁LSTM	5
React	5
indic	5
Sorry	5
stuff	5
▁expr	5
▁guid	5
OAuth	5
Album	5
aling	5
slide	5
touch	5
arith	5
years	5
lated	5
▁summ	5
stood	5
▁Live	5
texts	5
lined	5
▁curl	5
Apple	5
Piece	5
Coord	5
▁cred	5
▁peer	5
Would	5
Union	5
alaxy	5
wrong	5
▁dual	5
Brand	5
iline	5
plots	5
rance	5
▁poor	5
bably	5
equiv	5
▁whom	5
isted	5
spawn	5
human	5
▁beer	5
Games	5
ldots	5
Audit	5
Quick	5
ifica	5
House	5
tions	5
▁fold	5
▁loan	5
Phase	5
dfrac	5
▁Easy	5
nment	5
exact	5
Grade	5
Water	5
Quote	5
piece	5
Smart	5
▁pain	5
▁cold	5
▁repr	5
flash	5
alter	5
▁wood	5
ening	5
again	5
MySQL	5
calls	5
Gamma	5
Micro	5
▁clue	5
ships	5
esian	5
claim	5
trade	5
▁Have	5
Deser	5
Party	5
flask	5
fasta	5
offer	5
Story	5
solid	5
antom	5
odies	5
xygen	5
Flask	5
stick	5
study	5
dense	5
▁skin	5
▁rely	5
shall	5
crate	5
cdots	5
Today	5
▁geom	5
Omega	5
▁chip	5
▁held	5
imits	5
usize	5
opens	5
▁vice	5
unday	5
Hyper	5
▁hang	5
Plane	5
FALSE	5
ivari	5
truth	5
▁semi	5
maybe	5
openc	5
shoot	5
isson	5
leave	5
Infos	5
▁King	5
Refer	5
orean	5
decay	5
Organ	5
Strip	5
hline	5
Paper	5
reach	5
serde	5
▁okay	5
ittle	5
amond	5
▁town	5
thead	5
▁male	5
▁acts	5
▁isom	5
Epoch	5
paint	5
▁serv	5
CTYPE	5
pitch	5
onder	5
rates	5
genes	5
▁Song	5
rated	5
Large	5
▁king	5
datas	5
refer	5
rogen	5
Below	5
swers	5
rical	5
▁Deep	5
azine	5
▁anti	5
▁flux	5
astic	5
Magic	5
aders	5
Sigma	5
repos	5
▁quiz	5
▁sold	5
Again	5
heart	5
Daily	5
astro	5
ondon	5
proof	5
chrom	5
ached	5
▁ease	5
wheel	5
Human	5
could	5
itert	5
think	5
eller	5
shake	5
ulong	5
death	5
istry	5
riage	5
▁milk	5
draft	5
iance	5
prior	5
▁Best	5
▁thin	5
▁meal	5
▁hair	5
brain	5
Third	5
panic	5
morph	5
▁chan	5
Joint	5
badge	5
ether	5
▁wifi	5
below	5
minor	5
▁meat	5
ruary	5
colab	5
Euler	5
least	5
▁seek	5
reads	5
▁grap	5
Death	5
▁York	5
slope	5
Known	5
proba	5
Typed	5
▁kick	5
Flash	5
▁padx	5
▁sees	5
▁born	5
▁wife	5
▁Term	5
▁bomb	5
north	5
ptive	5
sides	5
arxiv	5
agree	5
babel	5
tries	5
trial	5
actic	5
eight	5
bread	5
rible	5
owned	5
Solve	5
▁bird	5
▁fort	5
atoms	5
▁wear	5
eeded	5
happy	5
covid	5
▁nick	5
lings	5
combo	5
Alice	5
basis	5
▁lies	5
▁suff	5
Spect	5
xaxis	5
ahead	5
▁Ener	5
Bonus	5
▁Wave	5
Learn	5
energ	5
▁peek	5
Study	5
Razor	5
Major	5
above	5
▁Poly	5
▁eggs	5
Staff	5
trust	5
Icons	5
▁numb	5
Trust	5
seven	5
Cance	5
metro	5
▁cake	5
▁tube	5
plant	5
glass	5
▁Wire	5
tilde	5
Never	5
usual	5
Raise	5
heads	5
kappa	5
afety	5
Teams	5
storm	5
taken	5
Theta	5
hotel	5
▁jack	5
▁club	5
North	5
inema	5
▁Ship	5
▁rein	5
▁farm	5
essel	5
costs	5
▁Wiki	5
▁kids	5
south	5
Stand	5
▁cave	5
gency	5
fluid	5
isher	5
▁novo	5
areas	5
▁drug	5
aused	5
brown	5
▁Give	5
Craft	5
xtick	5
pulse	5
Proof	5
Roman	5
▁legs	5
sport	5
Combo	5
would	5
▁wise	5
▁Apps	5
▁died	5
nabla	5
▁soil	5
later	5
contr	5
arian	5
arded	5
entes	5
Eigen	5
▁pent	5
sense	5
whole	5
pedia	5
orbit	5
dated	5
undef	5
arial	5
orate	5
▁June	5
grant	5
Earth	5
▁wast	5
Hotel	5
Happy	5
Solid	5
Corre	5
these	5
mixed	5
colon	5
olded	5
▁oven	5
relax	5
▁July	5
worth	5
facts	5
iptic	5
hypot	5
liner	5
▁tire	5
swift	5
Serve	5
Later	5
▁hate	5
rator	5
▁vect	5
▁hull	5
infer	5
Adapt	5
roots	5
alida	5
conds	5
DEFIN	5
itter	5
oning	5
▁nine	5
▁valu	5
locks	5
modes	5
▁cult	5
▁Sing	5
▁boat	5
qquad	5
South	5
Grant	5
▁wing	5
▁Pure	5
▁felt	5
voted	5
horse	5
▁Ring	5
Stick	5
comma	5
▁Paul	5
shows	5
never	5
▁cups	5
still	5
David	5
▁Expr	5
brace	5
▁sequ	5
▁uniq	5
accur	5
posta	5
carry	5
adapt	5
javax	5
▁desk	5
▁pend	5
along	5
quiet	5
▁Fact	5
Forum	5
needs	5
Tower	5
sized	5
▁subs	5
elian	5
liber	5
inite	5
datum	5
Deleg	5
ighth	5
▁arms	5
great	5
crack	5
Looks	5
sight	5
utive	5
inser	5
abort	5
ushed	5
▁memb	5
Hence	5
Datas	5
gradu	5
polar	5
early	5
devel	5
rying	5
metal	5
elect	5
wedge	5
Smith	5
Those	5
blind	5
dream	5
▁Doub	5
▁loud	5
Bayes	5
fresh	5
nucle	5
▁Logo	5
▁deny	5
aware	5
Still	5
▁narr	5
▁rice	5
▁Club	5
▁Quad	5
truck	5
Least	5
argin	5
miles	5
iting	5
rence	5
shirt	5
thank	5
rigid	5
VIDEO	5
Prior	5
▁Sans	5
resid	5
vents	5
▁Hang	5
ontos	5
▁hall	5
Night	5
odium	5
owski	5
James	5
March	5
doors	5
ionic	5
sents	5
solar	5
treat	5
deriv	5
▁pros	5
phant	5
▁Lang	5
atten	5
backs	5
Basis	5
▁soul	5
acket	5
adult	5
▁wash	5
being	5
QRect	5
Fluid	5
Intel	5
trend	5
hands	5
▁tilt	5
▁leng	5
agged	5
avoid	5
rings	5
asant	5
blood	5
▁Disp	5
oline	5
▁outs	5
grand	5
lucky	5
their	5
Great	5
Blood	5
Being	5
adian	5
liked	5
naver	5
▁tang	5
verts	5
▁boil	5
weeks	5
perly	5
Peter	5
flows	5
▁belt	5
resse	5
strut	5
▁Heat	5
sided	5
grass	5
April	5
brush	5
Stone	5
calib	5
takes	5
Latin	5
▁tong	5
autor	5
▁Verb	5
▁nano	5
▁pods	5
▁samp	5
iffer	5
bolic	5
▁shoe	5
doesn	5
Repos	5
rived	5
fight	5
gives	5
▁taxi	5
turns	5
cream	5
versa	5
Queen	5
heavy	5
sette	5
prove	5
ntime	5
▁bowl	5
aptop	5
▁coil	5
orted	5
▁Cong	5
oints	5
▁Mary	5
▁fell	5
twice	5
virus	5
▁slim	5
erate	5
Chris	5
ocean	5
yntax	5
Sport	5
ropic	5
quark	5
sorry	5
istan	5
▁Five	5
Comma	5
▁clos	5
mobil	5
overs	5
fails	5
amber	5
Solar	5
xmlns	5
▁Come	5
fuzzy	5
▁Euro	5
▁Hall	5
▁Talk	5
▁dirt	5
China	5
Seven	5
burst	5
Laser	5
boxed	5
splay	5
Domin	5
India	5
icher	5
occur	5
rospy	5
▁Bird	5
eline	5
reeze	5
ideal	5
might	5
▁bend	5
Brown	5
Prove	5
broad	5
Conta	5
panda	5
Metal	5
thick	5
▁glad	5
celes	5
walls	5
▁thru	5
doing	5
ional	5
makes	5
Anime	5
▁Bang	5
▁Ange	5
▁slip	5
holes	5
tails	5
▁drum	5
▁ange	5
fiber	5
▁pens	5
mouth	5
strat	5
ember	5
Scala	5
aside	5
cubic	5
SHAPE	5
renew	5
▁succ	5
acted	5
shown	5
erver	5
Horse	5
▁Serv	5
cance	5
timed	5
Early	5
Monad	5
hread	5
verte	5
▁raid	5
gauge	5
Harry	5
MILES	5
hence	5
strom	5
▁Glob	5
deleg	5
vdots	5
often	5
clust	5
Frank	5
falls	5
woman	5
sweet	5
utsch	5
▁exce	5
aired	5
plays	5
▁bite	5
recon	5
▁Jane	5
Grand	5
Ocean	5
andro	5
▁hadn	5
rican	5
dable	5
apart	5
apore	5
▁filt	5
sword	5
chair	5
▁nail	5
knock	5
ymbol	5
sugar	5
▁gaze	5
Covid	5
blade	5
gross	5
shade	5
Atten	5
among	5
court	5
▁beef	5
nings	5
adium	5
cyclo	5
▁hunt	5
stype	5
asser	5
arker	5
Gauss	5
ocent	5
▁coat	5
prote	5
▁Holy	5
ensed	5
liche	5
alize	5
Delet	5
mater	5
those	5
ching	5
maths	5
qubit	5
▁slee	5
Inser	5
ichen	5
igned	5
▁mole	5
poker	5
▁Kong	5
▁yard	5
Steve	5
▁audi	5
▁thre	5
Carlo	5
arten	5
enden	5
▁Brit	5
dding	5
flood	5
Maria	5
▁gods	5
ignal	5
▁Mega	5
▁Sony	5
▁clap	5
croll	5
▁thro	5
▁outf	5
waves	5
▁mong	5
Polar	5
orial	5
assin	5
Adobe	5
clips	5
steel	5
▁clan	5
women	5
trick	5
focal	5
Trend	5
chang	5
▁tops	5
ipple	5
lived	5
▁Male	5
lvert	5
young	5
oming	5
▁Stan	5
Contr	5
▁empt	5
Dream	5
▁dong	5
▁coor	5
Maths	5
▁wort	5
evice	5
relat	5
birds	5
antly	5
▁Ment	5
aleph	5
▁Wang	5
▁euro	5
notin	5
tiger	5
ashed	5
coach	5
dance	5
preci	5
ennis	5
omach	5
rable	5
tfrac	5
Mater	5
looks	5
aland	5
delet	5
▁hung	5
▁syst	5
lance	5
▁Ford	5
▁Comm	5
▁spit	5
akter	5
holds	5
▁slit	5
COVID	5
hfill	5
kwarg	5
minim	5
▁grew	5
ruder	5
shine	5
Ultra	5
ditor	5
acces	5
histo	5
opera	5
atrix	5
▁pill	5
Cisco	5
ytest	5
▁Lake	5
icked	5
hydro	5
▁holy	5
rando	5
▁Hong	5
rvert	5
Scott	5
maxim	5
▁grav	5
subst	5
oured	5
urban	5
Grace	5
▁coun	5
▁calm	5
paren	5
drawn	5
▁cute	5
ofile	5
▁wich	5
crazy	5
▁Fair	5
fifth	5
calar	5
pseud	5
getch	5
defin	5
River	5
bring	5
▁Dave	5
▁answ	5
▁golf	5
funct	5
▁gang	5
asked	5
meric	5
anged	5
▁rele	5
ained	5
ental	5
itted	5
ggest	5
▁webs	5
▁Aust	5
▁publ	5
▁Sept	5
▁wond	5
nding	5
itten	5
▁teac	5
earch	5
enior	5
epend	5
anced	5
asons	5
▁Germ	5
▁hous	5
▁appl	5
▁Wash	5
aught	5
ronic	5
azing	5
itary	5
▁pric	5
itely	5
oving	5
uated	5
imens	5
tered	5
▁Jose	5
eless	5
anges	5
anish	5
▁Kore	5
▁Prem	5
▁forg	5
nergy	5
ograp	5
uable	5
cious	5
cknow	5
razil	5
▁susp	5
pling	5
▁Arab	5
cific	5
▁entr	5
raine	5
▁coal	5
otted	5
erent	5
eping	5
elled	5
eling	5
ethyl	5
▁Mill	5
▁batt	5
ilton	5
acent	5
aning	5
icted	5
amics	5
▁Vice	5
▁cycl	5
▁Tony	5
ribed	5
ifted	5
wered	5
redit	5
▁nerv	5
poons	5
ented	5
aying	5
rison	5
▁plas	5
ounce	5
▁Jess	5
▁Cape	5
▁butt	5
owing	5
essed	5
▁dear	5
▁Coun	5
▁horm	5
▁Kate	5
ocity	5
▁toll	5
pread	5
▁Golf	5
ieces	5
▁gluc	5
angel	5
▁Hung	5
oping	5
▁eleg	5
pring	5
jects	5
▁Kath	5
heric	5
▁Mall	5
▁guns	5
ected	5
ceive	5
▁bree	5
ugged	5
bsite	5
tures	5
eared	5
anked	5
▁epit	5
▁Thom	5
ucker	5
▁Pope	5
ollar	5
▁hing	5
asses	5
▁Finn	5
amous	5
urred	5
▁foul	5
anyon	5
▁unch	5
▁Fitz	5
▁sang	5
▁slid	5
▁herb	5
ebook	5
etric	5
kward	5
ighed	5
▁Pete	5
▁kern	5
▁Thai	5
oxide	5
pered	5
ylene	5
produ	5
annes	5
▁plea	5
cedes	5
iquid	5
pound	5
ouble	5
ounge	5
abase	5
urned	5
▁Batt	5
unted	5
offic	5
pless	5
cular	5
▁Lucy	5
scape	5
reath	5
▁bore	5
▁aunt	5
▁Earl	5
exper	5
Chief	5
ucked	5
urate	5
▁dull	5
▁Peru	5
ommon	5
Young	5
▁actu	5
ragon	5
dings	5
▁Carr	5
inant	5
▁boun	5
▁Mang	5
rosse	5
Trump	5
creat	5
Jesus	5
rowth	5
atted	5
compl	5
▁adul	5
▁deaf	5
chlor	5
grown	5
▁atop	5
owers	5
chief	5
▁Hair	5
▁Gang	5
▁Cave	5
walks	5
▁Yang	5
▁moth	5
▁nons	5
ummer	5
▁sadd	5
orpor	5
▁Mong	5
leigh	5
ortic	5
▁Were	5
yards	5
▁Barr	5
appro	5
ische	5
▁Sang	5
▁UEFA	5
techn	5
▁cove	5
Brian	5
Texas	5
▁fing	5
orman	5
andel	5
ookie	5
▁nort	5
▁loos	5
ollen	5
Henry	5
rolet	5
▁puls	5
axies	5
idine	5
▁Okay	5
Sarah	5
ctory	5
▁benz	5
▁Kang	5
▁spur	5
poral	5
Louis	5
Jason	5
denly	5
fried	5
▁godd	5
uckle	5
▁pore	5
▁plac	5
agnet	5
Sweet	5
▁grou	5
▁Ling	5
▁Prob	5
▁Tang	5
haven	5
cloth	5
▁rive	5
arate	5
heard	5
forth	5
▁lays	5
▁sigh	5
▁spor	5
▁Stur	5
▁Pole	5
antis	5
alink	5
onica	5
vered	5
inche	5
▁drip	5
ophys	5
Court	5
▁Jong	5
plies	5
faced	5
▁Amit	5
itian	5
▁Mitt	5
▁flap	5
pared	5
ontal	5
Simon	5
azole	5
onian	5
▁pony	5
fired	5
ribes	5
▁invo	5
▁clam	5
Royal	5
rease	5
▁Coul	5
vette	5
▁occl	5
▁Kemp	5
elope	5
orest	5
Lewis	5
Charl	5
actly	5
igens	5
geant	5
woods	5
▁sque	5
Santa	5
▁buil	5
▁Loch	5
Saint	5
▁slap	5
▁Dong	5
ermal	5
Greek	5
amate	5
▁oily	5
ivist	5
▁Ming	5
iscus	5
rious	5
Emily	5
Produ	5
loved	5
Civil	5
Chall	5
iegel	5
▁Rath	5
dough	5
etter	5
▁Witt	5
▁Raff	5
Angel	5
▁Mons	5
arted	5
arine	5
▁Didn	5
uding	5
▁recl	5
Andre	5
axial	5
▁lied	5
▁skim	5
assen	5
▁Indo	5
ingen	5
peace	5
Asian	5
quite	5
ivate	5
▁Sung	5
grave	5
itsch	5
ooked	5
forts	5
▁gigg	5
appen	5
dried	5
▁outp	5
▁unco	5
▁Gwen	5
wrote	5
▁Litt	5
▁Polo	5
affin	5
endix	5
▁Dies	5
optic	5
Roger	5
issed	5
Jacob	5
▁smel	5
▁putt	5
ieder	5
▁Choi	5
▁rave	5
▁Univ	5
▁angu	5
▁jerk	5
wings	5
▁Katz	5
▁cyto	5
Billy	5
offee	5
emann	5
Kings	5
Labor	5
▁hath	5
Anton	5
girls	5
onate	5
umped	5
fluor	5
▁Fuji	5
cline	5
▁voic	5
oling	5
onstr	5
▁dime	5
▁Ding	5
▁Subs	5
psych	5
▁Dele	5
waite	5
▁Gwyn	5
▁Minh	5
ermis	5
▁Maul	5
influ	5
▁Garr	5
burne	5
ickle	5
ardin	5
esses	5
▁Chun	5
▁Sinn	5
rouch	5
▁lick	5
artic	5
▁unin	5
whose	5
ometh	5
paces	5
erval	5
islav	5
eming	5
▁sout	5
▁Quay	5
oller	5
▁Jame	5
▁Kali	5
▁Shad	5
▁beck	5
▁Yong	5
Czech	5
laces	5
▁Cree	5
▁Geek	5
▁Doct	5
▁peac	5
eport	5
Mason	5
andar	5
Cyber	5
Ellen	5
eeper	5
▁embe	5
joyed	5
sever	5
▁roug	5
tetra	5
Swiss	5
▁Seri	5
stell	5
ascal	5
▁Bong	5
▁gilt	5
ernet	5
ussed	5
▁Fren	5
▁shri	5
▁uncl	5
▁nods	5
▁KING	5
ctive	5
dress	5
enged	5
ielle	5
▁Spit	5
▁fron	5
liced	5
olone	5
flour	5
tober	5
quila	5
waste	5
breat	5
civil	5
assed	5
▁Summ	5
inear	5
achen	5
resis	5
▁outc	5
▁Youn	5
indul	5
upply	5
▁Wach	5
laugh	5
oport	5
pants	5
▁scur	5
Uncle	5
▁Komb	5
Tokyo	5
Beach	5
Bible	5
entre	5
▁Puri	5
Fifty	5
askin	5
▁Cali	5
inthe	5
juice	5
dozen	5
belly	5
ixels	5
olive	5
udder	5
unden	5
▁Jang	5
awing	5
inted	5
ommen	5
Cited	5
addin	5
Polit	5
piper	5
ologi	5
chung	5
letti	5
▁Thad	5
▁Anal	5
▁mang	5
▁Marr	5
▁Dung	5
▁Rive	5
EXCEL	5
etail	5
▁larg	5
mathb	5
sible	5
plied	5
tices	5
▁sugg	5
utput	5
ields	5
oined	5
uclid	5
mical	5
anach	5
▁cong	5
manif	5
plify	5
aniel	5
artin	5
imary	5
dorff	5
essor	5
chitz	5
oulli	5
cfrac	5
assum	5
widet	5
bolev	5
pears	5
sibly	5
ynman	5
▁GMAT	5
Lemma	5
lceil	5
brane	5
lling	5
eyond	5
▁GATE	5
anner	5
vdash	5
arged	5
fines	5
inten	5
moles	5
ratic	5
▁sixt	5
biggr	5
ipole	5
▁inac	5
biggl	5
areto	5
ahren	5
ilder	5
▁coul	5
▁alge	5
charg	5
▁Elli	5
Ideal	5
Dirac	5
NCERT	5
▁hydr	5
rized	5
▁sinh	5
▁gaug	5
ucial	5
Latex	5
hskip	5
Borel	5
Raman	5
Higgs	5
Zhang	5
ccccc	5
resol	5
oldid	5
axiom	5
oward	5
▁equi	5
Chern	5
onvex	5
emark	5
gular	5
molar	5
Feder	5
Schur	5
▁exer	5
Hydro	5
▁weig	5
orgen	5
colum	5
gonal	5
ochen	5
Pauli	5
heter	5
▁solv	5
taine	5
Chang	5
chapt	5
▁thir	5
ATLAS	5
raded	5
alkin	5
shear	5
seems	5
stern	5
genus	5
Insta	5
Felix	5
Rosen	5
sions	5
bonds	5
odule	5
diffe	5
ermin	5
orkin	5
▁reco	5
Weiss	5
▁foll	5
inequ	5
▁Rong	5
binar	5
▁Schü	5
matht	5
semic	5
▁eigh	5
Klaus	5
Eisen	5
propy	5
distr	5
Diego	5
infin	5
dcdsb	5
rache	5
ugate	5
▁equa	5
Wiley	5
ieber	5
vapor	5
ekete	5
weigh	5
Seoul	5
paris	5
helps	5
keres	5
antip	5
Therm	5
Runge	5
xtend	5
▁forc	5
Jiang	5
Theor	5
▁Volk	5
oogle	5
korea	5
comUS	5
alent	5
Nokia	5
eiter	5
eiten	5
glich	5
inden	5
elbst	5
tigen	5
angen	5
uchen	5
innen	5
tikel	5
anden	5
isten	5
▁rund	5
kunft	5
ommer	5
ienst	5
grund	5
anzen	5
heits	5
stens	5
blick	5
anken	5
anten	5
eitag	5
elfen	5
affen	5
siden	5
zlich	5
auber	5
baren	5
acken	5
eiden	5
esser	5
ritte	5
raxis	5
reude	5
ielen	5
ilden	5
losen	5
aktiv	5
mlich	5
chmal	5
immel	5
tritt	5
tiges	5
eider	5
asino	5
ligen	5
▁drin	5
illig	5
ittel	5
Unter	5
rolle	5
ppich	5
▁rech	5
ieter	5
barer	5
ugend	5
boden	5
weder	5
kohol	5
ieben	5
elche	5
Hallo	5
nacht	5
▁neun	5
terne	5
Durch	5
freie	5
rhein	5
reuen	5
Unser	5
ilber	5
iefen	5
jacke	5
▁jung	5
▁dran	5
leder	5
anter	5
samen	5
▁Nerv	5
Meine	5
▁Kons	5
ontag	5
worte	5
▁iden	5
▁nett	5
Alles	5
krank	5
kabel	5
Liebe	5
wende	5
Musik	5
griff	5
Thema	5
Damit	5
endel	5
offen	5
Druck	5
Karte	5
ietet	5
Damen	5
genau	5
Krise	5
Keine	5
szeit	5
ieger	5
Schon	5
berge	5
abrik	5
regal	5
atien	5
Suche	5
tiven	5
Dabei	5
Marke	5
▁entz	5
melde	5
sonst	5
Mobil	5
Tipps	5
Europ	5
Neues	5
▁ausk	5
Beste	5
▁lass	5
Trotz	5
andin	5
Gegen	5
Essen	5
Baden	5
Tages	5
terte	5
Schau	5
Kabel	5
mitte	5
elekt	5
iesen	5
Falls	5
motiv	5
wasch	5
nchen	5
▁Sieb	5
flich	5
Rhein	5
wider	5
ormen	5
▁enge	5
nette	5
Konto	5
weren	5
Mitte	5
Deine	5
Regel	5
Lesen	5
eitig	5
emand	5
Handy	5
Ideen	5
Kanal	5
Lager	5
Traum	5
Halle	5
herum	5
sbest	5
Strom	5
Zudem	5
▁Jesu	5
Kraft	5
Telef	5
Leder	5
olles	5
Stell	5
erren	5
Abend	5
teren	5
Volks	5
verst	5
▁Thun	5
beton	5
Boden	5
Monat	5
zigen	5
emals	5
Stern	5
uerst	5
irsch	5
weils	5
Blick	5
Regen	5
chens	5
tigst	5
Gerne	5
Bunde	5
Messe	5
beste	5
Franz	5
Autos	5
sland	5
▁lege	5
Leser	5
falle	5
Laden	5
Hunde	5
Runde	5
arken	5
neuen	5
ieler	5
beide	5
Lange	5
adern	5
Beide	5
feind	5
Daher	5
unser	5
Tarif	5
weste	5
Grill	5
Klima	5
Waren	5
Oster	5
Kleid	5
Jeans	5
▁nike	5
Aller	5
erten	5
Jeden	5
Macht	5
Milch	5
holog	5
Firma	5
Luxus	5
ethan	5
Kamer	5
Brenn	5
neues	5
▁Spor	5
Freie	5
▁Immo	5
▁dach	5
ahres	5
warum	5
reize	5
Schne	5
ndern	5
Bezie	5
▁Ritt	5
rlich	5
▁adap	5
▁biss	5
edoch	5
Werte	5
Ernst	5
handy	5
damit	5
Bernd	5
Bayer	5
Kunde	5
skomm	5
Blitz	5
Schal	5
Canon	5
egion	5
Somit	5
absol	5
Petra	5
Werbe	5
hrend	5
deren	5
iener	5
junge	5
Neuen	5
Sonne	5
▁scho	5
Grenz	5
Angst	5
tives	5
atlan	5
Rolle	5
engel	5
antra	5
igmen	5
reine	5
dikat	5
Griff	5
Boots	5
harte	5
▁Bitt	5
Berat	5
▁mond	5
▁prek	5
Hohen	5
Klang	5
Kugel	5
Flach	5
▁Hydr	5
komme	5
Menge	5
Dampf	5
moral	5
Schle	5
▁sony	5
hohen	5
Hobby	5
Ander	5
Retro	5
Straf	5
genen	5
Elite	5
selbe	5
Alpen	5
verti	5
trotz	5
Brems	5
Honda	5
Stuhl	5
Trink	5
Braut	5
swiss	5
▁Rahm	5
▁Werb	5
Regal	5
Masse	5
linke	5
Zweck	5
ifilm	5
Brust	5
Klapp	5
ieser	5
tolle	5
Draht	5
▁ande	5
Dinge	5
▁intr	5
nosti	5
▁osob	5
obraz	5
prava	5
▁poko	5
▁ceny	5
ujeme	5
Popis	5
▁snad	5
▁stej	5
pravy	5
koliv	5
losti	5
ujete	5
ovice	5
Pokud	5
ovala	5
▁nech	5
ovali	5
▁nepo	5
sklad	5
▁nevy	5
▁Díky	5
▁neza	5
Tento	5
▁mlad	5
hodno	5
pravu	5
klady	5
Praha	5
▁poji	5
▁titu	5
rovat	5
kovou	5
▁spou	5
▁dále	5
Barva	5
vatel	5
stroj	5
shopu	5
▁navr	5
konec	5
pravi	5
hledu	5
▁klik	5
stran	5
tujte	5
bezpe	5
vykle	5
▁poku	5
▁neob	5
kladu	5
nline	5
▁taky	5
ovalo	5
▁drob	5
▁sami	5
podob	5
Zdroj	5
▁Mezi	5
▁apod	5
hruba	5
enost	5
Podle	5
zovat	5
vovat	5
proti	5
inaci	5
▁zemi	5
▁málo	5
Sleva	5
▁Kraj	5
stane	5
▁lete	5
▁obsa	5
▁Dále	5
▁ubyt	5
▁domy	5
chodu	5
Sklad	5
ovrch	5
Pouze	5
▁Toto	5
▁sama	5
unkce	5
▁slev	5
Jazyk	5
Okres	5
Velmi	5
Nelze	5
oviny	5
Jedno	5
▁pneu	5
Objem	5
ranky	5
▁napo	5
Kniha	5
stala	5
▁koho	5
stavi	5
lekce	5
kovat	5
stavy	5
locha	5
▁Ceny	5
▁vina	5
pravo	5
tovat	5
barva	5
▁spod	5
Pavel	5
mazat	5
▁sbor	5
Dotaz	5
stavu	5
kolik	5
pokud	5
▁bodu	5
gramu	5
sleva	5
pokoj	5
▁Osob	5
vlast	5
formu	5
Prima	5
sycho	5
rosta	5
▁tepl	5
zdroj	5
covat	5
konce	5
▁Moje	5
Karel	5
▁Novo	5
hovna	5
Knihy	5
mecko	5
ameri	5
jasno	5
chova	5
kniha	5
stoup	5
podle	5
▁spla	5
barev	5
hlasu	5
minut	5
prode	5
Jedna	5
textu	5
okres	5
novou	5
Jakub	5
▁Nevy	5
hodin	5
Vladi	5
velmi	5
Vznik	5
▁nase	5
jedna	5
kolem	5
praha	5
vesti	5
knihy	5
erven	5
Lucie	5
Marek	5
popis	5
obsah	5
Lenka	5
▁Arti	5
▁Zkou	5
tnost	5
Proti	5
oprav	5
tento	5
osoba	5
▁Navr	5
Radek	5
▁Jazy	5
Pokoj	5
Mnoho	5
▁Mzda	5
vstup	5
dosti	5
nejen	5
komen	5
spole	5
odkaz	5
Nejen	5
Forma	5
banka	5
▁Soko	5
▁Poku	5
spolu	5
Miloš	5
▁gluk	5
Filip	5
verze	5
knihu	5
Alena	5
proje	5
obvod	5
▁Povo	5
odbor	5
pomoc	5
▁eura	5
kurzy	5
Staro	5
▁Zapo	5
Ivana	5
zidla	5
slova	5
firem	5
▁Vlas	5
▁sati	5
▁Inde	5
Ostra	5
Pavla	5
▁Praz	5
povin	5
nemoc	5
▁Sled	5
pobyt	5
▁kaza	5
prost	5
Vyber	5
ledna	5
verzi	5
dubna	5
stovi	5
▁lich	5
inzer	5
dotaz	5
titul	5
hanem	5
sekce	5
▁Jaku	5
nikdy	5
slovo	5
ervis	5
cyklo	5
ervna	5
komat	5
Draho	5
barvy	5
ulice	5
agyar	5
oldal	5
almaz	5
▁alap	5
ilyen	5
etlen	5
olyan	5
vezet	5
anyag	5
almas	5
ezett	5
ozott	5
leszt	5
▁akik	5
ennyi	5
egyen	5
ekben	5
okkal	5
leges	5
emelt	5
esebb	5
etett	5
okban	5
atban	5
orvos	5
szolg	5
elent	5
telen	5
▁nyil	5
iskol	5
ismer	5
hatja	5
▁kics	5
illag	5
elmet	5
ogyan	5
talan	5
vonal	5
kalom	5
szint	5
szaki	5
egyed	5
oldog	5
szoba	5
▁gomb	5
Nincs	5
▁Alap	5
orban	5
ipari	5
▁hird	5
oglal	5
akran	5
osabb	5
▁elej	5
hatsz	5
akkor	5
izmus	5
Anyag	5
olvas	5
iszta	5
astag	5
lagos	5
idesz	5
anyol	5
latok	5
▁idei	5
Keres	5
lapot	5
magas	5
abban	5
▁Ezek	5
elyik	5
egyei	5
▁vett	5
atott	5
eleti	5
utass	5
helyi	5
issza	5
szich	5
ezked	5
szent	5
iztos	5
▁Igaz	5
edves	5
▁enyh	5
▁adja	5
▁akit	5
Tiszt	5
oltak	5
munka	5
▁havi	5
▁becs	5
lemez	5
▁terv	5
szert	5
ajnos	5
oltam	5
etben	5
onnal	5
▁leny	5
nincs	5
tiszt	5
telep	5
Nyelv	5
annyi	5
vissz	5
Oldal	5
emben	5
doboz	5
omogy	5
aradt	5
▁Szék	5
nyelv	5
ormál	5
ezeti	5
kezik	5
csill	5
kelte	5
hossz	5
egyes	5
kinek	5
angol	5
Hossz	5
esett	5
cukor	5
▁Foly	5
letek	5
terem	5
Mivel	5
gyors	5
csere	5
▁Erre	5
Ennek	5
Friss	5
helye	5
▁Nyom	5
alkot	5
Ismer	5
szett	5
napos	5
etnek	5
tette	5
beteg	5
Szent	5
onyos	5
▁bels	5
Magas	5
megye	5
dalom	5
Iskol	5
latos	5
Lehet	5
Mikor	5
Ebben	5
jelen	5
extil	5
orosz	5
▁Bács	5
kelet	5
Eddig	5
Vissz	5
Ugyan	5
keret	5
Olyan	5
Ehhez	5
letet	5
kulcs	5
nehez	5
barna	5
friss	5
Munka	5
avics	5
kerek	5
mutat	5
iroda	5
Arany	5
Üzlet	5
Ezzel	5
marad	5
arany	5
kszer	5
Ilyen	5
ablak	5
ozhat	5
zavar	5
Ahogy	5
Kulcs	5
falva	5
ransz	5
liszt	5
Angol	5
▁lecs	5
meleg	5
Jelen	5
Szoba	5
napja	5
egyik	5
amely	5
Helyi	5
Akkor	5
csúcs	5
miatt	5
csepp	5
piros	5
napok	5
nyira	5
teszt	5
Varga	5
telek	5
Megye	5
zenei	5
eddig	5
Isten	5
Piros	5
lehet	5
iteli	5
Egyes	5
szerv	5
nyolc	5
Sokan	5
eszik	5
Egyre	5
gyull	5
Annak	5
hideg	5
vizes	5
elsea	5
ennek	5
pesti	5
senek	5
Kerek	5
elyek	5
olasz	5
annak	5
letve	5
milli	5
apont	5
szerk	5
napon	5
gomba	5
vizet	5
hetes	5
kutya	5
Takar	5
▁mikr	5
poszt	5
siker	5
Balog	5
ahogy	5
Tisza	5
napot	5
utott	5
▁rong	5
▁teng	5
futam	5
landi	5
elhet	5
minta	5
menny	5
Zenei	5
vonat	5
addig	5
Ablak	5
▁thai	5
zardo	5
laszt	5
illat	5
Ekkor	5
csoda	5
mivel	5
▁csin	5
hetne	5
Iroda	5
Homok	5
nevet	5
banki	5
kamat	5
lapos	5
rossz	5
Zsolt	5
ekkor	5
termi	5
lelki	5
tagok	5
Gyula	5
ehhez	5
homok	5
Csere	5
gyeng	5
sarok	5
Megsz	5
ideje	5
aszon	5
hamis	5
ugyan	5
Pesti	5
felel	5
nekem	5
repet	5
pamut	5
Budai	5
mikor	5
konyh	5
▁mest	5
kifej	5
ethet	5
katon	5
anics	5
szept	5
magam	5
▁hong	5
Antal	5
szere	5
csend	5
felad	5
folyt	5
itott	5
kezel	5
kedve	5
tanul	5
Helye	5
omoly	5
tehet	5
szoci	5
plusz	5
Labda	5
tudom	5
Csaba	5
Konyh	5
apott	5
tudat	5
szebb	5
Beton	5
lampa	5
Lajos	5
igazi	5
hamar	5
Nagyk	5
divat	5
xture	5
xtrac	5
CCCCC	5
idene	5
benzo	5
ilica	5
CCOCC	5
lowed	5
ClCCl	5
pyrim	5
bined	5
furan	5
▁outl	5
timal	5
ccncc	5
cccnc	5
indol	5
nitro	5
CCNCC	5
COCCO	5
cipit	5
yloxy	5
icarb	5
aphth	5
cyano	5
pyrid	5
NCCCN	5
ccccn	5
dehyd	5
CCCCO	5
ncccc	5
pyran	5
CCCCN	5
silyl	5
CCCNC	5
penta	5
COCCN	5
spiro	5
hexyl	5
imino	5
EtOAc	5
dioxo	5
OCCCC	5
indly	5
▁CCCN	5
hloro	5
CCCCc	5
OCCOC	5
cnccc	5
CCCOc	5
CCCOC	5
admap	5
hexan	5
enoic	5
CCSCC	5
OCCCN	5
decan	5
▁CCNC	5
CNCCN	5
purin	5
▁hexa	5
octan	5
itric	5
ncccn	5
nccnc	5
oride	5
azino	5
CCOCn	5
dioxa	5
carbo	5
arify	5
COCCC	5
diaza	5
CNCCC	5
cnccn	5
OCCOc	5
CCOCc	5
enoxy	5
COCOc	5
aceto	5
CCCCn	5
CCCNc	5
sulfo	5
methy	5
▁nitr	5
ridin	5
diazo	5
sulph	5
pheno	5
trate	5
brine	5
vacuo	5
Royce	5
▁dana	5
gleda	5
vanje	5
vanja	5
jedni	5
▁nisu	5
Kurir	5
snost	5
Vesti	5
Danas	5
▁neta	5
vanju	5
Posle	5
njima	5
▁niko	5
Prema	5
nskog	5
▁putu	5
Nakon	5
Izvor	5
nskih	5
Tekst	5
jskih	5
▁ljud	5
▁ovim	5
nskim	5
jskog	5
▁osim	5
njena	5
Mondo	5
▁opet	5
tivni	5
nskom	5
sedam	5
vljen	5
Znate	5
njeno	5
rname	5
jskim	5
prije	5
▁upla	5
jskom	5
druga	5
podne	5
dnjih	5
Vreme	5
▁pute	5
nskoj	5
jskoj	5
Tokom	5
ekuje	5
Posla	5
prili	5
njene	5
druge	5
Pored	5
Vlada	5
rstva	5
▁posa	5
mesto	5
grada	5
▁ured	5
rskog	5
▁nika	5
novog	5
vodno	5
dosta	5
Marko	5
pitan	5
▁Napo	5
novom	5
Goran	5
Svaki	5
rstvo	5
danas	5
vlada	5
Zoran	5
vojim	5
Gospo	5
▁Foru	5
novim	5
▁peta	5
kloni	5
veoma	5
nasta	5
obila	5
kovid	5
Petro	5
preko	5
vojio	5
dalje	5
sutra	5
sveta	5
otect	5
joker	5
gclub	5
mafia	5
accar	5
▁fifa	5
▁Baht	5
royal	5
thong	5
fabet	5
▁Khun	5
Plaza	5
Joker	5
▁Cang	5
Forex	5
phong	5
ASEAN	5
Mazda	5
▁cũng	5
▁theo	5
▁bằng	5
▁kinh	5
▁bóng	5
▁tham	5
▁nhau	5
▁rằng	5
▁dựng	5
▁thay	5
▁tổng	5
▁danh	5
▁hãng	5
Trong	5
▁Tổng	5
▁tặng	5
▁thao	5
▁nhằm	5
▁bánh	5
▁Ninh	5
▁nguy	5
▁lĩnh	5
▁ngon	5
▁Nẵng	5
▁linh	5
▁lãnh	5
▁nhựa	5
Trang	5
▁Linh	5
nload	5
▁Kinh	5
▁nhấn	5
▁Hưng	5
▁cứng	5
▁ninh	5
▁mừng	5
▁Vinh	5
▁vững	5
▁Vĩnh	5
▁cổng	5
▁băng	5
▁Tỉnh	5
▁lưng	5
▁ương	5
▁binh	5
▁thôn	5
▁dinh	5
▁dừng	5
▁rừng	5
Thanh	5
▁bụng	5
▁tĩnh	5
▁xăng	5
▁phun	5
▁sánh	5
▁Dũng	5
▁Danh	5
▁Đang	5
▁Bằng	5
▁canh	5
▁mỏng	5
▁vang	5
▁Cổng	5
▁Tăng	5
Tương	5
▁Vũng	5
▁Tĩnh	5
▁Xanh	5
▁khoe	5
▁Ngay	5
▁bong	5
▁Bóng	5
▁Cung	5
eview	5
▁lãng	5
▁Tinh	5
trang	5
▁xứng	5
▁thun	5
▁nhan	5
▁Hãng	5
▁hằng	5
▁lỏng	5
▁Hằng	5
▁móng	5
▁bỏng	5
▁bổng	5
ường	5
▁Cũng	5
thanh	5
▁Năng	5
▁nhẫn	5
▁giam	5
▁lặng	5
Phong	5
▁ngón	5
▁CMND	5
▁vĩnh	5
▁hinh	5
▁Bánh	5
▁nhăn	5
aigon	5
▁Băng	5
▁Lãnh	5
▁ngợi	5
▁cưng	5
▁nhà	5
▁Lĩnh	5
▁quái	5
▁MINH	5
▁chay	5
▁nhấp	5
▁SINH	5
▁rụng	5
▁gừng	5
▁dang	5
ượng	5
▁khôn	5
▁lanh	5
▁Zing	5
▁Canh	5
▁hoãn	5
▁KQXS	5
▁sưng	5
quang	5
▁nhắm	5
trung	5
▁gánh	5
▁nhờn	5
▁nhớt	5
Doanh	5
▁choi	5
▁QUAN	5
▁nhac	5
▁Binh	5
▁Oanh	5
▁nẵng	5
hoang	5
Hương	5
▁vựng	5
Chung	5
▁Lăng	5
những	5
duong	5
▁nhặt	5
▁dũng	5
Quang	5
▁truc	5
Tranh	5
doanh	5
▁thì	5
▁CNTT	5
▁Vang	5
▁banh	5
Lương	5
TTXVN	5
▁toan	5
tương	5
▁KINH	5
▁tụng	5
▁Vịnh	5
▁NHẬT	5
▁Dựng	5
▁Cánh	5
▁Dinh	5
▁ghen	5
▁bừng	5
▁hanh	5
nTổng	5
▁Tịnh	5
▁Xinh	5
▁ranh	5
▁xsmb	5
Khung	5
▁chôn	5
▁sừng	5
▁quoc	5
thang	5
▁TÍNH	5
pearl	5
▁Thôn	5
chinh	5
nhanh	5
▁nhẹn	5
▁thoi	5
▁loto	5
▁Ranh	5
▁Mừng	5
Tránh	5
▁Từng	5
▁lừng	5
thiet	5
▁thị	5
▁ảnh	5
▁nhấc	5
▁Sóng	5
▁LẠNH	5
khong	5
tranh	5
▁TỈNH	5
▁hăng	5
huong	5
▁XANH	5
▁sanh	5
▁Xung	5
Chẳng	5
▁Xăng	5
▁ngoc	5
▁tưng	5
▁Lãng	5
TPHCM	5
nhung	5
Thang	5
CHÍNH	5
▁Rừng	5
▁Móng	5
▁duoc	5
▁Manh	5
▁Phun	5
▁LINH	5
▁BỆNH	5
Vương	5
▁NINH	5
▁DANH	5
▁TCVN	5
▁KÍNH	5
tuyen	5
Gương	5
giang	5
Chinh	5
trinh	5
Huỳnh	5
THANH	5
ướng	5
▁TINH	5
▁Doãn	5
▁ngoa	5
▁phụ	5
chong	5
Phóng	5
▁KHẢO	5
khang	5
Giang	5
THÀNH	5
▁vận	5
thoai	5
▁THẢO	5
letic	5
▁chun	5
tieng	5
▁sủng	5
▁VĨNH	5
tphcm	5
Hoang	5
▁kich	5
Trịnh	5
▁Chủ	5
▁Căng	5
Dưỡng	5
▁Vung	5
huyen	5
Tưởng	5
Ebook	5
TRANG	5
khung	5
▁xét	5
khoan	5
▁Khôn	5
Trng	5
huynh	5
chẳng	5
▁Gánh	5
▁ánh	5
ngang	5
Nhung	5
▁khoi	5
thung	5
▁cụng	5
lương	5
truct	5
chanh	5
▁nịnh	5
Trinh	5
Thằng	5
dương	5
▁cơng	5
Khang	5
quanh	5
IELTS	5
Thong	5
▁nhũn	5
Ninja	5
Lexus	5
khổng	5
xưởng	5
Trưng	5
▁howo	5
phanh	5
nhang	5
NHANH	5
DOANH	5
vương	5
khoai	5
trứng	5
xương	5
Thung	5
honda	5
Syria	5
Bình	5
▁nguo	5
phóng	5
trng	5
dưỡng	5
tưởng	5
Phụng	5
▁EVNH	5
▁Niss	5
Khổng	5
Tình	5
Isuzu	5
thẳng	5
sương	5
ngoan	5
chóng	5
osoft	5
▁thie	5
▁nhữn	5
cưỡng	5
sinai	5
chặng	5
▁the	4
▁for	4
▁and	4
turn	4
ring	4
rint	4
lass	4
alue	4
name	4
able	4
ject	4
▁get	4
▁The	4
self	4
▁set	4
ange	4
▁use	4
user	4
from	4
ield	4
mple	4
▁are	4
rent	4
cess	4
▁can	4
data	4
form	4
http	4
text	4
itle	4
read	4
ight	4
file	4
▁out	4
ould	4
oint	4
mage	4
▁app	4
vent	4
ress	4
atic	4
irst	4
list	4
ting	4
vice	4
path	4
▁but	4
thod	4
List	4
test	4
mand	4
mary	4
atch	4
Data	4
onse	4
word	4
rame	4
rite	4
base	4
time	4
ated	4
type	4
▁key	4
Type	4
tain	4
rans	4
line	4
rain	4
thon	4
ther	4
▁has	4
ally	4
▁log	4
tern	4
ions	4
size	4
load	4
cond	4
▁any	4
late	4
inal	4
qual	4
View	4
code	4
▁one	4
arch	4
work	4
rror	4
lace	4
▁run	4
Test	4
roup	4
ract	4
True	4
vert	4
this	4
mail	4
loat	4
Text	4
pect	4
Cont	4
ango	4
ates	4
ader	4
lock	4
ream	4
Time	4
mpty	4
ound	4
main	4
ices	4
rect	4
ning	4
core	4
ents	4
▁try	4
ense	4
back	4
abel	4
▁row	4
duct	4
init	4
▁dif	4
cept	4
ride	4
gram	4
▁two	4
html	4
move	4
▁was	4
ines	4
view	4
plot	4
ible	4
dict	4
User	4
args	4
roll	4
temp	4
idth	4
item	4
ateg	4
ater	4
lose	4
Item	4
cont	4
▁let	4
uble	4
oken	4
reak	4
uild	4
ider	4
port	4
osit	4
cord	4
Form	4
▁act	4
imum	4
fter	4
lete	4
▁org	4
iven	4
json	4
lick	4
vide	4
raph	4
comp	4
lear	4
ical	4
nect	4
Path	4
Node	4
sole	4
▁its	4
▁sys	4
ures	4
umpy	4
with	4
ower	4
ween	4
char	4
ache	4
find	4
ular	4
Date	4
Info	4
Code	4
fore	4
▁dec	4
node	4
Hand	4
pper	4
ends	4
ctor	4
Line	4
▁may	4
sert	4
soft	4
sign	4
imit	4
very	4
Over	4
next	4
join	4
ious	4
icro	4
rice	4
▁don	4
ware	4
This	4
tect	4
info	4
ster	4
func	4
▁map	4
ding	4
left	4
ypes	4
▁see	4
else	4
imal	4
page	4
Base	4
open	4
angu	4
root	4
Char	4
ched	4
ches	4
head	4
post	4
flow	4
inue	4
alid	4
None	4
curs	4
ward	4
ters	4
show	4
uple	4
ized	4
▁lay	4
ogle	4
Task	4
icle	4
ient	4
▁arr	4
ency	4
Core	4
Size	4
cale	4
▁off	4
link	4
ince	4
resh	4
book	4
pert	4
With	4
▁net	4
sort	4
Page	4
case	4
▁bin	4
push	4
uted	4
game	4
ever	4
math	4
Json	4
ined	4
only	4
side	4
From	4
over	4
iter	4
down	4
host	4
mark	4
rypt	4
NAME	4
ared	4
ough	4
true	4
cout	4
izer	4
spon	4
last	4
auto	4
orld	4
bits	4
Read	4
ling	4
Null	4
hand	4
ouse	4
ssue	4
sing	4
ants	4
bool	4
leep	4
save	4
part	4
body	4
edia	4
peed	4
ason	4
long	4
orch	4
rand	4
bove	4
less	4
lish	4
asic	4
tact	4
ific	4
java	4
stdc	4
etch	4
dist	4
wise	4
ules	4
ving	4
▁How	4
sets	4
What	4
▁she	4
udio	4
Edit	4
▁lar	4
Http	4
▁bit	4
▁put	4
auth	4
ross	4
call	4
aded	4
unit	4
argv	4
duce	4
send	4
ideo	4
ives	4
ilar	4
ople	4
tree	4
▁say	4
king	4
ixel	4
ways	4
mber	4
▁Use	4
Game	4
Temp	4
miss	4
▁did	4
lack	4
havi	4
keys	4
bose	4
rome	4
Link	4
grid	4
ries	4
Args	4
ails	4
ited	4
itor	4
ists	4
endl	4
ived	4
▁pay	4
home	4
conf	4
cope	4
loud	4
valu	4
▁pos	4
pped	4
mbol	4
rate	4
ired	4
lean	4
rows	4
nums	4
ront	4
medi	4
task	4
ites	4
▁car	4
▁job	4
frac	4
nown	4
imer	4
▁equ	4
▁etc	4
lied	4
▁csv	4
serv	4
▁old	4
Tree	4
span	4
lamb	4
urse	4
Post	4
docs	4
copy	4
card	4
step	4
mean	4
Oper	4
sync	4
stru	4
anel	4
axis	4
▁And	4
▁had	4
pair	4
▁own	4
rong	4
▁Out	4
Mode	4
attr	4
cast	4
utor	4
Call	4
POST	4
anks	4
comm	4
pack	4
Part	4
Unit	4
mine	4
Work	4
▁low	4
▁Dec	4
bind	4
Open	4
Load	4
izes	4
▁won	4
hing	4
LECT	4
urls	4
cret	4
ebug	4
ming	4
ural	4
Hash	4
▁our	4
eded	4
mote	4
Rout	4
draw	4
hash	4
ulti	4
cell	4
byte	4
deta	4
▁clo	4
heet	4
Back	4
Down	4
▁ask	4
▁sug	4
ires	4
Menu	4
When	4
Here	4
▁lon	4
ship	4
Fore	4
make	4
alth	4
lags	4
▁adj	4
▁Map	4
oper	4
mode	4
Card	4
▁age	4
rary	4
edge	4
raft	4
ieve	4
sqrt	4
▁got	4
year	4
yles	4
lice	4
ntax	4
dump	4
ffic	4
Find	4
uilt	4
rive	4
dius	4
unch	4
drop	4
ysql	4
▁few	4
tric	4
▁far	4
mbed	4
Body	4
exit	4
most	4
ears	4
Host	4
▁his	4
PATH	4
Next	4
rict	4
That	4
lash	4
oney	4
pred	4
Auth	4
otes	4
Word	4
like	4
▁zip	4
Note	4
dest	4
edit	4
Draw	4
used	4
font	4
▁lot	4
▁big	4
pass	4
Enum	4
▁Loc	4
ones	4
Bind	4
sent	4
some	4
weet	4
Grid	4
▁via	4
rest	4
lang	4
llib	4
help	4
stop	4
tach	4
▁isn	4
Book	4
Exec	4
Dist	4
cing	4
Main	4
orig	4
ENSE	4
atio	4
Sign	4
Last	4
mask	4
uint	4
full	4
Sort	4
Cell	4
▁fit	4
oriz	4
fill	4
FILE	4
alog	4
▁Act	4
conn	4
Port	4
JSON	4
lies	4
shot	4
icks	4
▁Any	4
here	4
▁Eng	4
loss	4
loop	4
ares	4
▁red	4
logy	4
uler	4
Left	4
▁lik	4
then	4
blue	4
igma	4
Long	4
blog	4
exec	4
▁lat	4
area	4
iful	4
Icon	4
▁adv	4
menu	4
ools	4
voke	4
loor	4
Util	4
usic	4
Html	4
flag	4
ival	4
Rect	4
icon	4
Pool	4
Some	4
Only	4
Show	4
iver	4
Root	4
pose	4
ison	4
USER	4
HERE	4
Head	4
tion	4
Feat	4
room	4
play	4
diff	4
osed	4
boot	4
Save	4
ount	4
Mock	4
Role	4
ando	4
Auto	4
NULL	4
ying	4
Your	4
▁yet	4
zone	4
vari	4
cost	4
Func	4
zero	4
wrap	4
abet	4
ised	4
real	4
Iter	4
pace	4
ured	4
Mark	4
poch	4
mock	4
▁win	4
gree	4
lide	4
ders	4
tags	4
lers	4
maxn	4
land	4
irth	4
Move	4
cise	4
Area	4
▁ali	4
inux	4
otor	4
SIZE	4
spec	4
Each	4
just	4
DATE	4
ocus	4
illa	4
elif	4
Many	4
HTTP	4
MAIL	4
Rule	4
seed	4
reed	4
Keys	4
Fact	4
HTML	4
▁cat	4
Then	4
Play	4
yper	4
Tool	4
high	4
▁hit	4
Rest	4
rank	4
Full	4
cial	4
Copy	4
Flow	4
Pack	4
Span	4
▁sal	4
city	4
Pair	4
Math	4
ords	4
Font	4
ouch	4
conv	4
addr	4
Send	4
TIES	4
lour	4
▁her	4
aker	4
Step	4
ocab	4
chan	4
▁air	4
pool	4
oice	4
what	4
Does	4
CADE	4
team	4
▁him	4
WORD	4
plan	4
Help	4
Lock	4
Rate	4
note	4
▁cut	4
TYPE	4
ropy	4
▁pad	4
iate	4
ixed	4
rove	4
Home	4
hist	4
ands	4
days	4
cade	4
Spec	4
omin	4
illi	4
▁pat	4
echo	4
safe	4
Edge	4
cols	4
aled	4
park	4
norm	4
best	4
DATA	4
stit	4
Bean	4
prev	4
logs	4
Also	4
Guid	4
TEST	4
expr	4
vals	4
desc	4
ores	4
pick	4
ilon	4
news	4
clus	4
more	4
EDIT	4
chat	4
▁yes	4
tran	4
clip	4
look	4
fort	4
hook	4
Java	4
role	4
sure	4
tool	4
▁seq	4
term	4
Conf	4
atis	4
fast	4
▁bus	4
Supp	4
peat	4
igen	4
Drop	4
▁btn	4
PORT	4
Join	4
▁alt	4
blob	4
gres	4
chor	4
Year	4
prop	4
▁rec	4
▁beh	4
done	4
Init	4
gray	4
ruit	4
uuid	4
Meta	4
sess	4
▁Art	4
SERT	4
free	4
ball	4
▁dev	4
beta	4
scal	4
atar	4
href	4
fire	4
TIME	4
otos	4
curr	4
your	4
eval	4
swer	4
uses	4
acle	4
ases	4
each	4
Scal	4
inst	4
when	4
vest	4
▁ful	4
demo	4
inct	4
Look	4
slug	4
PASS	4
coin	4
Plan	4
rule	4
▁txt	4
feed	4
cart	4
INFO	4
stat	4
reet	4
ndef	4
▁tax	4
ides	4
many	4
bers	4
Stop	4
stra	4
haps	4
ably	4
▁buy	4
Make	4
Pass	4
oman	4
grad	4
freq	4
Fail	4
lone	4
itch	4
ners	4
avai	4
Room	4
fail	4
fact	4
emon	4
yaml	4
that	4
tech	4
star	4
relu	4
▁emp	4
apon	4
road	4
orem	4
mero	4
leet	4
▁sep	4
bash	4
apps	4
cons	4
Cart	4
GPIO	4
Chat	4
Team	4
good	4
maps	4
akes	4
aste	4
rics	4
scan	4
Rows	4
repo	4
hold	4
erge	4
ages	4
recv	4
mesh	4
fold	4
MAXN	4
Mesh	4
repr	4
writ	4
Plot	4
▁pen	4
rams	4
Exit	4
Zero	4
Face	4
msdn	4
week	4
inte	4
Flag	4
▁men	4
tick	4
▁Mar	4
ongs	4
Tile	4
mous	4
prod	4
rack	4
even	4
heel	4
unct	4
anic	4
Cost	4
ajax	4
Sync	4
▁May	4
sect	4
hood	4
quit	4
ught	4
Just	4
wall	4
hour	4
Conn	4
Side	4
rust	4
male	4
Loop	4
TEXT	4
jack	4
ROOT	4
outh	4
prob	4
BASE	4
shop	4
atom	4
▁Job	4
swap	4
Push	4
More	4
istr	4
into	4
sock	4
erve	4
cour	4
lint	4
Demo	4
skip	4
Tags	4
City	4
mult	4
Vert	4
roke	4
arth	4
foot	4
Done	4
Axis	4
cdot	4
proc	4
iece	4
High	4
Cons	4
xxxx	4
gers	4
Fire	4
obot	4
rend	4
same	4
▁UTF	4
ards	4
Real	4
vars	4
Mask	4
Keep	4
lope	4
FROM	4
Slot	4
elem	4
glob	4
circ	4
tile	4
trim	4
Good	4
Arch	4
Self	4
Blue	4
axes	4
cuda	4
aaaa	4
rist	4
walk	4
cker	4
rown	4
iced	4
food	4
deep	4
Diff	4
Repo	4
ints	4
LIST	4
ried	4
iris	4
urer	4
jobs	4
amer	4
vect	4
▁Win	4
▁avg	4
▁css	4
pell	4
rote	4
ulse	4
amar	4
vity	4
CODE	4
Conv	4
spot	4
Have	4
orph	4
Ctrl	4
atal	4
prec	4
tell	4
lazy	4
soup	4
Desc	4
live	4
quad	4
orry	4
reme	4
kind	4
Fill	4
▁six	4
coef	4
▁inc	4
▁ssh	4
hide	4
▁aff	4
orse	4
hape	4
bank	4
inja	4
oked	4
Free	4
uest	4
Scan	4
Term	4
Bool	4
eper	4
onom	4
ping	4
udge	4
pear	4
band	4
pipe	4
opts	4
tein	4
Pane	4
slot	4
▁uid	4
lets	4
logo	4
inet	4
flat	4
Once	4
keep	4
Blog	4
song	4
Clip	4
Stat	4
Week	4
▁TCP	4
uber	4
four	4
dims	4
lood	4
Take	4
▁uni	4
libs	4
disp	4
flex	4
yyyy	4
Trim	4
wind	4
▁gas	4
bold	4
rink	4
cert	4
dian	4
ALSE	4
chen	4
Cast	4
amos	4
endo	4
▁inp	4
▁sun	4
INET	4
News	4
ente	4
tele	4
puts	4
Turn	4
tikz	4
▁ran	4
agic	4
mass	4
verb	4
HEAD	4
does	4
sell	4
dark	4
▁pet	4
Pick	4
▁sit	4
▁saw	4
▁ill	4
mega	4
oted	4
hard	4
ista	4
arse	4
ceil	4
NESS	4
take	4
AAAA	4
Like	4
Even	4
oker	4
need	4
ruby	4
Tele	4
bert	4
Shop	4
▁eat	4
Same	4
Addr	4
Boot	4
iant	4
camp	4
flip	4
sume	4
PIPE	4
sser	4
▁eng	4
alan	4
trip	4
half	4
Best	4
nbsp	4
Prop	4
dden	4
John	4
Most	4
elen	4
aren	4
Bank	4
bill	4
ians	4
Loss	4
heat	4
Hope	4
bins	4
wave	4
fake	4
disk	4
Mean	4
have	4
lush	4
ylim	4
Hist	4
bean	4
well	4
ored	4
pres	4
goal	4
imag	4
rada	4
Used	4
▁eff	4
fall	4
also	4
oton	4
Will	4
leaf	4
PLAY	4
Live	4
iest	4
supp	4
bias	4
will	4
ican	4
▁She	4
▁tip	4
orer	4
xlim	4
aria	4
enty	4
quid	4
TODO	4
Bits	4
sers	4
Cent	4
pher	4
perm	4
Than	4
Shar	4
Disp	4
Well	4
race	4
UInt	4
aint	4
Tube	4
Safe	4
east	4
pend	4
Fold	4
fish	4
appy	4
▁vac	4
curl	4
oned	4
reat	4
Star	4
▁led	4
Tech	4
avid	4
smtp	4
seek	4
Norm	4
proj	4
ARGS	4
They	4
deck	4
COMP	4
stem	4
airs	4
Wrap	4
once	4
omen	4
dots	4
Food	4
▁eye	4
oral	4
deli	4
both	4
▁UTC	4
Plus	4
hero	4
bone	4
stor	4
Hint	4
eras	4
Soft	4
warn	4
enda	4
rill	4
Hide	4
ened	4
ilit	4
dead	4
adas	4
enta	4
ento	4
gene	4
▁rng	4
cube	4
came	4
beat	4
▁lic	4
rees	4
Fast	4
ames	4
cars	4
life	4
such	4
Skip	4
capt	4
Wall	4
Emit	4
imes	4
quot	4
memo	4
crop	4
west	4
rout	4
Both	4
lege	4
aman	4
Must	4
ergy	4
prog	4
seen	4
Expr	4
than	4
auge	4
▁bio	4
pull	4
gold	4
bang	4
Atom	4
jump	4
Such	4
▁oil	4
ilib	4
easy	4
Pipe	4
Bill	4
aser	4
iral	4
rich	4
drag	4
Inst	4
▁obs	4
ille	4
Camp	4
ased	4
▁mov	4
umin	4
rado	4
priv	4
rial	4
blit	4
Prod	4
adam	4
iner	4
bars	4
▁rob	4
lore	4
Trip	4
Song	4
spam	4
onic	4
lica	4
aken	4
▁eth	4
mint	4
five	4
past	4
goto	4
olid	4
rant	4
uary	4
Ball	4
Ship	4
Pres	4
izen	4
anim	4
Life	4
love	4
▁kit	4
misc	4
rock	4
diag	4
geom	4
Need	4
▁pdb	4
irus	4
okes	4
onal	4
berg	4
wide	4
deal	4
▁iss	4
onto	4
▁Rob	4
bbox	4
ulas	4
ReLU	4
▁ped	4
▁sat	4
eled	4
Hard	4
care	4
door	4
bird	4
aked	4
earn	4
Dark	4
sale	4
Four	4
spin	4
pref	4
Poly	4
mind	4
▁hyd	4
▁deb	4
peak	4
WITH	4
Anim	4
perl	4
slow	4
▁Bob	4
mann	4
orna	4
Wave	4
▁gym	4
oter	4
want	4
Lang	4
Roll	4
appe	4
arts	4
prom	4
allo	4
ajor	4
stic	4
Jump	4
must	4
Writ	4
zing	4
Coin	4
Proc	4
chem	4
alph	4
salt	4
cean	4
azor	4
Cube	4
tice	4
rise	4
Deck	4
wood	4
NOTE	4
pret	4
cand	4
inic	4
Sock	4
gate	4
fram	4
comb	4
runs	4
fund	4
ruck	4
FONT	4
cher	4
Mass	4
ades	4
grey	4
▁Feb	4
indo	4
Cert	4
gets	4
cmap	4
▁cup	4
cies	4
▁lem	4
Sale	4
rian	4
gain	4
ibly	4
ffer	4
Gest	4
Easy	4
▁cyl	4
fuel	4
Capt	4
ctan	4
amin	4
peer	4
urch	4
▁bow	4
Deep	4
▁Sep	4
Adam	4
Unix	4
outs	4
Fund	4
Elem	4
they	4
▁bul	4
ugar	4
Gray	4
▁tap	4
nick	4
▁fla	4
amel	4
empt	4
Apps	4
▁Aug	4
Freq	4
sums	4
hang	4
resa	4
cool	4
Land	4
away	4
Hold	4
▁nut	4
Cond	4
icol	4
atan	4
alic	4
lite	4
Priv	4
buff	4
Jack	4
▁vet	4
cake	4
▁exe	4
ager	4
talk	4
hene	4
▁tie	4
asis	4
▁rat	4
exam	4
ocal	4
inel	4
grow	4
atex	4
upid	4
osis	4
AUTO	4
trie	4
hole	4
reek	4
inds	4
ivil	4
made	4
Thus	4
Flat	4
rast	4
anga	4
itud	4
near	4
mate	4
cash	4
poss	4
coll	4
Uint	4
▁lif	4
amon	4
ober	4
▁dao	4
Fall	4
Serv	4
LSTM	4
driv	4
gent	4
weak	4
unda	4
▁Did	4
paid	4
Exam	4
Sqrt	4
Prep	4
iger	4
loan	4
asta	4
isco	4
inar	4
tiny	4
alia	4
Prom	4
wine	4
scre	4
give	4
flux	4
Gold	4
zier	4
Half	4
iche	4
aton	4
amzn	4
seat	4
mits	4
ford	4
subs	4
▁god	4
seud	4
ndim	4
▁Sky	4
anto	4
Prev	4
ivel	4
▁egg	4
lead	4
mach	4
lich	4
mino	4
cite	4
mell	4
adin	4
▁san	4
orge	4
▁flu	4
▁Ill	4
libr	4
Alex	4
ully	4
Talk	4
DROP	4
Park	4
Gram	4
film	4
Gets	4
ided	4
Skin	4
omas	4
oise	4
▁Ham	4
Wind	4
bulk	4
Flex	4
know	4
ogen	4
Care	4
luck	4
wich	4
beam	4
cook	4
Gene	4
Give	4
arms	4
Ring	4
▁NEW	4
labe	4
lens	4
heng	4
Rock	4
▁Jul	4
Rich	4
rity	4
▁sid	4
cust	4
Spin	4
shif	4
prof	4
snow	4
club	4
▁kid	4
isin	4
esis	4
tour	4
olic	4
desk	4
town	4
doub	4
Five	4
cccc	4
Wiki	4
hern	4
inho	4
Amer	4
uits	4
▁lie	4
elev	4
risk	4
FULL	4
anas	4
utch	4
▁mob	4
uing	4
Quiz	4
Dock	4
oooo	4
▁jet	4
plug	4
numb	4
lama	4
lane	4
rane	4
meas	4
oled	4
lene	4
Verb	4
maxi	4
mono	4
anie	4
bell	4
▁tom	4
dept	4
fair	4
Cash	4
▁pit	4
lade	4
cles	4
▁His	4
disc	4
wing	4
traj	4
mill	4
Quad	4
▁axs	4
pars	4
anti	4
▁lap	4
vare	4
rael	4
virt	4
Chan	4
Buff	4
idea	4
▁jud	4
Rand	4
born	4
meet	4
rost	4
skin	4
▁Jun	4
King	4
hort	4
Warn	4
nltk	4
nine	4
zeta	4
sear	4
Pred	4
Prob	4
ativ	4
irty	4
West	4
▁utc	4
idge	4
Sche	4
warm	4
haar	4
gear	4
sand	4
Hack	4
chip	4
meal	4
surf	4
rica	4
iden	4
Grab	4
bear	4
cyan	4
uris	4
bbbb	4
esse	4
▁nat	4
rior	4
aris	4
Road	4
uren	4
enth	4
lost	4
erto	4
Beta	4
yout	4
wifi	4
▁agg	4
grat	4
tens	4
Proj	4
wild	4
▁apo	4
Ware	4
spro	4
Cand	4
nice	4
fine	4
leap	4
Comm	4
Memo	4
JOIN	4
sper	4
mall	4
apid	4
asty	4
phot	4
ubic	4
coco	4
synt	4
▁sad	4
▁kon	4
rage	4
summ	4
erce	4
ston	4
▁ben	4
iber	4
argc	4
Very	4
pple	4
stan	4
Miss	4
oric	4
▁beg	4
mile	4
STEP	4
edis	4
mbox	4
semi	4
Tank	4
amed	4
adic	4
▁Nov	4
simp	4
phon	4
▁cog	4
Rain	4
stro	4
oron	4
Nick	4
meth	4
moon	4
pand	4
elve	4
uran	4
anno	4
ften	4
filt	4
otic	4
samp	4
pink	4
igne	4
ifty	4
Vari	4
atos	4
▁imm	4
phys	4
▁inn	4
▁Apr	4
Fort	4
rick	4
beer	4
hair	4
lift	4
Weak	4
▁dyn	4
wish	4
rama	4
▁nod	4
prov	4
▁tea	4
Sing	4
rena	4
onna	4
MIME	4
rail	4
nano	4
iron	4
tone	4
pmod	4
Pure	4
Club	4
nova	4
ardo	4
isse	4
kick	4
zers	4
auty	4
tune	4
uniq	4
ifer	4
perc	4
alon	4
olen	4
East	4
cate	4
wick	4
nost	4
omer	4
oris	4
lots	4
aron	4
Okay	4
arta	4
pers	4
astr	4
oria	4
mite	4
Prog	4
▁tin	4
Chem	4
▁Far	4
Coll	4
nary	4
▁glu	4
ectl	4
nore	4
alls	4
cong	4
trap	4
bolt	4
poke	4
apor	4
usal	4
Cool	4
hips	4
iten	4
eref	4
isal	4
eria	4
sson	4
lord	4
iros	4
imen	4
dogs	4
Plug	4
farm	4
Dial	4
Heat	4
pane	4
rose	4
duty	4
ains	4
orum	4
Grad	4
THIS	4
rake	4
rish	4
tank	4
ushi	4
aram	4
Risk	4
inda	4
roxy	4
drug	4
rone	4
Slim	4
dish	4
Ther	4
corn	4
arab	4
sass	4
happ	4
repl	4
▁fur	4
Mart	4
pole	4
grap	4
ania	4
uper	4
sold	4
Perm	4
Dept	4
phan	4
Cant	4
colo	4
Wild	4
ashi	4
rade	4
inch	4
▁Hyd	4
pine	4
much	4
oute	4
Made	4
opin	4
enna	4
Argb	4
prox	4
▁nex	4
inde	4
mont	4
dddd	4
bond	4
idel	4
Decl	4
etry	4
alis	4
hope	4
jest	4
ease	4
dual	4
tron	4
plat	4
lena	4
Scor	4
Tour	4
acha	4
Scre	4
nose	4
euro	4
Migr	4
trig	4
baby	4
enne	4
amic	4
goog	4
isto	4
isch	4
iped	4
CCCC	4
sten	4
held	4
▁tic	4
pent	4
insp	4
▁Doe	4
olin	4
asts	4
reps	4
Ease	4
cave	4
▁ted	4
MMMM	4
dock	4
indi	4
ulls	4
sequ	4
June	4
emin	4
Synt	4
Mike	4
▁Mob	4
coor	4
Stra	4
stim	4
subj	4
pest	4
quir	4
stab	4
ssss	4
inos	4
kern	4
milk	4
aten	4
July	4
hill	4
eden	4
hull	4
inta	4
Tell	4
stay	4
intl	4
orea	4
shar	4
trac	4
Curr	4
inas	4
mond	4
bble	4
Moon	4
acks	4
gift	4
Chip	4
andy	4
vard	4
boto	4
oshi	4
pict	4
Mars	4
Wifi	4
offs	4
eric	4
isan	4
omic	4
ered	4
olog	4
visa	4
▁ate	4
pile	4
thin	4
issa	4
boat	4
cola	4
thia	4
lina	4
illo	4
▁aug	4
spar	4
▁aud	4
▁dam	4
rons	4
atel	4
cold	4
clas	4
Cust	4
vere	4
shel	4
pite	4
ssen	4
▁joy	4
skew	4
asin	4
Mind	4
mitt	4
tube	4
irds	4
coup	4
Corn	4
brid	4
Mate	4
ebra	4
Desk	4
heme	4
Nano	4
dent	4
Pole	4
clim	4
Paul	4
iper	4
prot	4
chap	4
Hang	4
dong	4
Ford	4
rine	4
olis	4
Prof	4
uent	4
ctic	4
Phys	4
getC	4
▁Joe	4
Dual	4
helm	4
eman	4
Jane	4
arin	4
Mary	4
cros	4
lapp	4
▁Tet	4
Mana	4
affe	4
mong	4
▁jun	4
them	4
Glob	4
bath	4
▁sle	4
Hell	4
feet	4
andl	4
hall	4
awai	4
abol	4
cele	4
phen	4
rude	4
lion	4
▁imb	4
wear	4
indu	4
▁sir	4
expo	4
atra	4
hbox	4
lamp	4
airy	4
Bike	4
iste	4
erva	4
dies	4
iene	4
isma	4
bmod	4
quat	4
OOOO	4
abba	4
Love	4
Iron	4
yped	4
adds	4
bare	4
ardi	4
mist	4
Sans	4
Reco	4
agas	4
Geom	4
iona	4
huge	4
Appe	4
Hall	4
graf	4
feel	4
lisp	4
udes	4
imeo	4
Asia	4
heim	4
zens	4
cone	4
▁thr	4
erro	4
cafe	4
yard	4
MATH	4
nica	4
LOOK	4
cups	4
ties	4
mant	4
bigg	4
chai	4
▁nao	4
dust	4
novo	4
symp	4
leng	4
Sand	4
pton	4
▁orb	4
dial	4
Vect	4
knot	4
thus	4
acid	4
rett	4
sons	4
ulin	4
hend	4
arel	4
Cook	4
pens	4
Wood	4
fran	4
cock	4
▁dra	4
tqdm	4
junk	4
been	4
succ	4
RANT	4
gens	4
Clar	4
zech	4
thal	4
odon	4
iary	4
Diag	4
anya	4
▁jer	4
wort	4
Bang	4
onge	4
clin	4
till	4
▁laz	4
tang	4
delt	4
quan	4
elec	4
memb	4
asks	4
achi	4
unic	4
oval	4
viet	4
hate	4
ncol	4
BBBB	4
iota	4
hong	4
rays	4
igan	4
inth	4
crew	4
Gran	4
rach	4
abot	4
atie	4
Late	4
shit	4
Pers	4
raid	4
Bond	4
▁tub	4
Grey	4
Tran	4
dere	4
mith	4
golf	4
slic	4
ioni	4
iang	4
dera	4
igar	4
tera	4
eren	4
gall	4
uden	4
Mont	4
litz	4
IEEE	4
deco	4
Mess	4
uate	4
ktor	4
vary	4
ichi	4
acts	4
kids	4
hail	4
orce	4
apos	4
okay	4
▁sli	4
Know	4
aran	4
kept	4
Rose	4
arry	4
akra	4
isha	4
gang	4
hydr	4
cano	4
sine	4
uous	4
▁phy	4
dana	4
lett	4
Prim	4
Shel	4
arks	4
lomb	4
Trig	4
taxi	4
Envi	4
crow	4
worm	4
getP	4
bart	4
univ	4
getc	4
rass	4
rope	4
anta	4
matt	4
tall	4
Mint	4
goes	4
atin	4
horn	4
oust	4
mast	4
Phot	4
inen	4
meat	4
mpar	4
▁Imm	4
Lake	4
magn	4
soci	4
usto	4
ATTA	4
tent	4
Plat	4
nump	4
Alph	4
bran	4
migr	4
ANSI	4
utas	4
atre	4
Ivan	4
phin	4
coil	4
Ever	4
Mill	4
inha	4
chos	4
getS	4
leri	4
▁jan	4
Baby	4
chin	4
Vers	4
este	4
lian	4
adde	4
Fran	4
ande	4
halo	4
hhhh	4
Doub	4
emer	4
Clon	4
shin	4
robe	4
Matt	4
wand	4
Mega	4
rita	4
pric	4
shed	4
Semi	4
York	4
Eric	4
Dear	4
volt	4
uver	4
▁bee	4
alam	4
asse	4
Bert	4
orne	4
olds	4
Cult	4
athe	4
wwww	4
▁ken	4
atta	4
Upon	4
Prov	4
vale	4
anal	4
adel	4
Fred	4
erta	4
soil	4
ptor	4
shap	4
were	4
cosh	4
syst	4
Fair	4
▁bay	4
getF	4
belt	4
padx	4
aret	4
Comb	4
iiii	4
arde	4
Mort	4
SLOT	4
Yeah	4
rops	4
▁dri	4
Chef	4
endi	4
perp	4
▁MAR	4
▁eve	4
prio	4
Jeff	4
Bell	4
KIND	4
figs	4
rous	4
Ange	4
incl	4
anth	4
vine	4
GRAD	4
inom	4
rech	4
rrrr	4
vens	4
ishi	4
tpro	4
blow	4
rano	4
reco	4
THAN	4
▁thy	4
Prot	4
arte	4
rene	4
hose	4
soul	4
Come	4
rami	4
Euro	4
itis	4
mina	4
aden	4
Simp	4
isko	4
urry	4
znam	4
soon	4
▁iii	4
Phil	4
aces	4
thre	4
ribe	4
isel	4
loca	4
acia	4
wash	4
akin	4
hone	4
neck	4
GATE	4
▁jac	4
lins	4
nite	4
said	4
asia	4
getB	4
ATCG	4
beck	4
Warm	4
▁sho	4
poon	4
poor	4
otec	4
Heal	4
oran	4
ubit	4
targ	4
igra	4
ifor	4
Bart	4
efer	4
intf	4
rell	4
Xbox	4
Stan	4
says	4
hart	4
peri	4
buch	4
dime	4
omes	4
sted	4
alta	4
grav	4
hers	4
apot	4
coal	4
sinh	4
cter	4
esch	4
Prec	4
gggg	4
nage	4
nder	4
▁bec	4
clud	4
vern	4
reen	4
tend	4
augh	4
▁wom	4
eral	4
chie	4
oard	4
abor	4
▁veh	4
aced	4
oved	4
ysis	4
emic	4
iple	4
itte	4
nces	4
ples	4
uals	4
ovel	4
enge	4
oday	4
oves	4
sych	4
▁htt	4
vant	4
ture	4
▁Spr	4
▁enh	4
adem	4
ooth	4
▁unc	4
roud	4
ucle	4
nded	4
omet	4
▁tow	4
arsh	4
rete	4
imin	4
tage	4
▁CEO	4
phas	4
liam	4
▁spr	4
gend	4
oles	4
anes	4
opic	4
ghan	4
ucks	4
ygen	4
▁kil	4
azon	4
lder	4
aine	4
othe	4
▁Mrs	4
pled	4
Stud	4
▁shr	4
emet	4
▁ski	4
▁unp	4
Lear	4
uine	4
elta	4
vate	4
owed	4
ethe	4
ntil	4
▁Beh	4
gged	4
▁Nob	4
oche	4
onda	4
▁Rat	4
▁oun	4
Mich	4
enny	4
anka	4
anne	4
emed	4
▁nep	4
▁dys	4
oped	4
glas	4
▁Fab	4
cycl	4
▁Bah	4
lend	4
acco	4
Sept	4
arer	4
onds	4
ibli	4
▁mum	4
mons	4
azed	4
itol	4
stal	4
▁awa	4
arat	4
hatt	4
abul	4
emor	4
ovic	4
Aust	4
boys	4
went	4
ilia	4
Cong	4
ivia	4
acht	4
cled	4
erer	4
rele	4
oors	4
phis	4
uity	4
eton	4
vacy	4
inis	4
oven	4
rors	4
▁gay	4
cult	4
omon	4
brev	4
inea	4
avin	4
eous	4
▁Raf	4
oots	4
elia	4
▁oak	4
▁vic	4
ngth	4
rika	4
urst	4
quin	4
▁eld	4
rawn	4
phal	4
bach	4
Expl	4
olia	4
pler	4
iked	4
rina	4
▁Hob	4
angs	4
ndra	4
▁Liz	4
ovid	4
ondo	4
ovan	4
alli	4
imir	4
kens	4
wife	4
ilic	4
gone	4
gina	4
uant	4
iffe	4
itat	4
▁exh	4
▁Cay	4
Marc	4
uded	4
atri	4
▁Teh	4
▁hug	4
stad	4
Jose	4
feld	4
onso	4
expl	4
aleb	4
ollo	4
atha	4
iage	4
nton	4
felt	4
▁inh	4
▁nov	4
▁owe	4
▁Meh	4
xual	4
thro	4
Ryan	4
▁cob	4
atti	4
laws	4
elin	4
olyn	4
oret	4
eyed	4
opol	4
adia	4
riad	4
furt	4
ulsa	4
harm	4
iens	4
prem	4
▁Enh	4
ISSN	4
angi	4
▁rul	4
aned	4
orde	4
ilis	4
Bake	4
mala	4
deme	4
ooks	4
uced	4
▁Zoe	4
Lord	4
athi	4
▁Ank	4
Carl	4
Brad	4
▁icy	4
▁Dob	4
onte	4
oner	4
rath	4
adal	4
▁Leh	4
Sher	4
akar	4
olla	4
arty	4
Gall	4
osin	4
coat	4
▁tad	4
Luke	4
alin	4
iani	4
baum	4
cium	4
▁Liu	4
xter	4
andi	4
inus	4
Tony	4
arya	4
opor	4
ulla	4
Fans	4
gger	4
omat	4
Hill	4
mere	4
Jess	4
etra	4
publ	4
olor	4
elic	4
Anne	4
isot	4
▁iod	4
fied	4
Anna	4
gart	4
pora	4
aith	4
Iran	4
cous	4
oing	4
acie	4
oine	4
▁Lob	4
arna	4
▁gaz	4
Andy	4
Bern	4
ermo	4
Bene	4
Kate	4
thor	4
Vill	4
riet	4
Sean	4
chol	4
raig	4
arak	4
wald	4
ithe	4
punk	4
rats	4
▁Ern	4
alom	4
hoff	4
iele	4
bern	4
ilin	4
Cher	4
Hung	4
▁pea	4
▁ove	4
▁ppm	4
Arab	4
▁pee	4
ylic	4
Leon	4
arra	4
argo	4
Lind	4
thel	4
chel	4
onen	4
hift	4
Alan	4
arie	4
omma	4
agra	4
Vice	4
bott	4
iena	4
nail	4
▁Miy	4
▁tug	4
erty	4
Holy	4
bent	4
▁Sob	4
undi	4
diam	4
emis	4
Benz	4
died	4
Fest	4
Lady	4
Stir	4
▁Gob	4
Kenn	4
agos	4
chal	4
Cole	4
fell	4
enko	4
ruly	4
inox	4
reve	4
chle	4
fing	4
beth	4
scar	4
Barn	4
anyl	4
Emma	4
benz	4
atia	4
omac	4
itha	4
Prem	4
▁ure	4
erno	4
ansa	4
upon	4
omme	4
luor	4
Beth	4
rese	4
Hart	4
assi	4
Whit	4
acin	4
Kath	4
plin	4
Wolf	4
Cath	4
imar	4
Marg	4
tica	4
alen	4
atro	4
▁AIR	4
clic	4
etal	4
roma	4
ilde	4
wend	4
onne	4
cken	4
carb	4
oxic	4
Dean	4
aras	4
unde	4
▁Reh	4
rith	4
pere	4
Magn	4
Viet	4
assa	4
onta	4
Jake	4
aina	4
tham	4
Beck	4
Cass	4
hara	4
idyl	4
rike	4
hera	4
vast	4
bett	4
hare	4
utto	4
roof	4
rein	4
▁hob	4
uchs	4
eger	4
Dick	4
Sant	4
woke	4
eeze	4
bite	4
otin	4
arti	4
▁tyr	4
eret	4
knee	4
▁vie	4
ucha	4
edly	4
ppen	4
htar	4
lasm	4
situ	4
▁kim	4
onis	4
hear	4
nden	4
Cite	4
Were	4
riff	4
tero	4
epsi	4
rino	4
olon	4
slip	4
arum	4
owna	4
itel	4
rush	4
Sara	4
Duke	4
iese	4
llis	4
rely	4
▁CNC	4
anky	4
▁Anj	4
ikon	4
pray	4
pain	4
etes	4
lesh	4
hung	4
Nash	4
aski	4
inin	4
mese	4
ocha	4
Chen	4
▁Ung	4
Hara	4
dorf	4
bele	4
Yoga	4
Pete	4
unds	4
chia	4
Finn	4
▁Ily	4
sulf	4
ihil	4
terr	4
bere	4
cere	4
hwar	4
Bull	4
KING	4
Merc	4
alfa	4
heer	4
lact	4
werk	4
alke	4
thru	4
idin	4
erne	4
itti	4
atte	4
▁Geh	4
Kirk	4
Lucy	4
dine	4
tors	4
Ster	4
Sony	4
Thor	4
vera	4
nett	4
olit	4
Bass	4
gins	4
▁abl	4
argu	4
nian	4
Golf	4
bowl	4
fors	4
adio	4
cted	4
▁apr	4
irre	4
ithi	4
Lamb	4
sham	4
Mack	4
worn	4
mati	4
ussi	4
ELTS	4
▁Cun	4
Pant	4
webs	4
inne	4
Witt	4
Hans	4
Thai	4
emar	4
icke	4
Cape	4
Karl	4
didn	4
dron	4
itra	4
usch	4
teri	4
ovar	4
holz	4
akos	4
Brig	4
Vern	4
kari	4
rion	4
veni	4
quay	4
onin	4
blad	4
erma	4
vend	4
orra	4
funk	4
Carr	4
Lack	4
mane	4
claw	4
azan	4
Hong	4
Buch	4
imat	4
erna	4
ayla	4
drum	4
oble	4
▁aft	4
spir	4
tegr	4
elow	4
reth	4
hous	4
suff	4
imid	4
▁sis	4
Glas	4
urri	4
tbsp	4
Nord	4
acti	4
inko	4
iges	4
anke	4
Barr	4
Horn	4
Gang	4
Mist	4
lays	4
erem	4
told	4
▁thi	4
bore	4
uito	4
ects	4
Dana	4
brow	4
surv	4
rani	4
▁jul	4
ikos	4
▁Seh	4
uite	4
jung	4
olle	4
ecal	4
lach	4
Mach	4
fted	4
inor	4
pene	4
urin	4
usta	4
epit	4
gast	4
Chap	4
kine	4
laus	4
Seth	4
▁poo	4
Shan	4
slee	4
uchy	4
urea	4
dern	4
Bald	4
ombo	4
quil	4
crim	4
Dell	4
Mari	4
turb	4
bout	4
inan	4
dean	4
arno	4
ridi	4
▁wen	4
fear	4
Twin	4
Shut	4
aree	4
nant	4
tack	4
enor	4
pond	4
echn	4
arge	4
egin	4
mmol	4
SPSS	4
sion	4
▁giv	4
plic	4
ithm	4
grou	4
hich	4
▁loo	4
elds	4
usep	4
ccur	4
sian	4
abla	4
plit	4
pact	4
hile	4
redu	4
emma	4
taff	4
sive	4
tabl	4
ryst	4
acro	4
stac	4
yset	4
gies	4
Answ	4
plac	4
erms	4
warz	4
itex	4
ddot	4
bigl	4
bigr	4
Anal	4
answ	4
lnot	4
xiom	4
odot	4
Bigg	4
isor	4
NaOH	4
dapt	4
onst	4
egel	4
larg	4
econ	4
ielt	4
piro	4
▁Guo	4
mole	4
Lett	4
hren	4
Weil	4
rema	4
Yang	4
SIAM	4
CERN	4
UPAC	4
phic	4
Hopf	4
orms	4
dcds	4
cati	4
wate	4
GMAT	4
Wang	4
CBSE	4
sinc	4
marg	4
lows	4
Acta	4
Weyl	4
▁gsl	4
sthe	4
alks	4
okka	4
Fern	4
cula	4
gral	4
ohex	4
atty	4
arri	4
irel	4
Rend	4
orin	4
arko	4
hfil	4
clou	4
egen	4
Univ	4
roni	4
Bran	4
olta	4
sugg	4
pons	4
teps	4
▁Anh	4
mrow	4
Theo	4
Szeg	4
ebel	4
Tang	4
brom	4
Thom	4
pont	4
Mann	4
kova	4
▁teh	4
leve	4
▁wis	4
veno	4
surd	4
pute	4
enze	4
Schw	4
lity	4
Sang	4
nois	4
Schn	4
phor	4
oung	4
Acid	4
Dong	4
Lieb	4
dler	4
nons	4
▁feb	4
ugen	4
Andr	4
emat	4
theo	4
ková	4
Amit	4
itly	4
Yong	4
Hilb	4
kast	4
adri	4
obil	4
Appl	4
kant	4
eker	4
urat	4
xtra	4
geme	4
wiss	4
plas	4
uppe	4
celo	4
khan	4
frei	4
Jian	4
pply	4
symm	4
seem	4
Kost	4
tive	4
alge	4
bein	4
anin	4
Choi	4
sixt	4
opro	4
▁nik	4
chim	4
ickr	4
refl	4
chao	4
urel	4
cosm	4
mert	4
Chin	4
Wald	4
Schl	4
tani	4
Sear	4
thes	4
roth	4
Xiao	4
intr	4
Berg	4
arka	4
▁yea	4
agre	4
eber	4
Kurt	4
dica	4
cpaa	4
chun	4
aths	4
otel	4
iews	4
▁MBC	4
evel	4
hann	4
HDMI	4
mien	4
▁PLN	4
eits	4
reis	4
eite	4
hnen	4
stag	4
amit	4
tige	4
abei	4
raum	4
uche	4
kten	4
oten	4
fern	4
schn	4
anst	4
immt	4
ritt	4
rotz	4
anis	4
ampf	4
scht	4
zept	4
sere	4
wehr	4
zieh	4
hein	4
eier	4
werb	4
erin	4
walt	4
tert	4
eien	4
asen	4
iell	4
nete	4
ontr	4
wegs	4
▁ged	4
trem	4
udem	4
acke	4
emal	4
Auch	4
echt	4
offe	4
Mehr	4
verl	4
▁ruh	4
akti	4
azin	4
elst	4
weck	4
oben	4
kont	4
ernt	4
sver	4
ziel	4
Aber	4
arif	4
sack	4
anze	4
Aktu	4
Mein	4
spor	4
kopf	4
reif	4
reig	4
Wohn	4
onie	4
verm	4
nvon	4
tipp	4
Sehr	4
stau	4
stil	4
dach	4
Kont	4
usen	4
brit	4
zten	4
Hoch	4
paar	4
raht	4
Frei	4
ilch	4
luft	4
rund	4
bald	4
Ober	4
komm	4
nich	4
Neue	4
Mitt	4
zene	4
verd	4
heil	4
Beim	4
herr	4
Dann	4
achs	4
Doch	4
haut	4
brig	4
Netz	4
dige	4
Wert	4
reue	4
grau	4
Kann	4
eget	4
elbe	4
leid	4
kore	4
Dies	4
riss	4
lohn	4
▁dok	4
uste	4
ieht	4
baus	4
tere	4
aktu	4
hten	4
Aben	4
Empf	4
blut	4
imme	4
nten	4
Werk	4
Dass	4
Ganz	4
eide	4
Tage	4
Rund	4
Nein	4
Opti	4
fein	4
Stil	4
Denn	4
Heim	4
andt	4
Frau	4
Kurs	4
Habe	4
usel	4
ernd	4
Gast	4
Tipp	4
Drei	4
Zoll	4
herm	4
Kein	4
loch	4
hals	4
kter	4
ilie	4
sofa	4
ndie	4
Oder	4
Holz	4
Bett	4
deko	4
Wand	4
umme	4
Sind	4
iede	4
iebe	4
Schm	4
kenn	4
Gute	4
Kopf	4
Baum	4
stel	4
Wann	4
iegt	4
Wein	4
▁weh	4
getr	4
zins	4
erte	4
Luft	4
Terr	4
klam	4
Lehr	4
verg	4
allt	4
reiz	4
Koch	4
neue	4
Nike	4
vorm	4
Abst	4
Dein	4
Lage	4
Dort	4
usik	4
Dazu	4
Geld	4
prin	4
biss	4
Miet	4
raus	4
Ende	4
maus	4
fung	4
Sens	4
kelt	4
olie	4
Nutz	4
Krit	4
tika	4
iege	4
Rech	4
erbe	4
kone	4
Egal	4
Akku	4
Kart	4
arke	4
pfad	4
klub	4
Salz	4
alat	4
Lade	4
▁erb	4
Heil	4
▁kul	4
euen	4
kreu	4
tory	4
elie	4
GmbH	4
Impf	4
stig	4
Brem	4
Kino	4
Grau	4
trat	4
Gott	4
Dach	4
akon	4
unft	4
zige	4
gekr	4
erde	4
skop	4
Audi	4
Zahn	4
Wort	4
Renn	4
Haar	4
onat	4
Grat	4
▁Feh	4
tief	4
begr	4
Brot	4
Heiz	4
esie	4
Paar	4
Tief	4
renn	4
Bach	4
Tanz	4
Gren	4
Zust	4
Fein	4
Lust	4
Darm	4
inna	4
▁kro	4
edet	4
Wett	4
verz	4
Klim	4
entz	4
drin	4
Loch	4
cara	4
Trau	4
WLAN	4
Merk	4
beil	4
lekt	4
odat	4
owie	4
entr	4
nvor	4
spru	4
Mond	4
orex	4
kram	4
enig	4
denn	4
Meer	4
albe	4
bens	4
trum	4
hohe	4
Wege	4
Maus	4
Zwar	4
Spar	4
lebe	4
kons	4
Vide	4
Wohl	4
Hund	4
froh	4
Denk	4
Chor	4
Rote	4
nbei	4
Verw	4
opul	4
Deko	4
Funk	4
Lese	4
arre	4
Reis	4
Brau	4
alde	4
verh	4
eges	4
freu	4
Hohe	4
wied	4
Graf	4
nwir	4
gbar	4
Sinn	4
Blut	4
Rosa	4
akku	4
barn	4
Lern	4
Polo	4
Sich	4
Them	4
issi	4
nang	4
Sach	4
tett	4
utte	4
erth	4
Idee	4
ichl	4
tums	4
Watt	4
Haut	4
Verd	4
Stau	4
nike	4
werg	4
skom	4
asti	4
flur	4
Opel	4
Mund	4
naus	4
stei	4
Auss	4
muck	4
Frem	4
Ralf	4
nver	4
azda	4
ezer	4
ausp	4
▁Pyr	4
kell	4
Bade	4
rakt	4
gels	4
Jagd	4
▁Weh	4
▁pok	4
Sofa	4
eleg	4
Amts	4
Kalt	4
Bast	4
Gala	4
inga	4
Obst	4
tner	4
opat	4
Verg	4
Rats	4
ohen	4
Casa	4
Mord	4
dame	4
mmer	4
bude	4
aspe	4
Eure	4
Taxi	4
opti	4
amat	4
haup	4
ehre	4
Eber	4
andu	4
Volt	4
chse	4
ibor	4
Zelt	4
▁Inh	4
Nett	4
elek	4
Duft	4
emel	4
chau	4
ikus	4
Eich	4
raff	4
Sonn	4
aats	4
Bein	4
Verm	4
tian	4
dobe	4
iedl	4
Acer	4
Gumm	4
elei	4
stin	4
▁pak	4
Gern	4
trau	4
Volk	4
spre	4
eila	4
Kant	4
Aqua	4
sach	4
Bord	4
Seil	4
Surf	4
Hals	4
Kund	4
Ruhe	4
Stro	4
osem	4
Ikea	4
Erle	4
Kohl	4
klad	4
stup	4
ovat	4
stav	4
▁hod	4
prav	4
chod	4
vali	4
▁DPH	4
jeme	4
hled	4
liko	4
▁kou	4
ovou	4
nout	4
lika	4
Cena	4
poru	4
jich	4
nika	4
sled	4
▁kli	4
zace	4
skou	4
pozi	4
ckou	4
kona	4
obra	4
▁poš	4
inou	4
▁tis	4
vodu	4
▁klu	4
odno	4
dech	4
teli	4
tace	4
▁cca	4
▁dny	4
tuje	4
dále	4
lova	4
hned	4
kupu	4
ruka	4
raci	4
vise	4
tisk	4
koli	4
rova	4
padu	4
bili	4
zkou	4
dost	4
kovi	4
telu	4
nov	4
boru	4
▁ope	4
voji	4
vidu	4
stli	4
Rych	4
▁kup	4
niku	4
itom	4
cena	4
rych	4
novu	4
ladi	4
psal	4
opak	4
pisu	4
Doru	4
voje	4
Stav	4
▁zim	4
zuje	4
koho	4
jete	4
nebo	4
dows	4
kuji	4
zeno	4
Druh	4
chov	4
mali	4
kraj	4
ovna	4
lety	4
nech	4
enou	4
kres	4
▁zru	4
slav	4
enka	4
seda	4
akou	4
bory	4
nili	4
koje	4
dlem	4
Dnes	4
▁kus	4
akce	4
▁tzv	4
vala	4
nali	4
ladu	4
brat	4
ůvod	4
ekla	4
rovi	4
dnes	4
Vyso	4
kuje	4
skyt	4
Akce	4
alou	4
Chci	4
leno	4
obec	4
mera	4
Brno	4
slov	4
Obec	4
Díky	4
mila	4
leny	4
rati	4
lkov	4
▁Zku	4
mace	4
hlas	4
kola	4
Pozn	4
dan	4
zena	4
▁maz	4
tiky	4
metr	4
tali	4
▁neh	4
Jsme	4
hite	4
elze	4
mlou	4
slat	4
nior	4
Toto	4
Kraj	4
Tyto	4
Ceny	4
Hana	4
Petr	4
Jako	4
lesk	4
rali	4
vody	4
Samo	4
Jste	4
Doba	4
dlou	4
Sada	4
broj	4
huje	4
Jsem	4
▁raj	4
kace	4
kolo	4
valo	4
ozem	4
Ahoj	4
chom	4
▁zre	4
ruje	4
Moje	4
rozu	4
nina	4
nala	4
hoto	4
poli	4
ekce	4
mny	4
Mezi	4
lovi	4
Indi	4
▁vak	4
stoj	4
inek	4
brou	4
ceni	4
enek	4
gion	4
esko	4
Jsou	4
▁koš	4
▁chá	4
enom	4
kony	4
Osob	4
lkou	4
Chce	4
jmen	4
tala	4
novi	4
kovo	4
▁Tvr	4
Nech	4
Jana	4
Bylo	4
idla	4
▁sme	4
nalo	4
osob	4
vyso	4
Otev	4
ceny	4
lovy	4
hlou	4
▁Sku	4
jako	4
bylo	4
Dále	4
mlad	4
Stru	4
Nebo	4
Poli	4
minu	4
tlak	4
Celo	4
snad	4
stom	4
Spoj	4
Moto	4
leni	4
cova	4
neta	4
Slov	4
tahy	4
OVID	4
liky	4
Kolo	4
Bude	4
Rady	4
sklo	4
jsou	4
▁zam	4
Tuto	4
nict	4
opis	4
tina	4
Jeho	4
druh	4
Vrch	4
krou	4
voda	4
dela	4
vani	4
kora	4
pali	4
Jaro	4
Maga	4
Prav	4
ecko	4
anem	4
obyt	4
byla	4
stej	4
Byla	4
kole	4
vrch	4
hodi	4
Milo	4
plav	4
silo	4
jsem	4
Poru	4
pomo	4
Jazy	4
slou	4
Kole	4
vina	4
Bohu	4
Nevy	4
namu	4
olej	4
byty	4
nera	4
Obje	4
orii	4
alka	4
doba	4
vaku	4
roky	4
kaci	4
okni	4
emes	4
zem	4
Hrad	4
dvou	4
Fili	4
Dvoj	4
leti	4
▁Pob	4
nemo	4
Spon	4
rava	4
Zkou	4
neho	4
okra	4
naly	4
odob	4
dnou	4
Nepo	4
mezi	4
vati	4
sava	4
bale	4
koru	4
Zast	4
▁lai	4
rovo	4
Novo	4
doby	4
ruba	4
▁jeh	4
nepo	4
dvoj	4
skle	4
akci	4
Nedo	4
EURO	4
nava	4
▁zob	4
skla	4
Zapo	4
pati	4
onem	4
zemi	4
Arti	4
Vina	4
krok	4
Ubyt	4
ekto	4
Zada	4
chro	4
lita	4
rana	4
jsme	4
▁evo	4
diol	4
hlad	4
toto	4
tari	4
Slev	4
chot	4
nevy	4
poko	4
ocel	4
resy	4
ulka	4
lome	4
rady	4
obje	4
byly	4
ranu	4
Prac	4
Karo	4
obor	4
mova	4
Diva	4
litu	4
▁Koš	4
sami	4
▁sbo	4
Spor	4
▁Vyd	4
Byli	4
vuje	4
▁Svi	4
bije	4
maga	4
svet	4
Maxi	4
▁ked	4
Radi	4
▁koz	4
boty	4
▁dkg	4
rota	4
enzy	4
styl	4
elou	4
cino	4
stol	4
trin	4
doma	4
Kemp	4
knih	4
Hmot	4
tova	4
moci	4
Medi	4
Mbps	4
Asus	4
ceme	4
tori	4
blok	4
erre	4
ndar	4
vese	4
unka	4
opla	4
meru	4
neza	4
spol	4
troj	4
mula	4
roze	4
taky	4
enje	4
bytu	4
pola	4
jeho	4
vzor	4
leda	4
skat	4
ubyt	4
omor	4
mora	4
seri	4
resu	4
vova	4
chci	4
ASUS	4
ozna	4
rman	4
droj	4
▁kaz	4
mrak	4
ovni	4
roku	4
Pest	4
Poho	4
enst	4
inac	4
sima	4
baba	4
naci	4
chlo	4
sova	4
YOTA	4
polu	4
teni	4
chud	4
szer	4
eket	4
eszt	4
aszt	4
iszt	4
ezet	4
okat	4
atok	4
hely	4
ossz	4
issz	4
oszt	4
ikai	4
incs	4
szak	4
ikor	4
gyen	4
gyan	4
uszt	4
omag	4
▁aki	4
arad	4
elmi	4
alak	4
akor	4
ozat	4
osan	4
elet	4
eked	4
jobb	4
aszn	4
essz	4
tart	4
zett	4
▁ism	4
eken	4
foly	4
jegy	4
Szer	4
etem	4
nagy	4
etek	4
jabb	4
anap	4
olna	4
ekre	4
heti	4
eteg	4
iget	4
Nagy	4
ezte	4
akat	4
ozik	4
csak	4
szik	4
almi	4
bben	4
szab	4
hagy	4
onos	4
▁kir	4
igaz	4
ulcs	4
Hozz	4
szem	4
szor	4
etet	4
lott	4
hogy	4
olja	4
etni	4
ilag	4
gyel	4
alap	4
örgy	4
ivat	4
eset	4
munk	4
zati	4
napi	4
beli	4
szob	4
ltal	4
fogy	4
csap	4
ezon	4
tunk	4
Szem	4
egye	4
nyel	4
Hely	4
Alap	4
vagy	4
szal	4
csal	4
rosz	4
Szab	4
ipar	4
zott	4
amut	4
forg	4
adva	4
▁eny	4
arok	4
kezd	4
alma	4
ajos	4
besz	4
szav	4
szel	4
ozta	4
nyug	4
edik	4
gyal	4
eksz	4
hegy	4
nyit	4
adja	4
Csak	4
nyom	4
elep	4
forr	4
Tart	4
odik	4
eszi	4
▁elj	4
gond	4
oszk	4
Szak	4
ohol	4
olcs	4
elje	4
iaci	4
adta	4
Figy	4
▁kib	4
irat	4
oros	4
Felt	4
▁Kín	4
cser	4
▁oly	4
cikk	4
hozz	4
hhez	4
vesz	4
busz	4
szeg	4
Igen	4
uxus	4
jebb	4
Cikk	4
onyi	4
Besz	4
ezek	4
orok	4
Ezek	4
okba	4
onya	4
azat	4
enyi	4
elme	4
szol	4
Fogy	4
▁ujj	4
utaz	4
olya	4
eszk	4
SZER	4
Nyom	4
pari	4
irod	4
atja	4
zeti	4
ajon	4
becs	4
Hogy	4
epes	4
kedd	4
iatt	4
ekem	4
kkor	4
Foly	4
iben	4
falu	4
Ezen	4
mozg	4
fesz	4
rejt	4
Adat	4
idej	4
Forg	4
ekbe	4
embe	4
sejt	4
emez	4
etbe	4
terv	4
Jegy	4
omok	4
Kert	4
oboz	4
▁csú	4
apja	4
Kisz	4
esti	4
gomb	4
Szék	4
Igaz	4
Napi	4
Hajd	4
Akik	4
harc	4
Mert	4
szen	4
iszk	4
Nyug	4
szag	4
megy	4
terh	4
Zala	4
Vagy	4
vics	4
nnyi	4
Tisz	4
Bors	4
aros	4
tlen	4
ideg	4
hird	4
szex	4
Duna	4
szet	4
MSZP	4
▁ron	4
Jobb	4
adag	4
Kiss	4
kapu	4
Cser	4
szok	4
Bács	4
Forr	4
vegy	4
mely	4
Mire	4
Erre	4
felm	4
gyes	4
agok	4
Szob	4
ensz	4
edve	4
nket	4
Eger	4
Zene	4
ahol	4
dhet	4
lesz	4
udat	4
szul	4
szom	4
lati	4
resz	4
asza	4
egyi	4
szin	4
SZAK	4
omos	4
talp	4
majd	4
Havi	4
Mell	4
Buda	4
Arra	4
kisz	4
fele	4
disz	4
ofil	4
csit	4
akad	4
gumi	4
Szex	4
itok	4
buda	4
Baba	4
Irod	4
Lesz	4
EDES	4
lasz	4
enyh	4
roen	4
etsz	4
felh	4
Hegy	4
hisz	4
ermi	4
szon	4
lani	4
enol	4
egek	4
akik	4
fegy	4
szar	4
▁cik	4
azaz	4
allg	4
alag	4
csom	4
orma	4
kedv	4
szed	4
erep	4
enki	4
▁nén	4
Papp	4
Csep	4
▁hul	4
szek	4
ELTE	4
evet	4
acsi	4
fent	4
utca	4
szep	4
ezen	4
Szel	4
haza	4
visz	4
nisz	4
nyos	4
elsz	4
fali	4
agyi	4
Azon	4
icsi	4
inyi	4
udni	4
▁tev	4
nyer	4
aszi	4
rasz	4
tisz	4
neve	4
Emel	4
moll	4
Kist	4
lunk	4
orsz	4
kort	4
Szep	4
imál	4
bizt	4
Mang	4
inol	4
Szik	4
Szim	4
akit	4
kist	4
lame	4
nyek	4
korm	4
gyor	4
hato	4
elye	4
Megy	4
isze	4
oate	4
regi	4
szat	4
Visa	4
azok	4
Karc	4
kiss	4
thyl	4
ecul	4
CCOC	4
yclo	4
onyl	4
CCCN	4
itro	4
▁CCN	4
ipul	4
ELFI	4
ccnc	4
thio	4
enyl	4
CCNC	4
ncnc	4
yano	4
diox	4
OCCO	4
hexa	4
CCOc	4
nccc	4
hept	4
oxyl	4
COCC	4
cncc	4
CCCO	4
diaz	4
CCCc	4
anil	4
NCCC	4
CCCl	4
CDCl	4
fies	4
OCCN	4
MgSO	4
rgon	4
OCCC	4
cccs	4
CNCC	4
tris	4
NCCN	4
DMSO	4
oxan	4
tetr	4
MeOH	4
ccsc	4
COCc	4
ccco	4
CCCS	4
NCCc	4
nccs	4
CCSC	4
ccnn	4
nccn	4
sccc	4
cccn	4
nter	4
OCCc	4
tolu	4
ncnn	4
CCNc	4
▁CNc	4
ogee	4
CCOP	4
CCCn	4
CSCC	4
CNCc	4
cnco	4
HPLC	4
fluo	4
CCSc	4
occc	4
fmoc	4
cnnn	4
cnoc	4
cscc	4
puri	4
NOCc	4
cocc	4
CHCl	4
scnc	4
etyl	4
solv	4
EtOH	4
ClCC	4
OCOc	4
sity	4
vacu	4
tral	4
LCMS	4
tled	4
ewoo	4
sang	4
cija	4
cije	4
govo	4
rije	4
▁lju	4
skog	4
ciju	4
skih	4
skoj	4
godi	4
ciji	4
gova	4
vima	4
nski	4
nija	4
dnji	4
niji	4
njem	4
tski	4
rska	4
skim	4
vodi	4
riji	4
vnog	4
bija	4
Napo	4
dnje	4
▁doš	4
▁deo	4
viru	4
nske	4
dnja	4
vnih	4
raju	4
itaj	4
kako	4
ljen	4
niti	4
jski	4
lnog	4
Blic	4
jske	4
ntar	4
pita	4
vnim	4
tkom	4
Obja	4
lnom	4
dina	4
nska	4
Novi	4
dnom	4
tske	4
dnog	4
dnoj	4
reno	4
spla	4
zini	4
ramo	4
Kada	4
jska	4
Iako	4
jima	4
gori	4
zavi	4
vnoj	4
tnog	4
Nema	4
Tako	4
▁niz	4
rski	4
lizi	4
tnik	4
Zbog	4
Nije	4
zara	4
nsku	4
vode	4
nsko	4
Svet	4
sowa	4
snik	4
▁Još	4
jsku	4
pske	4
njih	4
Broj	4
njeg	4
Prvi	4
vetu	4
jsko	4
NOVI	4
Osim	4
alno	4
zapa	4
biti	4
Prva	4
gove	4
biji	4
sati	4
Loka	4
dinu	4
bile	4
Isto	4
budu	4
▁loš	4
vidi	4
gdje	4
toli	4
inje	4
pore	4
Nove	4
nena	4
dugo	4
Rado	4
Mali	4
isti	4
Vest	4
koji	4
sata	4
tamo	4
lira	4
prva	4
jera	4
voju	4
neke	4
nisu	4
Godi	4
NATO	4
zbog	4
Srbi	4
koja	4
Izvo	4
niko	4
kolu	4
▁upr	4
zane	4
SARS	4
raja	4
govu	4
Mili	4
znad	4
dnos	4
lana	4
vrlo	4
bati	4
juna	4
ljud	4
moja	4
prvi	4
thai	4
▁THB	4
▁SBO	4
fifa	4
▁CBR	4
▁gta	4
hyun	4
Baht	4
khun	4
Shin	4
ương	4
▁cao	4
ưởng	4
▁xem	4
▁ứng	4
▁quá	4
▁vậy	4
▁nhé	4
Tổng	4
▁nhớ	4
ang	4
▁Ảnh	4
▁hôn	4
uong	4
▁lái	4
Tham	4
▁Ông	4
ưỡng	4
▁dựa	4
▁ngo	4
▁ủng	4
▁bụi	4
Sinh	4
Giao	4
▁gợi	4
▁Vậy	4
Danh	4
▁ngu	4
Phim	4
Kinh	4
▁ong	4
▁Tín	4
▁phu	4
▁Cái	4
▁tỏa	4
▁dậy	4
Chia	4
Ngay	4
Dung	4
ước	4
▁Ứng	4
Cũng	4
Hãng	4
phcm	4
▁ưng	4
Thay	4
▁cai	4
ành	4
▁BẢO	4
▁dãy	4
bong	4
▁CẤP	4
ieng	4
Cung	4
▁CHI	4
▁vợt	4
▁KCN	4
nhan	4
Tỉnh	4
Minh	4
▁Quá	4
kinh	4
▁Bái	4
Zalo	4
Truy	4
phat	4
bóng	4
tinh	4
▁Ống	4
▁ANH	4
dinh	4
▁xsm	4
Cổng	4
Bánh	4
pham	4
ống	4
▁Gái	4
▁hoi	4
Bằng	4
binh	4
nÔng	4
Quay	4
Quan	4
quoc	4
Bóng	4
nhac	4
Tinh	4
giai	4
▁gậy	4
Linh	4
dang	4
danh	4
▁Côn	4
Trao	4
lanh	4
linh	4
▁Cán	4
▁ẢNH	4
Khoa	4
▁Đăk	4
xanh	4
▁Lái	4
▁MỘT	4
ngay	4
Phan	4
▁nhá	4
cung	4
Mong	4
Lãnh	4
choi	4
cach	4
àng	4
thay	4
Vĩnh	4
Lĩnh	4
Ninh	4
Vũng	4
▁NỔI	4
Khai	4
ngoc	4
mang	4
▁tấp	4
▁Mái	4
vang	4
Vinh	4
▁toi	4
ang	4
tổng	4
suzu	4
nguy	4
▁SHB	4
VIET	4
kien	4
hinh	4
cũng	4
nuoc	4
Giai	4
khoe	4
Từng	4
▁Bàu	4
▁ghe	4
khoa	4
hanh	4
tuan	4
thao	4
Bong	4
▁Tái	4
canh	4
bằng	4
▁vùi	4
banh	4
Xanh	4
truc	4
▁tụi	4
▁Đán	4
Cánh	4
trai	4
toan	4
kiem	4
▁kỳ	4
khai	4
thoi	4
▁kỹ	4
Hưng	4
▁liu	4
inh	4
ngon	4
ồng	4
duoc	4
phun	4
KQXS	4
ninh	4
chua	4
xinh	4
BHXH	4
giam	4
Gian	4
xuan	4
Binh	4
THPT	4
Canh	4
xsmb	4
ngan	4
tặng	4
Loto	4
Thao	4
bánh	4
▁hiu	4
XSMB	4
Chim	4
cổng	4
chay	4
TÍNH	4
thue	4
▁ăng	4
truy	4
CTCP	4
vong	4
Dinh	4
doan	4
Xung	4
Thuy	4
nhằm	4
Mobi	4
TCVN	4
Sung	4
Zing	4
cuoc	4
Hằng	4
Phun	4
thua	4
thep	4
hoan	4
tieu	4
Nguy	4
vung	4
chuc	4
Ngon	4
Mừng	4
Thôn	4
Kong	4
quái	4
TTLT	4
treo	4
nhau	4
trao	4
KINH	4
THAM	4
thun	4
▁GCN	4
Dũng	4
Inox	4
THCS	4
phai	4
Rừng	4
▁Giu	4
thôn	4
CMND	4
CNTT	4
inco	4
oang	4
Xinh	4
Axit	4
chuy	4
Trai	4
BỆNH	4
MINH	4
oanh	4
▁KHÓ	4
TOUR	4
lặng	4
nhựa	4
hoai	4
sanh	4
Kang	4
▁cng	4
THEO	4
cứng	4
Vịnh	4
Xoay	4
ttps	4
BHYT	4
rng	4
hãng	4
nhấn	4
Lãng	4
Jang	4
kheo	4
KHXH	4
rinh	4
Hari	4
▁onl	4
KHAI	4
xoay	4
GTGT	4
xong	4
lãnh	4
SNSD	4
SINH	4
QUAN	4
axit	4
rừng	4
Hoan	4
nguo	4
▁tnh	4
Hyun	4
Gluc	4
ghen	4
dựng	4
TINH	4
Thun	4
Tịnh	4
inh	4
VINA	4
sony	4
trad	4
khao	4
THAY	4
Tiki	4
Tĩnh	4
Truc	4
gánh	4
TỈNH	4
dừng	4
Copa	4
Doãn	4
tyle	4
NHẬT	4
nhẫn	4
Fuji	4
khen	4
ƣơng	4
▁nhấ	4
lĩnh	4
saig	4
lãng	4
quai	4
TNHH	4
Doan	4
Prow	4
▁cuo	4
NGAY	4
bụng	4
uanh	4
mừng	4
SONY	4
calo	4
thoa	4
Tron	4
Trum	4
ncho	4
ranh	4
shee	4
vĩnh	4
rụng	4
mỏng	4
hian	4
Yeon	4
hóng	4
nabr	4
noid	4
bỏng	4
ing	3
ion	3
▁in	3
ent	3
ate	3
ame	3
int	3
ort	3
▁is	3
urn	3
age	3
ata	3
rom	3
lic	3
get	3
ine	3
ith	3
end	3
and	3
ect	3
put	3
▁on	3
ase	3
ime	3
▁as	3
ord	3
ath	3
ack	3
for	3
ary	3
ype	3
def	3
art	3
ize	3
our	3
ind	3
res	3
ext	3
ser	3
ere	3
ity	3
set	3
his	3
out	3
iel	3
ace	3
yst	3
ure	3
all	3
act	3
one	3
iew	3
ire	3
ite	3
ice	3
ory	3
ill	3
▁by	3
ror	3
oid	3
ger	3
app	3
key	3
low	3
ray	3
ies	3
ant	3
ive	3
lay	3
uld	3
cri	3
ork	3
ule	3
dex	3
fig	3
Rep	3
ong	3
ard	3
ull	3
ang	3
ach	3
ass	3
▁at	3
fer	3
str	3
eng	3
clu	3
sum	3
▁he	3
ust	3
Pro	3
uct	3
ert	3
riv	3
ide	3
ens	3
ast	3
ign	3
hen	3
are	3
Ser	3
pen	3
ery	3
val	3
pec	3
rig	3
log	3
row	3
ask	3
url	3
lot	3
orm	3
emp	3
ble	3
Col	3
ree	3
sed	3
uil	3
umn	3
ain	3
Res	3
gra	3
▁np	3
lit	3
cre	3
own	3
its	3
uth	3
isp	3
col	3
cur	3
The	3
led	3
her	3
ick	3
ded	3
use	3
new	3
rep	3
gin	3
fil	3
ome	3
ual	3
not	3
rit	3
Get	3
Key	3
pre	3
Set	3
ump	3
ync	3
raw	3
igr	3
ark	3
var	3
img	3
vel	3
loc	3
ell	3
You	3
map	3
ttp	3
now	3
unc	3
lab	3
Add	3
ors	3
ana	3
let	3
ars	3
ibr	3
ank	3
eat	3
lib	3
std	3
ner	3
rid	3
ock	3
rix	3
ifi	3
ole	3
uto	3
ush	3
org	3
ics	3
oin	3
ash	3
ake	3
err	3
Log	3
sub	3
ify	3
any	3
mod	3
wer	3
www	3
App	3
ody	3
ren	3
lob	3
ild	3
api	3
the	3
old	3
ugh	3
Ent	3
doc	3
Not	3
net	3
ish	3
ven	3
txt	3
ays	3
ear	3
red	3
igh	3
bin	3
png	3
vir	3
ied	3
eth	3
For	3
SON	3
rop	3
mat	3
yle	3
csv	3
Map	3
ols	3
▁ll	3
amp	3
reg	3
lat	3
ved	3
ote	3
How	3
ful	3
enu	3
top	3
arr	3
ION	3
idd	3
Int	3
plt	3
cle	3
lag	3
box	3
arg	3
Def	3
lan	3
Out	3
run	3
wik	3
wit	3
All	3
imp	3
OST	3
ted	3
tot	3
Net	3
gor	3
Hel	3
pos	3
bug	3
src	3
ran	3
loy	3
Sub	3
fra	3
Mod	3
ams	3
Loc	3
Web	3
exp	3
ron	3
teg	3
Ext	3
cat	3
opy	3
tle	3
bar	3
ian	3
And	3
utf	3
mer	3
rap	3
dge	3
ves	3
uid	3
Act	3
ber	3
ats	3
uch	3
als	3
pop	3
cin	3
bab	3
bit	3
fix	3
Lay	3
eta	3
rie	3
pri	3
bot	3
Exp	3
hed	3
day	3
try	3
▁oc	3
ING	3
can	3
New	3
Box	3
sys	3
vis	3
Lin	3
Per	3
fit	3
cnt	3
mut	3
obj	3
tml	3
ets	3
dep	3
med	3
ous	3
iss	3
pha	3
Api	3
avi	3
gre	3
aut	3
air	3
Det	3
lip	3
ATE	3
tom	3
Url	3
idx	3
mid	3
Str	3
ged	3
tag	3
amb	3
gle	3
oot	3
xml	3
unk	3
ade	3
ret	3
pub	3
Max	3
pol	3
cer	3
eed	3
php	3
Mem	3
API	3
oup	3
ird	3
tex	3
way	3
off	3
ove	3
acy	3
ift	3
cal	3
End	3
ely	3
SQL	3
gex	3
▁fn	3
Run	3
tie	3
ULL	3
oci	3
Are	3
dig	3
qrt	3
sql	3
opt	3
lar	3
vie	3
Dec	3
dim	3
ram	3
Var	3
ags	3
cel	3
Pre	3
Row	3
Aut	3
One	3
anf	3
pes	3
req	3
dev	3
iff	3
see	3
abs	3
lin	3
Min	3
▁pr	3
icy	3
oto	3
hel	3
irc	3
rel	3
ium	3
aly	3
omb	3
iod	3
Ref	3
Vis	3
lex	3
has	3
Sum	3
ptr	3
Mat	3
Can	3
ood	3
ios	3
lim	3
kes	3
OUT	3
cut	3
cpp	3
Num	3
ube	3
ric	3
ROM	3
Tag	3
Dep	3
ATH	3
mar	3
Now	3
met	3
vec	3
alk	3
Met	3
inf	3
ENT	3
alf	3
ots	3
CON	3
ula	3
GET	3
hpp	3
aml	3
Red	3
Any	3
MAX	3
PIO	3
Off	3
ids	3
arp	3
mpt	3
Reg	3
SER	3
bed	3
ane	3
VER	3
pay	3
mem	3
Man	3
lap	3
RAN	3
arn	3
Bar	3
But	3
▁He	3
oom	3
KEY	3
Imp	3
Dis	3
Sec	3
dec	3
eft	3
car	3
[...]
