▁characteristics	16
▁differentiation	16
▁recommendations	16
▁transplantation	16
▁phosphorylation	16
▁Representatives	16
▁representatives	16
▁representations	16
▁transcriptional	16
▁straightforward	16
▁internationally	16
▁transformations	16
▁pharmacological	16
▁electromagnetic	16
▁implementations	16
▁atherosclerosis	16
▁supplementation	16
▁electrophoresis	16
▁environmentally	16
▁pathophysiology	16
▁NONINFRINGEMENT	16
▁hospitalization	16
▁instrumentation	16
▁retrospectively	16
▁electrochemical	16
▁Redistributions	16
▁synchronization	16
▁vulnerabilities	16
▁professionalism	16
▁accomplishments	16
▁interpretations	16
▁pharmacokinetic	16
▁entrepreneurial	16
▁differentiating	16
▁implementation	15
▁administration	15
springframework	15
▁concentrations	15
▁representation	15
▁identification	15
▁classification	15
▁transformation	15
▁infrastructure	15
▁establishments	15
▁responsibility	15
▁administrative	15
▁characteristic	15
▁representative	15
▁simultaneously	15
▁transportation	15
▁communications	15
▁Administration	15
▁reconstruction	15
▁investigations	15
▁susceptibility	15
▁authentication	15
▁rehabilitation	15
▁Communications	15
▁multiplication	15
▁discrimination	15
▁chromatography	15
▁specifications	15
▁organizational	15
▁recommendation	15
▁pharmaceutical	15
▁configurations	15
▁sustainability	15
▁experimentally	15
▁considerations	15
▁Transportation	15
▁municipalities	15
▁Classification	15
▁systematically	15
▁differentiated	15
▁professionally	15
▁correspondence	15
▁NotImplemented	15
▁cryptocurrency	15
▁Representative	15
▁manifestations	15
▁Implementation	15
▁generalization	15
▁administrators	15
▁constitutional	15
▁responsiveness	15
▁disestablished	15
▁Administrative	15
▁collaborations	15
▁differentiable	15
▁unincorporated	15
▁quantification	15
▁overexpression	15
▁initialization	15
▁constituencies	15
▁Authentication	15
▁methodological	15
▁conformational	15
▁qualifications	15
translationtype	15
openlocfilehash	15
sourcegitcommit	15
▁Identification	15
▁accountability	15
▁differentially	15
▁characterizing	15
▁quantitatively	15
▁Infrastructure	15
▁advertisements	15
▁aforementioned	15
▁archaeological	15
▁demonstrations	15
OnClickListener	15
ServiceProvider	15
▁microorganisms	15
▁accommodations	15
▁mathematicians	15
▁approximations	15
▁hepatocellular	15
▁multiplicative	15
includegraphics	15
▁intraoperative	15
▁Pharmaceutical	15
▁phosphorylated	15
▁individualized	15
▁AttributeError	15
▁Transformation	15
<reserved_100>	14
<reserved_101>	14
<reserved_102>	14
<reserved_103>	14
<reserved_104>	14
<reserved_105>	14
<reserved_106>	14
<reserved_107>	14
<reserved_108>	14
<reserved_109>	14
<reserved_110>	14
<reserved_111>	14
<reserved_112>	14
<reserved_113>	14
<reserved_114>	14
<reserved_115>	14
<reserved_116>	14
<reserved_117>	14
<reserved_118>	14
<reserved_119>	14
<reserved_120>	14
<reserved_121>	14
<reserved_122>	14
<reserved_123>	14
<reserved_124>	14
<reserved_125>	14
<reserved_126>	14
<reserved_127>	14
<reserved_128>	14
<reserved_129>	14
<reserved_130>	14
<reserved_131>	14
<reserved_132>	14
<reserved_133>	14
<reserved_134>	14
<reserved_135>	14
<reserved_136>	14
<reserved_137>	14
<reserved_138>	14
<reserved_139>	14
<reserved_140>	14
<reserved_141>	14
<reserved_142>	14
<reserved_143>	14
<reserved_144>	14
<reserved_145>	14
<reserved_146>	14
<reserved_147>	14
<reserved_148>	14
<reserved_149>	14
<reserved_150>	14
<reserved_151>	14
<reserved_152>	14
<reserved_153>	14
<reserved_154>	14
<reserved_155>	14
<reserved_156>	14
<reserved_157>	14
<reserved_158>	14
<reserved_159>	14
<reserved_160>	14
<reserved_161>	14
<reserved_162>	14
<reserved_163>	14
<reserved_164>	14
<reserved_165>	14
<reserved_166>	14
<reserved_167>	14
<reserved_168>	14
<reserved_169>	14
<reserved_170>	14
<reserved_171>	14
<reserved_172>	14
<reserved_173>	14
<reserved_174>	14
<reserved_175>	14
<reserved_176>	14
<reserved_177>	14
<reserved_178>	14
<reserved_179>	14
<reserved_180>	14
<reserved_181>	14
<reserved_182>	14
<reserved_183>	14
<reserved_184>	14
<reserved_185>	14
<reserved_186>	14
<reserved_187>	14
<reserved_188>	14
<reserved_189>	14
<reserved_190>	14
<reserved_191>	14
<reserved_192>	14
<reserved_193>	14
<reserved_194>	14
<reserved_195>	14
<reserved_196>	14
<reserved_197>	14
<reserved_198>	14
<reserved_199>	14
<reserved_200>	14
<reserved_201>	14
<reserved_202>	14
<reserved_203>	14
<reserved_204>	14
<reserved_205>	14
<reserved_206>	14
<reserved_207>	14
<reserved_208>	14
<reserved_209>	14
<reserved_210>	14
<reserved_211>	14
<reserved_212>	14
<reserved_213>	14
<reserved_214>	14
<reserved_215>	14
<reserved_216>	14
<reserved_217>	14
<reserved_218>	14
<reserved_219>	14
<reserved_220>	14
<reserved_221>	14
<reserved_222>	14
<reserved_223>	14
<reserved_224>	14
<reserved_225>	14
<reserved_226>	14
<reserved_227>	14
<reserved_228>	14
<reserved_229>	14
<reserved_230>	14
<reserved_231>	14
<reserved_232>	14
<reserved_233>	14
<reserved_234>	14
<reserved_235>	14
<reserved_236>	14
<reserved_237>	14
<reserved_238>	14
<reserved_239>	14
<reserved_240>	14
<reserved_241>	14
<reserved_242>	14
<reserved_243>	14
<reserved_244>	14
<reserved_245>	14
<reserved_246>	14
<reserved_247>	14
<reserved_248>	14
<reserved_249>	14
<reserved_250>	14
<reserved_251>	14
<reserved_252>	14
<reserved_253>	14
<reserved_254>	14
<reserved_255>	14
<reserved_256>	14
<reserved_257>	14
<reserved_258>	14
<reserved_259>	14
<reserved_260>	14
<reserved_261>	14
<reserved_262>	14
<reserved_263>	14
<reserved_264>	14
<reserved_265>	14
<reserved_266>	14
<reserved_267>	14
<reserved_268>	14
<reserved_269>	14
<reserved_270>	14
<reserved_271>	14
<reserved_272>	14
<reserved_273>	14
<reserved_274>	14
<reserved_275>	14
<reserved_276>	14
<reserved_277>	14
<reserved_278>	14
<reserved_279>	14
<reserved_280>	14
<reserved_281>	14
<reserved_282>	14
<reserved_283>	14
<reserved_284>	14
<reserved_285>	14
<reserved_286>	14
<reserved_287>	14
<reserved_288>	14
<reserved_289>	14
<reserved_290>	14
<reserved_291>	14
<reserved_292>	14
<reserved_293>	14
<reserved_294>	14
<reserved_295>	14
<reserved_296>	14
<reserved_297>	14
<reserved_298>	14
<reserved_299>	14
<reserved_300>	14
<reserved_301>	14
<reserved_302>	14
<reserved_303>	14
<reserved_304>	14
<reserved_305>	14
<reserved_306>	14
<reserved_307>	14
<reserved_308>	14
<reserved_309>	14
<reserved_310>	14
<reserved_311>	14
<reserved_312>	14
<reserved_313>	14
<reserved_314>	14
<reserved_315>	14
<reserved_316>	14
<reserved_317>	14
<reserved_318>	14
<reserved_319>	14
<reserved_320>	14
<reserved_321>	14
<reserved_322>	14
<reserved_323>	14
<reserved_324>	14
<reserved_325>	14
<reserved_326>	14
<reserved_327>	14
<reserved_328>	14
<reserved_329>	14
<reserved_330>	14
<reserved_331>	14
<reserved_332>	14
<reserved_333>	14
<reserved_334>	14
<reserved_335>	14
<reserved_336>	14
<reserved_337>	14
<reserved_338>	14
<reserved_339>	14
<reserved_340>	14
<reserved_341>	14
<reserved_342>	14
<reserved_343>	14
<reserved_344>	14
<reserved_345>	14
<reserved_346>	14
<reserved_347>	14
<reserved_348>	14
<reserved_349>	14
<reserved_350>	14
<reserved_351>	14
<reserved_352>	14
<reserved_353>	14
<reserved_354>	14
<reserved_355>	14
<reserved_356>	14
<reserved_357>	14
<reserved_358>	14
<reserved_359>	14
<reserved_360>	14
<reserved_361>	14
<reserved_362>	14
<reserved_363>	14
<reserved_364>	14
<reserved_365>	14
<reserved_366>	14
<reserved_367>	14
<reserved_368>	14
<reserved_369>	14
<reserved_370>	14
<reserved_371>	14
<reserved_372>	14
<reserved_373>	14
<reserved_374>	14
<reserved_375>	14
<reserved_376>	14
<reserved_377>	14
<reserved_378>	14
<reserved_379>	14
<reserved_380>	14
<reserved_381>	14
<reserved_382>	14
<reserved_383>	14
<reserved_384>	14
<reserved_385>	14
<reserved_386>	14
<reserved_387>	14
<reserved_388>	14
<reserved_389>	14
<reserved_390>	14
<reserved_391>	14
<reserved_392>	14
<reserved_393>	14
<reserved_394>	14
<reserved_395>	14
<reserved_396>	14
<reserved_397>	14
<reserved_398>	14
<reserved_399>	14
<reserved_400>	14
<reserved_401>	14
<reserved_402>	14
<reserved_403>	14
<reserved_404>	14
<reserved_405>	14
<reserved_406>	14
<reserved_407>	14
<reserved_408>	14
<reserved_409>	14
<reserved_410>	14
<reserved_411>	14
<reserved_412>	14
<reserved_413>	14
<reserved_414>	14
<reserved_415>	14
<reserved_416>	14
<reserved_417>	14
<reserved_418>	14
<reserved_419>	14
<reserved_420>	14
<reserved_421>	14
<reserved_422>	14
<reserved_423>	14
<reserved_424>	14
<reserved_425>	14
<reserved_426>	14
<reserved_427>	14
<reserved_428>	14
<reserved_429>	14
<reserved_430>	14
<reserved_431>	14
<reserved_432>	14
<reserved_433>	14
<reserved_434>	14
<reserved_435>	14
<reserved_436>	14
<reserved_437>	14
<reserved_438>	14
<reserved_439>	14
<reserved_440>	14
<reserved_441>	14
<reserved_442>	14
<reserved_443>	14
<reserved_444>	14
<reserved_445>	14
<reserved_446>	14
<reserved_447>	14
<reserved_448>	14
<reserved_449>	14
<reserved_450>	14
<reserved_451>	14
<reserved_452>	14
<reserved_453>	14
<reserved_454>	14
<reserved_455>	14
<reserved_456>	14
<reserved_457>	14
<reserved_458>	14
<reserved_459>	14
<reserved_460>	14
<reserved_461>	14
<reserved_462>	14
<reserved_463>	14
<reserved_464>	14
<reserved_465>	14
<reserved_466>	14
<reserved_467>	14
<reserved_468>	14
<reserved_469>	14
<reserved_470>	14
<reserved_471>	14
<reserved_472>	14
<reserved_473>	14
<reserved_474>	14
<reserved_475>	14
<reserved_476>	14
<reserved_477>	14
<reserved_478>	14
<reserved_479>	14
<reserved_480>	14
<reserved_481>	14
<reserved_482>	14
<reserved_483>	14
<reserved_484>	14
<reserved_485>	14
<reserved_486>	14
<reserved_487>	14
<reserved_488>	14
<reserved_489>	14
<reserved_490>	14
<reserved_491>	14
<reserved_492>	14
<reserved_493>	14
<reserved_494>	14
<reserved_495>	14
<reserved_496>	14
<reserved_497>	14
<reserved_498>	14
<reserved_499>	14
<reserved_500>	14
<reserved_501>	14
<reserved_502>	14
<reserved_503>	14
<reserved_504>	14
<reserved_505>	14
<reserved_506>	14
<reserved_507>	14
<reserved_508>	14
<reserved_509>	14
<reserved_510>	14
<reserved_511>	14
<reserved_512>	14
<reserved_513>	14
<reserved_514>	14
<reserved_515>	14
<reserved_516>	14
<reserved_517>	14
<reserved_518>	14
<reserved_519>	14
<reserved_520>	14
<reserved_521>	14
<reserved_522>	14
<reserved_523>	14
<reserved_524>	14
<reserved_525>	14
<reserved_526>	14
<reserved_527>	14
<reserved_528>	14
<reserved_529>	14
<reserved_530>	14
<reserved_531>	14
<reserved_532>	14
<reserved_533>	14
<reserved_534>	14
<reserved_535>	14
<reserved_536>	14
<reserved_537>	14
<reserved_538>	14
<reserved_539>	14
<reserved_540>	14
<reserved_541>	14
<reserved_542>	14
<reserved_543>	14
<reserved_544>	14
<reserved_545>	14
<reserved_546>	14
<reserved_547>	14
<reserved_548>	14
<reserved_549>	14
<reserved_550>	14
<reserved_551>	14
<reserved_552>	14
<reserved_553>	14
<reserved_554>	14
<reserved_555>	14
<reserved_556>	14
<reserved_557>	14
<reserved_558>	14
<reserved_559>	14
<reserved_560>	14
<reserved_561>	14
<reserved_562>	14
<reserved_563>	14
<reserved_564>	14
<reserved_565>	14
<reserved_566>	14
<reserved_567>	14
<reserved_568>	14
<reserved_569>	14
<reserved_570>	14
<reserved_571>	14
<reserved_572>	14
<reserved_573>	14
<reserved_574>	14
<reserved_575>	14
<reserved_576>	14
<reserved_577>	14
<reserved_578>	14
<reserved_579>	14
<reserved_580>	14
<reserved_581>	14
<reserved_582>	14
<reserved_583>	14
<reserved_584>	14
<reserved_585>	14
<reserved_586>	14
<reserved_587>	14
<reserved_588>	14
<reserved_589>	14
<reserved_590>	14
<reserved_591>	14
<reserved_592>	14
<reserved_593>	14
<reserved_594>	14
<reserved_595>	14
<reserved_596>	14
<reserved_597>	14
<reserved_598>	14
<reserved_599>	14
<reserved_600>	14
<reserved_601>	14
<reserved_602>	14
<reserved_603>	14
<reserved_604>	14
<reserved_605>	14
<reserved_606>	14
<reserved_607>	14
<reserved_608>	14
<reserved_609>	14
<reserved_610>	14
<reserved_611>	14
<reserved_612>	14
<reserved_613>	14
<reserved_614>	14
<reserved_615>	14
<reserved_616>	14
<reserved_617>	14
<reserved_618>	14
<reserved_619>	14
<reserved_620>	14
<reserved_621>	14
<reserved_622>	14
<reserved_623>	14
<reserved_624>	14
<reserved_625>	14
<reserved_626>	14
<reserved_627>	14
<reserved_628>	14
<reserved_629>	14
<reserved_630>	14
<reserved_631>	14
<reserved_632>	14
<reserved_633>	14
<reserved_634>	14
<reserved_635>	14
<reserved_636>	14
<reserved_637>	14
<reserved_638>	14
<reserved_639>	14
<reserved_640>	14
<reserved_641>	14
<reserved_642>	14
<reserved_643>	14
<reserved_644>	14
<reserved_645>	14
<reserved_646>	14
<reserved_647>	14
<reserved_648>	14
<reserved_649>	14
<reserved_660>	14
<reserved_661>	14
<reserved_662>	14
<reserved_663>	14
<reserved_664>	14
<reserved_665>	14
<reserved_666>	14
<reserved_667>	14
<reserved_668>	14
<reserved_669>	14
<reserved_670>	14
<reserved_671>	14
<reserved_672>	14
<reserved_673>	14
<reserved_674>	14
<reserved_675>	14
<reserved_676>	14
<reserved_677>	14
<reserved_678>	14
<reserved_679>	14
<reserved_680>	14
<reserved_681>	14
<reserved_682>	14
<reserved_683>	14
<reserved_684>	14
<reserved_685>	14
<reserved_686>	14
<reserved_687>	14
<reserved_688>	14
<reserved_689>	14
<reserved_690>	14
<reserved_691>	14
<reserved_692>	14
<reserved_693>	14
<reserved_694>	14
<reserved_695>	14
<reserved_696>	14
<reserved_697>	14
<reserved_698>	14
<reserved_699>	14
<reserved_700>	14
<reserved_701>	14
<reserved_702>	14
<reserved_703>	14
<reserved_704>	14
<reserved_705>	14
<reserved_706>	14
<reserved_707>	14
<reserved_708>	14
<reserved_709>	14
<reserved_710>	14
<reserved_711>	14
<reserved_712>	14
<reserved_713>	14
<reserved_714>	14
<reserved_715>	14
<reserved_716>	14
<reserved_717>	14
<reserved_718>	14
<reserved_719>	14
<reserved_720>	14
<reserved_721>	14
<reserved_722>	14
<reserved_723>	14
<reserved_724>	14
<reserved_725>	14
<reserved_726>	14
<reserved_727>	14
<reserved_728>	14
<reserved_729>	14
<reserved_730>	14
<reserved_731>	14
<reserved_732>	14
<reserved_733>	14
<reserved_734>	14
<reserved_735>	14
<reserved_736>	14
<reserved_737>	14
<reserved_738>	14
<reserved_739>	14
<reserved_740>	14
<reserved_741>	14
<reserved_742>	14
<reserved_743>	14
<reserved_744>	14
<reserved_745>	14
<reserved_746>	14
<reserved_747>	14
<reserved_748>	14
<reserved_749>	14
<reserved_750>	14
<reserved_751>	14
<reserved_752>	14
<reserved_753>	14
<reserved_754>	14
<reserved_755>	14
<reserved_756>	14
<reserved_757>	14
<reserved_758>	14
<reserved_759>	14
<reserved_760>	14
<reserved_761>	14
<reserved_762>	14
<reserved_763>	14
<reserved_764>	14
<reserved_765>	14
<reserved_766>	14
<reserved_767>	14
<reserved_768>	14
<reserved_769>	14
<reserved_770>	14
<reserved_771>	14
<reserved_772>	14
<reserved_773>	14
<reserved_774>	14
<reserved_775>	14
<reserved_776>	14
<reserved_777>	14
<reserved_778>	14
<reserved_779>	14
<reserved_780>	14
<reserved_781>	14
<reserved_782>	14
<reserved_783>	14
<reserved_784>	14
<reserved_785>	14
<reserved_786>	14
<reserved_787>	14
<reserved_788>	14
<reserved_789>	14
<reserved_790>	14
<reserved_791>	14
<reserved_792>	14
<reserved_793>	14
<reserved_794>	14
<reserved_795>	14
<reserved_796>	14
<reserved_797>	14
<reserved_798>	14
<reserved_799>	14
<reserved_800>	14
<reserved_801>	14
<reserved_802>	14
<reserved_803>	14
<reserved_804>	14
<reserved_805>	14
<reserved_806>	14
<reserved_807>	14
<reserved_808>	14
<reserved_809>	14
<reserved_810>	14
<reserved_811>	14
<reserved_812>	14
<reserved_813>	14
<reserved_814>	14
<reserved_815>	14
<reserved_816>	14
<reserved_817>	14
<reserved_818>	14
<reserved_819>	14
<reserved_820>	14
<reserved_821>	14
<reserved_822>	14
<reserved_823>	14
<reserved_824>	14
<reserved_825>	14
<reserved_826>	14
<reserved_827>	14
<reserved_828>	14
<reserved_829>	14
<reserved_830>	14
<reserved_831>	14
<reserved_832>	14
<reserved_833>	14
<reserved_834>	14
<reserved_835>	14
<reserved_836>	14
<reserved_837>	14
<reserved_838>	14
<reserved_839>	14
<reserved_840>	14
<reserved_841>	14
<reserved_842>	14
<reserved_843>	14
<reserved_844>	14
<reserved_845>	14
<reserved_846>	14
<reserved_847>	14
<reserved_848>	14
<reserved_849>	14
<reserved_850>	14
<reserved_851>	14
<reserved_852>	14
<reserved_853>	14
<reserved_854>	14
<reserved_855>	14
<reserved_856>	14
<reserved_857>	14
<reserved_858>	14
<reserved_859>	14
<reserved_860>	14
<reserved_861>	14
<reserved_862>	14
<reserved_863>	14
<reserved_864>	14
<reserved_865>	14
<reserved_866>	14
<reserved_867>	14
<reserved_868>	14
<reserved_869>	14
<reserved_870>	14
<reserved_871>	14
<reserved_872>	14
<reserved_873>	14
<reserved_874>	14
<reserved_875>	14
<reserved_876>	14
<reserved_877>	14
<reserved_878>	14
<reserved_879>	14
<reserved_880>	14
<reserved_881>	14
<reserved_882>	14
<reserved_883>	14
<reserved_884>	14
<reserved_885>	14
<reserved_886>	14
<reserved_887>	14
<reserved_888>	14
<reserved_889>	14
<reserved_890>	14
<reserved_891>	14
<reserved_892>	14
<reserved_893>	14
<reserved_894>	14
<reserved_895>	14
<reserved_896>	14
<reserved_897>	14
<reserved_898>	14
<reserved_899>	14
<reserved_900>	14
<reserved_901>	14
<reserved_902>	14
<reserved_903>	14
<reserved_904>	14
<reserved_905>	14
<reserved_906>	14
<reserved_907>	14
<reserved_908>	14
<reserved_909>	14
<reserved_910>	14
<reserved_911>	14
<reserved_912>	14
<reserved_913>	14
<reserved_914>	14
<reserved_915>	14
<reserved_916>	14
<reserved_917>	14
<reserved_918>	14
<reserved_919>	14
<reserved_920>	14
<reserved_921>	14
<reserved_922>	14
<reserved_923>	14
<reserved_924>	14
<reserved_925>	14
<reserved_926>	14
<reserved_927>	14
<reserved_928>	14
<reserved_929>	14
<reserved_930>	14
<reserved_931>	14
<reserved_932>	14
<reserved_933>	14
<reserved_934>	14
<reserved_935>	14
<reserved_936>	14
<reserved_937>	14
<reserved_938>	14
<reserved_939>	14
<reserved_940>	14
<reserved_941>	14
<reserved_942>	14
<reserved_943>	14
<reserved_944>	14
<reserved_945>	14
<reserved_946>	14
<reserved_947>	14
<reserved_948>	14
<reserved_949>	14
<reserved_950>	14
<reserved_951>	14
<reserved_952>	14
<reserved_953>	14
<reserved_954>	14
<reserved_955>	14
<reserved_956>	14
<reserved_957>	14
<reserved_958>	14
<reserved_959>	14
<reserved_960>	14
<reserved_961>	14
<reserved_962>	14
<reserved_963>	14
<reserved_964>	14
<reserved_965>	14
<reserved_966>	14
<reserved_967>	14
<reserved_968>	14
<reserved_969>	14
<reserved_970>	14
<reserved_971>	14
<reserved_972>	14
<reserved_973>	14
<reserved_974>	14
<reserved_975>	14
<reserved_976>	14
<reserved_977>	14
<reserved_978>	14
<reserved_979>	14
<reserved_980>	14
<reserved_981>	14
<reserved_982>	14
<reserved_983>	14
<reserved_984>	14
<reserved_985>	14
<reserved_986>	14
<reserved_987>	14
<reserved_988>	14
<reserved_989>	14
<reserved_990>	14
<reserved_991>	14
<reserved_992>	14
<reserved_993>	14
<reserved_994>	14
<reserved_995>	14
<reserved_996>	14
<reserved_997>	14
<reserved_998>	14
<reserved_999>	14
▁significantly	14
▁understanding	14
▁international	14
▁International	14
▁approximately	14
▁communication	14
▁concentration	14
overrightarrow	14
▁opportunities	14
▁environmental	14
▁configuration	14
▁corresponding	14
▁investigation	14
▁relationships	14
▁organizations	14
▁professionals	14
▁comprehensive	14
▁characterized	14
▁transcription	14
▁Championships	14
▁effectiveness	14
▁collaboration	14
▁complications	14
▁manufacturing	14
▁functionality	14
▁contributions	14
▁interventions	14
▁proliferation	14
▁Massachusetts	14
▁investigators	14
▁determination	14
▁entertainment	14
▁consideration	14
▁physiological	14
▁computational	14
▁circumstances	14
▁manufacturers	14
▁intracellular	14
disambiguation	14
▁developmental	14
▁distributions	14
▁approximation	14
▁psychological	14
▁statistically	14
▁Unfortunately	14
▁participating	14
▁independently	14
▁postoperative	14
▁possibilities	14
▁collaborative	14
▁establishment	14
▁abnormalities	14
▁investigating	14
▁modifications	14
▁organisations	14
▁extracellular	14
▁Entertainment	14
▁sophisticated	14
Authentication	14
▁accommodation	14
▁specification	14
▁certification	14
▁Environmental	14
▁institutional	14
▁technological	14
▁retrospective	14
▁controversial	14
▁presentations	14
▁decomposition	14
▁nanoparticles	14
▁practitioners	14
▁Configuration	14
▁substantially	14
▁undergraduate	14
▁architectural	14
▁compatibility	14
▁demonstration	14
▁complementary	14
▁unfortunately	14
▁conversations	14
▁visualization	14
▁extraordinary	14
▁differentiate	14
▁perpendicular	14
▁distinguished	14
▁predominantly	14
▁demonstrating	14
▁morphological	14
▁Communication	14
▁Mediterranean	14
▁translational	14
▁Documentation	14
▁heterogeneous	14
▁vulnerability	14
▁Understanding	14
▁notifications	14
▁incorporating	14
▁probabilities	14
▁traditionally	14
▁knowledgeable	14
▁heterogeneity	14
▁antimicrobial	14
▁administrator	14
▁hybridization	14
▁incorporation	14
▁neighbourhood	14
▁accessibility	14
▁gravitational	14
▁appropriately	14
▁unprecedented	14
▁qualification	14
▁precipitation	14
▁contamination	14
authentication	14
▁installations	14
▁methodologies	14
ViewController	14
▁amplification	14
▁neighborhoods	14
▁consciousness	14
▁championships	14
▁inappropriate	14
▁polymorphisms	14
▁illustrations	14
▁recombination	14
▁observational	14
▁interpolation	14
▁complimentary	14
▁dissemination	14
ufeffnamespace	14
▁parliamentary	14
▁Interestingly	14
communications	14
▁authorization	14
▁circumference	14
▁Alternatively	14
▁hematopoietic	14
▁uncomfortable	14
▁strengthening	14
▁photographers	14
▁stabilization	14
▁dehydrogenase	14
▁revolutionary	14
▁communicating	14
▁uncertainties	14
▁theoretically	14
▁factorization	14
▁reinforcement	14
▁architectures	14
▁contradiction	14
▁translocation	14
▁Manufacturing	14
▁semiconductor	14
▁personalities	14
representation	14
▁immunological	14
▁grandchildren	14
▁socioeconomic	14
▁reconstructed	14
▁normalization	14
▁applicability	14
▁Investigation	14
Implementation	14
▁Computational	14
▁deterioration	14
▁congressional	14
implementation	14
▁advertisement	14
▁combinatorial	14
▁consolidation	14
▁probabilistic	14
▁exceptionally	14
▁Administrator	14
▁clarification	14
▁StringBuilder	14
▁comprehension	14
▁disappointing	14
▁spontaneously	14
▁prospectively	14
▁announcements	14
▁spectroscopic	14
▁philosophical	14
▁mathematician	14
▁Certification	14
classification	14
▁encouragement	14
▁intersections	14
▁fragmentation	14
▁progressively	14
▁authenticated	14
▁unforgettable	14
administration	14
▁exponentially	14
▁immunotherapy	14
▁antibacterial	14
▁constructions	14
▁fundamentally	14
▁thermodynamic	14
▁intentionally	14
▁Comprehensive	14
▁electrostatic	14
▁disadvantages	14
▁intermediates	14
▁proliferative	14
▁headquartered	14
▁manifestation	14
▁perturbations	14
ComponentModel	14
▁profitability	14
▁alternatively	14
▁Approximately	14
▁instructional	14
▁interpersonal	14
▁breastfeeding	14
▁collaborating	14
▁inspirational	14
▁subscriptions	14
▁BeautifulSoup	14
▁collaborators	14
▁customization	14
SerializedName	14
▁characterised	14
▁informational	14
RequestHandler	14
CompatActivity	14
▁justification	14
▁disappearance	14
<reserved_12>	13
<reserved_13>	13
<reserved_14>	13
<reserved_15>	13
<reserved_16>	13
<reserved_17>	13
<reserved_18>	13
<reserved_19>	13
<reserved_20>	13
<reserved_21>	13
<reserved_22>	13
<reserved_23>	13
<reserved_24>	13
<reserved_25>	13
<reserved_26>	13
<reserved_27>	13
<reserved_28>	13
<reserved_29>	13
<reserved_30>	13
<reserved_31>	13
<reserved_32>	13
<reserved_33>	13
<reserved_34>	13
<reserved_35>	13
<reserved_36>	13
<reserved_37>	13
<reserved_38>	13
<reserved_39>	13
<reserved_40>	13
<reserved_41>	13
<reserved_42>	13
<reserved_43>	13
<reserved_44>	13
<reserved_45>	13
<reserved_46>	13
<reserved_47>	13
<reserved_48>	13
<reserved_49>	13
<reserved_50>	13
<reserved_51>	13
<reserved_52>	13
<reserved_53>	13
<reserved_54>	13
<reserved_55>	13
<reserved_56>	13
<reserved_57>	13
<reserved_58>	13
<reserved_59>	13
<reserved_60>	13
<reserved_61>	13
<reserved_62>	13
<reserved_63>	13
<reserved_64>	13
<reserved_66>	13
<reserved_67>	13
<reserved_68>	13
<reserved_69>	13
<reserved_70>	13
<reserved_71>	13
<reserved_72>	13
<reserved_73>	13
<reserved_74>	13
<reserved_75>	13
<reserved_76>	13
<reserved_77>	13
<reserved_78>	13
<reserved_79>	13
<reserved_80>	13
<reserved_81>	13
<reserved_82>	13
<reserved_83>	13
<reserved_84>	13
<reserved_85>	13
<reserved_86>	13
<reserved_87>	13
<reserved_88>	13
<reserved_89>	13
<reserved_90>	13
<reserved_91>	13
<reserved_92>	13
<reserved_93>	13
<reserved_94>	13
<reserved_95>	13
<reserved_96>	13
<reserved_97>	13
<reserved_98>	13
<reserved_99>	13
▁relationship	13
▁professional	13
▁distribution	13
▁applications	13
▁respectively	13
▁construction	13
▁Championship	13
▁requirements	13
▁organization	13
▁particularly	13
▁experimental	13
▁demonstrated	13
▁investigated	13
▁interactions	13
▁successfully	13
▁measurements	13
▁specifically	13
▁intervention	13
▁technologies	13
▁architecture	13
▁differential	13
▁transmission	13
Configuration	13
▁installation	13
▁conventional	13
▁contribution	13
▁presentation	13
▁institutions	13
▁neighborhood	13
▁instructions	13
▁optimization	13
▁observations	13
▁representing	13
▁introduction	13
▁Pennsylvania	13
▁contemporary	13
▁environments	13
▁availability	13
▁significance	13
▁quantitative	13
▁implications	13
▁registration	13
▁inflammation	13
▁consequences	13
▁increasingly	13
▁characterize	13
▁championship	13
▁mathematical	13
▁temperatures	13
▁improvements	13
▁capabilities	13
▁conversation	13
▁satisfaction	13
▁Additionally	13
▁intersection	13
▁expectations	13
▁modification	13
▁participated	13
▁subsequently	13
▁calculations	13
▁administered	13
▁dependencies	13
▁intelligence	13
▁hypertension	13
▁performances	13
▁manufacturer	13
▁intermediate	13
configuration	13
▁chemotherapy	13
▁considerable	13
▁contributing	13
▁conservation	13
▁redistribute	13
▁publications	13
▁transactions	13
▁acceleration	13
▁pathogenesis	13
▁associations	13
▁accumulation	13
▁combinations	13
▁Philadelphia	13
▁Professional	13
▁implementing	13
▁consistently	13
▁productivity	13
▁developments	13
▁incorporated	13
▁compensation	13
▁spectroscopy	13
▁difficulties	13
▁demonstrates	13
▁localization	13
▁presidential	13
▁restrictions	13
▁universities	13
▁announcement	13
▁agricultural	13
▁subscription	13
▁fluorescence	13
▁notification	13
▁Organization	13
documentclass	13
▁competitions	13
▁independence	13
▁interference	13
▁accomplished	13
▁Applications	13
▁continuously	13
▁entrepreneur	13
▁Specifically	13
▁Mathematical	13
▁conservative	13
▁alternatives	13
▁experiencing	13
▁Construction	13
▁arrangements	13
▁connectivity	13
▁substitution	13
▁establishing	13
▁Introduction	13
▁verification	13
▁proportional	13
▁manufactured	13
▁confirmation	13
EventListener	13
▁coordination	13
▁displacement	13
▁headquarters	13
▁occasionally	13
▁photographer	13
▁reproductive	13
▁constitution	13
▁conditioning	13
▁individually	13
▁personalized	13
▁contributors	13
▁dramatically	13
▁investigator	13
▁Technologies	13
▁constituency	13
▁neurological	13
▁correlations	13
▁prescription	13
▁simultaneous	13
▁pathological	13
▁confidential	13
▁stakeholders	13
▁Installation	13
▁perspectives	13
▁manipulation	13
▁considerably	13
▁sportspeople	13
▁Constitution	13
▁commissioned	13
▁Commonwealth	13
▁Experimental	13
▁standardized	13
▁Intelligence	13
▁descriptions	13
▁disabilities	13
▁regeneration	13
▁multivariate	13
▁Architecture	13
▁spectrometry	13
▁accompanying	13
▁tuberculosis	13
Authorization	13
▁overwhelming	13
▁Participants	13
▁Municipality	13
▁preparations	13
▁Nevertheless	13
▁Distribution	13
▁entertaining	13
▁sufficiently	13
▁polarization	13
▁complication	13
▁destinations	13
▁evolutionary	13
▁additionally	13
▁preservation	13
▁reproduction	13
▁transparency	13
▁occupational	13
▁concentrated	13
▁highlighting	13
▁achievements	13
stackoverflow	13
▁Metropolitan	13
▁laboratories	13
▁disappointed	13
▁partnerships	13
▁cancellation	13
▁permeability	13
▁segmentation	13
▁Commissioner	13
▁negotiations	13
djangoproject	13
▁transforming	13
▁compositions	13
▁appreciation	13
▁transduction	13
▁Differential	13
▁surprisingly	13
▁examinations	13
▁corporations	13
InstanceState	13
▁conductivity	13
▁hypothesized	13
▁Conservation	13
▁Consequently	13
▁appointments	13
▁recreational	13
▁explanations	13
▁inequalities	13
▁preoperative	13
▁surroundings	13
▁degeneration	13
▁Conservative	13
▁polymorphism	13
▁histological	13
▁fluctuations	13
▁implantation	13
▁Contemporary	13
▁constructing	13
▁unemployment	13
▁satisfactory	13
▁similarities	13
▁incorporates	13
▁certificates	13
stackexchange	13
▁Registration	13
▁radiotherapy	13
▁acknowledged	13
▁biosynthesis	13
▁investigates	13
▁commercially	13
▁Optimization	13
▁continuation	13
▁geographical	13
▁counterparts	13
▁Thanksgiving	13
▁spokesperson	13
▁hierarchical	13
▁historically	13
▁illustration	13
▁disturbances	13
▁translations	13
▁accidentally	13
▁purification	13
▁consequently	13
▁broadcasting	13
▁breakthrough	13
▁Relationship	13
▁jurisdiction	13
▁metropolitan	13
▁functionally	13
▁Publications	13
▁facilitating	13
▁refrigerator	13
▁inactivation	13
▁psychosocial	13
▁cytotoxicity	13
▁Independence	13
▁dissertation	13
▁Notification	13
authorization	13
▁inconsistent	13
Serialization	13
▁unsuccessful	13
▁conformation	13
▁angiogenesis	13
▁hypertensive	13
▁Saskatchewan	13
▁constituents	13
▁conveniently	13
▁perturbation	13
▁practitioner	13
▁infiltration	13
contentlocale	13
▁completeness	13
▁hospitalized	13
▁formulations	13
International	13
▁contaminated	13
▁Requirements	13
▁dissociation	13
▁shareholders	13
▁nevertheless	13
▁malignancies	13
▁progesterone	13
▁Agricultural	13
▁celebrations	13
▁specializing	13
▁collectively	13
▁immunization	13
communication	13
▁intermittent	13
▁oscillations	13
▁discontinued	13
▁periodically	13
notifications	13
▁disestablish	13
▁Christianity	13
▁Broadcasting	13
▁reservations	13
▁pretreatment	13
▁computations	13
▁repositories	13
▁transferring	13
▁permutations	13
▁synchronized	13
▁reproducible	13
▁collaborated	13
▁interstitial	13
▁scholarships	13
▁biologically	13
▁Subscription	13
▁osteoporosis	13
▁illumination	13
▁Intermediate	13
▁intracranial	13
▁economically	13
Specification	13
▁supplemented	13
▁neighbouring	13
▁glycoprotein	13
▁subcutaneous	13
▁Subsequently	13
▁superconduct	13
▁percutaneous	13
▁fibrillation	13
▁fermentation	13
▁constructive	13
▁Transmission	13
▁compartments	13
▁structurally	13
▁breathtaking	13
▁coordinating	13
▁authenticate	13
▁postdoctoral	13
▁demographics	13
authenticated	13
▁enhancements	13
▁congregation	13
▁photographic	13
▁neuroscience	13
▁Presidential	13
▁Measurements	13
▁Presentation	13
▁southeastern	13
▁acquisitions	13
▁augmentation	13
▁Jacksonville	13
▁homomorphism	13
▁bibliography	13
▁storytelling	13
▁irreversible	13
▁colonization	13
ofluorescence	13
Authenticated	13
▁asynchronous	13
▁Quantitative	13
▁deficiencies	13
▁northeastern	13
▁irrespective	13
▁accelerating	13
Documentation	13
▁Implications	13
▁commissioner	13
▁Contributors	13
▁ActiveRecord	13
▁Investigator	13
▁southwestern	13
▁deliberately	13
▁efficiencies	13
▁disconnected	13
▁biochemistry	13
▁cryptography	13
▁horizontally	13
▁computerized	13
▁hypothalamic	13
▁transplanted	13
▁Northwestern	13
▁pancreatitis	13
▁unexpectedly	13
▁anticipation	13
▁disadvantage	13
▁radiographic	13
▁authenticity	13
▁partitioning	13
▁information	12
▁significant	12
▁development	12
▁environment	12
▁performance	12
▁application	12
▁distributed	12
▁established	12
▁temperature	12
▁individuals	12
▁independent	12
▁opportunity	12
▁differences	12
▁traditional	12
▁description	12
▁interesting	12
▁combination	12
▁Association	12
displaystyle	12
▁responsible	12
▁investigate	12
▁interaction	12
▁experiments	12
▁alternative	12
▁probability	12
▁replacement	12
▁association	12
▁experienced	12
▁immediately	12
▁competition	12
▁communities	12
▁limitations	12
▁instruction	12
▁Development	12
▁demonstrate	12
▁footballers	12
▁maintenance	12
▁integration	12
▁permissions	12
▁improvement	12
▁represented	12
▁experiences	12
▁measurement	12
▁engineering	12
▁Information	12
▁correlation	12
▁implemented	12
▁programming	12
▁sensitivity	12
▁Furthermore	12
▁researchers	12
▁recommended	12
▁recognition	12
▁comfortable	12
▁effectively	12
▁educational	12
▁composition	12
▁consumption	12
▁considering	12
▁institution	12
▁potentially	12
▁populations	12
▁surrounding	12
▁possibility	12
▁perspective	12
▁competitive	12
▁statistical	12
▁partnership	12
▁examination	12
▁Description	12
▁Environment	12
▁participate	12
▁constructed	12
▁progression	12
▁translation	12
▁preparation	12
▁Application	12
▁Engineering	12
▁theoretical	12
▁substantial	12
▁challenging	12
▁Corporation	12
▁stimulation	12
nfortunately	12
▁destination	12
▁Mathematics	12
▁preliminary	12
▁connections	12
▁collections	12
▁politicians	12
▁denominator	12
▁complicated	12
▁publication	12
▁involvement	12
▁mathematics	12
▁advertising	12
▁appointment	12
▁transaction	12
▁observation	12
▁residential	12
▁requirement	12
▁authorities	12
▁dysfunction	12
▁explanation	12
▁placeholder	12
▁consecutive	12
▁interactive	12
▁restaurants	12
▁outstanding	12
▁respiratory	12
▁determining	12
▁suggestions	12
▁maintaining	12
▁constraints	12
▁identifying	12
▁reliability	12
▁calculation	12
▁sustainable	12
▁appreciated	12
▁methodology	12
▁acquisition	12
▁inspiration	12
▁simulations	12
▁prospective	12
dependencies	12
▁transferred	12
▁biochemical	12
▁essentially	12
▁efficiently	12
▁expressions	12
▁regulations	12
▁derivatives	12
▁instruments	12
▁photography	12
▁degradation	12
▁specificity	12
▁orientation	12
▁electricity	12
▁personality	12
▁legislation	12
▁Netherlands	12
▁contributed	12
plementation	12
▁computation	12
▁certificate	12
▁flexibility	12
▁communicate	12
▁operational	12
▁exponential	12
▁restriction	12
▁controlling	12
▁progressive	12
▁convergence	12
▁appearances	12
▁Performance	12
▁accompanied	12
▁equilibrium	12
▁specialized	12
▁cholesterol	12
▁uncertainty	12
▁discussions	12
▁alterations	12
▁ventricular	12
▁frequencies	12
▁definitions	12
▁accessories	12
▁documentary	12
▁replication	12
▁compression	12
▁functioning	12
▁exceptional	12
▁Independent	12
▁variability	12
▁generalized	12
▁photographs	12
▁enhancement	12
▁cooperation	12
▁transformed	12
▁exclusively	12
▁transparent	12
▁recruitment	12
▁predictions	12
▁anniversary	12
▁Philippines	12
▁qualitative	12
▁restoration	12
▁initiatives	12
▁compilation	12
▁preferences	12
▁Explanation	12
▁Switzerland	12
▁arrangement	12
▁exploration	12
▁feasibility	12
▁contributes	12
▁utilization	12
▁departments	12
▁encountered	12
Notification	12
▁importantly	12
▁celebration	12
▁conjunction	12
▁adolescents	12
▁synthesized	12
▁consequence	12
▁incorporate	12
▁investments	12
▁specialists	12
▁medications	12
▁differently	12
▁assumptions	12
▁accommodate	12
▁Republicans	12
▁circulation	12
▁Connecticut	12
operatorname	12
▁generations	12
▁credentials	12
▁competitors	12
▁governments	12
▁lymphocytes	12
incorporated	12
▁distinguish	12
▁consistency	12
▁spontaneous	12
▁approximate	12
▁comparative	12
▁contributor	12
▁formulation	12
▁macrophages	12
▁polynomials	12
ndescription	12
▁dimensional	12
▁achievement	12
▁Mississippi	12
▁introducing	12
▁Conclusions	12
disciplinary	12
▁recombinant	12
▁hypothesize	12
▁assessments	12
▁destruction	12
▁encouraging	12
▁lightweight	12
▁intelligent	12
▁corresponds	12
▁immigration	12
▁topological	12
▁attractions	12
▁integrating	12
▁extensively	12
▁agriculture	12
▁conditional	12
▁electronics	12
▁calculating	12
▁reconstruct	12
▁journalists	12
▁psychiatric	12
▁Legislative	12
▁coronavirus	12
▁illustrated	12
frastructure	12
notification	12
▁antibiotics	12
organization	12
▁nutritional	12
▁anticipated	12
▁scholarship	12
▁contractors	12
▁interpreted	12
▁respondents	12
▁transitions	12
▁demographic	12
▁spectacular	12
▁propagation	12
▁Christopher	12
▁aggregation	12
▁distinctive	12
▁comparisons	12
▁participant	12
Dependencies	12
▁fascinating	12
▁underground	12
▁transmitted	12
▁fluorescent	12
▁accordingly	12
▁metabolites	12
▁Afghanistan	12
▁conferences	12
▁distinction	12
▁ventilation	12
▁homogeneous	12
▁expectation	12
▁Voivodeship	12
▁rectangular	12
▁elimination	12
▁beautifully	12
▁irradiation	12
▁vaccination	12
▁inhabitants	12
▁circulating	12
▁disciplines	12
▁instability	12
▁susceptible	12
▁intravenous	12
▁Programming	12
▁conclusions	12
▁calibration	12
▁Statistical	12
▁interacting	12
▁Interesting	12
▁UnityEngine	12
▁manufacture	12
staticmethod	12
▁genetically	12
▁atmospheric	12
▁technicians	12
▁celebrating	12
▁allegations	12
▁Certificate	12
▁Integration	12
▁informative	12
▁descriptive	12
▁legislative	12
▁backgrounds	12
▁equivalence	12
▁marketplace	12
▁influential	12
▁positioning	12
▁perceptions	12
▁assignments	12
▁deformation	12
▁enterprises	12
IntegerField	12
▁supervision	12
▁prestigious	12
▁diffraction	12
▁contraction	12
▁accelerated	12
▁imagination	12
▁promotional	12
▁approaching	12
▁concentrate	12
▁controversy	12
▁trafficking	12
▁coordinated	12
▁controllers	12
▁interviewed	12
▁supplements	12
▁cooperative	12
▁Agriculture	12
▁temporarily	12
▁Competition	12
▁directories	12
▁declaration	12
▁methylation	12
▁evaluations	12
▁compartment	12
▁selectively	12
▁pharmacokin	12
▁Preliminary	12
requirements	12
▁projections	12
▁persistence	12
▁obstruction	12
▁continually	12
OutputStream	12
▁businessman	12
▁technically	12
▁permanently	12
▁innovations	12
▁tournaments	12
▁neighboring	12
▁fabrication	12
▁accumulated	12
▁eliminating	12
▁downloading	12
▁penetration	12
▁termination	12
▁disappeared	12
▁dynamically	12
registration	12
▁inexpensive	12
▁mechanistic	12
▁convolution	12
▁Mathematica	12
▁reservation	12
▁corporation	12
distribution	12
▁Institution	12
▁Probability	12
▁devastating	12
▁proprietary	12
▁foundations	12
▁influencing	12
▁submissions	12
▁sympathetic	12
▁transported	12
▁subscribers	12
▁ImportError	12
▁specializes	12
▁disturbance	12
▁acknowledge	12
▁practically	12
▁fundraising	12
▁stimulating	12
▁understands	12
▁collaborate	12
▁indications	12
▁constrained	12
▁antagonists	12
▁cytoplasmic	12
▁permutation	12
▁transcripts	12
▁symptomatic	12
▁nominations	12
▁multiplying	12
Subscription	12
▁selectivity	12
▁merchandise	12
▁Experiments	12
▁hospitality	12
Registration	12
▁grandfather	12
▁quarterback	12
▁Transaction	12
▁illustrates	12
▁coordinator	12
▁Hamiltonian	12
▁threatening	12
▁Educational	12
▁productions	12
▁consultants	12
▁exhibitions	12
▁disparities	12
▁settlements	12
▁obligations	12
INFRINGEMENT	12
▁midfielders	12
subscription	12
relationship	12
▁Photography	12
▁overlapping	12
▁proportions	12
▁electrophys	12
▁compromised	12
▁magnificent	12
▁isomorphism	12
availability	12
▁Traditional	12
▁territories	12
▁decorations	12
▁expenditure	12
▁counterpart	12
▁constitutes	12
▁irreducible	12
▁Measurement	12
▁celebrities	12
▁advancement	12
ographically	12
▁discovering	12
▁phosphatase	12
▁Productions	12
▁resolutions	12
▁Distributed	12
▁cylindrical	12
▁Interactive	12
▁chromosomes	12
▁Temperature	12
▁facilitated	12
▁sponsorship	12
▁attachments	12
▁transmitter	12
▁Electronics	12
▁PlayStation	12
▁screenshots	12
▁terminology	12
▁Collections	12
▁financially	12
▁alternating	12
▁realization	12
▁Significant	12
▁transformer	12
▁eligibility	12
▁frustrating	12
▁designation	12
▁corrections	12
▁Shakespeare	12
▁Paralympics	12
▁preclinical	12
▁Maintenance	12
▁angiography	12
▁grandmother	12
▁identifiers	12
▁diagnostics	12
▁interchange	12
▁transporter	12
▁citizenship	12
▁fingerprint	12
▁hippocampus	12
▁Considering	12
▁annotations	12
▁discoveries	12
▁Alternative	12
▁Translation	12
▁inheritance	12
▁attenuation	12
▁commutative	12
▁frustration	12
▁conventions	12
▁overlooking	12
▁countryside	12
▁initialized	12
▁Partnership	12
BooleanField	12
▁unavailable	12
▁spreadsheet	12
▁locomotives	12
▁willingness	12
▁researching	12
▁concomitant	12
▁transfusion	12
▁substituted	12
professional	12
▁conditioned	12
▁recognizing	12
▁Examination	12
▁predecessor	12
▁Minneapolis	12
▁Recognition	12
▁proposition	12
▁undertaking	12
experimental	12
▁resignation	12
▁incorrectly	12
▁procurement	12
▁numerically	12
▁speculation	12
▁hydrophobic	12
▁Maharashtra	12
▁pregnancies	12
▁Legislature	12
▁gestational	12
▁commitments	12
▁Improvement	12
▁unfortunate	12
▁glucocortic	12
▁Renaissance	12
Distribution	12
▁Westminster	12
▁antidepress	12
▁originating	12
▁neutrophils	12
▁obstructive	12
▁Fortunately	12
▁hypertrophy	12
▁forecasting	12
▁registering	12
architecture	12
▁comfortably	12
▁legislature	12
▁undoubtedly	12
Introduction	12
▁Observatory	12
▁radioactive	12
▁emotionally	12
▁Outstanding	12
▁cultivation	12
▁endothelium	12
▁prostagland	12
▁continental	12
▁accountable	12
▁synchronous	12
▁hepatocytes	12
▁deprivation	12
▁dissolution	12
▁drastically	12
▁encompasses	12
▁nonetheless	12
▁transgender	12
▁forthcoming	12
▁physiologic	12
▁Accordingly	12
▁landscaping	12
▁Progressive	12
▁mutagenesis	12
▁percentages	12
▁reflections	12
▁crystalline	12
▁centralized	12
▁interrupted	12
▁questioning	12
▁abstraction	12
▁Publication	12
▁coagulation	12
▁credibility	12
▁Coordinator	12
▁ineffective	12
▁programmers	12
▁directional	12
Organization	12
presentation	12
▁Anniversary	12
▁distributor	12
▁destructive	12
declarations	12
▁impairments	12
▁Continental	12
▁conflicting	12
Repositories	12
▁Replacement	12
▁endometrial	12
▁Herzegovina	12
EventHandler	12
▁wavelengths	12
▁hemodynamic	12
▁politically	12
▁prosecutors	12
▁Sustainable	12
▁oscillation	12
recipitation	12
▁implication	12
▁synergistic	12
▁Importantly	12
▁ultraviolet	12
repositories	12
▁Differences	12
▁Scholarship	12
▁conversions	12
▁behavioural	12
▁groundwater	12
▁intentional	12
▁manuscripts	12
▁Springfield	12
▁negotiation	12
▁reperfusion	12
▁prophylaxis	12
▁subtraction	12
transactions	12
▁supermarket	12
▁complaining	12
▁Interaction	12
▁terrestrial	12
▁spokeswoman	12
▁Theoretical	12
applications	12
▁prosecution	12
▁hyperplasia	12
▁Achievement	12
▁electrolyte	12
▁adolescence	12
▁infertility	12
▁Instruction	12
▁manipulated	12
▁logarithmic	12
▁inspections	12
▁versatility	12
▁conductance	12
▁transfected	12
▁emergencies	12
▁establishes	12
▁serializers	12
issuecomment	12
Relationship	12
▁Southampton	12
▁negotiating	12
contributors	12
▁contracting	12
▁Individuals	12
▁constituent	12
introduction	12
▁discrepancy	12
Applications	12
▁duplication	12
▁contractile	12
▁impressions	12
▁centimeters	12
▁contrasting	12
▁noninvasive	12
▁advertisers	12
ErrorMessage	12
▁unconscious	12
▁Recommended	12
▁trustworthy	12
▁University	11
▁understand	11
▁experience	11
▁individual	11
▁associated	11
▁particular	11
▁expression	11
▁conditions	11
▁production	11
▁management	11
▁technology	11
▁government	11
▁properties	11
▁successful	11
▁collection	11
▁additional	11
description	11
▁especially	11
▁difference	11
▁considered	11
▁activities	11
▁everything	11
▁increasing	11
▁identified	11
▁throughout	11
▁techniques	11
▁mechanisms	11
▁California	11
▁components	11
▁functional	11
▁Department	11
▁determined	11
▁previously	11
▁background	11
▁completely	11
▁structures	11
▁interested	11
▁connection	11
▁commercial	11
▁derivative	11
▁television	11
▁developing	11
▁Foundation	11
▁processing	11
▁resistance	11
▁operations	11
▁containing	11
▁themselves	11
▁activation	11
▁definition	11
▁evaluation	11
▁generation	11
▁applicable	11
▁Washington	11
▁characters	11
▁approaches	11
▁compliance	11
▁efficiency	11
▁importance	11
▁literature	11
▁introduced	11
▁experiment	11
▁assessment	11
▁Australian	11
▁protection	11
▁continuous	11
▁hypothesis	11
▁resolution	11
▁businesses	11
▁investment	11
▁department	11
▁regulation	11
▁comparison	11
▁transition	11
▁Management	11
▁comprehens	11
▁WARRANTIES	11
▁conference	11
▁definitely	11
▁represents	11
Application	11
▁structural	11
▁contribute	11
▁facilities	11
▁relatively	11
▁discussion	11
▁equivalent	11
▁monitoring	11
application	11
▁scientific	11
▁consistent	11
▁procedures	11
▁photograph	11
▁simulation	11
▁biological	11
▁integrated	11
▁controlled	11
▁underlying	11
▁Commission	11
dimensional	11
▁confidence	11
▁Technology	11
▁calculated	11
▁appearance	11
▁discovered	11
▁polynomial	11
hentication	11
▁electronic	11
Description	11
▁eventually	11
▁implements	11
usercontent	11
▁laboratory	11
▁originally	11
▁CONDITIONS	11
▁industrial	11
▁Government	11
▁instrument	11
▁frequently	11
▁algorithms	11
Collections	11
▁innovative	11
▁regression	11
▁treatments	11
▁Conference	11
▁university	11
▁supporting	11
▁statistics	11
▁percentage	11
▁registered	11
▁leadership	11
▁basketball	11
▁candidates	11
▁historical	11
▁recognized	11
▁complement	11
▁restaurant	11
▁electrical	11
▁prevention	11
▁mechanical	11
▁categories	11
▁inhibition	11
▁tournament	11
▁subsequent	11
▁assistance	11
▁transplant	11
▁regulatory	11
▁diagnostic	11
▁repository	11
▁complexity	11
▁conversion	11
▁commission	11
▁politician	11
▁guidelines	11
▁controller	11
▁antibodies	11
▁metabolism	11
▁depression	11
▁absolutely	11
▁permission	11
▁performing	11
▁infections	11
▁suggesting	11
▁appreciate	11
▁healthcare	11
▁prevalence	11
▁correlated	11
▁situations	11
▁scientists	11
▁understood	11
▁references	11
▁foundation	11
▁commitment	11
▁Illuminate	11
▁Democratic	11
▁Parliament	11
▁accessible	11
▁affordable	11
▁supplement	11
▁developers	11
▁maintained	11
▁behavioral	11
▁conclusion	11
▁prediction	11
▁attributes	11
▁validation	11
▁inhibitors	11
▁concerning	11
▁principles	11
▁PARTICULAR	11
▁footballer	11
▁reasonable	11
▁completion	11
▁proportion	11
▁ultimately	11
▁indicating	11
▁innovation	11
▁Republican	11
▁peripheral	11
▁employment	11
▁objectives	11
environment	11
▁advantages	11
▁statements	11
▁impossible	11
▁atmosphere	11
▁membership	11
▁entreprene	11
▁randomized	11
▁isinstance	11
▁engagement	11
▁controvers	11
▁Collection	11
▁horizontal	11
▁coordinate	11
▁interviews	11
▁directions	11
▁variations	11
▁continuing	11
▁correction	11
▁attractive	11
▁consisting	11
▁compatible	11
▁beneficial	11
▁incredible	11
▁generating	11
▁correspond	11
▁unexpected	11
▁microscopy	11
▁impressive	11
▁apparently	11
▁constantly	11
▁volunteers	11
ambiguation	11
ternational	11
▁accomplish	11
▁separation	11
▁strengthen	11
▁absorption	11
▁classified	11
▁decreasing	11
▁officially	11
▁artificial	11
▁respective	11
▁industries	11
▁inequality	11
▁reputation	11
▁systematic	11
▁medication	11
▁surprising	11
▁capability	11
▁influenced	11
▁extraction	11
▁exhibition	11
▁settlement	11
▁disappoint	11
▁protective	11
▁dependence	11
▁restricted	11
▁retirement	11
▁specialist	11
▁difficulty	11
▁revolution	11
▁phenomenon	11
▁transcript	11
▁navigation	11
▁documented	11
▁highlights	11
▁personally	11
▁enterprise	11
▁comparable	11
▁everywhere	11
▁analytical	11
ibliography	11
▁assignment	11
▁submission	11
▁households	11
▁accurately	11
▁initiative	11
▁expatriate	11
▁physicians	11
Transaction	11
▁connecting	11
▁clinically	11
▁colleagues	11
▁dependency	11
▁myocardial	11
▁accounting	11
development	11
▁presenting	11
▁assumption	11
▁guaranteed	11
Environment	11
▁Properties	11
▁influences	11
▁evaluating	11
▁predictive	11
▁perception	11
▁designated	11
▁adaptation	11
▁disability	11
▁Originally	11
▁extensions	11
▁wavelength	11
▁dictionary	11
▁encouraged	11
▁deficiency	11
▁occurrence	11
▁delivering	11
▁describing	11
▁meaningful	11
▁separately	11
▁curriculum	11
▁philosophy	11
▁undergoing	11
▁Federation	11
▁deployment	11
▁boundaries	11
Programming	11
▁publishing	11
▁likelihood	11
▁Controller	11
▁Statistics	11
▁preventing	11
▁explicitly	11
▁aggressive	11
▁substitute	11
Controllers	11
▁acceptable	11
resentation	11
▁intestinal	11
▁agreements	11
▁incredibly	11
▁attachment	11
▁recurrence	11
▁reflection	11
▁parliament	11
▁projection	11
▁passengers	11
▁distribute	11
▁purchasing	11
▁widespread	11
▁modulation	11
▁persistent	11
▁initialize	11
translation	11
▁Additional	11
▁inspection	11
▁suggestion	11
▁identifier	11
▁elementary	11
▁JavaScript	11
▁recordings	11
▁completing	11
▁chromosome	11
▁networking	11
▁remarkable	11
▁inhibitory	11
▁opposition	11
▁motivation	11
▁preference	11
▁smartphone	11
annotations	11
▁limitation	11
▁relaxation	11
▁vegetables	11
▁calculator	11
▁impairment	11
▁Protection	11
▁ValueError	11
▁ultrasound	11
▁conducting	11
▁surrounded	11
▁structured	11
▁translated	11
▁struggling	11
▁morphology	11
transaction	11
▁quantities	11
▁conceptual	11
▁journalist	11
▁attributed	11
▁collective	11
▁sequencing	11
▁installing	11
▁scattering	11
▁Queensland	11
▁pancreatic	11
▁positively	11
▁downloaded	11
▁popularity	11
ifferential	11
▁Laboratory	11
▁addressing	11
▁recipients	11
▁Revolution	11
▁convention	11
▁Tournament	11
▁constraint	11
▁tomography	11
▁initiation	11
▁acceptance	11
▁creativity	11
▁collecting	11
▁illustrate	11
▁passionate	11
▁substrates	11
▁productive	11
▁attempting	11
▁expressing	11
▁Industrial	11
▁subprocess	11
▁endogenous	11
▁Definition	11
▁impression	11
▁infectious	11
▁interfaces	11
▁physically	11
▁instanceof	11
placeholder	11
▁protecting	11
performance	11
▁accordance	11
Information	11
▁similarity	11
▁substances	11
ycombinator	11
▁regulating	11
established	11
persistence	11
▁supporters	11
▁celebrated	11
▁Experience	11
▁configured	11
▁customized	11
▁suspension	11
InputStream	11
▁containers	11
▁migrations	11
▁downstream	11
▁Connection	11
▁Conclusion	11
▁scheduling	11
▁undertaken	11
▁manuscript	11
▁allocation	11
▁thoroughly	11
▁concurrent	11
▁complaints	11
▁cricketers	11
▁deposition	11
▁responsive	11
▁explaining	11
▁Bangladesh	11
▁arithmetic	11
▁collisions	11
▁consulting	11
▁critically	11
▁Enterprise	11
▁satisfying	11
▁Everything	11
▁discussing	11
▁travelling	11
▁stimulated	11
▁Assessment	11
▁descending	11
▁biomarkers	11
▁Expression	11
▁Elementary	11
▁automation	11
▁excellence	11
▁exceptions	11
▁encryption	11
▁metastatic	11
▁repeatedly	11
▁introduces	11
▁References	11
▁nationwide	11
▁transgenic	11
▁authorized	11
▁Scientific	11
Development	11
▁simplified	11
▁attendance	11
▁submitting	11
▁incomplete	11
▁blockchain	11
▁prognostic	11
▁predicting	11
▁biomedical	11
▁newsletter	11
▁Operations	11
▁discipline	11
▁infarction	11
▁Convention	11
▁threatened	11
▁appliances	11
▁determines	11
▁Pittsburgh	11
▁Basketball	11
▁contractor	11
▁consultant	11
▁clustering	11
▁implicated	11
▁Individual	11
▁Birmingham	11
▁mainstream	11
▁remodeling	11
▁eliminated	11
▁indication	11
▁visibility	11
▁negatively	11
▁withdrawal	11
▁Commercial	11
▁polymerase	11
▁prescribed	11
independent	11
▁Portuguese	11
avitational	11
▁possession	11
▁researcher	11
▁governance	11
information	11
▁Publishing	11
▁affiliated	11
▁qualifying	11
▁potentials	11
▁apartments	11
▁disruption	11
▁Evaluation	11
▁mathematic	11
classmethod	11
▁psychology	11
temperature	11
▁Television	11
▁supportive	11
▁sequential	11
integration	11
▁newspapers	11
▁stationary	11
▁responding	11
▁Validation	11
▁executives	11
▁immunohist	11
▁converting	11
▁automotive	11
▁afterwards	11
destination	11
▁subproject	11
▁formatting	11
▁Historical	11
▁challenged	11
▁clinicians	11
▁Generation	11
▁autonomous	11
credentials	11
▁nucleotide	11
▁pronounced	11
▁priorities	11
▁continuity	11
▁ecological	11
▁Background	11
permissions	11
▁congenital	11
▁cumulative	11
Implemented	11
▁Mathematic	11
▁invitation	11
▁tremendous	11
controllers	11
▁counseling	11
▁compromise	11
▁subjective	11
▁approached	11
▁colorectal	11
▁immigrants	11
▁Simulation	11
▁constitute	11
▁regulators	11
▁provincial	11
▁generators	11
▁identifies	11
▁attraction	11
▁applicants	11
▁signatures	11
▁comprising	11
▁recognised	11
▁Permission	11
▁conjecture	11
▁Innovation	11
▁nationally	11
▁maturation	11
▁displaying	11
▁corruption	11
▁Electronic	11
▁traditions	11
▁normalized	11
▁simplicity	11
▁accelerate	11
▁graduating	11
▁Processing	11
▁adolescent	11
▁compassion	11
▁compelling	11
▁graduation	11
▁reactivity	11
▁phenotypes	11
▁engineered	11
▁suppressed	11
precedented	11
▁identities	11
▁adsorption	11
▁fractional	11
▁Prefecture	11
▁epithelium	11
▁provisions	11
▁organizing	11
▁Christians	11
▁Investment	11
▁geographic	11
▁occupation	11
▁girlfriend	11
▁physiology	11
▁nomination	11
▁kilometers	11
▁motorcycle	11
▁positioned	11
▁practicing	11
▁friendship	11
▁throughput	11
▁adventures	11
▁guarantees	11
▁excitation	11
▁annotation	11
▁soundtrack	11
▁reflecting	11
▁referenced	11
▁formulated	11
▁Associated	11
▁reductions	11
▁Prevention	11
▁dispersion	11
▁midfielder	11
▁fabricated	11
▁anesthesia	11
▁reasonably	11
▁Leadership	11
▁earthquake	11
▁durability	11
tbackground	11
▁dedication	11
▁mysterious	11
▁reversible	11
▁disclosure	11
▁remembered	11
▁phospholip	11
▁occasional	11
▁constructs	11
▁pathogenic	11
▁Restaurant	11
▁preventive	11
▁Literature	11
▁microscope	11
▁transforms	11
▁homeowners	11
▁vegetation	11
▁compressed	11
▁screenshot	11
▁injections	11
▁Comparison	11
Credentials	11
▁saturation	11
▁frameworks	11
▁Functional	11
▁setuptools	11
▁decorative	11
▁underneath	11
▁enrollment	11
▁Population	11
▁decoration	11
▁internally	11
▁prohibited	11
▁commentary	11
▁Especially	11
ratulations	11
distributed	11
▁dielectric	11
▁subsidiary	11
▁Electrical	11
▁filtration	11
▁litigation	11
▁refreshing	11
▁violations	11
▁Cincinnati	11
▁measurable	11
▁Repository	11
▁multiplied	11
▁preserving	11
operatively	11
▁incentives	11
▁Associates	11
▁Healthcare	11
▁Parameters	11
▁caregivers	11
▁competence	11
▁recruiting	11
▁meditation	11
▁Experiment	11
▁plasticity	11
▁insulation	11
▁volatility	11
DESCRIPTION	11
▁presumably	11
▁iterations	11
▁tensorflow	11
▁profitable	11
▁executable	11
▁anatomical	11
comfortable	11
▁deprecated	11
▁successive	11
▁affiliates	11
▁hemoglobin	11
▁lymphocyte	11
▁disclaimer	11
▁anticipate	11
▁neurotrans	11
▁originated	11
▁triangular	11
▁architects	11
▁CONNECTION	11
▁incubation	11
▁definitive	11
▁Discussion	11
▁intentions	11
▁playground	11
▁obligation	11
▁percussion	11
▁electrodes	11
▁associates	11
▁classifier	11
▁processors	11
▁performers	11
▁Resolution	11
▁Initiative	11
▁modalities	11
transferase	11
outheastern	11
▁Developers	11
▁renovation	11
▁landscapes	11
▁depressive	11
▁retrospect	11
▁workaround	11
▁asymmetric	11
otechnology	11
▁usefulness	11
▁journalism	11
▁Initialize	11
▁selections	11
▁Throughout	11
▁Industries	11
▁middleware	11
▁rotational	11
▁recreation	11
Preferences	11
▁resilience	11
▁distortion	11
▁hyperbolic	11
▁infinitely	11
▁Excellence	11
▁enthusiasm	11
▁Guidelines	11
▁macrophage	11
▁publishers	11
programming	11
▁cytochrome	11
▁derivation	11
▁vocabulary	11
▁thrombosis	11
▁altogether	11
▁multimedia	11
▁accredited	11
▁interferon	11
Translation	11
▁hemorrhage	11
▁attenuated	11
▁convergent	11
▁covariance	11
▁inhibiting	11
▁contacting	11
▁requesting	11
▁Azerbaijan	11
▁decorating	11
▁diminished	11
▁conduction	11
▁greenhouse	11
▁thereafter	11
▁Montgomery	11
▁discomfort	11
▁democratic	11
▁Navigation	11
▁minimizing	11
Integration	11
▁adequately	11
▁promotions	11
▁alteration	11
▁phenotypic	11
▁historians	11
▁Monitoring	11
ancellation	11
▁irrigation	11
ortheastern	11
▁stretching	11
▁recommends	11
▁divergence	11
▁brightness	11
▁questioned	11
▁isomorphic	11
▁formations	11
▁imperative	11
▁Petersburg	11
▁Mechanical	11
▁suspicious	11
▁securities	11
▁quantified	11
▁projective	11
▁micrograms	11
▁sublicense	11
▁encounters	11
▁Integrated	11
▁javascript	11
▁Lieutenant	11
collections	11
▁overweight	11
▁activating	11
▁admissions	11
▁irrational	11
▁terminated	11
▁Ambassador	11
▁intriguing	11
▁epigenetic	11
▁recognizes	11
▁supervised	11
▁Calculator	11
▁Wellington	11
▁administer	11
informatics	11
▁harassment	11
▁inevitable	11
▁vertically	11
▁punishment	11
▁economical	11
▁criticized	11
▁malignancy	11
▁Psychology	11
▁reinforced	11
▁reciprocal	11
▁underwater	11
▁extinction	11
▁optimizing	11
locfilehash	11
▁Philippine	11
Certificate	11
▁Previously	11
▁ambassador	11
CreateModel	11
▁committees	11
▁frustrated	11
▁confirming	11
lasthandoff	11
▁indirectly	11
ncategories	11
▁dealership	11
▁Conditions	11
▁hydrolysis	11
▁contextual	11
▁pertaining	11
▁specialize	11
▁overlooked	11
▁repetitive	11
▁competitor	11
classifiers	11
▁rheumatoid	11
▁kilometres	11
▁standalone	11
▁enrichment	11
▁Continuous	11
Interceptor	11
Permissions	11
▁emphasized	11
▁thresholds	11
▁cohomology	11
▁capacities	11
▁misleading	11
▁perfection	11
▁supervisor	11
▁deviations	11
▁combustion	11
▁Nottingham	11
▁checkpoint	11
▁discretion	11
▁sculptures	11
▁fellowship	11
connections	11
▁recovering	11
▁moderately	11
▁Depression	11
▁diplomatic	11
▁composites	11
Transformer	11
▁spacecraft	11
▁remarkably	11
Performance	11
constraints	11
▁Fellowship	11
▁velocities	11
▁dissection	11
▁programmed	11
▁classrooms	11
threatening	11
▁homologous	11
▁Artificial	11
▁Specialist	11
▁progenitor	11
▁Difference	11
tikzpicture	11
▁protesters	11
▁discounted	11
▁Philosophy	11
▁conspiracy	11
▁unilateral	11
▁Regulation	11
▁privileged	11
▁Provincial	11
▁programmer	11
▁expedition	11
DisplayName	11
represented	11
▁technician	11
▁linguistic	11
▁localities	11
▁wastewater	11
▁Correction	11
▁conviction	11
▁goalkeeper	11
▁ionization	11
▁pedestrian	11
▁separating	11
limitations	11
▁weaknesses	11
▁metabolite	11
directories	11
▁charitable	11
▁referendum	11
▁aggregates	11
▁noticeable	11
▁translates	11
▁Louisville	11
▁collateral	11
▁Consulting	11
▁Components	11
▁deliveries	11
▁Resistance	11
DEVELOPMENT	11
▁irrelevant	11
▁exhibiting	11
▁Accounting	11
▁congestion	11
▁accumulate	11
Annotations	11
▁Sacramento	11
▁reproduced	11
▁reflective	11
▁songwriter	11
▁eliminates	11
▁Richardson	11
▁stimulates	11
▁partitions	11
▁neutrophil	11
orientation	11
▁ubiquitous	11
▁Exhibition	11
▁ecosystems	11
▁wheelchair	11
▁Instrument	11
▁delightful	11
▁Structural	11
▁attracting	11
▁peritoneal	11
Destination	11
▁announcing	11
▁thoughtful	11
interactive	11
▁veterinary	11
▁unaffected	11
▁satellites	11
▁Profession	11
▁Regression	11
▁signalling	11
▁Employment	11
▁Activities	11
▁Eventually	11
▁microphone	11
▁playwright	11
▁pathologic	11
definitions	11
▁relational	11
forgettable	11
▁observable	11
▁phosphorus	11
▁privileges	11
textgreater	11
▁therapists	11
▁Algorithms	11
▁endangered	11
hematically	11
▁Apparently	11
▁aggression	11
▁demolished	11
Declaration	11
▁internship	11
▁fulfilling	11
▁currencies	11
▁chemically	11
▁organizers	11
▁modulating	11
▁freshwater	11
▁contracted	11
▁behaviours	11
▁synthesize	11
▁cigarettes	11
▁professors	11
▁animations	11
▁Successful	11
▁worthwhile	11
▁convincing	11
▁summarized	11
▁Securities	11
▁Submission	11
▁triggering	11
▁Vietnamese	11
▁Salmonella	11
▁Gloucester	11
▁complained	11
▁minorities	11
▁creatinine	11
▁emphasizes	11
▁seamlessly	11
▁refractive	11
▁succession	11
▁Polynomial	11
▁pesticides	11
▁Providence	11
▁translator	11
Diagnostics	11
▁expiration	11
▁Identifier	11
▁repetition	11
▁Recreation	11
engineering	11
▁extracting	11
▁Ultimately	11
▁harvesting	11
▁Transition	11
▁elasticity	11
▁Javascript	11
certificate	11
▁collectors	11
▁Charleston	11
▁supposedly	11
▁superoxide	11
▁celebrates	11
▁lieutenant	11
▁progressed	11
▁delegation	11
▁culturally	11
▁benchmarks	11
▁conception	11
▁aspiration	11
▁Antarctica	11
APPLICATION	11
▁calculates	11
▁Luxembourg	11
▁neighbours	11
conditional	11
▁hemisphere	11
▁Kazakhstan	11
▁consortium	11
▁disturbing	11
▁terrorists	11
▁Membership	11
▁companions	11
▁researched	11
serializers	11
▁indicative	11
▁Biological	11
▁Increasing	11
▁Archbishop	11
▁cultivated	11
transparent	11
▁advertised	11
▁Lancashire	11
▁assortment	11
▁trademarks	11
▁Consortium	11
▁anticancer	11
▁hereditary	11
▁Lagrangian	11
▁palliative	11
▁responders	11
▁mentioning	11
▁mitigation	11
ContentType	11
▁multiplier	11
▁subscriber	11
▁presidency	11
▁turbulence	11
▁histologic	11
▁Conversely	11
▁theatrical	11
▁neuropathy	11
▁solubility	11
▁procedural	11
▁Aboriginal	11
▁confronted	11
▁neoplastic	11
▁Adventures	11
▁disconnect	11
Temperature	11
Association	11
▁Canterbury	11
▁accidental	11
Interaction	11
▁surfactant	11
▁initiating	11
▁invertible	11
▁elucidated	11
▁exploiting	11
▁instructed	11
publication	11
▁perceptual	11
▁vegetarian	11
▁GameObject	11
▁luminosity	11
▁stabilized	11
▁stratified	11
▁partnering	11
▁aesthetics	11
▁connective	11
▁Alexandria	11
▁committing	11
▁Automation	11
Instruction	11
▁irradiated	11
▁destroying	11
▁commenting	11
AccessToken	11
▁subscribed	11
▁Supplement	11
▁narratives	11
▁astrocytes	11
▁summarizes	11
▁pioneering	11
astructural	11
▁filesystem	11
▁sandwiches	11
OwnProperty	11
▁headphones	11
▁Madagascar	11
▁neurologic	11
▁touchdowns	11
▁proceeding	11
▁Activation	11
structuring	11
▁Interstate	11
interaction	11
<!DOCTYPE>	10
▁different	10
▁including	10
▁following	10
▁available	10
▁important	10
▁character	10
▁treatment	10
▁something	10
▁potential	10
▁represent	10
▁community	10
▁relations	10
▁implement	10
▁increased	10
▁structure	10
▁questions	10
▁determine	10
▁developed	10
▁functions	10
▁currently	10
▁according	10
▁knowledge	10
▁published	10
▁companies	10
▁effective	10
▁described	10
▁condition	10
▁difficult	10
▁performed	10
▁education	10
▁September	10
▁solutions	10
▁customers	10
Controller	10
ampionship	10
▁interface	10
▁direction	10
▁beautiful	10
▁establish	10
▁Copyright	10
▁presented	10
▁construct	10
▁resources	10
▁materials	10
▁algorithm	10
▁providing	10
▁transform	10
▁component	10
▁variables	10
▁transport	10
▁financial	10
▁molecular	10
▁countries	10
▁completed	10
▁President	10
▁processes	10
▁recommend	10
▁reference	10
▁contribut	10
▁attention	10
▁Australia	10
▁frequency	10
background	10
▁statement	10
▁mechanism	10
▁generated	10
▁operation	10
▁president	10
▁regarding	10
▁selection	10
▁technique	10
▁political	10
▁interview	10
▁announced	10
▁infection	10
▁influence	10
▁architect	10
▁equipment	10
▁formation	10
▁reduction	10
▁responses	10
▁therefore	10
▁Institute	10
▁equations	10
▁excellent	10
▁situation	10
▁conducted	10
▁detection	10
▁Microsoft	10
▁insurance	10
▁directory	10
▁sometimes	10
▁supported	10
▁framework	10
imensional	10
▁diagnosis	10
ifications	10
▁marketing	10
▁beginning	10
▁challenge	10
▁employees	10
▁connected	10
▁generally	10
components	10
▁exception	10
▁evaluated	10
▁resulting	10
▁extension	10
Repository	10
▁procedure	10
▁discussed	10
▁collected	10
▁increases	10
▁Therefore	10
▁expressed	10
▁continued	10
▁installed	10
▁technical	10
▁decreased	10
▁objective	10
▁advantage	10
▁confirmed	10
▁operating	10
▁suggested	10
▁Wednesday	10
▁otherwise	10
▁extremely	10
▁candidate	10
▁agreement	10
▁dedicated	10
▁Christmas	10
▁estimated	10
▁calculate	10
▁buildings	10
▁secondary	10
▁governing	10
astructure	10
▁administr	10
▁mentioned	10
▁standards	10
▁Calculate	10
▁Education	10
▁residents	10
▁Exception	10
▁disorders	10
▁signaling	10
▁highlight	10
▁locations	10
annotation	10
▁documents	10
▁Christian	10
▁remaining	10
▁certainly	10
▁synthesis	10
▁Committee	10
▁stability	10
▁typically	10
▁wonderful	10
▁mortality	10
▁thousands	10
▁extensive	10
▁indicated	10
▁continues	10
▁evolution	10
▁Community	10
▁depending	10
▁household	10
▁container	10
▁According	10
▁molecules	10
▁copyright	10
▁involving	10
Connection	10
▁compounds	10
▁decisions	10
ailability	10
▁sensitive	10
▁positions	10
▁receiving	10
▁receptors	10
▁expansion	10
▁correctly	10
ufeffusing	10
▁officials	10
▁emergency	10
▁expertise	10
▁dependent	10
▁screening	10
▁sequences	10
▁appointed	10
controller	10
▁cognitive	10
▁variation	10
connection	10
▁radiation	10
Collection	10
▁dimension	10
▁remainder	10
▁behaviour	10
▁describes	10
▁improving	10
▁executive	10
▁delivered	10
▁incidence	10
▁furniture	10
▁committed	10
▁particles	10
▁expensive	10
vironments	10
▁worldwide	10
▁uncertain	10
▁explained	10
▁providers	10
▁scheduled	10
▁distribut	10
▁undefined	10
▁corporate	10
▁recording	10
▁initially	10
▁contained	10
▁existence	10
▁classical	10
▁protected	10
▁indicates	10
▁reporting	10
▁threshold	10
▁languages	10
▁composite	10
▁pregnancy	10
▁mutations	10
▁induction	10
migrations	10
ortunately	10
▁encounter	10
usepackage	10
▁introduce	10
properties	10
▁consumers	10
▁broadcast	10
▁anonymous	10
▁entertain	10
repository	10
▁principal	10
▁qualified	10
▁featuring	10
▁intensity	10
▁Americans	10
▁personnel	10
▁operators	10
Properties	10
▁platforms	10
▁concerned	10
▁reactions	10
▁guarantee	10
▁purchased	10
▁Francisco	10
▁programme	10
▁interests	10
▁immediate	10
▁injection	10
▁Represent	10
▁emotional	10
▁pulmonary	10
▁professor	10
▁producing	10
▁metabolic	10
▁awareness	10
▁attribute	10
▁migration	10
▁regularly	10
▁elections	10
▁committee	10
▁diversity	10
▁magnitude	10
▁organized	10
▁afternoon	10
▁religious	10
▁Component	10
▁predicted	10
▁searching	10
▁signature	10
▁perfectly	10
▁discovery	10
▁exclusive	10
▁permanent	10
▁landscape	10
▁diagnosed	10
▁computing	10
▁promising	10
▁alongside	10
▁submitted	10
▁addresses	10
▁carefully	10
ologically	10
▁activated	10
▁yesterday	10
▁Professor	10
▁basically	10
▁investors	10
▁principle	10
▁requested	10
▁libraries	10
▁childhood	10
▁mitochond	10
▁happening	10
▁execution	10
▁Wisconsin	10
▁measuring	10
collection	10
▁recognize	10
▁inhibitor	10
▁bacterial	10
▁ourselves	10
▁underwent	10
▁graduated	10
javascript	10
parameters	10
▁assistant	10
▁lifestyle	10
▁complexes	10
▁preferred	10
▁nonlinear	10
▁addressed	10
Parameters	10
▁delicious	10
expression	10
▁returning	10
▁identical	10
▁separated	10
▁Minnesota	10
▁converted	10
▁behaviors	10
▁thickness	10
▁developer	10
▁somewhere	10
▁strategic	10
▁substance	10
▁apoptosis	10
▁synthetic	10
▁wondering	10
▁generator	10
▁Secretary	10
▁substrate	10
▁promotion	10
▁comparing	10
▁phosphory	10
▁dangerous	10
▁reproduce	10
▁prominent	10
▁instances	10
▁apartment	10
▁newspaper	10
▁targeting	10
etherlands	10
▁hospitals	10
▁temporary	10
▁incorrect	10
▁portfolio	10
▁selective	10
▁suffering	10
▁resonance	10
▁Instagram	10
▁breakfast	10
▁naturally	10
stylesheet	10
▁celebrate	10
▁obviously	10
▁Executive	10
▁chocolate	10
Serializer	10
Expression	10
▁Singapore	10
▁therapies	10
associated	10
validation	10
▁Transport	10
▁Questions	10
▁ownership	10
▁concluded	10
▁resistant	10
▁promoting	10
Definition	10
▁partially	10
▁intervals	10
▁favourite	10
attributes	10
▁adventure	10
▁processed	10
▁seriously	10
▁certified	10
▁authority	10
▁confident	10
▁listening	10
▁automated	10
▁integrity	10
▁Following	10
▁tolerance	10
▁exhibited	10
▁satellite	10
▁regulated	10
▁secretion	10
▁musicians	10
▁protocols	10
Middleware	10
▁movements	10
middleware	10
▁affecting	10
▁provision	10
▁physician	10
▁medalists	10
▁PropTypes	10
▁inclusion	10
▁tradition	10
▁polymorph	10
▁utilizing	10
▁obtaining	10
▁constants	10
▁partition	10
▁Financial	10
▁computers	10
▁districts	10
▁Solutions	10
▁Currently	10
▁surprised	10
▁Alexander	10
▁inhibited	10
▁fractions	10
▁recipient	10
▁universal	10
▁intention	10
▁satisfied	10
▁Elizabeth	10
▁attending	10
▁chemistry	10
▁designing	10
management	10
▁requiring	10
▁inventory	10
Identifier	10
▁occurring	10
▁exploring	10
▁extracted	10
▁Melbourne	10
▁Insurance	10
▁decreases	10
▁pediatric	10
ographical	10
▁geometric	10
▁eliminate	10
▁contracts	10
▁algebraic	10
▁classroom	10
▁preparing	10
▁intensive	10
▁Tennessee	10
▁admission	10
▁combining	10
▁switching	10
▁placement	10
▁perceived	10
▁sophistic	10
▁animation	10
▁engineers	10
activation	10
▁Treatment	10
▁traveling	10
▁designers	10
▁Resources	10
▁expanding	10
▁Marketing	10
▁finishing	10
▁phenotype	10
▁deviation	10
▁residence	10
▁ArrayList	10
witzerland	10
ForeignKey	10
▁conscious	10
▁prototype	10
▁configure	10
Validation	10
▁precisely	10
▁attempted	10
▁amplitude	10
▁validated	10
▁reception	10
▁symmetric	10
▁transient	10
▁streaming	10
▁packaging	10
▁empirical	10
▁abilities	10
▁Hollywood	10
▁achieving	10
▁literally	10
▁Challenge	10
▁responded	10
▁oxidative	10
▁emissions	10
▁Different	10
▁electroph	10
▁nutrition	10
▁telephone	10
▁elevation	10
▁spiritual	10
▁directors	10
▁malignant	10
▁replacing	10
▁workshops	10
▁databases	10
▁Sometimes	10
▁morbidity	10
▁ecosystem	10
▁neighbour	10
▁electrons	10
▁producers	10
▁destroyed	10
▁isolation	10
▁sustained	10
▁territory	10
▁Character	10
▁consisted	10
▁processor	10
▁accompany	10
▁associate	10
▁oxidation	10
▁selecting	10
▁exercises	10
▁volunteer	10
▁Assistant	10
▁competing	10
productive	10
▁alignment	10
▁paragraph	10
categories	10
regulation	10
▁retention	10
▁Norwegian	10
production	10
▁collision	10
Extensions	10
▁simulated	10
▁Reference	10
▁Brazilian	10
▁discusses	10
▁generates	10
▁chemicals	10
processing	10
▁relevance	10
resolution	10
identifier	10
▁clearance	10
▁workplace	10
▁mountains	10
▁acknowled	10
▁mechanics	10
▁reflected	10
▁publisher	10
▁recovered	10
▁Beautiful	10
▁realistic	10
▁initiated	10
▁hopefully	10
▁passenger	10
▁paintings	10
extensions	10
▁suppliers	10
dependency	10
▁Framework	10
▁suspected	10
▁assessing	10
▁Authority	10
romagnetic	10
▁elucidate	10
▁timestamp	10
▁franchise	10
▁campaigns	10
▁analyzing	10
▁pollution	10
▁discontin	10
▁duplicate	10
▁Argentina	10
▁virtually	10
▁Wikipedia	10
transition	10
▁pathology	10
combinator	10
▁secretary	10
▁nominated	10
▁everybody	10
controlled	10
Background	10
▁Louisiana	10
▁permitted	10
▁stainless	10
▁varieties	10
▁gradually	10
▁mammalian	10
▁attitudes	10
▁bandwidth	10
▁benchmark	10
▁examining	10
▁recurrent	10
▁prognosis	10
▁referring	10
▁Administr	10
▁Technical	10
▁confusion	10
▁consensus	10
▁prolonged	10
▁suspended	10
▁organisms	10
▁abundance	10
▁excessive	10
▁Available	10
▁localized	10
▁abdominal	10
▁addiction	10
▁distances	10
▁belonging	10
▁rendering	10
▁aggregate	10
▁occasions	10
▁resection	10
▁Agreement	10
▁employers	10
▁defensive	10
▁narrative	10
▁gathering	10
exceptions	10
▁Transform	10
▁succeeded	10
▁Otherwise	10
Permission	10
▁Migration	10
▁batteries	10
▁magazines	10
Descriptor	10
▁authentic	10
▁cytokines	10
▁Champions	10
▁appearing	10
▁Functions	10
▁enhancing	10
▁alternate	10
▁champions	10
▁hepatitis	10
ninterface	10
pendicular	10
tprotected	10
▁subjected	10
▁complaint	10
▁centuries	10
Illuminate	10
▁arthritis	10
scriptions	10
▁rectangle	10
▁liability	10
operations	10
▁sponsored	10
▁extending	10
▁municipal	10
▁Caribbean	10
▁financing	10
▁triggered	10
▁offensive	10
▁motivated	10
▁Edinburgh	10
▁Mountains	10
▁Hampshire	10
▁conserved	10
▁analytics	10
▁actresses	10
▁neighbors	10
▁donations	10
▁Condition	10
▁comprised	10
▁similarly	10
startswith	10
ducational	10
▁considers	10
▁instantly	10
Components	10
▁reservoir	10
▁purchases	10
▁confusing	10
▁Published	10
▁recruited	10
intestinal	10
▁breathing	10
▁investing	10
▁preserved	10
▁versatile	10
▁Liverpool	10
▁phenomena	10
▁detecting	10
▁abandoned	10
▁conflicts	10
▁attracted	10
▁accidents	10
▁expecting	10
varepsilon	10
▁overnight	10
▁incidents	10
▁prevented	10
▁reasoning	10
▁allegedly	10
▁Cleveland	10
▁happiness	10
▁inflation	10
▁Equations	10
▁Universal	10
▁Materials	10
▁criticism	10
▁Baltimore	10
▁microwave	10
structions	10
▁releasing	10
▁encompass	10
▁converter	10
permission	10
▁impressed	10
▁pneumonia	10
▁machinery	10
▁amenities	10
▁filtering	10
containing	10
▁Similarly	10
generation	10
▁Chemistry	10
▁subscribe	10
▁workforce	10
Foundation	10
▁Barcelona	10
▁RELEVANCE	10
▁fractures	10
▁strengths	10
▁followers	10
typescript	10
definition	10
▁survivors	10
▁disadvant	10
▁stimulate	10
▁spherical	10
▁breakdown	10
▁spokesman	10
▁pathogens	10
▁modelling	10
▁retailers	10
▁economics	10
▁commented	10
▁discounts	10
▁dominated	10
▁Halloween	10
▁criterion	10
▁Container	10
▁Operation	10
▁daughters	10
▁affiliate	10
▁Statement	10
▁adherence	10
Management	10
▁rejection	10
▁scientist	10
▁satisfies	10
reliminary	10
▁intersect	10
▁wallpaper	10
▁INCLUDING	10
▁comprises	10
▁Ukrainian	10
▁pressures	10
▁Athletics	10
▁dashboard	10
▁inclusive	10
▁demanding	10
▁WordPress	10
▁phosphate	10
▁regulates	10
▁departure	10
▁insertion	10
▁Knowledge	10
▁converges	10
initialize	10
▁Secondary	10
▁catalytic	10
▁Meanwhile	10
▁reviewing	10
▁specially	10
▁spreading	10
navigation	10
▁disappear	10
▁specialty	10
▁prevalent	10
▁contacted	10
▁Charlotte	10
▁audiences	10
▁maintains	10
▁sentences	10
▁curvature	10
▁launching	10
▁Generated	10
▁projected	10
▁Amsterdam	10
▁inherited	10
responsive	10
▁relatives	10
▁serialize	10
▁unchanged	10
▁regulator	10
▁Directory	10
▁Economics	10
▁companion	10
interfaces	10
▁pathophys	10
▁premature	10
▁renewable	10
▁Molecular	10
▁violation	10
▁inspiring	10
▁potassium	10
▁primitive	10
▁employing	10
▁decorated	10
▁accepting	10
▁graduates	10
▁qualities	10
▁microbial	10
▁unlimited	10
▁reporters	10
▁irregular	10
▁Extension	10
▁Yorkshire	10
nOBJECTIVE	10
equalities	10
▁Structure	10
concurrent	10
▁seemingly	10
▁cancelled	10
▁nutrients	10
▁divisions	10
▁enjoyable	10
compatible	10
▁Billboard	10
▁desirable	10
▁Algorithm	10
▁corrected	10
▁customize	10
▁prospects	10
▁Victorian	10
▁electrode	10
▁offerings	10
▁educators	10
▁uniformly	10
▁memorable	10
▁activists	10
▁allocated	10
▁organised	10
▁utilities	10
▁artifacts	10
▁festivals	10
▁ascending	10
▁assembled	10
▁Emergency	10
▁Associate	10
▁canonical	10
▁aesthetic	10
▁furnished	10
▁recycling	10
▁transfers	10
▁permalink	10
▁subgroups	10
▁proximity	10
▁intuitive	10
▁Something	10
▁opponents	10
▁Interface	10
▁electoral	10
functional	10
▁triangles	10
Navigation	10
▁perfusion	10
Annotation	10
▁Orchestra	10
▁forgotten	10
▁intercept	10
▁legendary	10
▁schedules	10
University	10
▁Southeast	10
▁Equipment	10
▁endpoints	10
▁emergence	10
▁convinced	10
Dependency	10
▁Forwarded	10
▁inference	10
▁unrelated	10
▁vibration	10
▁Furniture	10
▁viability	10
DataSource	10
▁defending	10
▁consuming	10
rochemical	10
▁Computing	10
Constraint	10
▁democracy	10
▁northeast	10
▁convicted	10
▁integrals	10
▁favorites	10
▁obstacles	10
▁accessing	10
▁Political	10
▁Certified	10
▁retrieval	10
▁luxurious	10
▁applicant	10
▁Companies	10
▁licensing	10
▁ministers	10
▁vegetable	10
▁chromatin	10
▁encrypted	10
▁revealing	10
▁Principal	10
ynchronous	10
▁Hungarian	10
▁Northwest	10
▁unsuccess	10
processors	10
▁Analytics	10
▁Construct	10
▁recursive	10
▁appealing	10
▁commander	10
▁Relations	10
▁trademark	10
▁Jerusalem	10
▁elaborate	10
▁Parkinson	10
▁southwest	10
▁northwest	10
▁warehouse	10
▁strongest	10
endsection	10
structured	10
▁touchdown	10
▁Cathedral	10
▁Venezuela	10
▁attendees	10
▁logistics	10
decoration	10
▁conductor	10
▁voluntary	10
▁historian	10
subprocess	10
▁countless	10
▁southeast	10
▁splitting	10
▁stiffness	10
▁terrorist	10
▁Corporate	10
▁exchanges	10
▁composers	10
▁accounted	10
▁necessity	10
containers	10
▁boyfriend	10
▁Nashville	10
▁traumatic	10
▁embedding	10
▁celebrity	10
▁messaging	10
Initialize	10
▁populated	10
▁untreated	10
authorized	10
serializer	10
▁respected	10
▁adjusting	10
▁Valentine	10
▁dissolved	10
▁fireplace	10
▁Discovery	10
▁electroly	10
▁cytotoxic	10
▁creatures	10
googleapis	10
▁fertility	10
▁Standards	10
▁exposures	10
▁debugging	10
newcommand	10
▁embarrass	10
▁Bluetooth	10
▁Directors	10
▁welcoming	10
▁surviving	10
▁answering	10
▁Generator	10
▁collector	10
▁backwards	10
▁defenders	10
▁Detection	10
▁sculpture	10
▁workspace	10
▁downloads	10
▁divisible	10
▁Commander	10
▁Operating	10
▁scattered	10
deployment	10
▁societies	10
▁statistic	10
▁Frederick	10
▁bathrooms	10
▁Direction	10
horizontal	10
▁galleries	10
▁defective	10
▁formatted	10
▁additions	10
▁Peninsula	10
▁Newcastle	10
▁bootstrap	10
conditions	10
▁depressed	10
ocarcinoma	10
▁occlusion	10
▁predecess	10
▁executing	10
especially	10
▁simulator	10
▁Jefferson	10
▁normalize	10
▁depletion	10
▁sentenced	10
technology	10
▁densities	10
▁threading	10
government	10
▁explosion	10
▁capturing	10
▁dismissed	10
▁modifying	10
▁Developer	10
▁inaugural	10
▁Municipal	10
▁perimeter	10
▁Parameter	10
▁accessory	10
▁apparatus	10
▁institute	10
▁sclerosis	10
▁glutamate	10
▁broadband	10
▁Formation	10
▁deposited	10
▁Depending	10
▁profiling	10
▁listeners	10
▁privilege	10
▁guitarist	10
▁connector	10
▁offspring	10
▁Selection	10
▁struggles	10
▁retrieved	10
▁operative	10
▁ambitious	10
▁terminals	10
▁preceding	10
▁manifolds	10
▁footprint	10
▁fictional	10
▁excretion	10
▁successor	10
▁mentoring	10
▁augmented	10
▁capillary	10
▁wholesale	10
▁contested	10
▁enzymatic	10
▁visualize	10
▁histopath	10
▁prisoners	10
▁stressful	10
▁Programme	10
▁premiered	10
AspNetCore	10
▁TypeError	10
▁wrestling	10
▁witnessed	10
▁rewarding	10
▁sacrifice	10
▁medicines	10
▁intermitt	10
▁Hopefully	10
▁assisting	10
ensitivity	10
FRINGEMENT	10
▁Catherine	10
▁replicate	10
▁emphasize	10
stereotype	10
▁energetic	10
▁passwords	10
▁cricketer	10
population	10
▁shoulders	10
▁travelers	10
▁surprises	10
▁travelled	10
▁dynamical	10
▁hydraulic	10
▁discourse	10
▁routinely	10
▁advocates	10
▁mediating	10
▁sanctions	10
▁supermark	10
▁cigarette	10
▁Argentine	10
JavaScript	10
▁assurance	10
▁Objective	10
▁Milwaukee	10
▁competent	10
ifferences	10
▁appliance	10
Evaluation	10
▁concludes	10
▁advancing	10
▁balancing	10
▁corrosion	10
▁Engineers	10
ViewHolder	10
▁magnesium	10
▁Pinterest	10
▁inability	10
▁penalties	10
▁undergone	10
Comparison	10
inheritdoc	10
▁lawmakers	10
▁Princeton	10
▁Stockholm	10
▁iterative	10
▁printable	10
▁graphical	10
▁Evolution	10
▁privately	10
▁remission	10
attachment	10
▁Communist	10
▁keyboards	10
▁Numerical	10
▁cutaneous	10
▁terrorism	10
AlterField	10
▁supplying	10
▁specifies	10
Assertions	10
▁interfere	10
▁Inventory	10
▁illnesses	10
Dispatcher	10
▁athletics	10
▁viscosity	10
▁Territory	10
InstanceOf	10
▁abolished	10
▁Adventure	10
▁therapist	10
▁platelets	10
▁immunodef	10
dictionary	10
▁Southwest	10
▁intestine	10
▁endocrine	10
opensource	10
▁standings	10
▁compliant	10
▁observing	10
additional	10
▁Potential	10
▁Brunswick	10
▁flowering	10
stimulated	10
▁Pakistani	10
▁Euclidean	10
▁Interview	10
▁rationale	10
▁incentive	10
▁inversion	10
▁genotypes	10
▁attacking	10
▁economies	10
prehensive	10
▁invisible	10
▁provinces	10
▁biomarker	10
▁academics	10
▁undertake	10
▁sensation	10
visibility	10
▁Publisher	10
references	10
▁testimony	10
▁Automatic	10
▁valuation	10
▁biography	10
▁upgrading	10
Interfaces	10
department	10
▁defeating	10
▁Implement	10
▁diagnoses	10
▁parenting	10
▁saturated	10
Additional	10
▁headlines	10
▁adulthood	10
▁acquiring	10
Processing	10
▁acclaimed	10
Department	10
▁butterfly	10
▁continent	10
▁presently	10
▁preschool	10
▁milestone	10
▁aluminium	10
▁retaining	10
▁Leicester	10
▁colleague	10
▁practiced	10
▁residency	10
▁Sheffield	10
Transition	10
▁directing	10
▁analogous	10
▁malicious	10
▁cessation	10
▁auxiliary	10
▁modulated	10
▁averaging	10
▁quarterly	10
footballer	10
▁digestion	10
▁Amendment	10
▁inception	10
▁Antarctic	10
▁intuition	10
identified	10
▁disclosed	10
▁virulence	10
▁curiosity	10
▁countable	10
▁Libraries	10
▁antiviral	10
▁directive	10
▁amendment	10
▁Animation	10
irectional	10
▁Variables	10
▁continuum	10
▁Generally	10
▁incumbent	10
▁performer	10
▁apologize	10
▁recurring	10
▁cytometry	10
▁Henderson	10
▁neglected	10
▁Basically	10
▁differing	10
▁Regarding	10
▁histories	10
▁orchestra	10
▁Nutrition	10
▁hazardous	10
▁summarize	10
▁Rochester	10
▁detailing	10
▁multiplex	10
▁implanted	10
▁repeating	10
▁renovated	10
▁presenter	10
nsupported	10
▁exponents	10
endforeach	10
▁freestyle	10
▁oversight	10
▁successes	10
boldsymbol	10
commercial	10
▁interacts	10
▁beverages	10
registered	10
▁witnesses	10
▁Bulgarian	10
▁Frequency	10
▁catalogue	10
▁Bootstrap	10
▁logarithm	10
▁negotiate	10
rientation	10
▁cognition	10
▁portraits	10
▁compiling	10
▁fortunate	10
▁restoring	10
▁exploited	10
Statistics	10
▁installer	10
▁apoptotic	10
▁Classical	10
▁Methodist	10
▁emigrants	10
▁wellbeing	10
▁recognise	10
▁Boulevard	10
▁possesses	10
instrument	10
▁circadian	10
▁forecasts	10
▁uncovered	10
▁Architect	10
▁activator	10
▁amplifier	10
▁resultant	10
▁branching	10
Reflection	10
▁Composite	10
▁minimally	10
▁tolerated	10
▁factories	10
decorators	10
coordinate	10
▁epidermal	10
▁fulfilled	10
▁Obviously	10
▁digestive	10
▁Worcester	10
experiment	10
Screenshot	10
Serialized	10
ighborhood	10
▁immigrant	10
plantation	10
▁coherence	10
▁alleviate	10
▁longevity	10
▁lightning	10
patibility	10
▁exceeding	10
▁Initially	10
Operations	10
▁Coalition	10
▁Strategic	10
▁Hurricane	10
▁Chocolate	10
▁reviewers	10
▁Symposium	10
individual	10
▁commodity	10
▁Northeast	10
▁excluding	10
▁collapsed	10
statistics	10
▁avoidance	10
▁Romanized	10
▁Dashboard	10
▁justified	10
▁Dimension	10
▁delegates	10
▁revisions	10
▁activates	10
▁semantics	10
▁medicinal	10
▁tributary	10
▁Inspector	10
▁enjoyment	10
▁explosive	10
▁livestock	10
▁Important	10
▁resolving	10
developers	10
subsection	10
▁Configure	10
▁Typically	10
▁summation	10
▁secretory	10
▁alcoholic	10
▁olfactory	10
▁charities	10
▁analogues	10
screenshot	10
▁messenger	10
▁beginners	10
▁citations	10
designated	10
▁disasters	10
▁observers	10
▁displaced	10
proportion	10
executable	10
▁locksmith	10
▁terminate	10
▁surrender	10
constraint	10
▁declining	10
▁recession	10
▁Bangalore	10
▁monocytes	10
▁Karnataka	10
▁spotlight	10
▁Bloomberg	10
▁Mechanics	10
▁Armstrong	10
difference	10
▁relocated	10
▁registers	10
▁triglycer	10
▁hilarious	10
▁proactive	10
throughput	10
▁dominance	10
▁Cardinals	10
songwriter	10
omorphisms	10
▁Customers	10
▁assertion	10
▁parasites	10
▁realizing	10
▁Dominican	10
▁cirrhosis	10
▁supporter	10
▁truncated	10
acceptable	10
▁freelance	10
▁invention	10
Typography	10
▁withstand	10
▁criminals	10
tensorflow	10
descriptor	10
▁stretched	10
▁Excellent	10
▁reductase	10
▁usability	10
VersionUID	10
▁polarized	10
▁submarine	10
▁multitude	10
▁Robertson	10
▁Cognitive	10
▁neuropath	10
▁Stephanie	10
▁gardening	10
▁geography	10
▁reinforce	10
▁Breakfast	10
▁harvested	10
▁poisoning	10
▁Signature	10
▁imbalance	10
▁Photoshop	10
▁portrayed	10
▁Effective	10
▁Wrestling	10
▁inquiries	10
▁ascertain	10
▁exquisite	10
▁forefront	10
▁scholarly	10
formations	10
▁importing	10
▁junctions	10
Horizontal	10
▁textbooks	10
▁antitumor	10
▁guideline	10
▁affection	10
▁histogram	10
▁promoters	10
▁evidenced	10
▁genuinely	10
▁meanwhile	10
▁amplified	10
▁paperwork	10
confidence	10
▁imperfect	10
accessible	10
▁creations	10
▁affective	10
▁cytoplasm	10
▁defendant	10
▁formulate	10
accharides	10
▁preserves	10
▁deduction	10
▁relegated	10
▁surgeries	10
▁shortened	10
▁asymmetry	10
▁proposing	10
foundation	10
▁spatially	10
▁Reproduce	10
▁sexuality	10
▁conceived	10
▁receivers	10
▁inorganic	10
assignment	10
▁telescope	10
▁ancestors	10
▁limestone	10
▁Malaysian	10
▁Sebastian	10
▁intricate	10
▁Recommend	10
▁moderator	10
recognized	10
npermalink	10
▁civilians	10
centration	10
▁interplay	10
▁withdrawn	10
▁Satellite	10
▁mushrooms	10
▁ethnicity	10
▁teammates	10
▁Christine	10
▁Pediatric	10
expressing	10
▁fragrance	10
▁decorator	10
▁factorial	10
▁delimiter	10
▁saxophone	10
▁Socialist	10
▁ambiguous	10
▁disrupted	10
Visibility	10
▁turbulent	10
▁Battalion	10
▁servicing	10
▁Reduction	10
▁Lithuania	10
▁subfamily	10
▁Constants	10
Subscriber	10
entricular	10
▁Hyderabad	10
▁Increased	10
▁incubated	10
▁filmmaker	10
FileSystem	10
▁allergies	10
compressed	10
▁mythology	10
▁Rodriguez	10
Exceptions	10
normalized	10
▁uninstall	10
filesystem	10
▁victories	10
monitoring	10
▁itertools	10
Generation	10
▁Lancaster	10
▁merchants	10
▁dentistry	10
structures	10
▁reimburse	10
▁Essential	10
▁completes	10
▁multiples	10
▁landmarks	10
▁Converter	10
conference	10
▁Dirichlet	10
▁clinician	10
▁scrolling	10
▁Friedrich	10
▁commenced	10
▁inversely	10
▁scheduler	10
responding	10
▁removable	10
▁Reporting	10
▁detention	10
▁referrals	10
▁rotations	10
▁Chevrolet	10
▁believing	10
Compatible	10
ValueError	10
▁statewide	10
▁cocktails	10
▁Nonlinear	10
▁viewpoint	10
menopausal	10
▁Utilities	10
▁Execution	10
▁leukocyte	10
▁pertinent	10
▁judgments	10
percentage	10
▁mediation	10
▁persisted	10
Completion	10
Classifier	10
▁deploying	10
Resolution	10
▁catalysts	10
▁cooperate	10
▁publicity	10
▁detective	10
▁aftermath	10
breadcrumb	10
▁uploading	10
determined	10
▁placental	10
▁ventricle	10
▁Lightning	10
Credential	10
▁sanctuary	10
▁ingestion	10
▁bacterium	10
▁organizer	10
▁pipelines	10
▁taxpayers	10
▁novelists	10
Attachment	10
▁monastery	10
conversion	10
▁exchanged	10
completion	10
▁Algebraic	10
continuous	10
▁sequenced	10
▁injective	10
▁liquidity	10
▁Subscribe	10
▁Stainless	10
▁marketers	10
▁petroleum	10
▁offenders	10
▁histology	10
▁exhausted	10
▁expresses	10
timestamps	10
▁strangers	10
▁overwrite	10
▁proceeded	10
SpringBoot	10
activities	10
▁Featuring	10
▁Volunteer	10
▁numbering	10
▁dispersed	10
▁inspector	10
▁nightmare	10
▁filenames	10
▁watershed	10
▁anaerobic	10
Preference	10
▁forbidden	10
▁worksheet	10
▁advertise	10
▁stabilize	10
▁Stability	10
▁readiness	10
▁centrifug	10
▁digitally	10
GameObject	10
▁perennial	10
▁disturbed	10
▁reticulum	10
uncredited	10
<strong/>	9
</strong>	9
▁function	9
formation	9
eferences	9
▁research	9
▁signific	9
▁business	9
ification	9
▁addition	9
▁consider	9
▁specific	9
▁interest	9
vironment	9
▁analysis	9
▁possible	9
▁American	9
▁investig	9
▁children	9
▁question	9
▁services	9
▁response	9
▁required	9
▁students	9
struction	9
▁standard	9
▁football	9
▁activity	9
▁solution	9
▁material	9
▁previous	9
▁approach	9
▁products	9
▁software	9
▁together	9
▁document	9
Exception	9
▁National	9
▁features	9
▁increase	9
▁multiple	9
▁clinical	9
▁compared	9
▁position	9
▁training	9
▁demonstr	9
▁problems	9
▁received	9
▁positive	9
▁language	9
▁proposed	9
▁provides	9
▁included	9
▁complete	9
▁provided	9
▁property	9
▁building	9
▁original	9
▁opportun	9
▁designed	9
▁personal	9
▁actually	9
▁reported	9
istration	9
▁released	9
▁equation	9
▁industry	9
▁learning	9
underline	9
▁expected	9
▁behavior	9
▁includes	9
▁identify	9
▁involved	9
▁national	9
▁location	9
▁platform	9
▁practice	9
▁observed	9
▁probably	9
▁contract	9
▁obtained	9
▁November	9
▁pressure	9
▁recently	9
Component	9
▁December	9
▁directly	9
▁official	9
▁continue	9
▁anything	9
▁security	9
▁download	9
▁contains	9
▁constant	9
▁evidence	9
▁sequence	9
▁elements	9
▁projects	9
▁produced	9
▁instance	9
▁District	9
▁transfer	9
▁computer	9
▁physical	9
▁February	9
▁district	9
▁existing	9
▁manufact	9
▁approxim	9
▁challeng	9
▁distance	9
▁selected	9
▁programs	9
▁critical	9
▁decision	9
▁negative	9
▁presence	9
▁everyone	9
▁progress	9
▁variable	9
▁proteins	9
▁followed	9
▁register	9
velopment	9
▁customer	9
▁discover	9
▁starting	9
▁Research	9
▁European	9
▁yourself	9
▁collabor	9
framework	9
▁settings	9
protected	9
▁families	9
▁measured	9
▁Republic	9
▁hospital	9
▁resource	9
▁Software	9
▁campaign	9
▁strategy	9
▁creating	9
▁relevant	9
▁requires	9
▁relative	9
▁revealed	9
▁Solution	9
▁capacity	9
▁planning	9
▁receptor	9
▁generate	9
▁electric	9
▁although	9
▁remember	9
▁measures	9
▁improved	9
▁delivery	9
▁partners	9
▁internal	9
▁reaction	9
▁combined	9
▁comments	9
▁Although	9
▁subjects	9
▁chemical	9
ategories	9
▁economic	9
abilities	9
▁surround	9
▁director	9
▁concentr	9
container	9
▁returned	9
▁advanced	9
▁election	9
▁Facebook	9
▁diseases	9
▁patterns	9
▁exposure	9
▁recorded	9
▁outcomes	9
anagement	9
▁thinking	9
▁category	9
▁favorite	9
▁purchase	9
nfunction	9
▁examples	9
component	9
▁straight	9
▁symptoms	9
▁finished	9
▁electron	9
▁indicate	9
▁contrast	9
▁Question	9
▁describe	9
▁Saturday	9
▁proposal	9
▁protocol	9
▁directed	9
▁password	9
▁distinct	9
▁exercise	9
▁movement	9
▁military	9
▁survival	9
▁Internet	9
▁examined	9
operative	9
▁incorpor	9
▁strength	9
▁Services	9
▁operator	9
▁Business	9
▁affected	9
▁pictures	9
▁networks	9
▁controls	9
▁appeared	9
▁feedback	9
▁external	9
asketball	9
▁Olympics	9
▁changing	9
▁articles	9
▁integral	9
▁offering	9
▁Thursday	9
▁prepared	9
▁detailed	9
▁maintain	9
▁requests	9
▁powerful	9
▁cellular	9
▁Canadian	9
▁majority	9
▁exchange	9
▁daughter	9
▁Division	9
▁accuracy	9
▁achieved	9
▁restrict	9
▁Japanese	9
ventional	9
▁analyzed	9
▁decrease	9
▁interval	9
iological	9
▁identity	9
▁teaching	9
▁relation	9
▁detected	9
▁numerous	9
▁suitable	9
▁schedule	9
▁suggests	9
▁extended	9
▁substant	9
▁magnetic	9
▁absolute	9
dependent	9
▁division	9
▁velocity	9
▁perspect	9
Container	9
▁isolated	9
▁Function	9
▁Director	9
▁modified	9
▁recovery	9
▁consists	9
interface	9
▁stations	9
▁accurate	9
▁parallel	9
▁coverage	9
▁Minister	9
▁becoming	9
hematical	9
▁Register	9
▁versions	9
▁occurred	9
▁allowing	9
▁estimate	9
▁slightly	9
▁regional	9
Interface	9
▁reserved	9
▁academic	9
▁syndrome	9
▁duration	9
▁Licensed	9
itionally	9
▁concerns	9
▁Football	9
▁creative	9
▁intended	9
▁fraction	9
transform	9
▁properly	9
▁facility	9
imensions	9
▁presents	9
▁neighbor	9
▁Congress	9
▁provider	9
▁channels	9
▁assessed	9
▁criteria	9
▁supports	9
ictionary	9
▁override	9
ochemical	9
▁happened	9
▁reliable	9
iddleware	9
▁Hospital	9
▁Virginia	9
▁Carolina	9
▁commonly	9
stitution	9
▁abstract	9
▁vehicles	9
▁Analysis	9
▁possibly	9
▁replaced	9
▁cultural	9
▁surgical	9
▁friendly	9
scription	9
▁efficacy	9
▁enhanced	9
▁attached	9
▁pathways	9
acellular	9
▁creation	9
▁dynamics	9
▁featured	9
▁audience	9
▁shopping	9
▁Security	9
▁teachers	9
▁discount	9
▁packages	9
▁Abstract	9
▁accommod	9
▁cleaning	9
▁disorder	9
▁remained	9
▁accounts	9
▁Festival	9
▁resulted	9
roduction	9
▁medicine	9
▁Province	9
▁accident	9
▁reducing	9
▁Language	9
▁independ	9
▁interact	9
▁spectrum	9
▁phenomen	9
▁strongly	9
▁accepted	9
▁announce	9
▁hardware	9
▁exciting	9
▁hypothes	9
▁purposes	9
▁Historic	9
▁approved	9
▁attended	9
▁boundary	9
▁explicit	9
▁interior	9
▁repeated	9
▁vascular	9
▁Northern	9
▁incident	9
▁abnormal	9
▁Assembly	9
▁assigned	9
▁Catholic	9
▁spending	9
▁particle	9
▁involves	9
▁sessions	9
operation	9
▁inspired	9
▁supposed	9
▁triangle	9
ibilities	9
▁Michigan	9
nsylvania	9
▁vertical	9
▁employed	9
▁contents	9
▁thoughts	9
▁commands	9
▁encoding	9
▁consumer	9
▁diameter	9
▁hundreds	9
▁rational	9
▁sections	9
▁watching	9
▁visitors	9
▁smallest	9
▁matching	9
▁anywhere	9
▁injuries	9
▁referred	9
▁websites	9
▁Southern	9
▁acquired	9
▁Download	9
▁studying	9
▁Response	9
microsoft	9
▁magazine	9
▁aircraft	9
▁southern	9
▁filename	9
resources	9
▁modeling	9
▁employee	9
▁concepts	9
▁opposite	9
▁officers	9
Parameter	9
▁composed	9
▁Standard	9
▁normally	9
▁northern	9
▁Illinois	9
▁targeted	9
▁producer	9
▁distingu	9
▁username	9
▁Children	9
▁handling	9
▁occasion	9
▁tracking	9
CharField	9
▁reviewed	9
▁assembly	9
▁compound	9
▁callback	9
▁flexible	9
▁bathroom	9
▁citizens	9
▁managers	9
▁entirely	9
▁applying	9
▁machines	9
▁surfaces	9
▁violence	9
▁mountain	9
namespace	9
▁domestic	9
▁assuming	9
▁bacteria	9
▁antibody	9
▁terminal	9
▁concrete	9
▁warranty	9
▁bringing	9
▁validate	9
▁agricult	9
▁Williams	9
▁operated	9
▁insights	9
▁visiting	9
reference	9
▁painting	9
▁Learning	9
▁upcoming	9
▁shipping	9
forcement	9
▁standing	9
▁believed	9
▁Sciences	9
▁guidance	9
▁historic	9
bootstrap	9
achusetts	9
▁Document	9
▁agencies	9
▁priority	9
▁profiles	9
▁constitu	9
▁marriage	9
▁produces	9
placement	9
▁redirect	9
▁geometry	9
▁Scotland	9
▁infinite	9
▁graduate	9
timestamp	9
▁licensed	9
▁Medicine	9
▁episodes	9
▁attempts	9
directory	9
▁meetings	9
planation	9
▁elevated	9
▁expanded	9
▁birthday	9
▁quantity	9
▁circumst	9
▁checking	9
▁supplies	9
▁criminal	9
Microsoft	9
algorithm	9
▁frequent	9
▁managing	9
ponential	9
▁forecast	9
▁thorough	9
▁Colorado	9
▁designer	9
▁conflict	9
▁informed	9
▁sampling	9
▁lighting	9
▁Building	9
▁Columbia	9
▁hydrogen	9
▁speaking	9
condition	9
questions	9
▁WARRANTY	9
▁SOFTWARE	9
▁coronary	9
▁breaking	9
▁Training	9
▁province	9
▁moderate	9
▁Pakistan	9
▁wireless	9
▁covering	9
including	9
▁politics	9
▁infected	9
▁competed	9
Reference	9
▁Computer	9
▁molecule	9
▁shooting	9
▁choosing	9
▁emerging	9
▁drinking	9
▁minister	9
▁festival	9
eneration	9
▁Material	9
exception	9
▁whenever	9
▁everyday	9
▁Mountain	9
▁Victoria	9
▁sentence	9
▁somewhat	9
▁realized	9
▁Ministry	9
▁focusing	9
▁cultures	9
ermission	9
▁matrices	9
▁manifest	9
▁Specific	9
▁arrested	9
▁payments	9
▁tomorrow	9
▁baseball	9
▁keyboard	9
Generator	9
▁Clinical	9
▁severity	9
▁momentum	9
▁adjacent	9
▁mutation	9
▁approval	9
▁carrying	9
▁Official	9
▁systemic	9
▁scenario	9
▁admitted	9
▁variance	9
▁manually	9
▁computed	9
▁graphics	9
Directory	9
▁surprise	9
▁workshop	9
▁overview	9
Framework	9
▁eligible	9
▁Scottish	9
▁variants	9
▁ultimate	9
Copyright	9
▁lifetime	9
▁printing	9
▁situated	9
▁Resource	9
▁recombin	9
▁Property	9
▁Hamilton	9
▁reaching	9
▁Consider	9
▁explains	9
▁conclude	9
Transform	9
▁calendar	9
avelength	9
▁champion	9
▁Students	9
▁athletes	9
▁accompan	9
▁stronger	9
▁embedded	9
▁discrete	9
▁displays	9
▁randomly	9
Operation	9
▁swimming	9
important	9
▁disabled	9
attribute	9
construct	9
▁prostate	9
wikipedia	9
direction	9
▁confused	9
▁promoted	9
▁spectral	9
▁toxicity	9
available	9
▁fighting	9
▁Governor	9
▁synchron	9
▁engineer	9
▁emission	9
▁suffered	9
▁stunning	9
▁mediated	9
▁segments	9
▁pandemic	9
▁overcome	9
▁declared	9
▁entering	9
▁dominant	9
▁ensuring	9
▁captured	9
▁removing	9
▁Missouri	9
connected	9
prototype	9
▁regulate	9
▁circular	9
▁clothing	9
▁cerebral	9
▁vacation	9
▁pipeline	9
▁releases	9
▁executed	9
▁vertices	9
▁adaptive	9
▁resolved	9
▁neuronal	9
▁Township	9
▁notation	9
▁withdraw	9
▁explored	9
extension	9
▁adequate	9
amination	9
▁treating	9
▁entrance	9
aceutical	9
▁pancreat	9
▁Exchange	9
▁believes	9
▁clicking	9
Extension	9
▁Maryland	9
▁advances	9
▁Regional	9
▁pleasure	9
▁branches	9
▁resident	9
▁thousand	9
subscribe	9
▁ceremony	9
▁Atlantic	9
▁coupling	9
▁educated	9
▁actively	9
▁Memorial	9
▁clusters	9
minecraft	9
▁Electric	9
ationship	9
▁scanning	9
generated	9
▁Kentucky	9
generator	9
▁junction	9
▁memories	9
▁gorgeous	9
▁maternal	9
functions	9
▁multiply	9
▁mobility	9
▁workflow	9
▁arterial	9
▁indirect	9
▁defeated	9
▁topology	9
▁interfer	9
▁answered	9
▁speakers	9
▁singular	9
templates	9
▁Advanced	9
▁ordinary	9
▁enrolled	9
▁downtown	9
▁receiver	9
▁universe	9
▁endpoint	9
▁supplied	9
▁feelings	9
omorphism	9
effective	9
▁collagen	9
▁defining	9
▁struggle	9
▁peptides	9
▁expenses	9
▁residual	9
▁Magazine	9
▁verified	9
▁arranged	9
idespread	9
▁compiled	9
▁entities	9
▁entitled	9
▁affinity	9
▁midfield	9
ropolitan	9
▁diabetic	9
▁Category	9
parameter	9
▁operates	9
▁chairman	9
▁relating	9
▁enabling	9
▁attitude	9
▁coaching	9
▁proposes	9
structure	9
▁barriers	9
Threading	9
▁theories	9
▁nitrogen	9
▁composer	9
orporated	9
character	9
▁enjoying	9
▁villages	9
▁holidays	9
frequency	9
ndescribe	9
▁simplify	9
▁listings	9
▁impaired	9
▁invasive	9
▁contacts	9
▁spectrom	9
ViewModel	9
Converter	9
▁promoter	9
▁crystall	9
▁religion	9
overnment	9
▁revision	9
▁romantic	9
▁balanced	9
▁Anderson	9
▁Products	9
▁activate	9
▁journals	9
ationally	9
izational	9
▁shoulder	9
▁strictly	9
▁Partners	9
▁validity	9
▁adoption	9
▁dramatic	9
▁subgroup	9
▁overlook	9
▁periodic	9
▁Malaysia	9
dashboard	9
▁Oklahoma	9
▁combines	9
▁reactive	9
▁adjusted	9
▁soldiers	9
▁invasion	9
▁Examples	9
Calculate	9
▁heritage	9
▁engaging	9
▁symmetry	9
▁brothers	9
▁Industry	9
▁annually	9
ArrayList	9
▁Platform	9
▁unlikely	9
▁antigens	9
▁unsigned	9
regulated	9
Migration	9
ifference	9
undefined	9
▁mistakes	9
▁preserve	9
activated	9
▁cultured	9
▁Contract	9
▁Thailand	9
▁compiler	9
▁immunity	9
▁gathered	9
▁Economic	9
▁examines	9
▁tropical	9
▁Together	9
▁governor	9
fessional	9
▁Physical	9
▁Personal	9
▁cervical	9
▁portions	9
▁dispatch	9
▁purified	9
▁isolates	9
▁reporter	9
sequently	9
▁updating	9
Resources	9
▁bleeding	9
▁registry	9
▁formulas	9
configure	9
plemented	9
▁Customer	9
▁Reserved	9
▁ordering	9
Constants	9
Character	9
resistant	9
▁ministry	9
▁minority	9
▁instruct	9
▁Baseball	9
▁Agricult	9
ributions	9
▁advertis	9
▁declined	9
▁subscrib	9
▁disaster	9
▁artistic	9
▁publicly	9
▁dissemin	9
▁fracture	9
▁talented	9
▁analysed	9
▁Optional	9
▁Practice	9
▁Multiple	9
▁churches	9
▁feasible	9
▁floating	9
▁emotions	9
▁starring	9
▁aluminum	9
▁adhesion	9
▁prospect	9
▁Settings	9
ividually	9
▁portable	9
▁equality	9
▁deployed	9
▁cylinder	9
ographics	9
▁employer	9
▁Portland	9
published	9
Formatter	9
▁Alliance	9
▁Gaussian	9
▁Chairman	9
▁promotes	9
constants	9
WriteLine	9
▁diagonal	9
▁cortical	9
▁regarded	9
▁Location	9
▁outbreak	9
▁formerly	9
▁Recently	9
▁platelet	9
▁suddenly	9
▁counting	9
▁survived	9
▁Manufact	9
▁donation	9
▁bedrooms	9
▁Heritage	9
▁striking	9
▁musician	9
▁Remember	9
▁infinity	9
Processor	9
▁blocking	9
ilization	9
▁Previous	9
▁rejected	9
Direction	9
enerative	9
▁licenses	9
▁Franklin	9
▁Behavior	9
▁confront	9
▁maximize	9
▁navigate	9
▁globally	9
▁Arkansas	9
community	9
▁Military	9
▁somebody	9
▁receives	9
▁skeletal	9
▁supplier	9
▁Portugal	9
▁limiting	9
erculosis	9
▁literary	9
▁Lawrence	9
▁consolid	9
▁grateful	9
▁delivers	9
▁colleges	9
▁Planning	9
▁Networks	9
▁seasonal	9
▁performs	9
▁pointing	9
▁implicit	9
▁infusion	9
stringify	9
▁Original	9
▁intraven	9
▁friction	9
Autowired	9
▁charging	9
▁sciences	9
▁coloring	9
▁earnings	9
▁exhibits	9
▁tailored	9
▁wildlife	9
▁crossing	9
▁animated	9
Statement	9
▁warnings	9
▁Activity	9
▁weakness	9
▁carriers	9
▁stopping	9
notations	9
▁prevents	9
▁extracts	9
copyright	9
nABSTRACT	9
variables	9
irmingham	9
▁synaptic	9
▁scholars	9
▁searched	9
processor	9
▁injected	9
▁claiming	9
▁retrieve	9
▁occupied	9
istically	9
▁weighted	9
▁Brooklyn	9
▁accessed	9
▁subtract	9
▁staining	9
▁stimulus	9
▁marginal	9
▁centered	9
▁analytic	9
sensitive	9
▁assisted	9
▁failures	9
▁governed	9
▁interpol	9
developer	9
▁profound	9
▁founding	9
▁deadline	9
▁Thompson	9
sectional	9
▁Creative	9
▁rendered	9
▁paradigm	9
▁Electron	9
selection	9
▁Bachelor	9
▁homework	9
▁phosphat	9
▁flooring	9
ntemplate	9
▁chapters	9
▁Cemetery	9
▁logarith	9
Selection	9
▁kinetics	9
▁inserted	9
▁imported	9
▁excluded	9
Animation	9
▁promises	9
▁collapse	9
▁Montreal	9
▁uploaded	9
mentation	9
▁calculus	9
▁sleeping	9
▁develops	9
▁Internal	9
▁upstream	9
▁overseas	9
▁listener	9
▁retained	9
▁vaccines	9
▁Pictures	9
▁basement	9
▁searches	9
nonatomic	9
▁overhead	9
▁organize	9
▁deletion	9
▁switched	9
▁locality	9
▁Venezuel	9
▁troubles	9
▁renowned	9
▁Compared	9
▁neonatal	9
▁pathogen	9
▁compress	9
▁transmit	9
▁oriented	9
▁cytokine	9
▁communic	9
▁earliest	9
▁enormous	9
cutaneous	9
▁counties	9
▁reversed	9
▁Features	9
▁cannabis	9
▁Jonathan	9
▁harmonic	9
▁deficits	9
permalink	9
▁Problems	9
▁relaxing	9
▁Campbell	9
supported	9
▁energies	9
▁crystals	9
▁Homework	9
▁keywords	9
▁connects	9
TextField	9
▁promised	9
▁Transfer	9
▁logistic	9
▁spacious	9
formatics	9
▁throwing	9
▁Everyone	9
▁deterior	9
▁precious	9
▁showcase	9
urrencies	9
▁manifold	9
▁Robinson	9
▁Constant	9
▁exponent	9
animation	9
▁Password	9
▁formally	9
▁pleasant	9
▁painters	9
▁homeless	9
▁leverage	9
▁contexts	9
▁refriger	9
secondary	9
▁proximal	9
▁deposits	9
▁Commerce	9
Execution	9
▁literacy	9
▁infrared	9
▁simulate	9
▁lymphoma	9
▁Geometry	9
▁breeding	9
▁outlined	9
▁avoiding	9
▁genetics	9
statement	9
▁congress	9
▁reminder	9
Namespace	9
▁sanction	9
▁Bookmark	9
▁CONTRACT	9
▁veterans	9
▁tendency	9
Timestamp	9
▁Projects	9
▁screened	9
▁carbohyd	9
represent	9
▁Marshall	9
▁attacked	9
▁severely	9
▁enhances	9
▁necrosis	9
▁definite	9
▁Chemical	9
▁tourists	9
▁quantify	9
▁pressing	9
▁Progress	9
▁rigorous	9
▁Interior	9
▁invested	9
positions	9
threshold	9
▁reserves	9
▁chloride	9
▁Position	9
▁rotating	9
Condition	9
▁sporting	9
▁Champion	9
▁ensemble	9
▁genotype	9
▁memorial	9
▁Calculus	9
▁Protocol	9
▁Brothers	9
▁trainees	9
▁outdoors	9
agination	9
▁intimate	9
▁Medicare	9
▁alphabet	9
▁notebook	9
▁advocate	9
workspace	9
▁elliptic	9
▁forwards	9
▁portrait	9
▁petition	9
▁incoming	9
▁opponent	9
specially	9
▁Cultural	9
▁arteries	9
▁currents	9
▁missions	9
▁Nebraska	9
▁Colombia	9
▁Princess	9
▁investor	9
▁Approach	9
▁simplest	9
reational	9
anonymous	9
▁drainage	9
▁traveled	9
transport	9
▁observer	9
▁Mitchell	9
▁inhibits	9
▁activist	9
▁upgraded	9
▁abortion	9
▁quotient	9
▁Strategy	9
▁tyrosine	9
▁Richmond	9
▁inherent	9
▁Shanghai	9
▁Movement	9
▁textbook	9
▁Athletic	9
▁endblock	9
▁climbing	9
▁additive	9
▁gambling	9
▁organism	9
▁Margaret	9
▁colorful	9
▁finishes	9
▁Stanford	9
expensive	9
▁switches	9
▁judgment	9
▁dropping	9
▁Cleaning	9
▁brackets	9
▁township	9
▁Jennifer	9
▁peaceful	9
▁Benjamin	9
▁Relevant	9
▁deciding	9
andidates	9
▁welcomed	9
▁labeling	9
▁diagrams	9
incinnati	9
▁Comments	9
▁Michelle	9
▁Berkeley	9
▁nutrient	9
▁dressing	9
▁Exercise	9
▁Explorer	9
▁premises	9
▁snapshot	9
▁semester	9
▁Evidence	9
▁lectures	9
▁allergic	9
▁algebras	9
▁Democrat	9
▁initiate	9
▁Expected	9
▁athletic	9
▁Equation	9
▁Austrian	9
signature	9
▁evolving	9
▁drawings	9
▁referral	9
▁Consumer	9
▁protests	9
▁Schedule	9
▁proceeds	9
▁notified	9
establish	9
▁overflow	9
▁Generate	9
▁Academic	9
▁Collabor	9
▁minerals	9
▁informal	9
▁resigned	9
▁Advisory	9
▁Broadway	9
▁stressed	9
Generated	9
▁Universe	9
▁Hispanic	9
▁dividing	9
▁calories	9
▁fixtures	9
▁annoying	9
▁metallic	9
▁Egyptian	9
▁numbered	9
▁medieval	9
▁pursuing	9
▁Workshop	9
▁Bathroom	9
▁Starting	9
▁Graduate	9
▁Variable	9
▁cabinets	9
▁Calendar	9
▁epilepsy	9
▁browsing	9
▁Bayesian	9
▁merchand	9
cherichia	9
ClassName	9
▁Imperial	9
▁delicate	9
▁contrary	9
▁etiology	9
▁premiere	9
▁wellness	9
▁analysts	9
▁colonial	9
▁absorbed	9
▁youngest	9
ustration	9
▁Delaware	9
▁steering	9
▁Simplify	9
▁Keywords	9
Transport	9
▁Campaign	9
▁filtered	9
▁knockout	9
▁sexually	9
▁learners	9
Available	9
▁defender	9
▁shifting	9
mercially	9
▁monument	9
▁grinding	9
Serialize	9
▁merchant	9
providers	9
▁delegate	9
▁visually	9
▁linearly	9
▁triggers	9
▁intermed	9
▁Identity	9
▁humidity	9
▁Regiment	9
▁courtesy	9
▁Springer	9
▁arriving	9
ependence	9
▁Archives	9
▁unwanted	9
▁averaged	9
▁plumbing	9
▁concerts	9
▁Sequence	9
▁symbolic	9
criptions	9
▁Actually	9
▁humanity	9
Signature	9
▁Delivery	9
▁Citation	9
▁Dynamics	9
locations	9
▁siblings	9
▁Required	9
▁putative	9
▁uncommon	9
treatment	9
▁impacted	9
▁weekends	9
▁Engineer	9
▁charming	9
▁meantime	9
▁Discover	9
▁converge	9
▁Airlines	9
▁smoothly	9
▁cleavage	9
▁timeline	9
▁obstruct	9
substring	9
something	9
▁advisory	9
accharide	9
▁catalyst	9
▁fixation	9
▁Provider	9
▁utilizes	9
▁Wireless	9
Structure	9
▁subunits	9
▁shutdown	9
▁Interest	9
▁sometime	9
installed	9
highlight	9
mentioned	9
▁bachelor	9
▁monetary	9
▁cosmetic	9
▁Columbus	9
▁startups	9
▁spelling	9
▁Harrison	9
▁neurodeg	9
▁Wildlife	9
▁Auckland	9
▁upgrades	9
▁shortest	9
▁stresses	9
▁refugees	9
paragraph	9
▁credited	9
▁Registry	9
▁homology	9
intercept	9
▁Brisbane	9
▁Veterans	9
▁backyard	9
formatter	9
▁rankings	9
astically	9
▁coherent	9
▁Adelaide	9
▁Recovery	9
▁backward	9
▁spanning	9
▁advocacy	9
▁Nintendo	9
▁Nigerian	9
▁prolifer	9
▁Election	9
▁Duration	9
▁aviation	9
Documents	9
▁selector	9
▁underway	9
▁nicotine	9
▁compares	9
▁orchestr	9
▁Shipping	9
▁Birthday	9
▁railroad	9
fasterxml	9
▁commemor	9
▁Guardian	9
▁founders	9
▁pharmacy	9
analytics	9
▁mounting	9
▁Programs	9
▁rainfall	9
▁Phillips	9
LowerCase	9
rosophila	9
▁crushing	9
▁dialysis	9
▁exceeded	9
▁mattress	9
▁enclosed	9
▁reminded	9
▁inactive	9
phosphate	9
▁mongoose	9
▁swelling	9
▁revenues	9
▁branding	9
▁enriched	9
▁TreeNode	9
orescence	9
▁aromatic	9
omitempty	9
▁Teaching	9
Algorithm	9
▁retailer	9
▁External	9
▁monitors	9
▁subtypes	9
ellington	9
serialize	9
▁sponsors	9
▁archives	9
▁synthase	9
▁stenosis	9
▁catching	9
oelectric	9
▁markdown	9
▁Nicholas	9
▁surgeons	9
▁confined	9
▁readings	9
▁Distance	9
▁Railroad	9
▁thrilled	9
▁captures	9
▁Describe	9
▁ablation	9
duplicate	9
ophysical	9
▁sacrific	9
precision	9
▁alliance	9
▁tertiary	9
▁convince	9
DataFrame	9
▁lowering	9
execution	9
▁touching	9
ashington	9
endregion	9
▁Mercedes	9
▁tomatoes	9
▁theorems	9
▁mentions	9
▁Reynolds	9
▁homepage	9
▁diagnose	9
▁clearing	9
Dashboard	9
▁flooding	9
▁remotely	9
akespeare	9
▁Bulgaria	9
▁cocktail	9
▁effector	9
▁McDonald	9
ocomplete	9
▁misunder	9
▁galaxies	9
therefore	9
▁Employee	9
▁freezing	9
▁graphene	9
▁sunlight	9
▁achieves	9
▁protease	9
▁landmark	9
▁seminars	9
▁maturity	9
versation	9
▁guessing	9
▁Continue	9
EventArgs	9
▁parasite	9
▁classify	9
▁converts	9
▁muscular	9
▁airports	9
▁analogue	9
▁echocard	9
ographies	9
▁seamless	9
▁offshore	9
▁shortage	9
▁unveiled	9
▁Terminal	9
processed	9
▁cerebell	9
▁Brussels	9
▁Positive	9
publisher	9
▁recycled	9
Functions	9
▁Markdown	9
▁surveyed	9
▁inducing	9
fordshire	9
▁damaging	9
▁quarters	9
▁playoffs	9
completed	9
openhagen	9
▁systolic	9
▁juvenile	9
▁Possible	9
▁confirms	9
▁sandwich	9
▁editions	9
▁textures	9
AutoField	9
▁hormonal	9
▁midnight	9
▁wondered	9
▁planting	9
scheduler	9
▁selenium	9
▁blogging	9
▁concomit	9
▁innocent	9
▁adhesive	9
▁complain	9
▁Magnetic	9
▁polymers	9
Behaviour	9
▁inviting	9
▁exported	9
inventory	9
▁Approved	9
straction	9
▁Aviation	9
▁Pressure	9
▁imprison	9
▁contrace	9
▁probable	9
▁Orthodox	9
▁Overview	9
▁Critical	9
▁drilling	9
▁vitamins	9
▁Zimbabwe	9
▁blockade	9
▁Operator	9
▁treasure	9
▁ListNode	9
PLICATION	9
▁Graphics	9
plicative	9
▁steroids	9
tfunction	9
▁alveolar	9
▁radicals	9
ighthouse	9
▁Investig	9
VELOPMENT	9
▁agonists	9
▁Romanian	9
▁Shopping	9
ublicense	9
partition	9
▁scaffold	9
▁Coloring	9
▁goodness	9
▁Articles	9
▁invented	9
▁Muhammad	9
▁regimens	9
▁beverage	9
▁interven	9
▁disagree	9
▁Subjects	9
▁outlines	9
▁scalable	9
▁outdated	9
normalize	9
▁Symphony	9
▁psychiat	9
Connector	9
▁polished	9
▁comprise	9
▁thriller	9
▁motility	9
▁catering	9
September	9
▁handlers	9
▁routines	9
▁darkness	9
downloads	9
▁Designer	9
INCLUDING	9
▁Contents	9
▁traction	9
▁packaged	9
▁creature	9
▁civilian	9
▁Teachers	9
assistant	9
▁belonged	9
▁Warriors	9
▁Ultimate	9
▁cyclists	9
▁Facility	9
▁hometown	9
▁socially	9
▁repaired	9
▁holistic	9
▁NSString	9
▁thankful	9
▁skeleton	9
▁gameplay	9
▁squamous	9
▁Vladimir	9
▁immunore	9
▁backpack	9
▁likewise	9
▁migrants	9
different	9
▁demanded	9
▁Decision	9
▁wardrobe	9
instances	9
▁flagship	9
▁finances	9
▁suspects	9
▁residing	9
▁judicial	9
▁Downtown	9
▁differed	9
jetbrains	9
▁eventual	9
▁spinning	9
migration	9
▁cemetery	9
▁nickname	9
▁Integral	9
▁Managing	9
inescence	9
Alignment	9
▁preceded	9
▁vicinity	9
▁launches	9
▁handmade	9
▁Keyboard	9
▁colonies	9
▁adopting	9
▁obstacle	9
▁sensible	9
▁Includes	9
▁mentally	9
▁hardwood	9
▁stepping	9
▁Triangle	9
▁Findings	9
▁Modeling	9
Variables	9
▁swimmers	9
▁Combined	9
▁labelled	9
▁Creating	9
▁mistaken	9
▁thoracic	9
▁Criminal	9
▁trailing	9
▁fighters	9
▁securing	9
▁Politics	9
▁Instance	9
▁Probably	9
▁Infantry	9
▁opposing	9
▁firmware	9
▁creators	9
▁secreted	9
ographers	9
eleration	9
▁assemble	9
▁platinum	9
Supported	9
▁reviewer	9
▁artifact	9
▁hardcore	9
▁Detailed	9
▁inconven	9
Completed	9
▁bookmark	9
Inventory	9
▁citation	9
locfileid	9
▁Concrete	9
documents	9
▁faithful	9
organisms	9
▁Yugoslav	9
▁headline	9
▁Treasury	9
▁realised	9
Connected	9
▁recalled	9
▁reliably	9
languages	9
▁analyzes	9
▁encephal	9
▁Marathon	9
▁coloured	9
▁Parallel	9
▁Manitoba	9
▁Sullivan	9
Contracts	9
ocellular	9
▁councill	9
▁lifelong	9
▁altering	9
specified	9
▁exposing	9
▁wrapping	9
▁Istanbul	9
▁Edmonton	9
▁finitely	9
▁disclose	9
▁backdrop	9
▁Junction	9
▁disputes	9
intendent	9
▁Somerset	9
amazonaws	9
▁grounded	9
▁philanth	9
▁Modified	9
▁Salvador	9
connector	9
▁jupytext	9
▁trillion	9
▁androgen	9
calculate	9
▁freshman	9
libraries	9
▁homotopy	9
President	9
▁educator	9
▁Tanzania	9
▁mutually	9
▁TestCase	9
▁peculiar	9
▁underest	9
▁ignoring	9
▁workload	9
▁postgres	9
producing	9
dimension	9
▁responds	9
Blueprint	9
▁retiring	9
benchmark	9
▁Buddhist	9
▁resistor	9
▁deleting	9
▁rebounds	9
▁diarrhea	9
▁builders	9
▁beginner	9
▁modality	9
converter	9
▁murdered	9
▁Squadron	9
▁Purchase	9
icultural	9
▁feminine	9
unctional	9
▁reversal	9
▁Ethiopia	9
▁deceased	9
▁endorsed	9
▁weighing	9
istorical	9
Something	9
▁downward	9
▁morphine	9
▁grouping	9
Utilities	9
Presenter	9
▁depicted	9
infection	9
▁microtub	9
▁protagon	9
▁listened	9
▁securely	9
▁replaces	9
▁billions	9
▁plotting	9
▁terminus	9
Operating	9
umberland	9
▁backbone	9
▁writings	9
▁defended	9
▁playlist	9
▁glaucoma	9
▁caffeine	9
▁chickens	9
According	9
readlines	9
ributable	9
▁canceled	9
▁Americas	9
▁Slovenia	9
▁attained	9
agrangian	9
▁KeyError	9
▁Highland	9
▁longtime	9
▁Pipeline	9
▁Santiago	9
▁Cornwall	9
▁princess	9
▁Emirates	9
▁Hardware	9
▁titanium	9
Configure	9
molecular	9
▁coatings	9
▁tensions	9
lpatterns	9
▁overload	9
▁pointers	9
qualified	9
prisingly	9
▁commerce	9
tcontinue	9
arthritis	9
Templates	9
▁sticking	9
▁attacker	9
challenge	9
▁Extended	9
Scheduler	9
▁excision	9
▁surnames	9
conscious	9
▁atypical	9
▁Lighting	9
▁culinary	9
otoxicity	9
▁lecturer	9
▁aneurysm	9
▁Designed	9
▁decorate	9
▁competit	9
formatted	9
▁steadily	9
▁subclass	9
▁trainers	9
alignment	9
▁Armenian	9
▁laughing	9
responses	9
▁Citizens	9
▁frontend	9
▁senators	9
▁comedian	9
Detection	9
Australia	9
▁timeless	9
utilities	9
▁boarding	9
▁elicited	9
▁inverted	9
relations	9
▁shoppers	9
▁shortcut	9
▁Sessions	9
▁morphism	9
▁doctoral	9
▁dividend	9
Publisher	9
▁meanings	9
▁autonomy	9
▁decoding	9
installer	9
▁necklace	9
▁splicing	9
ogenicity	9
▁Brighton	9
▁counters	9
▁worrying	9
▁Revision	9
▁Assuming	9
▁printers	9
Collector	9
▁terrific	9
▁mediates	9
▁envision	9
▁umbrella	9
▁elegance	9
▁sunshine	9
▁oncology	9
▁yielding	9
▁Sterling	9
▁stranger	9
▁indexing	9
▁dominate	9
separator	9
Principal	9
▁Spectrum	9
▁silicone	9
Extractor	9
▁concaten	9
▁elevator	9
▁noexcept	9
▁Selected	9
▁blessing	9
▁lifespan	9
▁Croatian	9
▁Slovakia	9
▁Kingston	9
▁allocate	9
▁Anglican	9
▁mainland	9
▁Paradise	9
▁averages	9
▁stickers	9
▁lymphoid	9
▁theaters	9
▁Anything	9
▁insisted	9
▁stripped	9
▁overtime	9
▁Morrison	9
ncategory	9
▁Caroline	9
▁salaries	9
▁Bradford	9
▁Whenever	9
▁evenings	9
Frequency	9
▁Validate	9
▁Outcomes	9
▁suburban	9
▁enlarged	9
Construct	9
▁fluoride	9
developed	9
▁stirring	9
▁Secondly	9
inguished	9
▁seasoned	9
▁Particle	9
▁Topology	9
portfolio	9
▁violated	9
operators	9
▁Cardinal	9
▁settling	9
▁Producer	9
nabstract	9
Published	9
▁filepath	9
▁immature	9
▁Winnipeg	9
▁arguably	9
▁Feedback	9
▁salivary	9
▁underlie	9
▁openings	9
addresses	9
▁Holdings	9
▁motivate	9
Community	9
▁Identify	9
▁tempfile	9
▁perceive	9
▁cinnamon	9
▁republic	9
consuming	9
objective	9
▁catechol	9
▁Patriots	9
organized	9
▁figuring	9
▁unbiased	9
▁Railways	9
▁migrated	9
▁resonant	9
▁modifier	9
▁gasoline	9
▁computes	9
▁Rational	9
▁grandson	9
▁hardness	9
Decorator	9
▁Surgical	9
essential	9
selective	9
▁thirteen	9
▁bloggers	9
▁Ferguson	9
▁Panthers	9
▁collects	9
▁vomiting	9
candidate	9
▁advisors	9
expressed	9
▁lockdown	9
sequences	9
▁Likewise	9
▁highways	9
▁Discount	9
▁asteroid	9
mediately	9
▁awaiting	9
▁Filipino	9
▁detached	9
discovery	9
▁patented	9
▁outgoing	9
▁Changing	9
intensity	9
▁instinct	9
▁bullying	9
▁Ethernet	9
▁Redirect	9
▁imperial	9
ImageView	9
Partition	9
▁balances	9
Dimension	9
▁redesign	9
education	9
▁Peterson	9
▁chambers	9
encrypted	9
▁Infinity	9
▁playback	9
▁Breaking	9
Predicate	9
nutrition	9
▁archived	9
▁thriving	9
▁elephant	9
▁authored	9
▁classics	9
▁bearings	9
Providers	9
▁airplane	9
▁kindness	9
▁Relative	9
lifecycle	9
▁shocking	9
clamation	9
▁elective	9
▁shipment	9
▁respects	9
recursive	9
▁scrutiny	9
▁fourteen	9
▁peroxide	9
▁Lutheran	9
▁Swimming	9
▁testimon	9
▁Tasmania	9
▁aberrant	9
▁attracts	9
▁Plymouth	9
▁neonates	9
messaging	9
platforms	9
▁synapses	9
▁Tracking	9
▁Mohammed	9
▁LANGUAGE	9
▁marketed	9
▁populate	9
▁sweeping	9
▁Griffith	9
ndocument	9
▁polarity	9
▁pictured	9
▁Crawford	9
▁Georgian	9
iphertext	9
▁honorary	9
Rectangle	9
▁Contains	9
▁BUSINESS	9
▁monsters	9
▁Negative	9
▁binaries	9
oblastoma	9
requently	9
▁Cambodia	9
▁Hawaiian	9
▁solitary	9
Bootstrap	9
traumatic	9
▁divorced	9
websocket	9
▁driveway	9
▁detained	9
▁degraded	9
▁Midlands	9
▁recharge	9
▁boosting	9
▁fallback	9
▁Priority	9
▁Patricia	9
▁Survival	9
▁biologic	9
Workspace	9
unciation	9
▁welcomes	9
struments	9
▁Officers	9
▁obsolete	9
▁glorious	9
▁campuses	9
▁bounding	9
▁bindings	9
▁maritime	9
▁stealing	9
▁Vertical	9
▁firewall	9
▁Measures	9
▁contests	9
▁adapting	9
▁dwelling	9
preferred	9
atization	9
▁Mortgage	9
▁inducted	9
▁prepares	9
▁doubling	9
▁Helsinki	9
▁kitchens	9
▁Benefits	9
▁explorer	9
detection	9
injection	9
iographic	9
nservices	9
▁cracking	9
▁giveaway	9
▁declines	9
Injection	9
▁Richards	9
▁analyzer	9
ivariable	9
▁Platinum	9
particles	9
▁bracelet	9
▁comeback	9
▁Improved	9
▁Adaptive	9
▁Painting	9
▁specials	9
▁oxidized	9
▁Reporter	9
confirmed	9
▁Davidson	9
▁workouts	9
▁laughter	9
ellaneous	9
foundland	9
▁obsessed	9
contained	9
▁mornings	9
▁coincide	9
▁rewarded	9
▁nonsense	9
▁migraine	9
▁Accounts	9
▁Chromium	9
▁borrowed	9
<strong>	8
</table>	8
</tbody>	8
▁develop	8
username	8
▁through	8
▁between	8
▁process	8
▁support	8
▁because	8
▁perform	8
▁program	8
▁project	8
▁current	8
▁product	8
▁results	8
▁present	8
iversity	8
▁without	8
cription	8
▁control	8
▁provide	8
▁problem	8
▁service	8
▁require	8
Question	8
▁version	8
ological	8
▁company	8
▁example	8
▁players	8
▁against	8
▁success	8
▁request	8
▁another	8
▁suggest	8
▁include	8
▁studies	8
▁working	8
▁install	8
▁changes	8
▁quality	8
▁special	8
▁describ	8
▁several	8
▁However	8
▁profess	8
▁network	8
▁content	8
filename	8
▁complet	8
▁disease	8
ribution	8
▁general	8
function	8
▁complex	8
▁account	8
▁respect	8
▁effects	8
▁looking	8
▁similar	8
▁respons	8
▁systems	8
▁already	8
▁address	8
▁members	8
▁whether	8
▁various	8
▁experim	8
▁website	8
▁related	8
▁further	8
▁contact	8
▁factors	8
▁subject	8
▁express	8
▁measure	8
▁methods	8
▁protein	8
▁continu	8
ependent	8
▁correct	8
▁feature	8
▁country	8
▁thought	8
▁created	8
▁located	8
▁history	8
▁options	8
▁started	8
irection	8
▁percent	8
▁release	8
▁article	8
▁Austral	8
▁getting	8
▁numbers	8
opyright	8
▁minutes	8
▁pattern	8
▁million	8
▁initial	8
▁surface	8
▁perfect	8
▁details	8
▁concent	8
▁conduct	8
▁extends	8
▁prevent	8
▁however	8
▁writing	8
position	8
▁primary	8
▁natural	8
▁average	8
▁January	8
▁running	8
▁command	8
▁display	8
pecially	8
▁consist	8
▁instead	8
icrosoft	8
▁General	8
▁someone	8
▁element	8
▁written	8
▁connect	8
▁October	8
▁medical	8
▁regular	8
▁private	8
▁English	8
▁ability	8
response	8
▁popular	8
Response	8
▁forward	8
▁package	8
▁concept	8
▁section	8
▁attempt	8
▁comment	8
▁leading	8
▁station	8
ociation	8
▁believe	8
▁College	8
▁therapy	8
▁friends	8
lections	8
▁receive	8
▁variety	8
▁greater	8
▁usually	8
▁deliver	8
▁studied	8
document	8
Override	8
▁reading	8
▁outside	8
▁British	8
▁testing	8
▁America	8
▁overall	8
▁central	8
levision	8
▁applied	8
ulations	8
▁limited	8
▁highest	8
npackage	8
▁achieve	8
▁missing	8
▁student	8
▁digital	8
▁reduced	8
template	8
▁clients	8
password	8
alculate	8
▁maximum	8
▁samples	8
▁meeting	8
▁playing	8
▁village	8
▁purpose	8
▁setting	8
▁machine	8
▁nothing	8
▁culture	8
▁changed	8
missions	8
▁leaders	8
▁storage	8
izations	8
▁Project	8
▁Service	8
▁mention	8
▁library	8
atically	8
▁Windows	8
▁exactly	8
▁comfort	8
▁collect	8
▁monitor	8
Property	8
▁produce	8
▁Version	8
▁towards	8
▁channel	8
▁Program	8
▁devices	8
▁Suppose	8
▁quickly	8
▁contain	8
ographic	8
▁treated	8
▁WARRANT	8
▁appoint	8
▁healthy	8
▁session	8
▁reports	8
instance	8
▁classes	8
▁serious	8
▁density	8
▁science	8
ifically	8
▁picture	8
▁parents	8
▁largest	8
▁formula	8
▁England	8
▁binding	8
▁allowed	8
▁sources	8
property	8
▁surgery	8
▁decided	8
▁Council	8
▁extract	8
▁divided	8
▁definit	8
▁attract	8
▁Further	8
▁schools	8
▁growing	8
▁century	8
▁profile	8
▁counter	8
▁remains	8
▁morning	8
▁license	8
▁meaning	8
▁vehicle	8
▁appears	8
▁boolean	8
▁animals	8
▁genetic	8
▁smaller	8
▁failure	8
▁consult	8
▁objects	8
▁amazing	8
▁updated	8
▁Science	8
▁finding	8
Provider	8
pository	8
▁chronic	8
▁college	8
▁enhance	8
▁implied	8
Instance	8
▁Chinese	8
▁follows	8
licenses	8
▁publish	8
▁minimum	8
hematics	8
▁equival	8
ervation	8
specific	8
▁restaur	8
location	8
▁Company	8
ications	8
▁occurre	8
▁Network	8
settings	8
▁Central	8
▁hundred	8
▁actions	8
▁regions	8
register	8
ducation	8
▁efforts	8
▁dynamic	8
▁partner	8
▁imaging	8
▁propose	8
▁finally	8
expected	8
standing	8
▁Germany	8
▁African	8
▁Society	8
▁manager	8
pression	8
▁induced	8
▁authors	8
▁showing	8
▁carried	8
▁records	8
▁degrees	8
▁Results	8
▁married	8
▁reasons	8
▁explain	8
▁guarant	8
▁unknown	8
▁compare	8
▁Michael	8
▁becomes	8
plements	8
required	8
▁statist	8
language	8
▁stories	8
▁offered	8
▁workers	8
▁examine	8
▁opening	8
▁Tuesday	8
▁removed	8
▁confirm	8
▁brought	8
▁seconds	8
Resource	8
▁aspects	8
▁kitchen	8
▁Western	8
category	8
▁metabol	8
▁focused	8
▁weekend	8
▁outcome	8
ogenesis	8
▁advance	8
tprivate	8
▁traffic	8
▁covered	8
▁biggest	8
▁derived	8
▁obvious	8
▁balance	8
▁billion	8
▁Florida	8
▁William	8
Listener	8
▁involve	8
▁weather	8
▁respond	8
▁nearest	8
▁Because	8
▁driving	8
▁Profess	8
▁schedul	8
gorithms	8
▁alcohol	8
▁reviews	8
Function	8
▁Russian	8
▁reached	8
▁virtual	8
▁himself	8
▁mission	8
▁happens	8
otherapy	8
▁whereas	8
▁partial	8
▁artists	8
▁quarter	8
idential	8
▁helping	8
▁Italian	8
resource	8
▁Zealand	8
▁Twitter	8
▁Academy	8
ognitive	8
▁promote	8
▁fashion	8
▁experts	8
▁Message	8
▁welcome	8
▁proport	8
▁Finally	8
▁matches	8
▁sharing	8
▁federal	8
▁foreign	8
emporary	8
▁managed	8
▁convers	8
▁segment	8
▁clearly	8
▁feeling	8
▁funding	8
▁perhaps	8
▁logging	8
▁electro	8
▁founded	8
▁payment	8
▁Francis	8
anguages	8
▁Product	8
▁society	8
▁algebra	8
▁answers	8
▁talking	8
▁Control	8
iostream	8
▁wedding	8
▁serving	8
▁husband	8
▁sustain	8
▁nuclear	8
packages	8
▁warrant	8
▁helpful	8
▁economy	8
▁waiting	8
▁updates	8
▁parties	8
▁learned	8
▁winning	8
▁Medical	8
▁pathway	8
▁teacher	8
▁windows	8
gression	8
▁designs	8
▁leaving	8
▁Chicago	8
▁theorem	8
eference	8
▁conflic	8
▁plastic	8
▁univers	8
▁calling	8
▁classic	8
▁Special	8
▁Current	8
▁climate	8
▁depends	8
▁elected	8
▁targets	8
ollowing	8
▁keeping	8
formance	8
▁circuit	8
▁reality	8
▁faculty	8
activity	8
▁Records	8
Template	8
▁edition	8
▁accompl	8
▁courses	8
▁excited	8
▁Richard	8
▁brother	8
▁Kingdom	8
▁trigger	8
▁Command	8
▁neurons	8
Settings	8
iability	8
▁Ireland	8
▁voltage	8
▁episode	8
▁minimal	8
▁suspect	8
▁History	8
children	8
▁Library	8
ventions	8
▁Spanish	8
▁cardiac	8
ibraries	8
▁proceed	8
▁evening	8
▁passion	8
▁pharmac	8
internal	8
▁signals	8
download	8
▁typical	8
▁hearing	8
▁optical	8
▁uniform	8
▁holiday	8
▁Angeles	8
▁closely	8
▁compact	8
artments	8
▁organic	8
▁reverse	8
▁instant	8
▁tissues	8
▁seasons	8
Position	8
▁prepare	8
ashboard	8
▁markets	8
▁cluster	8
▁destroy	8
▁recover	8
▁console	8
reatment	8
▁listing	8
▁awarded	8
services	8
iography	8
▁insulin	8
▁battery	8
▁charges	8
▁trained	8
▁selling	8
▁exposed	8
▁Charles	8
Password	8
▁choices	8
▁spatial	8
ifferent	8
▁atmosph	8
▁capable	8
▁officer	8
Activity	8
platform	8
▁quantum	8
security	8
Document	8
▁Process	8
▁persons	8
▁Install	8
▁writers	8
▁Systems	8
▁drivers	8
▁awesome	8
▁entered	8
▁housing	8
▁illustr	8
▁walking	8
▁trading	8
operator	8
▁desired	8
▁analyze	8
▁planned	8
▁utility	8
Location	8
▁putting	8
ferences	8
▁capture	8
▁ongoing	8
possible	8
▁glucose	8
▁outdoor	8
▁charged	8
▁lesions	8
▁removal	8
▁musical	8
▁willing	8
▁Support	8
continue	8
▁opinion	8
▁locally	8
▁mapping	8
▁absence	8
aneously	8
▁columns	8
▁Through	8
▁concern	8
▁ordered	8
▁chapter	8
▁denomin	8
▁creates	8
▁seeking	8
▁tickets	8
▁totally	8
iginally	8
▁Studies	8
▁compute	8
▁actress	8
▁recruit	8
▁Station	8
▁singles	8
▁compens	8
▁vectors	8
callback	8
▁figures	8
▁Request	8
override	8
▁illness	8
▁succeed	8
▁Methods	8
ployment	8
▁holding	8
▁massive	8
▁insight	8
▁Manager	8
▁largely	8
▁passing	8
clusions	8
▁females	8
▁rapidly	8
▁resolve	8
▁portion	8
American	8
▁attacks	8
▁causing	8
▁flowers	8
▁monthly	8
▁Contact	8
▁Physics	8
▁strings	8
▁summary	8
Category	8
▁antigen	8
▁privacy	8
▁Georgia	8
▁polymer	8
▁parking	8
▁entries	8
▁Johnson	8
▁Pacific	8
▁Problem	8
ometimes	8
▁factory	8
▁railway	8
▁Example	8
material	8
▁Account	8
▁loading	8
▁defense	8
▁enjoyed	8
▁Promise	8
▁markers	8
▁younger	8
▁fluores	8
complete	8
▁greatly	8
▁noticed	8
▁trouble	8
PASSWORD	8
ologists	8
nrequire	8
▁readers	8
▁strains	8
▁cutting	8
▁Whether	8
Callback	8
▁centers	8
▁freedom	8
▁solving	8
▁routine	8
▁realize	8
▁Federal	8
▁warning	8
▁Another	8
▁bedroom	8
articles	8
▁amounts	8
▁execute	8
omething	8
ilateral	8
▁focuses	8
▁revenue	8
▁Digital	8
question	8
mediated	8
▁Connect	8
▁dollars	8
▁operate	8
▁scholar	8
▁checked	8
▁drawing	8
gressive	8
▁chromos	8
▁arrived	8
▁scatter	8
▁Britain	8
▁Univers	8
Abstract	8
Original	8
▁upgrade	8
selected	8
▁Despite	8
inations	8
▁Airport	8
▁western	8
Selector	8
▁Default	8
▁Express	8
▁sitting	8
▁stopped	8
requency	8
▁biology	8
▁screens	8
▁combine	8
▁FITNESS	8
▁suscept	8
▁physics	8
▁premium	8
▁synthes	8
▁ancient	8
▁authent	8
▁printed	8
validate	8
▁promise	8
ogeneous	8
▁Jackson	8
▁airport	8
▁Instead	8
▁inverse	8
▁discipl	8
▁cricket	8
▁radical	8
▁sending	8
▁anxiety	8
▁knowing	8
▁closest	8
ervative	8
▁alleged	8
▁smoking	8
▁neutral	8
▁LICENSE	8
▁Edition	8
▁retired	8
▁victory	8
▁granted	8
▁wearing	8
▁matters	8
▁spectro	8
▁contest	8
▁affects	8
▁moments	8
▁diagram	8
▁claimed	8
▁dealing	8
▁Eastern	8
▁hormone	8
▁Justice	8
▁picking	8
▁joining	8
▁vaccine	8
▁Section	8
▁council	8
▁visited	8
▁possess	8
Required	8
▁Country	8
projects	8
▁Content	8
▁Ontario	8
▁gallery	8
▁Toronto	8
▁shouldn	8
negative	8
▁adopted	8
▁fitness	8
▁YouTube	8
▁precise	8
ibration	8
▁witness	8
TestCase	8
▁chicken	8
▁ranging	8
▁adverse	8
provider	8
▁extreme	8
▁Chapter	8
▁nursing	8
▁peptide	8
equality	8
▁closing	8
▁disturb	8
▁turning	8
▁reduces	8
▁invited	8
▁enzymes	8
▁offices	8
▁neither	8
▁Develop	8
nRESULTS	8
▁Philipp	8
▁variant	8
overflow	8
▁exhibit	8
▁hosting	8
▁decline	8
positive	8
▁Subject	8
▁Created	8
▁healing	8
▁myocard	8
▁generic	8
▁texture	8
▁Similar	8
▁assumed	8
▁Premier	8
▁acceler	8
unsigned	8
▁altered	8
▁counsel	8
▁crystal	8
▁cooking	8
▁winners	8
▁concert	8
▁Publish	8
▁justice	8
▁defects	8
▁infants	8
▁disappe	8
▁handler	8
triangle	8
▁Houston	8
overline	8
features	8
islative	8
▁founder	8
original	8
▁Machine	8
ntypedef	8
islation	8
▁Olympic	8
Services	8
▁Theatre	8
▁invalid	8
keywords	8
▁elderly	8
▁injured	8
dispatch	8
▁heating	8
▁coupled	8
▁headers	8
▁filters	8
generate	8
▁bounded	8
adelphia	8
▁Supreme	8
▁lessons	8
notation	8
▁Arizona	8
▁delight	8
▁telling	8
▁savings	8
▁Indiana	8
▁engaged	8
▁implies	8
standard	8
perature	8
▁Boolean	8
▁Natural	8
▁finance	8
▁cancell	8
▁refresh	8
ivariate	8
spective	8
iversary	8
▁obesity	8
▁eastern	8
▁Quality	8
▁posting	8
▁Channel	8
analysis	8
▁streets	8
▁matched	8
▁careful	8
▁herself	8
▁fishing	8
▁weights	8
commands	8
▁mistake	8
▁sensors	8
▁Article	8
▁servers	8
▁Student	8
▁scoring	8
▁varying	8
▁doctors	8
redirect	8
▁Algebra	8
▁Islands	8
▁Swedish	8
▁thereby	8
▁victims	8
distance	8
▁pricing	8
▁pleased	8
▁anymore	8
friendly	8
▁leather	8
▁angular	8
▁metrics	8
▁deleted	8
ceptions	8
▁Several	8
▁payload	8
graduate	8
▁descent	8
▁applies	8
▁symbols	8
▁disable	8
▁barrier	8
▁Railway	8
outheast	8
▁cookies	8
▁satisfy	8
▁demands	8
▁retriev	8
▁conform	8
▁desktop	8
examples	8
▁illegal	8
▁vitamin	8
▁clothes	8
▁editing	8
optional	8
contains	8
▁Nations	8
▁equally	8
duration	8
▁muscles	8
▁Capital	8
▁damaged	8
▁Stephen	8
▁coaches	8
▁Limited	8
itecture	8
▁Village	8
▁closure	8
contents	8
urations	8
▁unclear	8
▁feeding	8
▁compete	8
▁Overall	8
▁compile	8
▁Gallery	8
▁Returns	8
describe	8
protocol	8
▁volumes	8
Variable	8
▁vessels	8
▁carrier	8
▁Website	8
▁delayed	8
chnology	8
▁dietary	8
Download	8
▁engines	8
Register	8
omorphic	8
▁mineral	8
▁Mexican	8
▁Complex	8
▁reserve	8
products	8
▁impacts	8
▁shorter	8
▁heavily	8
▁pointed	8
▁builder	8
▁cancers	8
▁heading	8
▁prolong	8
▁falling	8
▁filling	8
▁strange	8
▁opposed	8
▁signing	8
▁Primary	8
▁accused	8
▁speaker	8
▁chromat	8
▁fiction	8
▁suppose	8
Contract	8
▁viewing	8
▁Clinton	8
▁queries	8
comments	8
▁scripts	8
▁tension	8
▁Ukraine	8
ToString	8
▁reveals	8
▁spectra	8
▁Members	8
cosystem	8
▁roughly	8
▁Highway	8
▁killing	8
transfer	8
▁couples	8
variable	8
▁ratings	8
▁biomark	8
interest	8
▁arrival	8
▁observe	8
ithmetic	8
sequence	8
▁farmers	8
▁Profile	8
Security	8
▁harvest	8
relation	8
clerosis	8
▁raising	8
▁adapted	8
▁shortly	8
▁graphic	8
▁assault	8
▁Private	8
▁elegant	8
▁weapons	8
▁Alabama	8
▁Stadium	8
▁preview	8
▁intense	8
▁notable	8
progress	8
▁pointer	8
exchange	8
▁Officer	8
▁nucleus	8
▁somehow	8
▁timeout	8
▁Theorem	8
▁lawyers	8
▁chances	8
tainment	8
▁Affairs	8
▁colours	8
▁surname	8
▁theatre	8
ognition	8
terminal	8
NotFound	8
contract	8
▁cameras	8
▁Nigeria	8
encoding	8
▁forming	8
▁undergo	8
registry	8
ortheast	8
▁flights	8
▁painted	8
▁archive	8
▁blocked	8
includes	8
▁Kitchen	8
▁gravity	8
▁recipes	8
learning	8
▁Bitcoin	8
▁cooling	8
▁defines	8
▁belongs	8
▁Patrick	8
▁Storage	8
▁failing	8
▁Without	8
▁buttons	8
selector	8
ensively	8
▁Collect	8
▁Foreign	8
▁Seattle	8
▁Details	8
▁Finance	8
▁emerged	8
▁kinetic	8
▁remodel	8
▁Fourier	8
Registry	8
▁rolling	8
building	8
▁handled	8
▁Success	8
abstract	8
▁thyroid	8
▁maximal	8
nMETHODS	8
▁Atlanta	8
▁deposit	8
▁kilomet	8
▁gastric	8
▁podcast	8
▁squares	8
▁acquire	8
▁Authors	8
Language	8
▁skilled	8
▁cabinet	8
▁sensory	8
▁charset	8
▁urinary	8
▁Display	8
▁Consult	8
▁mothers	8
▁viruses	8
▁survive	8
▁booking	8
modified	8
▁curious	8
▁tonight	8
▁caption	8
▁bearing	8
▁Summary	8
▁enthusi	8
nexports	8
customer	8
▁consent	8
▁Perhaps	8
▁Measure	8
▁Islamic	8
▁Vietnam	8
▁charity	8
▁Forward	8
▁suicide	8
▁lengths	8
▁antenna	8
▁staying	8
▁Turkish	8
Selected	8
▁Feature	8
▁crusher	8
▁inhibit	8
▁outputs	8
▁runtime	8
▁repairs	8
requires	8
interval	8
▁Working	8
▁restart	8
▁emotion	8
▁sectors	8
Interval	8
▁Address	8
▁Initial	8
▁perturb	8
▁Antonio	8
▁Lincoln	8
▁singing	8
traction	8
▁clarify	8
elements	8
ynthesis	8
▁empower	8
strument	8
▁powered	8
Dispatch	8
▁renamed	8
▁ranking	8
▁ignored	8
▁chamber	8
▁Session	8
▁ethanol	8
▁cytotox	8
▁backend	8
▁watched	8
▁venture	8
▁grounds	8
▁wanting	8
▁Options	8
▁trusted	8
▁genomic	8
ordinary	8
▁habitat	8
▁labeled	8
▁fitting	8
▁ceiling	8
oriented	8
olutions	8
releases	8
▁evident	8
▁Culture	8
graphics	8
▁Between	8
▁declare	8
▁Anthony	8
▁banking	8
▁auction	8
fraction	8
Progress	8
▁fastest	8
▁visitor	8
relative	8
▁justify	8
▁scratch	8
▁reaches	8
Platform	8
▁Formula	8
▁penalty	8
▁Israeli	8
▁landing	8
recision	8
▁encoded	8
▁backing	8
▁Reserve	8
▁protest	8
▁Virtual	8
▁settled	8
▁mutants	8
entially	8
▁sensing	8
▁Classic	8
▁hanging	8
▁tobacco	8
▁Release	8
▁threats	8
▁briefly	8
Material	8
▁islands	8
▁vintage	8
▁nations	8
▁logical	8
Optional	8
disabled	8
▁readily	8
economic	8
▁tourism	8
▁highway	8
▁Related	8
Duration	8
Messages	8
ogeneity	8
itations	8
▁mounted	8
▁contrad	8
▁keyword	8
business	8
▁Harvard	8
requests	8
▁longest	8
▁linking	8
▁trailer	8
▁durable	8
▁Schools	8
clinical	8
▁simpler	8
Internal	8
▁LIMITED	8
▁captain	8
▁arrange	8
▁credits	8
▁placing	8
Strategy	8
▁devoted	8
▁letting	8
▁Package	8
▁carries	8
▁Detroit	8
▁streams	8
▁artwork	8
▁refused	8
Protocol	8
▁Belgium	8
▁pushing	8
▁Finland	8
leveland	8
external	8
heastern	8
▁Denmark	8
endpoint	8
homepage	8
▁revised	8
▁stomach	8
▁scaling	8
▁DEFAULT	8
Analysis	8
erranean	8
▁handles	8
Resolver	8
▁Austria	8
▁secrets	8
▁coastal	8
▁trivial	8
Sequence	8
▁beliefs	8
▁stadium	8
▁lacking	8
aughters	8
▁printer	8
etically	8
▁qualify	8
▁Defense	8
▁Testing	8
▁worship	8
▁Mission	8
▁Changes	8
▁retinal	8
▁lasting	8
uplicate	8
▁Besides	8
versions	8
▁plugins	8
oplasmic	8
▁threads	8
▁theater	8
Iterator	8
Username	8
Customer	8
▁induces	8
▁broader	8
▁painter	8
▁Nothing	8
▁inhabit	8
atherine	8
▁hitting	8
▁uncover	8
▁circles	8
▁Convert	8
▁IMPLIED	8
▁bladder	8
▁Captain	8
patriate	8
geometry	8
▁burning	8
▁modular	8
▁Chamber	8
ificates	8
▁genuine	8
Identity	8
▁cycling	8
▁expense	8
▁Reading	8
▁forests	8
existing	8
▁passive	8
▁conject	8
▁Pradesh	8
▁tangent	8
▁Studios	8
▁Matthew	8
▁careers	8
▁Beijing	8
▁fantasy	8
training	8
▁evolved	8
▁subsets	8
▁tourist	8
▁stylish	8
▁Springs	8
▁figured	8
▁advised	8
▁Greater	8
Software	8
▁worried	8
▁Archive	8
infected	8
breaking	8
▁entropy	8
▁hunting	8
▁ethical	8
entities	8
▁Meeting	8
▁compass	8
▁gardens	8
resolved	8
▁Perfect	8
▁Friends	8
commerce	8
hibition	8
markdown	8
▁shelter	8
FileName	8
▁Monitor	8
nprivate	8
▁outline	8
election	8
defaults	8
▁amateur	8
▁colored	8
▁welfare	8
▁inspire	8
unittest	8
▁footage	8
▁seventh	8
ninclude	8
▁lawsuit	8
Endpoint	8
▁comprom	8
workflow	8
▁fingers	8
imension	8
▁Faculty	8
▁veteran	8
identity	8
▁Douglas	8
▁Welcome	8
▁singers	8
▁mystery	8
▁anybody	8
▁secured	8
▁Factory	8
▁cryptoc	8
currency	8
▁Looking	8
▁Russell	8
initions	8
compiler	8
literals	8
▁damages	8
software	8
▁pending	8
▁portray	8
▁routing	8
▁Alberta	8
▁borders	8
▁coating	8
▁divorce	8
icrobial	8
Standard	8
▁Century	8
▁shallow	8
schedule	8
▁Orleans	8
▁dancing	8
▁optimum	8
activate	8
nconsole	8
▁subunit	8
channels	8
▁Phoenix	8
▁transit	8
▁Stewart	8
▁viewers	8
previous	8
▁violent	8
CRIPTION	8
encephal	8
▁washing	8
▁Invalid	8
▁lecture	8
▁exports	8
▁cocaine	8
▁ligands	8
straints	8
▁harmful	8
▁glasses	8
▁airline	8
▁donated	8
▁defence	8
Delegate	8
▁aligned	8
invasive	8
Redirect	8
personal	8
ictional	8
laration	8
feedback	8
▁permits	8
▁assured	8
▁Improve	8
▁homeost	8
Expected	8
▁aqueous	8
postgres	8
▁gaining	8
▁shipped	8
▁imports	8
▁existed	8
▁silicon	8
▁isolate	8
▁symptom	8
▁disrupt	8
▁Dynamic	8
▁vibrant	8
▁ubiquit	8
andidate	8
▁affairs	8
▁residue	8
▁endemic	8
▁receipt	8
icensing	8
▁relaxed	8
assembly	8
▁announc	8
▁Liberal	8
▁painful	8
▁earning	8
Nullable	8
▁Counter	8
Operator	8
▁Firefox	8
▁bridges	8
▁critics	8
▁Circuit	8
vertical	8
▁Writing	8
▁atheros	8
constant	8
▁beaches	8
▁microbi	8
▁Surface	8
priority	8
absolute	8
revision	8
▁runners	8
▁Therapy	8
▁offline	8
Executor	8
▁corners	8
pipeline	8
▁immunos	8
ophageal	8
ributors	8
▁Scholar	8
▁pulling	8
▁Glasgow	8
ographer	8
▁DAMAGES	8
▁overlap	8
▁doubles	8
▁arising	8
▁bottles	8
▁Concept	8
▁Diamond	8
pathetic	8
▁creator	8
▁Morning	8
▁patches	8
▁Getting	8
▁Charlie	8
▁assists	8
▁liberal	8
▁workout	8
▁editors	8
▁notably	8
Distance	8
▁rewards	8
▁anthrop	8
▁Iranian	8
▁sorting	8
filepath	8
▁Barbara	8
▁inspect	8
▁condens	8
▁travels	8
division	8
▁Romania	8
▁priorit	8
▁Present	8
▁distant	8
electron	8
▁crossed	8
▁citizen	8
▁Reviews	8
erialize	8
▁WHETHER	8
▁Console	8
▁anytime	8
▁seating	8
▁deficit	8
▁Kennedy	8
▁spacing	8
▁adapter	8
setminus	8
▁origins	8
▁Hungary	8
▁Senator	8
▁dispers	8
▁athlete	8
▁expects	8
Business	8
▁proving	8
▁Freedom	8
▁ARISING	8
▁surgeon	8
iplinary	8
manifest	8
Children	8
etheless	8
▁cleaned	8
▁endless	8
▁retreat	8
▁Collins	8
▁Applied	8
▁farming	8
▁Vermont	8
ensitive	8
illation	8
▁Cricket	8
▁orbital	8
▁renewal	8
artifact	8
▁endomet	8
▁packing	8
▁hydroly	8
▁parsing	8
▁solvent	8
▁scanner	8
▁Stanley	8
▁needing	8
▁charter	8
Consumer	8
▁magical	8
ximately	8
oplastic	8
▁clinics	8
▁Running	8
▁Montana	8
Filename	8
consumer	8
chanical	8
▁Biology	8
▁latency	8
▁Finnish	8
Simplify	8
▁museums	8
▁Effects	8
▁sliding	8
▁Bristol	8
frontend	8
▁Wedding	8
checkbox	8
Eloquent	8
▁consume	8
sections	8
▁squared	8
atomical	8
▁shifted	8
▁sisters	8
▁Belgian	8
▁relates	8
oproject	8
▁forcing	8
Contents	8
▁beating	8
▁stating	8
▁Fashion	8
▁handful	8
▁Sanders	8
▁cleared	8
vascular	8
official	8
▁fixture	8
▁folding	8
▁ceramic	8
▁resting	8
▁cuisine	8
Encoding	8
▁betting	8
▁Madison	8
▁dispute	8
▁mediate	8
▁dioxide	8
▁clarity	8
research	8
▁Theater	8
▁assumes	8
▁Quantum	8
▁manages	8
Contains	8
changing	8
▁romance	8
▁Weather	8
▁aneurys	8
▁offense	8
▁inquiry	8
▁lighter	8
irements	8
doctoral	8
▁leisure	8
▁avoided	8
▁sponsor	8
strategy	8
▁imposed	8
▁exclude	8
▁laundry	8
▁accepts	8
▁refined	8
uclidean	8
▁warming	8
▁balloon	8
solution	8
▁beloved	8
▁outlets	8
Transfer	8
ocytosis	8
listener	8
▁Roberts	8
▁mailing	8
▁dressed	8
acterial	8
Commands	8
▁flowing	8
▁Extract	8
▁Iceland	8
FilePath	8
▁Chelsea	8
▁HOLDERS	8
▁honored	8
coverage	8
▁Bernard	8
▁Various	8
▁Picture	8
▁Baptist	8
handlers	8
▁Regular	8
quantity	8
viewport	8
▁hypoxia	8
▁storing	8
▁Updated	8
accounts	8
▁pressed	8
▁Surgery	8
▁Holiday	8
ulmonary	8
▁Orlando	8
Describe	8
▁spotted	8
▁energet	8
▁grocery	8
▁terrain	8
Snapshot	8
▁Setting	8
▁Speaker	8
Research	8
district	8
▁jumping	8
▁removes	8
▁modeled	8
▁fucking	8
Facebook	8
▁dresses	8
▁tribute	8
▁regimen	8
▁differs	8
▁insects	8
ednesday	8
cellular	8
▁Numbers	8
finished	8
▁bonding	8
reactive	8
iliation	8
▁neoplas	8
▁starter	8
▁Loading	8
▁newborn	8
▁Crystal	8
▁staging	8
▁teaches	8
▁coconut	8
ertation	8
▁advisor	8
▁Partial	8
▁casting	8
▁courage	8
▁legally	8
▁analyst	8
Graphics	8
▁Trinity	8
▁custody	8
▁semicon	8
▁margins	8
▁Builder	8
▁Average	8
parallel	8
▁linkage	8
ributing	8
▁Finding	8
▁stepped	8
TreeNode	8
▁Buffalo	8
▁Holland	8
▁Indians	8
▁bitcoin	8
▁Gardens	8
▁neutron	8
▁commits	8
▁rabbits	8
Assembly	8
▁decides	8
deletion	8
electric	8
calendar	8
▁relapse	8
tvirtual	8
▁Housing	8
▁Alexand	8
▁malaria	8
▁sulfate	8
External	8
actional	8
▁Borough	8
football	8
▁pension	8
▁bracket	8
▁yielded	8
▁dehydro	8
▁pursuit	8
▁Privacy	8
▁Trading	8
▁imagery	8
▁Vincent	8
▁granite	8
▁horizon	8
▁remarks	8
Controls	8
▁Sheriff	8
directed	8
regation	8
▁Premium	8
Calendar	8
Observer	8
▁cleanup	8
▁Payment	8
▁pockets	8
▁crafted	8
▁Answers	8
▁diffuse	8
Requests	8
▁sampled	8
▁educate	8
▁HashMap	8
▁dentist	8
Exchange	8
▁Thunder	8
▁folders	8
affected	8
▁METHODS	8
aternity	8
▁mucosal	8
▁Elastic	8
▁assembl	8
▁mutagen	8
▁traders	8
Entities	8
▁Scanner	8
▁Cabinet	8
▁arrives	8
▁Players	8
▁Muslims	8
▁Hilbert	8
▁Climate	8
▁Crusher	8
▁persist	8
computer	8
▁lifting	8
▁caution	8
▁strikes	8
nversion	8
▁merging	8
▁Nuclear	8
Generate	8
▁mammals	8
▁Poisson	8
▁rewrite	8
designed	8
hospital	8
▁vanilla	8
controls	8
▁migrate	8
▁exacerb	8
▁Cameron	8
Projects	8
▁touches	8
multiple	8
▁snippet	8
national	8
▁Pattern	8
▁cartoon	8
▁Edwards	8
▁employs	8
▁seroton	8
▁replies	8
▁Generic	8
▁Singles	8
▁camping	8
▁drought	8
▁broadly	8
▁trapped	8
firebase	8
▁prophyl	8
▁Stevens	8
Geometry	8
▁coupons	8
▁Protein	8
▁gateway	8
▁soldier	8
▁rheumat	8
NSString	8
▁Centers	8
▁Conserv	8
assisted	8
▁counted	8
▁Usually	8
▁monkeys	8
▁Maximum	8
▁amyloid	8
▁Frances	8
▁unified	8
▁styling	8
MMMMMMMM	8
▁bundles	8
▁seminar	8
▁Workers	8
▁Teacher	8
▁Imaging	8
▁bicycle	8
▁twisted	8
▁Heights	8
▁smokers	8
▁planted	8
▁marking	8
▁Liberty	8
▁cascade	8
▁carotid	8
▁contour	8
▁Reports	8
▁prosper	8
▁anatomy	8
▁touched	8
▁Sustain	8
▁biomass	8
Constant	8
▁reactor	8
aspberry	8
▁harness	8
Multiple	8
sessions	8
▁Nursing	8
▁rebuild	8
▁Defence	8
Solution	8
▁Brother	8
▁Hillary	8
▁monster	8
▁innings	8
▁seniors	8
▁approve	8
velocity	8
▁congreg	8
▁Outdoor	8
▁fabrics	8
▁blessed	8
▁renewed	8
Products	8
▁debuted	8
▁crashes	8
Validate	8
collapse	8
centered	8
TextView	8
▁topical	8
although	8
▁sailing	8
▁paralle	8
▁doubled	8
▁Angular	8
Comments	8
Pipeline	8
▁webpack	8
▁stained	8
▁heights	8
consider	8
▁garbage	8
▁shelves	8
▁lithium	8
▁jointly	8
▁Counsel	8
Compiler	8
▁adrenal	8
▁Lithuan	8
▁fighter	8
▁conserv	8
urrences	8
▁fifteen	8
reported	8
▁Catalog	8
▁reminds	8
strftime	8
ilingual	8
▁Hopkins	8
▁Contest	8
▁Provide	8
▁discrep	8
▁nowhere	8
▁battles	8
Modified	8
▁vaginal	8
▁dispens	8
▁Stories	8
ethylene	8
▁Calgary	8
▁corneal	8
▁clicked	8
▁Rangers	8
▁kingdom	8
▁wounded	8
National	8
▁Popular	8
▁touring	8
▁Croatia	8
▁tactics	8
▁phrases	8
snapshot	8
Internet	8
roadcast	8
▁Partner	8
▁praised	8
Features	8
employee	8
▁Episode	8
▁whereby	8
▁licence	8
▁AUTHORS	8
▁abelian	8
▁Ecuador	8
▁crosses	8
▁tightly	8
▁tracked	8
▁useless	8
▁Include	8
▁Compare	8
▁Awesome	8
▁peoples	8
▁expired	8
▁Creates	8
ellation	8
▁lesbian	8
▁stellar	8
▁outlook	8
tconsole	8
▁reforms	8
▁mirrors	8
▁sellers	8
▁Vehicle	8
compress	8
oretical	8
▁Oakland	8
▁capsule	8
▁hottest	8
▁studios	8
▁compose	8
equation	8
▁conting	8
▁Quarter	8
pressure	8
▁Against	8
▁tracker	8
▁lineage	8
▁Closing	8
▁Jessica	8
critical	8
▁Emperor	8
▁Chester	8
▁planets	8
capacity	8
▁percept	8
▁Letters	8
▁Notable	8
▁Compute	8
▁femoral	8
composer	8
▁polygon	8
boarding	8
▁drafted	8
Behavior	8
Schedule	8
▁Amazing	8
▁shaping	8
Previous	8
versible	8
▁leagues	8
timately	8
ancellor	8
▁Lebanon	8
Employee	8
▁denoted	8
▁Respons	8
▁wealthy	8
weighted	8
pressive	8
▁Tourism	8
▁scandal	8
backends	8
▁Instant	8
implicit	8
▁ideally	8
▁exceeds	8
readline	8
▁mammary	8
▁lengthy	8
ordering	8
▁Wyoming	8
▁invoice	8
▁copying	8
▁Located	8
▁Amateur	8
▁packets	8
▁Attempt	8
▁concise	8
▁terrace	8
▁roofing	8
▁acetate	8
Learning	8
ancement	8
▁Missing	8
▁Designs	8
▁worries	8
▁nominee	8
▁lending	8
▁kinases	8
▁bending	8
sembling	8
▁Jeffrey	8
problems	8
▁dealers	8
▁webpage	8
▁lightly	8
Currency	8
▁melting	8
▁guiding	8
arashtra	8
▁Concert	8
approved	8
overview	8
▁bipolar	8
▁somatic	8
▁lowered	8
▁ventric	8
MenuItem	8
▁billing	8
▁prayers	8
▁robotic	8
▁literal	8
▁posters	8
▁Tickets	8
▁interim	8
▁quicker	8
ographed	8
▁alleles	8
▁Organic	8
nbecause	8
▁futures	8
▁frontal	8
▁watches	8
tracking	8
▁pairing	8
▁pioneer	8
creation	8
▁fortune	8
particle	8
queryset	8
▁missile	8
▁Hunting	8
▁Raymond	8
▁replied	8
behavior	8
▁Diocese	8
AddField	8
filtered	8
myanswer	8
▁Preview	8
▁Conduct	8
credited	8
adjusted	8
▁playoff	8
tpadding	8
▁divides	8
▁Revival	8
▁tuition	8
producer	8
▁Bedroom	8
▁academy	8
enerated	8
▁inaccur	8
▁Spencer	8
▁Jamaica	8
▁relying	8
▁Thought	8
volution	8
▁vertebr	8
▁Artists	8
▁Norfolk	8
observer	8
▁pursued	8
▁Brandon	8
neapolis	8
▁Traffic	8
▁Million	8
▁rentals	8
▁freight	8
▁Gabriel	8
cobacter	8
▁WARNING	8
▁plasmid	8
selenium	8
restrial	8
▁Serbian	8
ergarten	8
Received	8
▁fasting	8
released	8
▁Correct	8
▁congrat	8
formerly	8
stricted	8
paration	8
inspired	8
thandoff	8
▁Objects	8
balanced	8
▁preterm	8
▁spirits	8
December	8
Commerce	8
▁Silicon	8
▁malware	8
▁tornado	8
▁subtype	8
▁guitars	8
▁discour	8
▁Pearson	8
▁registr	8
▁shocked	8
Licensed	8
▁Gilbert	8
▁Baronet	8
▁Gregory	8
▁allergy	8
▁Fantasy	8
Priority	8
ogenetic	8
▁erosion	8
▁tracing	8
▁customs	8
ListNode	8
▁dynasty	8
Building	8
▁spermat	8
▁Bennett	8
▁oxidase	8
▁harmony	8
▁Unknown	8
▁discord	8
endswith	8
▁histone	8
▁Knights	8
ymmetric	8
▁crashed	8
▁Kashmir	8
▁adipose	8
▁Replace	8
▁invites	8
icularly	8
▁filming	8
November	8
▁Gateway	8
▁Started	8
▁deliber	8
▁functor	8
▁Maxwell	8
▁pigment	8
▁happily	8
▁lenders	8
▁Leonard	8
▁surfact	8
received	8
practice	8
▁tasting	8
▁Hamburg	8
aterials	8
▁shooter	8
▁convinc	8
▁Herbert	8
▁Morocco	8
▁Wallace	8
▁clearer	8
attering	8
▁Chicken	8
▁Genetic	8
ievement	8
▁Factors	8
▁cohorts	8
▁Outlook	8
patterns	8
▁Plastic	8
aternion	8
▁Andrews	8
▁Bradley	8
▁Execute	8
reviewed	8
▁cloning	8
▁motions	8
Keyboard	8
▁sourced	8
▁acrylic	8
▁martial	8
cultural	8
▁photons	8
othermal	8
▁Simpson	8
▁Warning	8
▁balcony	8
▁insured	8
▁Battery	8
▁breathe	8
tdefault	8
▁casinos	8
Creation	8
▁dancers	8
onomical	8
▁premise	8
▁masters	8
idepress	8
▁locking	8
▁ceremon	8
fixtures	8
▁rebuilt	8
▁potency	8
enchymal	8
▁Alcohol	8
▁Abraham	8
▁epsilon	8
▁freshly	8
▁spheres	8
endering	8
▁pitcher	8
▁helpers	8
▁Belarus	8
▁budgets	8
▁Fitness	8
▁Imagine	8
▁Parents	8
Quantity	8
contacts	8
delivery	8
▁Arsenal	8
▁myeloid	8
resolver	8
archives	8
Although	8
leetcode	8
▁bishops	8
▁branded	8
▁aquatic	8
▁paradox	8
▁mercury	8
▁Drawing	8
▁Eclipse	8
Warnings	8
▁proudly	8
▁nonzero	8
USERNAME	8
▁nursery	8
campaign	8
▁heparin	8
▁Ancient	8
▁Chennai	8
▁Vitamin	8
▁Healthy	8
▁Minimum	8
▁turbine	8
▁Ottoman	8
▁rupture	8
chemical	8
▁Economy	8
▁Myanmar	8
Inflater	8
provided	8
▁cottage	8
sentence	8
▁Someone	8
▁analogs	8
▁toolbar	8
Specific	8
▁drummer	8
▁Prepare	8
Accessor	8
▁showers	8
▁pumping	8
DATABASE	8
Thursday	8
networks	8
students	8
▁arguing	8
▁resides	8
▁scenery	8
▁Reverse	8
mongoose	8
ynthetic	8
ermanent	8
oucester	8
▁Leather	8
▁inherit	8
athyroid	8
FileSync	8
▁aerobic	8
▁kidneys	8
▁Revenue	8
executor	8
▁boiling	8
▁english	8
ninstall	8
▁extinct	8
assadors	8
▁omitted	8
▁Fiction	8
starting	8
▁shuttle	8
▁Laplace	8
protobuf	8
▁brokers	8
▁Carroll	8
▁Purpose	8
▁Balance	8
▁crowded	8
▁layered	8
▁debates	8
▁Monster	8
February	8
▁Lecture	8
Starting	8
▁Guarant	8
▁Kenneth	8
Computer	8
▁emitted	8
probably	8
closures	8
▁repeats	8
▁coached	8
▁knocked	8
▁Chronic	8
▁Actions	8
▁borough	8
▁glimpse	8
Rotation	8
▁appeals	8
enhanced	8
▁Estonia	8
remember	8
▁textile	8
▁genital	8
▁Utility	8
▁Classes	8
▁polling	8
▁Persian	8
▁welding	8
▁Memphis	8
▁hardest	8
Manifest	8
strained	8
embedded	8
▁chopped	8
▁blogger	8
▁Markets	8
▁posture	8
Positive	8
profiles	8
DataType	8
▁Seminar	8
quisites	8
▁relieve	8
▁homolog	8
▁dialect	8
▁ophthal	8
Receiver	8
▁pitched	8
▁colspan	8
heduling	8
▁lottery	8
▁encodes	8
▁onclick	8
▁dialing	8
▁Advisor	8
▁Flowers	8
▁abandon	8
Examples	8
Workflow	8
▁swallow	8
▁Handler	8
▁expands	8
▁stromal	8
▁anomaly	8
▁immense	8
▁wishing	8
▁replica	8
▁Brigade	8
▁puzzles	8
▁curated	8
▁Illustr	8
Advanced	8
▁anxious	8
▁Spotify	8
▁Newport	8
▁adviser	8
▁bonuses	8
quarters	8
▁clutter	8
receiver	8
delegate	8
▁sleeves	8
▁endings	8
▁bubbles	8
textless	8
▁pyramid	8
▁craftsm	8
▁furnish	8
▁tackles	8
▁atrophy	8
keyboard	8
▁Electro	8
▁Binding	8
Producer	8
vertices	8
Disabled	8
carousel	8
▁regimes	8
▁Musical	8
ListView	8
physical	8
▁aggress	8
▁liquids	8
Relative	8
produced	8
▁Recruit	8
▁mindset	8
▁Mercury	8
▁invoked	8
▁Transit	8
▁renders	8
speaking	8
accuracy	8
advanced	8
▁opacity	8
▁gradual	8
historic	8
▁ventral	8
▁pumpkin	8
▁Walmart	8
▁Journey	8
▁happier	8
▁festive	8
▁dangers	8
▁temples	8
▁Whereas	8
▁Walking	8
▁Reality	8
▁isotope	8
▁seafood	8
▁skating	8
▁lactate	8
▁wasting	8
harmonic	8
Intended	8
vergence	8
shutdown	8
▁Rebecca	8
▁chooses	8
fordable	8
▁payroll	8
▁reconst	8
▁Harbour	8
▁ecology	8
▁intends	8
Creating	8
▁Windsor	8
ediatric	8
roducing	8
▁rainbow	8
AAAAAAAA	8
▁shadows	8
▁Cornell	8
▁nitrate	8
▁stacked	8
▁Optical	8
ensation	8
▁Protest	8
NotExist	8
Finished	8
▁Updates	8
▁digging	8
▁wonders	8
nmanager	8
▁Heather	8
▁Authent	8
▁Rolling	8
▁reminis	8
▁vinegar	8
▁Charter	8
▁hopeful	8
▁postpon	8
▁obscure	8
nlibrary	8
▁notions	8
▁Solomon	8
▁encoder	8
linkedin	8
▁Vintage	8
▁fellows	8
▁Perform	8
▁Monthly	8
▁Solving	8
warnings	8
▁chaotic	8
▁notices	8
▁Shannon	8
▁upwards	8
▁erected	8
▁corrupt	8
receptor	8
▁slowing	8
▁refugee	8
navigate	8
▁cushion	8
Modifier	8
▁crushed	8
▁Elliott	8
Defaults	8
mutation	8
▁Cardiff	8
Relation	8
AreEqual	8
▁radians	8
ificance	8
▁gastrop	8
▁ansible	8
▁outfits	8
▁upright	8
Resolved	8
▁Colonel	8
▁adjunct	8
▁Writers	8
▁RESULTS	8
extended	8
▁Outside	8
Clinical	8
▁Ordered	8
▁Screens	8
▁hydroxy	8
▁sidebar	8
▁expires	8
▁Fischer	8
▁Midwest	8
▁Devices	8
▁Samples	8
▁jupyter	8
▁Confirm	8
▁furnace	8
stackrel	8
▁halfway	8
hardware	8
▁caching	8
spectrum	8
▁compost	8
expanded	8
▁Explain	8
▁Predict	8
▁anastom	8
▁scanned	8
▁suburbs	8
families	8
▁squeeze	8
▁unaware	8
▁fathers	8
▁freezer	8
▁Fortune	8
subtitle	8
ordinate	8
▁catches	8
▁Belfast	8
▁planner	8
ReadOnly	8
▁onwards	8
▁candles	8
▁grading	8
Handlers	8
explicit	8
director	8
levation	8
Vertical	8
▁nucleic	8
▁rotated	8
ABSTRACT	8
▁Melissa	8
▁upholst	8
▁Evening	8
actoring	8
▁suffers	8
▁abdomen	8
▁resorts	8
▁retains	8
reporter	8
▁VARCHAR	8
▁Thermal	8
▁strokes	8
▁Firstly	8
▁blowing	8
▁SUMMARY	8
▁Written	8
▁Percent	8
▁bedding	8
blogspot	8
▁skipped	8
▁indoors	8
▁winding	8
▁spreads	8
▁kicking	8
▁synonym	8
Overflow	8
Packages	8
tdisplay	8
▁layouts	8
▁Funeral	8
▁methane	8
▁widgets	8
▁Podcast	8
▁dignity	8
prettier	8
▁GraphQL	8
▁rodents	8
▁sixteen	8
▁Schmidt	8
daughter	8
▁infused	8
▁Removal	8
branches	8
▁laptops	8
▁unitary	8
▁protons	8
ivatives	8
▁rhythms	8
playlist	8
▁cyclist	8
▁wavelet	8
actually	8
▁thunder	8
▁Clearly	8
▁Armenia	8
▁quietly	8
▁decoder	8
▁exagger	8
▁secular	8
▁Banking	8
▁Comfort	8
piration	8
TEMPLATE	8
▁chassis	8
▁colitis	8
▁breasts	8
erground	8
umbnails	8
province	8
▁biliary	8
▁rushing	8
European	8
▁Sources	8
answered	8
▁Cowboys	8
▁Timothy	8
▁Griffin	8
▁sparked	8
matching	8
existent	8
▁stuffed	8
▁Gujarat	8
▁bowling	8
▁Phillip	8
▁hacking	8
included	8
▁surfing	8
Importer	8
ndefault	8
▁torrent	8
▁Preston	8
creative	8
▁Rainbow	8
▁microgl	8
clerotic	8
▁aerosol	8
▁fencing	8
▁stripes	8
▁Weekend	8
ecomment	8
▁Suffolk	8
linspace	8
▁Opening	8
▁rehears	8
▁webinar	8
▁Horizon	8
Markdown	8
▁phantom	8
▁Texture	8
Revision	8
▁Luckily	8
citation	8
▁Uruguay	8
ustering	8
▁Experts	8
UserName	8
▁mutated	8
▁Remodel	8
Criteria	8
▁Actress	8
▁Freeman	8
▁Compact	8
piratory	8
▁revenge	8
orporate	8
▁devised	8
▁Verizon	8
▁depicts	8
▁Admiral	8
▁Raiders	8
▁Jupiter	8
▁discret	8
▁Sisters	8
▁issuing	8
▁batches	8
▁outflow	8
Velocity	8
▁costing	8
▁elapsed	8
▁sharply	8
▁Winners	8
Feedback	8
▁oocytes	8
▁Maurice	8
▁learner	8
together	8
▁damping	8
Personal	8
▁feather	8
▁roasted	8
▁torsion	8
clusters	8
▁Pirates	8
Absolute	8
orgetown	8
▁hashlib	8
▁analogy	8
▁whistle	8
▁derives	8
pherical	8
▁Uniform	8
▁Leaders	8
▁Embassy	8
▁consect	8
▁marital	8
▁reacted	8
blocking	8
scenario	8
boundary	8
purchase	8
▁selects	8
▁Bolivia	8
▁patrons	8
▁peppers	8
▁sailors	8
▁torture	8
ReadLine	8
▁stagger	8
IsNullOr	8
Particle	8
exercise	8
ressions	8
▁kernels	8
▁onboard	8
troviral	8
▁Hampton	8
▁diploma	8
▁inserts	8
▁tractor	8
relevant	8
▁batting	8
▁sarcoma	8
▁Thomson	8
▁cracked	8
Dropdown	8
Extended	8
▁elusive	8
▁ensured	8
Parallel	8
▁Scandin	8
▁intimid	8
krainian	8
▁evangel	8
▁simplex	8
▁Prevent	8
▁Glacier	8
▁firstly	8
<tbody>	7
unction	7
▁includ	7
ational	7
▁differ	7
▁result	7
▁system	7
▁people	7
▁should	7
▁follow	7
▁number	7
▁effect	7
comment	7
lection	7
ization	7
▁design	7
▁method	7
▁respon	7
version	7
ulation	7
▁during	7
▁before	7
▁partic	7
▁second	7
usiness	7
▁provid	7
ression	7
▁direct	7
ability	7
▁report	7
▁commun	7
▁invest	7
▁return	7
▁Americ	7
ailable	7
▁proper	7
▁applic	7
ception	7
▁health	7
▁person	7
include	7
ocument	7
olution	7
▁struct	7
▁contin	7
▁around	7
▁family	7
▁within	7
▁change	7
▁object	7
▁associ	7
▁public	7
▁custom	7
▁really	7
▁school	7
▁better	7
▁record	7
ference	7
aterial	7
▁access	7
anguage	7
plement	7
▁String	7
▁common	7
▁System	7
▁single	7
▁propos	7
ination	7
▁market	7
private	7
▁always	7
ividual	7
uration	7
▁mechan	7
▁target	7
▁series	7
▁little	7
▁action	7
▁review	7
▁models	7
▁United	7
▁either	7
▁select	7
▁season	7
▁things	7
▁called	7
▁static	7
nexport	7
▁comput	7
Problem	7
estions	7
▁period	7
▁online	7
content	7
ography	7
▁compet	7
ibility	7
▁energy	7
▁course	7
▁County	7
mission	7
▁making	7
Service	7
▁indust	7
▁observ	7
▁source	7
▁having	7
▁levels	7
▁answer	7
ributed	7
▁employ	7
▁groups	7
artment	7
▁States	7
▁higher	7
▁social	7
▁simple	7
▁across	7
ditions	7
request	7
▁compon	7
▁please	7
▁normal	7
▁points	7
▁assess	7
amework	7
▁months	7
▁cancer	7
▁search	7
▁strong	7
actions	7
▁School	7
▁future	7
ication	7
ilities	7
▁become	7
▁Intern	7
▁events	7
default	7
▁growth	7
tpublic	7
▁length	7
▁factor	7
package	7
Request	7
▁option	7
▁amount	7
▁author	7
npublic	7
▁issues	7
section	7
istance	7
▁impact	7
itional	7
▁Europe	7
message	7
display	7
▁others	7
▁random	7
lements	7
▁engine	7
▁reason	7
▁member	7
▁enough	7
▁though	7
▁intern	7
▁recomm	7
▁needed	7
▁showed	7
▁temper	7
▁screen	7
▁former	7
gorithm	7
▁played	7
▁recent	7
ampions	7
▁career	7
▁update	7
▁recogn	7
▁status	7
▁appear	7
▁births	7
▁center	7
▁concer	7
▁likely	7
▁weight	7
▁depend	7
Message	7
▁trying	7
▁accept	7
▁taking	7
summary	7
▁effort	7
▁offers	7
▁happen	7
current	7
ovember	7
project	7
▁combin	7
▁useful	7
▁became	7
▁consum	7
▁experi	7
▁entire	7
▁double	7
related	7
▁active	7
▁replac	7
▁cannot	7
▁expect	7
▁August	7
▁Center	7
▁recept	7
process	7
▁client	7
▁images	7
▁office	7
▁player	7
▁rather	7
▁living	7
▁friend	7
▁Public	7
▁compos	7
inition	7
▁allows	7
▁highly	7
▁global	7
▁matrix	7
▁inside	7
▁League	7
▁server	7
▁almost	7
eration	7
▁proced	7
▁simply	7
▁device	7
▁ground	7
▁travel	7
▁sample	7
▁choose	7
▁commit	7
▁worked	7
atively	7
▁Please	7
▁altern	7
▁compar	7
▁obtain	7
service	7
▁degree	7
ifornia	7
Manager	7
▁attack	7
▁moment	7
▁secret	7
▁theory	7
▁longer	7
▁matter	7
▁states	7
▁rights	7
▁except	7
▁Health	7
▁pretty	7
▁Thanks	7
▁remain	7
▁served	7
▁promot	7
merican	7
stitute	7
options	7
century	7
▁policy	7
ponents	7
mercial	7
▁height	7
▁choice	7
▁Google	7
▁candid	7
▁satisf	7
▁easily	7
▁reduce	7
▁places	7
▁coming	7
vention	7
▁volume	7
▁modern	7
▁Indian	7
essages	7
▁anyone	7
▁safety	7
▁vector	7
▁behind	7
ocation	7
▁skills	7
▁streng	7
▁script	7
product	7
▁scient	7
console	7
ections	7
▁visual	7
▁extrem	7
Handler	7
▁fields	7
▁wanted	7
▁assist	7
▁histor	7
▁tissue	7
ervices	7
▁square	7
▁domain	7
ascular	7
▁theore	7
▁memory	7
▁Direct	7
▁closed	7
Content	7
▁prefer	7
clusion	7
▁Commun	7
▁Answer	7
▁mobile	7
▁couple	7
▁charge	7
▁expert	7
▁excell	7
▁filter	7
▁nature	7
▁French	7
command	7
▁Canada	7
▁aspect	7
▁summer	7
▁window	7
ilitary	7
require	7
▁handle	7
▁deaths	7
▁expand	7
▁signal	7
▁inform	7
▁damage	7
▁advant	7
perties	7
▁affect	7
icensed	7
Command	7
▁police	7
Factory	7
▁Street	7
▁wonder	7
Builder	7
▁larger	7
▁caused	7
▁conver	7
▁injury	7
▁tested	7
▁female	7
▁celebr	7
▁python	7
▁Friday	7
Version	7
▁moving	7
▁middle	7
▁stream	7
▁figure	7
▁chance	7
▁button	7
▁master	7
▁listed	7
▁transl	7
▁giving	7
▁Object	7
▁thanks	7
▁define	7
install	7
▁sports	7
▁analyz	7
▁phosph	7
mselves	7
ributes	7
▁posted	7
aughter	7
▁adding	7
▁German	7
ository	7
▁column	7
▁supply	7
▁credit	7
▁errors	7
▁photos	7
iveness	7
▁demand	7
▁Design	7
hemical	7
Options	7
▁agreed	7
▁failed	7
address	7
▁mother	7
bstract	7
▁origin	7
▁Monday	7
▁inject	7
▁prices	7
▁father	7
▁Python	7
▁bottom	7
▁render	7
▁bacter	7
session	7
▁behavi	7
induced	7
▁opened	7
▁France	7
▁Method	7
ootball	7
▁repair	7
oration	7
▁smooth	7
▁prepar	7
▁coding	7
ameters	7
▁annual	7
▁Church	7
▁survey	7
▁Africa	7
▁academ	7
example	7
▁saying	7
itivity	7
▁Sunday	7
control	7
▁Summer	7
▁placed	7
▁shared	7
tenance	7
▁muscle	7
▁switch	7
▁church	7
▁joined	7
▁passed	7
▁Apache	7
▁thread	7
▁breast	7
atabase	7
▁signed	7
ensions	7
▁Engine	7
Default	7
▁nearly	7
partial	7
ownload	7
▁Create	7
▁analys	7
▁Academ	7
angular	7
▁owners	7
▁slight	7
▁myself	7
▁medium	7
itative	7
▁During	7
▁threat	7
▁spaces	7
▁plasma	7
▁beyond	7
▁videos	7
▁animal	7
▁nation	7
▁Island	7
modules	7
▁formed	7
resents	7
▁launch	7
▁letter	7
▁symbol	7
▁budget	7
▁branch	7
▁border	7
▁finish	7
▁adults	7
▁detail	7
connect	7
ignment	7
▁camera	7
▁Second	7
LICENSE	7
Integer	7
▁plants	7
mathcal	7
▁income	7
Project	7
▁carbon	7
▁attend	7
▁driver	7
▁constr	7
▁causes	7
article	7
▁editor	7
tension	7
▁Office	7
▁batter	7
▁severe	7
▁Comput	7
▁artist	7
clusive	7
▁George	7
▁Commit	7
agement	7
▁corpor	7
▁albums	7
urrency	7
replace	7
▁turned	7
▁deploy	7
▁advice	7
▁advert	7
▁strict	7
ynomial	7
essions	7
▁motion	7
println	7
▁manage	7
▁Robert	7
▁belong	7
▁afford	7
ellular	7
▁conven	7
▁stable	7
▁native	7
▁finite	7
▁delete	7
element	7
unately	7
onymous	7
▁secure	7
ulating	7
▁toward	7
▁modify	7
▁Virgin	7
▁colors	7
▁helped	7
Windows	7
▁senior	7
▁centre	7
▁Histor	7
▁Review	7
▁raised	7
▁mainly	7
account	7
▁spring	7
▁fourth	7
▁sexual	7
▁mostly	7
ostream	7
▁starts	7
▁picked	7
Address	7
▁Market	7
liament	7
success	7
▁pieces	7
Process	7
▁forces	7
▁linked	7
▁occurs	7
▁arrest	7
▁binary	7
▁league	7
▁alumni	7
▁estate	7
▁throws	7
profile	7
▁sector	7
created	7
▁Custom	7
▁retail	7
▁guitar	7
exports	7
▁leaves	7
▁strugg	7
gricult	7
▁Thomas	7
duction	7
▁liquid	7
▁remote	7
▁writer	7
▁Social	7
▁gather	7
▁carcin	7
▁marked	7
▁seeing	7
▁Number	7
▁upload	7
▁manner	7
▁Author	7
▁Museum	7
▁famous	7
▁submit	7
▁enzyme	7
▁Series	7
▁chosen	7
▁widely	7
ilation	7
▁People	7
Control	7
▁fabric	7
▁folder	7
▁vision	7
▁assume	7
▁faster	7
▁oxygen	7
▁Russia	7
▁trials	7
▁minute	7
manager	7
▁looked	7
nmodule	7
channel	7
▁CONDIT	7
▁Mexico	7
▁coffee	7
▁multip	7
▁Victor	7
▁Valley	7
release	7
objects	7
▁spirit	7
▁preval	7
▁unless	7
▁Brazil	7
results	7
Product	7
▁couldn	7
▁street	7
▁winter	7
▁asking	7
▁forest	7
cluding	7
▁cities	7
▁humans	7
▁orient	7
▁corner	7
▁studio	7
Session	7
ificate	7
▁header	7
▁colour	7
▁forget	7
▁scores	7
▁killed	7
▁Energy	7
▁plugin	7
▁garden	7
▁agency	7
▁Secret	7
network	7
▁Spring	7
▁Corpor	7
▁reject	7
▁Centre	7
▁island	7
▁radius	7
▁substr	7
▁Search	7
▁sounds	7
▁bright	7
license	7
▁accomp	7
▁sensor	7
▁incred	7
▁Amazon	7
▁versus	7
▁subset	7
▁advent	7
▁doctor	7
▁neural	7
▁Unless	7
▁wouldn	7
▁Server	7
▁extent	7
▁stores	7
Generic	7
entials	7
▁formal	7
▁Update	7
▁speech	7
▁params	7
▁Online	7
▁Global	7
▁analog	7
▁decide	7
▁gender	7
▁stages	7
ascript	7
▁filled	7
▁Action	7
▁covers	7
▁explan	7
▁Return	7
Program	7
▁limits	7
▁silver	7
testing	7
▁topics	7
▁hybrid	7
▁stated	7
▁prolif	7
Storage	7
imation	7
ircraft	7
▁median	7
▁Master	7
▁flight	7
▁favour	7
▁blocks	7
▁Martin	7
▁beauty	7
▁danger	7
▁excess	7
▁dating	7
rollers	7
▁aggreg	7
▁perman	7
▁athlet	7
▁bought	7
▁scored	7
achment	7
logging	7
ressive	7
handler	7
▁robust	7
▁Invest	7
▁Indust	7
▁guests	7
▁listen	7
headers	7
Account	7
▁broken	7
▁brings	7
Current	7
▁extend	7
▁entity	7
▁Access	7
iration	7
▁Boston	7
▁hidden	7
▁manual	7
▁Columb	7
rolling	7
mediate	7
▁layout	7
▁serves	7
foreach	7
dirname	7
epsilon	7
▁edited	7
▁buying	7
▁orders	7
istence	7
▁fellow	7
▁Option	7
primary	7
execute	7
ociated	7
▁strain	7
▁offset	7
nthetic	7
▁Family	7
▁metast	7
▁Police	7
▁assign	7
virtual	7
▁Israel	7
▁Common	7
rection	7
▁papers	7
returns	7
▁yellow	7
▁battle	7
▁therap	7
storage	7
▁bridge	7
▁singer	7
▁assets	7
▁Report	7
▁bigger	7
▁lowest	7
▁Awards	7
▁Source	7
▁stroke	7
▁Member	7
▁tracks	7
▁buffer	7
▁Jersey	7
▁forced	7
▁reader	7
▁movies	7
▁exceed	7
▁sister	7
builder	7
▁houses	7
▁county	7
▁ticket	7
program	7
ologist	7
▁earned	7
▁consec	7
reprene	7
▁nearby	7
▁Senate	7
▁invent	7
ogether	7
▁acting	7
▁prelim	7
▁issued	7
▁begins	7
▁narrow	7
▁eating	7
VERSION	7
▁revers	7
ificial	7
▁arrang	7
resolve	7
imately	7
▁respir	7
▁proved	7
ipheral	7
▁dental	7
initial	7
istered	7
isition	7
plugins	7
▁museum	7
▁verify	7
▁Little	7
▁export	7
▁awards	7
▁Studio	7
▁reveal	7
▁Sports	7
▁hospit	7
▁Middle	7
forward	7
▁breath	7
▁census	7
▁recipe	7
▁cohort	7
subject	7
▁layers	7
▁brands	7
▁actors	7
issions	7
▁missed	7
▁labels	7
▁facing	7
▁proven	7
contact	7
▁saving	7
▁vocals	7
details	7
▁closer	7
scripts	7
feature	7
▁bodies	7
▁Places	7
▁superv	7
quality	7
▁margin	7
▁shares	7
▁PARTIC	7
▁promin	7
ERCHANT	7
▁underw	7
▁dinner	7
support	7
▁Andrew	7
▁stands	7
▁degrad	7
▁Joseph	7
▁malign	7
ricular	7
develop	7
▁crisis	7
library	7
irement	7
▁divide	7
▁Import	7
▁adoles	7
country	7
▁kinase	7
▁campus	7
▁decade	7
▁Taylor	7
Adapter	7
express	7
▁Change	7
▁butter	7
factory	7
▁dining	7
▁intent	7
Display	7
▁taught	7
▁Should	7
▁kidney	7
▁Vector	7
▁Poland	7
▁artery	7
▁hockey	7
▁assert	7
▁Simple	7
▁hosted	7
▁weekly	7
▁remark	7
▁reward	7
▁Region	7
▁Rights	7
▁belief	7
▁duplic	7
boolean	7
ruption	7
▁caught	7
▁lights	7
▁permit	7
▁docker	7
classes	7
▁Korean	7
▁territ	7
▁planet	7
▁parser	7
▁rating	7
ogenous	7
▁murder	7
pattern	7
▁gained	7
▁lovely	7
▁dialog	7
Profile	7
▁Cancer	7
Channel	7
inating	7
▁comedy	7
Console	7
▁mining	7
▁Status	7
▁driven	7
▁seemed	7
▁redist	7
▁Before	7
appoint	7
▁checks	7
payload	7
▁Contin	7
hematic	7
▁kernel	7
▁Daniel	7
▁paying	7
▁routes	7
▁solved	7
windows	7
▁repeat	7
▁sudden	7
▁Donald	7
▁Winter	7
▁Select	7
▁Theory	7
▁terror	7
▁allerg	7
changed	7
▁wealth	7
▁econom	7
through	7
aternal	7
▁fairly	7
elihood	7
Details	7
▁losing	7
▁titles	7
▁Posted	7
Network	7
▁neighb	7
▁curves	7
owntown	7
▁inputs	7
▁Client	7
▁Mobile	7
ropical	7
▁meters	7
▁lawyer	7
▁socket	7
▁ignore	7
▁intake	7
▁tensor	7
▁Visual	7
▁Avenue	7
Wrapper	7
imental	7
▁Sydney	7
binding	7
▁Forest	7
compile	7
▁finger	7
▁Bridge	7
▁passes	7
present	7
wrapper	7
▁Oxford	7
▁Output	7
▁shower	7
▁spokes	7
▁GitHub	7
▁sculpt	7
Success	7
▁cancel	7
overset	7
▁Turkey	7
▁Double	7
▁debate	7
▁Player	7
▁potent	7
▁Oregon	7
▁anyway	7
▁impair	7
▁engage	7
▁stabil	7
▁merged	7
alities	7
defined	7
▁luxury	7
▁Senior	7
▁viewed	7
runtime	7
timeout	7
▁Square	7
Invalid	7
izabeth	7
▁sodium	7
counter	7
▁append	7
updated	7
▁counts	7
▁Policy	7
▁marker	7
lectric	7
▁undert	7
▁sought	7
agnetic	7
▁inches	7
Support	7
▁twenty	7
closure	7
▁angles	7
Boolean	7
▁Muslim	7
▁acknow	7
▁sorted	7
cluster	7
▁ending	7
Timeout	7
▁relief	7
urrence	7
▁enthus	7
▁Silver	7
▁illust	7
ulatory	7
▁fusion	7
browser	7
viously	7
▁vertex	7
▁Jewish	7
archive	7
ritical	7
▁mature	7
Package	7
▁arrive	7
▁cheese	7
treated	7
logical	7
columns	7
porters	7
▁google	7
orption	7
▁worker	7
▁hoping	7
▁methyl	7
equence	7
reation	7
▁reform	7
riculum	7
▁Edward	7
▁assays	7
Example	7
▁uptake	7
riority	7
▁Athlet	7
Changed	7
▁powers	7
▁preced	7
ryption	7
Created	7
▁graphs	7
▁Remove	7
▁clinic	7
▁Golden	7
ivation	7
publish	7
disable	7
▁induce	7
▁Agency	7
▁bundle	7
▁rental	7
▁amplit	7
▁namely	7
▁racing	7
▁slowly	7
▁Sweden	7
western	7
loading	7
orgeous	7
▁Modern	7
▁Queens	7
▁appeal	7
▁losses	7
achelor	7
jupyter	7
▁victim	7
▁Thread	7
▁Malays	7
▁mutant	7
▁Random	7
history	7
▁Garden	7
▁marine	7
Returns	7
▁Empire	7
▁garage	7
▁visits	7
▁Single	7
jection	7
▁Record	7
▁syntax	7
▁Volume	7
▁spinal	7
▁Prince	7
▁forgot	7
backend	7
▁bottle	7
▁Active	7
▁Person	7
▁scenes	7
▁timing	7
▁alumin	7
▁transf	7
▁themes	7
▁Associ	7
▁varied	7
▁frames	7
▁Kansas	7
illance	7
nauthor	7
▁breaks	7
▁approx	7
Feature	7
▁Wilson	7
▁Future	7
▁charts	7
Suppose	7
▁waters	7
ultural	7
▁refers	7
▁lambda	7
▁funded	7
ynchron	7
company	7
▁Scient	7
herence	7
▁cycles	7
▁whilst	7
▁rising	7
▁tagged	7
▁Result	7
▁Miller	7
▁Battle	7
▁Living	7
▁deform	7
▁Compar	7
illiant	7
reement	7
changes	7
limited	7
▁shapes	7
▁infect	7
pletion	7
▁Polish	7
▁tennis	7
▁equals	7
Section	7
▁styled	7
bmatrix	7
members	7
▁replic	7
▁burden	7
▁mirror	7
inction	7
Library	7
essment	7
▁trauma	7
▁yields	7
Results	7
▁sevent	7
▁metres	7
▁soccer	7
▁suffer	7
▁remind	7
▁Soviet	7
▁ranges	7
ventory	7
▁accord	7
▁recycl	7
nstruct	7
regular	7
▁orange	7
derived	7
▁mixing	7
levance	7
▁insect	7
▁pulled	7
integer	7
▁Jordan	7
working	7
▁sphere	7
▁steady	7
▁Junior	7
▁headqu	7
iations	7
▁ratios	7
▁Sample	7
▁summar	7
collect	7
▁flying	7
▁magnet	7
▁reserv	7
▁rarely	7
▁Linear	7
▁Safety	7
▁Norway	7
▁phases	7
▁flower	7
▁emails	7
▁attach	7
▁defend	7
▁strike	7
extract	7
▁widget	7
theless	7
▁disput	7
▁Observ	7
initely	7
▁franch	7
▁Recent	7
▁Mechan	7
▁Chrome	7
▁chains	7
▁asthma	7
▁backup	7
ulative	7
▁router	7
emetery	7
English	7
▁bronze	7
▁builds	7
▁Native	7
▁vessel	7
▁quotes	7
▁thesis	7
Enabled	7
▁oldest	7
napshot	7
▁subsid	7
▁ranked	7
▁panels	7
▁bounds	7
▁wooden	7
▁poorly	7
▁combat	7
▁infant	7
Install	7
▁resort	7
▁hotels	7
▁indoor	7
▁unfort	7
▁retain	7
helpers	7
Contact	7
▁metall	7
▁Altern	7
▁deeper	7
▁Factor	7
science	7
▁dreams	7
▁prosec	7
▁dollar	7
obacter	7
▁Stream	7
▁Castle	7
▁resume	7
▁Austin	7
▁typing	7
▁Season	7
▁notion	7
CLUDING	7
▁intact	7
▁frozen	7
▁surviv	7
▁Travel	7
▁lesson	7
▁Target	7
▁nurses	7
dominal	7
▁Newton	7
station	7
▁pocket	7
tration	7
▁harder	7
▁Though	7
▁Having	7
▁writes	7
▁Docker	7
▁resist	7
▁immigr	7
NotNull	7
▁titled	7
▁prohib	7
▁arrays	7
cstring	7
▁pounds	7
etition	7
▁pursue	7
forming	7
invalid	7
▁borrow	7
nlayout	7
▁scroll	7
▁casual	7
straint	7
▁Follow	7
Pattern	7
▁riding	7
warning	7
▁parish	7
Loading	7
▁canvas	7
▁buyers	7
▁sizeof	7
Initial	7
▁laptop	7
elenium	7
▁gaming	7
onomous	7
Collect	7
▁triple	7
▁Temple	7
▁cotton	7
▁derive	7
▁Credit	7
▁overse	7
▁Moscow	7
▁defect	7
▁novels	7
▁marrow	7
▁Images	7
▁drives	7
▁Greece	7
▁Editor	7
▁invite	7
▁regime	7
itories	7
▁upgrad	7
▁drinks	7
▁Button	7
▁finest	7
samples	7
▁relate	7
▁Course	7
istical	7
▁equity	7
History	7
diction	7
▁boards	7
ivities	7
▁headed	7
respons	7
▁pushed	7
▁packed	7
discipl	7
▁runner	7
▁lesion	7
▁carpet	7
inherit	7
▁Depend	7
webpack	7
▁gastro	7
▁convex	7
▁portal	7
▁sender	7
Welcome	7
▁Harris	7
▁fitted	7
▁legacy	7
▁voting	7
▁refuge	7
▁Dallas	7
DEFAULT	7
▁thromb	7
ordered	7
▁plates	7
▁cyclic	7
▁venues	7
▁Annual	7
▁rescue	7
Actions	7
ictures	7
▁Within	7
urities	7
▁Logger	7
General	7
▁Bishop	7
▁ligand	7
▁deeply	7
winning	7
▁Doctor	7
writing	7
▁fibers	7
▁dishes	7
▁talked	7
recated	7
▁incent	7
leasing	7
written	7
▁floors	7
▁scalar	7
▁ethnic	7
▁poetry	7
comfort	7
seconds	7
▁hearts	7
▁loving	7
issippi	7
Objects	7
▁Nature	7
▁buried	7
▁golden	7
▁declar	7
variant	7
strings	7
ynamics	7
▁Afghan	7
▁Matrix	7
▁packet	7
▁makeup	7
▁PUBLIC	7
atories	7
▁trains	7
▁unlike	7
▁Fellow	7
running	7
▁casino	7
▁afraid	7
▁gentle	7
▁walked	7
balance	7
▁salary	7
▁Column	7
destroy	7
▁shadow	7
▁Normal	7
▁defeat	7
urgical	7
sembled	7
▁rounds	7
▁lyrics	7
▁Filter	7
▁courts	7
Connect	7
▁sheets	7
▁rubber	7
▁precip	7
▁Orange	7
▁Nation	7
dynamic	7
▁Marine	7
▁Estate	7
▁Spirit	7
▁phrase	7
▁newest	7
▁hypert	7
▁vacuum	7
▁tackle	7
Texture	7
▁organs	7
filters	7
extends	7
▁nights	7
▁timely	7
▁convey	7
▁cookie	7
▁prints	7
▁biopsy	7
▁Mother	7
▁thrown	7
apanese	7
▁Advent	7
▁Morgan	7
▁Taiwan	7
compass	7
atorial	7
▁refund	7
▁proton	7
▁Format	7
▁Script	7
▁Things	7
▁Dublin	7
▁landsc	7
▁pepper	7
monitor	7
urchase	7
compose	7
▁thinks	7
ificant	7
metrics	7
because	7
atility	7
▁gotten	7
percent	7
▁struck	7
▁shaped	7
▁pixels	7
▁racial	7
▁tunnel	7
trigger	7
▁Labour	7
▁Howard	7
▁stayed	7
▁Parent	7
▁dispar	7
▁elabor	7
Release	7
▁hiring	7
▁Galaxy	7
▁presum	7
claimed	7
iologic	7
student	7
▁varies	7
setting	7
problem	7
special	7
▁entert	7
compare	7
confirm	7
nstatic	7
Binding	7
heduler	7
▁Philip	7
reverse	7
▁Events	7
▁frustr	7
ounding	7
▁stocks	7
▁Hockey	7
▁bypass	7
▁guilty	7
▁merely	7
ipeline	7
▁Albert	7
pmatrix	7
▁Colomb	7
▁Serial	7
▁Walker	7
▁Arthur	7
▁Entity	7
concept	7
▁horses	7
▁Dakota	7
▁Choose	7
▁lombok	7
▁weapon	7
▁permut	7
nOBJECT	7
tsburgh	7
inburgh	7
enezuel	7
▁Quebec	7
▁fruits	7
▁logged	7
without	7
▁bucket	7
▁ancest	7
nextern	7
▁Struct	7
▁wheels	7
▁helper	7
scriber	7
ighters	7
▁temple	7
▁mutual	7
▁metals	7
▁Memory	7
▁guided	7
▁genera	7
picture	7
▁bullet	7
▁solely	7
▁surely	7
compute	7
▁locate	7
▁enroll	7
▁Danish	7
DOCTYPE	7
▁judges	7
▁Linked	7
▁spoken	7
general	7
▁execut	7
versely	7
▁Twenty	7
▁typeof	7
servers	7
assador	7
implies	7
▁poster	7
▁aortic	7
▁rabbit	7
▁baking	7
borough	7
▁Gordon	7
ishment	7
payment	7
entries	7
▁chairs	7
▁unlock	7
▁subtle	7
Subject	7
▁duties	7
▁multic	7
▁induct	7
▁troops	7
unicode	7
▁tradem	7
leading	7
oclonal	7
endment	7
▁suited	7
▁speeds	7
▁broker	7
▁depict	7
oglobin	7
machine	7
▁locked	7
▁masses	7
▁unders	7
▁babies	7
▁advise	7
ativity	7
▁Alaska	7
▁ruling	7
Counter	7
▁Animal	7
▁grades	7
▁cavity	7
▁Puerto	7
▁hypoth	7
▁covari	7
▁Delete	7
Private	7
methods	7
▁donors	7
▁shifts	7
Convert	7
▁Figure	7
flutter	7
▁absent	7
▁Window	7
Unknown	7
▁guides	7
▁legisl	7
▁Device	7
caption	7
▁multim	7
conduct	7
▁partly	7
parency	7
preview	7
▁viable	7
▁Valent	7
▁Switch	7
Article	7
▁cement	7
▁makers	7
▁Excell	7
▁outfit	7
refresh	7
Headers	7
PROJECT	7
claimer	7
Station	7
▁cursor	7
▁argued	7
between	7
▁Madrid	7
▁Effect	7
mapping	7
▁rivers	7
heading	7
▁Circle	7
▁ladies	7
▁backed	7
Setting	7
correct	7
website	7
▁rhythm	7
▁rotate	7
▁fundra	7
▁Screen	7
olished	7
ristian	7
▁Unlike	7
▁Hawaii	7
▁crimes	7
▁tender	7
protein	7
central	7
▁Peters	7
▁airway	7
▁renown	7
▁Father	7
naments	7
Present	7
hedules	7
▁Repair	7
▁vendor	7
▁grants	7
▁Better	7
▁Freder	7
▁barrel	7
Scanner	7
▁labour	7
▁Nelson	7
▁sketch	7
▁devast	7
▁HEALTH	7
nexcept	7
▁intens	7
riteria	7
▁Denver	7
▁iconic	7
shields	7
▁prayer	7
▁horror	7
▁slides	7
orectal	7
▁murine	7
▁Higher	7
▁encode	7
▁Graham	7
▁Nevada	7
▁Census	7
uations	7
locfile	7
▁Period	7
▁valley	7
▁wishes	7
▁fiscal	7
sources	7
surface	7
▁indent	7
▁Wright	7
sterdam	7
▁thirty	7
▁Walter	7
justify	7
▁Hallow	7
▁Steven	7
▁PROVID	7
LEVANCE	7
▁Branch	7
▁cannab	7
Println	7
▁valued	7
complex	7
▁Bright	7
generic	7
▁Deputy	7
screens	7
hydroxy	7
segment	7
species	7
▁wallet	7
▁congen	7
▁apolog	7
▁caring	7
Browser	7
Summary	7
▁Simply	7
▁Hunter	7
rocytes	7
▁relies	7
▁filing	7
▁Impact	7
▁poison	7
▁Ground	7
checked	7
▁Easter	7
appings	7
matches	7
instein	7
▁Combin	7
▁purple	7
odeship	7
▁Friend	7
▁crypto	7
▁fought	7
▁Soccer	7
▁archae	7
▁puzzle	7
▁enrich	7
▁bronch	7
▁slower	7
▁distal	7
etitive	7
▁deputy	7
▁cattle	7
pective	7
aligned	7
▁castle	7
▁joints	7
▁intrac	7
▁costly	7
adapter	7
ICATION	7
▁Warren	7
▁progen	7
▁Palace	7
Dynamic	7
▁nested	7
haviour	7
matched	7
unknown	7
▁Weight	7
Warning	7
▁ranged	7
uropean	7
▁expend	7
authent	7
▁cooked	7
▁Carbon	7
▁probes	7
abulary	7
▁trucks	7
Primary	7
REQUEST	7
Pointer	7
▁accred	7
▁delays	7
▁needle	7
▁coupon	7
▁seller	7
▁Cooper	7
ounters	7
numbers	7
▁nobody	7
▁desert	7
▁Knight	7
uptools	7
ributor	7
allowed	7
▁radial	7
▁incons	7
▁Morris	7
▁cruise	7
Machine	7
▁nicely	7
▁trails	7
▁sparse	7
▁discre	7
▁intend	7
▁modest	7
Publish	7
▁settle	7
▁Letter	7
▁sequel	7
average	7
▁reopen	7
▁warned	7
▁Samuel	7
authors	7
▁hardly	7
▁handed	7
▁sealed	7
depends	7
▁notify	7
▁Dragon	7
▁Murray	7
▁cylind	7
▁killer	7
▁Mumbai	7
▁heated	7
▁follic	7
▁raises	7
▁garlic	7
alchemy	7
▁hydrox	7
Express	7
▁pytest	7
Methods	7
Payment	7
▁enjoys	7
Execute	7
▁Making	7
▁colony	7
▁Yellow	7
issance	7
▁Lesser	7
density	7
HashMap	7
▁nuclei	7
▁redund	7
▁Driver	7
▁quoted	7
▁strive	7
ATABASE	7
▁Carter	7
ountain	7
weather	7
▁dealer	7
▁Arabia	7
missing	7
▁robots	7
▁Forces	7
exclude	7
▁urgent	7
▁outlet	7
osition	7
powered	7
loquent	7
▁Justin	7
▁Leader	7
itoneal	7
▁photon	7
ptember	7
▁Territ	7
▁voices	7
NECTION	7
abspath	7
▁shield	7
▁lenses	7
▁banned	7
Encoder	7
▁Always	7
▁barely	7
▁Define	7
▁cooper	7
▁Oracle	7
▁harmon	7
▁priced	7
started	7
▁stolen	7
measure	7
▁Coffee	7
▁planes	7
▁Carlos	7
▁reflex	7
▁fallen	7
▁LIABLE	7
▁tongue	7
▁regret	7
▁bubble	7
▁Vision	7
reflect	7
▁clever	7
▁cinema	7
▁pseudo	7
▁Camera	7
▁parsed	7
▁comply	7
▁riders	7
▁resign	7
▁fixing	7
▁dozens	7
opacity	7
▁rolled	7
▁printf	7
ulators	7
quisite	7
▁stupid	7
Student	7
Effects	7
nparser	7
Monitor	7
▁Header	7
▁microm	7
▁stdout	7
awesome	7
▁Schema	7
inology	7
▁jacket	7
fulness	7
Testing	7
founder	7
ivalent	7
rically	7
▁Remote	7
▁speaks	7
Extract	7
outputs	7
▁Wonder	7
▁Strong	7
fiction	7
▁Beyond	7
▁locals	7
pointer	7
looking	7
▁attain	7
weights	7
choices	7
▁dermat	7
opathic	7
▁Growth	7
▁diesel	7
▁hereby	7
Promise	7
▁pupils	7
chapter	7
ocarcin	7
iblings	7
▁ethics	7
▁basics	7
▁treats	7
▁Vienna	7
▁Upload	7
Virtual	7
▁lesser	7
casting	7
▁acetyl	7
▁Racing	7
spacing	7
uniform	7
widgets	7
▁Router	7
▁superb	7
▁summit	7
▁ACTION	7
▁Layout	7
irlines	7
▁firing	7
▁roster	7
▁eighth	7
▁Plugin	7
▁myster	7
Trigger	7
▁perpet	7
▁commod	7
▁geomet	7
▁Parish	7
NonNull	7
▁volcan	7
▁Toyota	7
incipal	7
▁Parker	7
keyword	7
▁naming	7
▁finals	7
workers	7
▁Artist	7
▁donate	7
▁Groups	7
▁Fields	7
▁rocket	7
earning	7
▁Markov	7
▁Inside	7
Changes	7
intendo	7
▁slices	7
▁Binary	7
Payload	7
▁forums	7
▁lovers	7
encoded	7
idation	7
sembles	7
Classes	7
▁Motion	7
▁deemed	7
▁harass	7
▁decode	7
▁lately	7
starter	7
Reducer	7
▁banner	7
▁strand	7
sidebar	7
jackson	7
reading	7
▁Recomm	7
▁Bengal	7
▁Length	7
ophosph	7
▁priest	7
▁cortic	7
iliates	7
▁Helper	7
▁argues	7
▁Accept	7
▁Clinic	7
▁physic	7
▁traded	7
records	7
▁tricks	7
▁Watson	7
ighting	7
▁prizes	7
▁essays	7
▁Rather	7
▁Tigers	7
arently	7
digital	7
▁honour	7
▁Rivers	7
writers	7
fixture	7
pressed	7
gateway	7
eclipse	7
▁Fisher	7
▁whites	7
▁Notice	7
▁absorb	7
▁Github	7
phantom	7
Running	7
▁Points	7
▁Handle	7
▁medals	7
autiful	7
desktop	7
prising	7
▁clouds	7
▁worlds	7
▁Turner	7
Country	7
icketer	7
Updated	7
▁Eagles	7
organic	7
▁Johnny	7
ardless	7
▁Redist	7
layouts	7
ADDRESS	7
▁unfold	7
▁proves	7
Michael	7
creator	7
▁Dental	7
▁fossil	7
uckland	7
▁Syrian	7
▁Resume	7
▁Summit	7
▁Murphy	7
respond	7
▁glomer	7
▁addict	7
tically	7
▁Issues	7
▁fluids	7
▁Signal	7
▁Guinea	7
▁Marvel	7
keeping	7
Company	7
▁Oblast	7
berries	7
▁expose	7
▁cloned	7
▁Mining	7
▁Either	7
▁Alfred	7
graphql	7
▁Luther	7
▁freeze	7
otyping	7
▁locale	7
▁Render	7
▁Arabic	7
▁tuning	7
▁Sloven	7
▁allele	7
▁Legend	7
greater	7
▁Adding	7
▁basket	7
▁Border	7
swagger	7
▁Oliver	7
ographs	7
ployees	7
▁toggle	7
▁Expert	7
▁hypers	7
▁boring	7
▁gently	7
▁Affero	7
▁hiking	7
▁viewer	7
uristic	7
▁chrome	7
outline	7
▁coated	7
▁noting	7
▁strips	7
arnings	7
heduled	7
▁Reform	7
formula	7
▁Casino	7
tresult	7
▁tricky	7
▁lookup	7
▁landed	7
▁Really	7
▁closet	7
literal	7
▁roller	7
▁glycos	7
▁Symbol	7
▁emerge	7
istries	7
NetCore	7
perform	7
▁bishop	7
▁larvae	7
▁Taking	7
▁causal	7
▁Warner	7
ndocker	7
prepare	7
▁motors	7
Special	7
▁Flight	7
Authent	7
▁nitric	7
Logging	7
▁enters	7
▁financ	7
▁Saints	7
parents	7
▁Planet	7
chedule	7
▁neuron	7
▁comics	7
▁floral	7
lington	7
▁Trophy	7
quiries	7
▁Beauty	7
▁Celebr	7
▁Rogers	7
trained	7
minimum	7
▁arises	7
▁debris	7
ificent	7
▁Expand	7
playing	7
▁supern	7
▁Others	7
▁hiding	7
▁ubuntu	7
▁Tensor	7
▁micros	7
jupiter	7
▁traces	7
▁Medium	7
▁Slovak	7
▁nerves	7
▁suffix	7
▁epigen	7
▁Norman	7
▁galaxy	7
threads	7
▁lounge	7
Screens	7
▁aiming	7
▁Degree	7
npython	7
imeters	7
▁Ethiop	7
▁depriv	7
million	7
▁opener	7
urement	7
artered	7
▁eleven	7
▁saline	7
selling	7
▁honors	7
▁Ottawa	7
▁Uganda	7
However	7
▁Hudson	7
▁booked	7
▁marble	7
Creator	7
▁timber	7
▁Munich	7
prevent	7
▁advers	7
▁autism	7
▁Campus	7
▁vaccin	7
▁worthy	7
osocial	7
▁wounds	7
portion	7
Metrics	7
emption	7
failure	7
▁burned	7
▁unions	7
Fixture	7
▁inspir	7
▁Travis	7
systems	7
▁Supply	7
omology	7
▁cousin	7
▁curved	7
clients	7
▁Serbia	7
▁topped	7
▁Safari	7
▁evolve	7
▁boasts	7
Facades	7
▁praise	7
▁reduct	7
texture	7
ivative	7
▁predec	7
▁spiral	7
▁assure	7
▁Saskat	7
▁hammer	7
vectors	7
▁Launch	7
▁Anyone	7
▁autumn	7
Seconds	7
ANGUAGE	7
Confirm	7
iversal	7
Missing	7
effects	7
▁farmer	7
▁drying	7
▁deadly	7
buttons	7
Refresh	7
▁condem	7
▁Dennis	7
▁ritual	7
imbabwe	7
▁Export	7
Preview	7
ullivan	7
SESSION	7
astruct	7
▁salmon	7
jective	7
Helpers	7
▁planar	7
▁cherry	7
▁unsure	7
▁spouse	7
natural	7
▁Salmon	7
▁cation	7
▁Reader	7
▁Career	7
▁Athens	7
▁deline	7
▁resear	7
▁unused	7
▁extern	7
partner	7
▁Static	7
▁Neural	7
▁lipids	7
brities	7
▁merger	7
▁alerts	7
▁Motors	7
▁loader	7
▁Latino	7
▁carbox	7
labeled	7
▁lasted	7
▁Butter	7
ictions	7
▁Weekly	7
▁jumped	7
▁medial	7
▁Latest	7
mongodb	7
▁fridge	7
▁diving	7
algebra	7
ointers	7
deleted	7
▁cleans	7
▁hungry	7
Columns	7
Matcher	7
imports	7
▁Giants	7
ltimate	7
▁pulses	7
ugoslav	7
feeding	7
▁solver	7
▁cables	7
▁tribut	7
▁tenure	7
ipation	7
Members	7
▁balcon	7
Strings	7
▁Brexit	7
minutes	7
amation	7
uploads	7
▁proofs	7
▁monkey	7
otional	7
reshape	7
▁sooner	7
nsource	7
▁Thirty	7
ourcing	7
▁Papers	7
Measure	7
▁Harbor	7
▁Around	7
ometown	7
▁Butler	7
Sprintf	7
uncture	7
▁slopes	7
MESSAGE	7
▁Respon	7
▁peaked	7
▁statue	7
scribed	7
discord	7
▁invert	7
scatter	7
▁Rachel	7
▁retina	7
▁hassle	7
▁Kerala	7
▁NOTICE	7
idelity	7
▁Harvey	7
▁Mental	7
▁Arctic	7
belongs	7
devices	7
▁corpus	7
▁meteor	7
Destroy	7
▁Canyon	7
Surface	7
angered	7
▁housed	7
▁lining	7
Percent	7
Include	7
▁aerial	7
▁pickle	7
▁Dialog	7
▁beings	7
▁coping	7
REMOVED	7
▁kicked	7
Develop	7
nobject	7
▁mucosa	7
managed	7
▁Arnold	7
icester	7
friends	7
▁scream	7
▁brains	7
▁Matter	7
▁pelvic	7
▁Chapel	7
opausal	7
▁Female	7
ussions	7
▁suburb	7
legiate	7
▁yearly	7
▁apples	7
▁beetle	7
▁Shared	7
Segment	7
bearing	7
▁termed	7
▁Tennis	7
▁symmet	7
▁trigon	7
focused	7
pending	7
upgrade	7
▁bother	7
▁throat	7
Replace	7
▁citing	7
▁breach	7
▁Moving	7
▁reconc	7
▁skiing	7
▁refuse	7
▁Buffer	7
▁clicks	7
▁affair	7
▁shrink	7
ipients	7
▁Punjab	7
maximum	7
▁grains	7
▁snacks	7
Gateway	7
▁cooler	7
players	7
tingham	7
▁Jeremy	7
choline	7
CASCADE	7
▁glycol	7
filling	7
lasting	7
stanbul	7
minster	7
▁traged	7
▁clause	7
▁Almost	7
spiracy	7
▁Hughes	7
targets	7
▁Sevent	7
▁fungal	7
▁acidic	7
▁Sebast	7
▁microM	7
▁Fourth	7
▁excuse	7
compact	7
verting	7
▁Palmer	7
Visitor	7
▁Stuart	7
▁Govern	7
▁VALUES	7
▁ballot	7
▁nephro	7
▁evenly	7
▁Bundle	7
gallery	7
ophilic	7
▁Foster	7
▁Advert	7
ocratic	7
Require	7
▁gluten	7
▁heroes	7
▁scaled	7
▁Scotia	7
affeine	7
uscular	7
▁ladder	7
▁sticks	7
stitial	7
▁Budget	7
▁embark	7
▁refere	7
reports	7
Tracker	7
▁anemia	7
Variant	7
▁Inject	7
October	7
finally	7
▁pickup	7
tracker	7
▁Assume	7
Balance	7
Without	7
▁culmin	7
▁laying	7
ansible	7
arettes	7
ceptors	7
invoice	7
▁Prague	7
▁closes	7
astolic	7
Twitter	7
Forward	7
▁glands	7
▁OnInit	7
▁allies	7
▁Adjust	7
▁retire	7
▁calibr	7
▁perfor	7
▁thrive	7
similar	7
ToProps	7
▁nickel	7
remarks	7
Archive	7
▁neurom	7
▁upward	7
▁shirts	7
▁lifted	7
▁Topics	7
▁weaken	7
▁patron	7
▁Sensor	7
ercises	7
▁Assert	7
▁affine	7
nvector	7
▁scared	7
OnClick	7
▁ideals	7
Emitter	7
▁crowds	7
▁anonym	7
▁gloves	7
▁Portal	7
▁collar	7
▁weaker	7
▁Scheme	7
tborder	7
usually	7
Widgets	7
typedef	7
ularity	7
▁cosine	7
▁cached	7
▁confer	7
tprintf	7
January	7
encoder	7
tabular	7
▁Lights	7
▁supers	7
volumes	7
▁Shadow	7
orphism	7
▁ribbon	7
▁rapper	7
▁Legisl	7
▁Durham	7
▁Superv	7
▁mening	7
▁Marcus	7
▁patrol	7
▁Heaven	7
Decoder	7
urnames	7
▁reluct	7
▁safegu	7
▁tandem	7
toolbar	7
▁Parser	7
▁violin	7
antiago	7
ndouble	7
▁boiler	7
healthy	7
▁stitch	7
Scripts	7
▁Failed	7
▁Comics	7
▁tended	7
▁Hybrid	7
▁Corner	7
▁Mirror	7
▁refine	7
▁onions	7
▁Triple	7
▁unfair	7
▁Skills	7
▁Cannot	7
▁Pretty	7
▁graded	7
SERVICE	7
▁Potter	7
▁Origin	7
▁heater	7
iblical	7
openapi	7
Filters	7
▁Desert	7
▁Bailey	7
verages	7
nstring	7
▁unsafe	7
Looking	7
WARNING	7
▁Submit	7
Utility	7
▁chunks	7
▁Ticket	7
▁aboard	7
▁abbrev	7
plastic	7
▁Retail	7
lifting	7
▁tailor	7
▁sleeve	7
sharing	7
▁rename	7
▁sticky	7
▁Guitar	7
▁Socket	7
▁warmth	7
capture	7
▁Brooks	7
▁genres	7
telling	7
▁Julian	7
▁sulfur	7
forcing	7
▁Lesson	7
Regular	7
▁Anyway	7
ertools	7
▁Garage	7
overlay	7
▁stance	7
▁washed	7
▁Banach	7
▁streak	7
▁hollow	7
▁Mentor	7
▁Andrea	7
▁spider	7
▁reboot	7
olutely	7
▁rivals	7
Entries	7
listing	7
purpose	7
▁learnt	7
▁Harper	7
▁themed	7
▁weakly	7
Numbers	7
▁shells	7
Compare	7
▁Bullet	7
▁Panama	7
▁solves	7
▁darker	7
umption	7
assetid	7
restart	7
▁Barack	7
nbefore	7
chnical	7
coholic	7
▁deduct	7
▁folded	7
olition	7
▁Confed	7
Related	7
▁Sussex	7
▁Ensure	7
jenkins	7
▁Reason	7
▁Clarke	7
▁Ashley	7
▁Cyprus	7
▁glance	7
▁Reddit	7
▁evoked	7
ifinals	7
▁depths	7
▁intram	7
promise	7
▁Fabric	7
▁Secure	7
printed	7
▁lumbar	7
▁assass	7
bounded	7
▁Enable	7
aviolet	7
▁Cinema	7
▁Sounds	7
closing	7
founded	7
▁pylint	7
charset	7
Digital	7
noutput	7
▁trache	7
Checked	7
utility	7
▁toxins	7
elected	7
▁adhere	7
ubation	7
OPTIONS	7
▁towers	7
▁zbMATH	7
▁boxing	7
tswitch	7
nassert	7
▁Nathan	7
▁Louise	7
▁canine	7
▁polish	7
▁Geneva	7
▁Rating	7
▁Warsaw	7
cribing	7
▁Indoor	7
Checker	7
▁candle	7
▁Porter	7
▁judged	7
ucumber	7
▁silica	7
Chapter	7
▁Kazakh	7
▁thrust	7
Quality	7
▁Cherry	7
▁cystic	7
▁caller	7
▁ginger	7
▁microg	7
ressing	7
▁Waters	7
▁Atomic	7
▁reside	7
▁MATLAB	7
texcept	7
▁attent	7
ynaptic	7
▁Powell	7
olation	7
upytext	7
▁cracks	7
▁lender	7
▁agrees	7
ickness	7
atterns	7
▁pillow	7
▁hyster	7
Complex	7
▁united	7
hooting	7
▁reload	7
▁Cotton	7
answers	7
perfect	7
▁Angels	7
▁dragon	7
quarter	7
▁Hebrew	7
▁framed	7
▁Intent	7
▁abnorm	7
imaging	7
welcome	7
▁turkey	7
▁dipole	7
▁guinea	7
▁Height	7
▁senses	7
▁cipher	7
▁footer	7
▁suites	7
▁parade	7
ighbors	7
nCREATE	7
Central	7
▁Income	7
visited	7
marshal	7
▁biased	7
▁Holmes	7
courses	7
▁retard	7
▁stereo	7
getting	7
▁fights	7
erville	7
ometers	7
▁Dining	7
▁herpes	7
▁liable	7
updates	7
▁Former	7
▁sunset	7
▁Apollo	7
▁herbal	7
▁impose	7
itchens	7
▁Moment	7
listdir	7
▁influx	7
▁Breast	7
▁macros	7
centric	7
▁screws	7
▁Rescue	7
Catalog	7
▁Cities	7
▁kindly	7
reviews	7
▁sights	7
▁admits	7
▁racism	7
▁PayPal	7
▁Listen	7
▁warmer	7
physics	7
receive	7
▁carved	7
illiams	7
▁helmet	7
Capture	7
growing	7
▁valves	7
▁Duncan	7
▁photoc	7
▁Ladies	7
▁Garcia	7
▁navbar	7
categor	7
▁arrows	7
Another	7
▁pylori	7
Records	7
▁upside	7
keepers	7
▁Miguel	7
▁Hotels	7
▁bounce	7
▁Prices	7
proving	7
foreign	7
▁Batman	7
▁pastor	7
Polygon	7
▁hourly	7
Pressed	7
▁Speech	7
▁Liquid	7
▁tendon	7
Nothing	7
imetric	7
episode	7
cleaned	7
▁Caucas	7
▁sewing	7
▁remedy	7
formats	7
ortical	7
▁vanity	7
teacher	7
▁memoir	7
ainless	7
Through	7
▁creamy	7
▁lively	7
▁Fergus	7
▁Amanda	7
▁Buenos	7
▁dancer	7
▁immuno	7
▁drawer	7
▁Hospit	7
▁spices	7
▁insult	7
covered	7
▁Barnes	7
▁Gender	7
cleanup	7
▁Routes	7
▁multis	7
▁Shield	7
▁hunger	7
▁fucked	7
▁Joshua	7
▁spends	7
▁Leslie	7
▁waited	7
▁Fusion	7
▁Shower	7
colored	7
▁rooted	7
linking	7
▁Gerald	7
voltage	7
pletely	7
▁Flying	7
▁handic	7
▁splash	7
▁Writer	7
▁endfor	7
cellent	7
▁outper	7
▁capita	7
▁Lauren	7
▁Dating	7
▁Poetry	7
▁amazed	7
cookies	7
▁apical	7
▁staged	7
outines	7
▁Surrey	7
sandbox	7
▁readme	7
▁Ethics	7
Drawing	7
▁asleep	7
▁parity	7
▁Legacy	7
▁Ronald	7
▁Flower	7
routing	7
arctica	7
▁strept	7
cessing	7
reating	7
animate	7
capital	7
▁Ernest	7
▁multin	7
▁racist	7
▁Comedy	7
regions	7
tdouble	7
▁stamps	7
▁Gibson	7
queries	7
▁Harold	7
ouncing	7
▁overly	7
▁chapel	7
htaking	7
recipes	7
Weather	7
▁quartz	7
chester	7
▁jersey	7
America	7
▁Legion	7
▁Scroll	7
ilinear	7
▁Closed	7
derabad	7
Receive	7
▁Sector	7
▁Crypto	7
Plugins	7
another	7
▁rodent	7
plicate	7
manship	7
▁Monica	7
Because	7
Routing	7
oplasty	7
▁alpine	7
▁affirm	7
▁sturdy	7
peptide	7
▁humble	7
Advisor	7
▁Greens	7
▁Angela	7
Average	7
▁coarse	7
▁optics	7
▁Gospel	7
▁trophy	7
nowledg	7
theight	7
▁Coming	7
▁Spider	7
▁banana	7
▁palace	7
▁wasted	7
vehicle	7
▁Herald	7
▁postal	7
colspan	7
EqualTo	7
respect	7
Defined	7
▁learns	7
terbury	7
▁Attack	7
▁Marina	7
english	7
▁shoots	7
outhern	7
Pacific	7
▁condom	7
▁Fraser	7
▁braces	7
▁rustic	7
▁canopy	7
Buttons	7
Working	7
▁genius	7
▁stains	7
▁Adults	7
▁crying	7
▁rushed	7
▁divine	7
▁Reserv	7
▁chiral	7
▁unanim	7
instead	7
Chinese	7
valence	7
▁Finite	7
▁SELECT	7
▁slider	7
▁assort	7
frontal	7
graphic	7
▁peanut	7
▁Transl	7
▁openly	7
▁squash	7
checker	7
utation	7
crafted	7
▁Gaming	7
▁expire	7
▁Verify	7
▁alters	7
▁Manila	7
▁Nicole	7
▁Hidden	7
▁Tables	7
trivial	7
Started	7
Picture	7
Sources	7
▁Widget	7
culture	7
Overlay	7
▁libert	7
▁Darwin	7
ostruct	7
circuit	7
▁Albany	7
▁Worker	7
othesis	7
▁psycho	7
▁Bosnia	7
▁washer	7
▁Arrays	7
LIBRARY	7
▁crunch	7
▁cutoff	7
▁Nordic	7
▁subdiv	7
▁Dayton	7
▁pedest	7
▁Rabbit	7
▁impart	7
▁fright	7
hetical	7
▁Luxury	7
▁hairst	7
Heading	7
▁macrom	7
▁orbits	7
Minimum	7
▁rookie	7
surname	7
▁Sprint	7
ornings	7
▁Martha	7
▁solids	7
nsystem	7
verters	7
inative	7
▁Spaces	7
▁toured	7
▁Prison	7
ontally	7
▁palate	7
outfile	7
▁christ	7
▁Bottom	7
▁Santos	7
▁Strept	7
Connell	7
▁rectal	7
odegrad	7
▁avatar	7
synthes	7
▁virtue	7
▁Append	7
▁restor	7
▁purity	7
▁resize	7
▁Dollar	7
▁Monroe	7
▁Sharma	7
▁storms	7
Compile	7
▁tonnes	7
▁orally	7
▁runway	7
▁leaked	7
▁brutal	7
Pending	7
▁multil	7
holding	7
iatrics	7
▁abused	7
COMMAND	7
▁greens	7
ndarray	7
▁orphan	7
▁vacant	7
istency	7
editary	7
▁refres	7
▁tribal	7
▁tribes	7
Allowed	7
symbols	7
▁recurs	7
▁ceased	7
▁unpack	7
tstruct	7
▁mosaic	7
favicon	7
▁breeze	7
Partial	7
olphins	7
Correct	7
▁plural	7
nserver	7
ntarget	7
meaning	7
mounted	7
▁breeds	7
▁shrimp	7
ropolis	7
▁virgin	7
▁occupy	7
Tooltip	7
thedocs	7
texpect	7
▁javafx	7
globals	7
▁diplom	7
attempt	7
osopher	7
▁bipart	7
▁Rhodes	7
▁Celtic	7
▁Hannah	7
▁Boeing	7
▁aggrav	7
▁nausea	7
mockito	7
Western	7
drivers	7
▁antire	7
joining	7
thought	7
▁eldest	7
▁bamboo	7
▁Hammer	7
▁gamers	7
▁Sultan	7
nSELECT	7
▁Heroes	7
▁Orders	7
▁Powers	7
Toolbar	7
▁Highly	7
orously	7
pectral	7
▁gifted	7
▁starch	7
▁Charge	7
▁Purple	7
aliases	7
Unicode	7
▁gravel	7
▁Curtis	7
▁cosmic	7
▁fading	7
▁owning	7
▁daemon	7
▁Runner	7
▁Tehran	7
▁leptin	7
laravel	7
acement	7
biology	7
Compute	7
rescent	7
▁Adrian	7
▁hooked	7
▁immers	7
exposed	7
paralle	7
migrate	7
▁ballet	7
Between	7
patched	7
▁EXISTS	7
▁burial	7
▁adduct	7
Instant	7
provide	7
▁reflux	7
▁Grammy	7
▁Lastly	7
oslovak	7
▁rugged	7
aurants	7
▁Rocket	7
roduced	7
▁weighs	7
▁Gandhi	7
▁myosin	7
rupting	7
▁revert	7
▁fungus	7
▁Bryant	7
▁Monten	7
▁Cruise	7
▁bonded	7
▁Burton	7
uginosa	7
▁Eugene	7
inverse	7
▁insign	7
▁cardio	7
▁Schwar	7
▁Aurora	7
Whether	7
▁Repeat	7
Science	7
▁Milton	7
▁Divide	7
▁wished	7
▁Called	7
npeople	7
▁french	7
Russian	7
neutral	7
▁extras	7
▁Lambda	7
ncreate	7
otherap	7
interop	7
▁traced	7
▁pollen	7
▁Camero	7
▁elicit	7
▁Vander	7
▁shader	7
streams	7
clicked	7
opening	7
▁Bronze	7
oriasis	7
▁Sharon	7
agascar	7
▁Hilton	7
▁melted	7
fitting	7
houette	7
▁Smooth	7
▁trader	7
ighbour	7
thermal	7
Resolve	7
rawling	7
Getting	7
oblasts	7
▁harbor	7
▁Median	7
TIMEOUT	7
▁pulsed	7
DUCTION	7
▁teamed	7
eliness	7
matcher	7
▁Finals	7
minimal	7
ousands	7
▁Sister	7
▁towels	7
ichever	7
requent	7
mutable	7
commits	7
bellion	7
▁seated	7
▁Marcel	7
▁stacks	7
ematics	7
▁mitral	7
tstring	7
▁avoids	7
electro	7
▁Dinner	7
▁splits	7
▁Kimber	7
uggling	7
▁nephew	7
cession	7
▁Spread	7
▁lonely	7
▁facets	7
▁chorus	7
factors	7
inosaur	7
▁Winner	7
erebral	7
venture	7
▁Except	7
Natural	7
▁codecs	7
Maximum	7
▁Rovers	7
▁Rapids	7
wrapped	7
▁serine	7
nselect	7
entropy	7
▁Carson	7
▁phenyl	7
▁Bernie	7
▁Injury	7
Padding	7
ogeneic	7
arrison	7
▁Employ	7
▁alloys	7
ophilia	7
odontic	7
▁Libert	7
▁pledge	7
actical	7
▁inning	7
▁puppet	7
popular	7
nshould	7
▁insane	7
Physics	7
ivating	7
▁Patrol	7
lective	7
Locator	7
▁acuity	7
located	7
▁turtle	7
eastern	7
▁liking	7
polymer	7
Keyword	7
▁ulcers	7
▁Carpet	7
plicant	7
RELEASE	7
▁tracer	7
▁doesnt	7
▁grapes	7
▁poorer	7
squared	7
▁Archae	7
▁citrus	7
▁medall	7
▁Aggreg	7
▁scarce	7
▁Joined	7
▁Rising	7
▁Plants	7
▁ageing	7
▁papill	7
Deleted	7
▁Gothic	7
▁Chiefs	7
▁Monter	7
▁barbec	7
▁Kuwait	7
Mutable	7
▁Candid	7
▁Agents	7
parsers	7
▁Greene	7
Mockito	7
▁Galois	7
▁gallon	7
▁Forums	7
nresult	7
▁Hansen	7
uclease	7
▁Huawei	7
letcher	7
▁Equity	7
Players	7
▁clutch	7
ennials	7
itating	7
▁prince	7
▁extrav	7
scanner	7
▁absurd	7
secrets	7
▁radios	7
▁stigma	7
▁Twelve	7
▁Ballet	7
▁payday	7
▁Lounge	7
▁Wesley	7
▁rented	7
▁doping	7
▁petrol	7
▁straps	7
itorium	7
▁amazon	7
▁Singer	7
▁brides	7
▁geared	7
Samples	7
inspect	7
▁Browns	7
▁facade	7
▁Metric	7
▁Naples	7
builtin	7
▁Hollow	7
asuring	7
▁Colour	7
nconfig	7
<img/>	6
<0x00>	6
<0x01>	6
<0x02>	6
<0x03>	6
<0x04>	6
<0x05>	6
<0x06>	6
<0x07>	6
<0x09>	6
<0x0B>	6
<0x0C>	6
<0x0E>	6
<0x0F>	6
<0x10>	6
<0x11>	6
<0x12>	6
<0x13>	6
<0x15>	6
<0x16>	6
<0x17>	6
<0x18>	6
<0x19>	6
<0x1A>	6
<0x1B>	6
<0x1C>	6
<0x1D>	6
<0x1E>	6
<0x1F>	6
<0x21>	6
<0x22>	6
<0x23>	6
<0x24>	6
<0x25>	6
<0x26>	6
<0x27>	6
<0x28>	6
<0x29>	6
<0x2A>	6
<0x2B>	6
<0x2C>	6
<0x2D>	6
<0x30>	6
<0x31>	6
<0x32>	6
<0x33>	6
<0x34>	6
<0x35>	6
<0x36>	6
<0x37>	6
<0x38>	6
<0x39>	6
<0x3A>	6
<0x3C>	6
<0x3D>	6
<0x3E>	6
<0x3F>	6
<0x40>	6
<0x41>	6
<0x42>	6
<0x43>	6
<0x45>	6
<0x46>	6
<0x47>	6
<0x48>	6
<0x49>	6
<0x4A>	6
<0x4D>	6
<0x4E>	6
<0x4F>	6
<0x50>	6
<0x51>	6
<0x52>	6
<0x54>	6
<0x55>	6
<0x56>	6
<0x57>	6
<0x58>	6
<0x59>	6
<0x5B>	6
<0x5C>	6
<0x5F>	6
<0x60>	6
<0x61>	6
<0x62>	6
<0x63>	6
<0x64>	6
<0x65>	6
<0x66>	6
<0x67>	6
<0x68>	6
<0x69>	6
<0x6A>	6
<0x6B>	6
<0x6C>	6
<0x6D>	6
<0x6E>	6
<0x6F>	6
<0x70>	6
<0x71>	6
<0x72>	6
<0x73>	6
<0x74>	6
<0x75>	6
<0x76>	6
<0x77>	6
<0x78>	6
<0x7A>	6
<0x7B>	6
<0x7C>	6
<0x7D>	6
<0x7E>	6
<0x7F>	6
<0x80>	6
<0x82>	6
<0x83>	6
<0x84>	6
<0x85>	6
<0x86>	6
<0x87>	6
<0x88>	6
<0x89>	6
<0x8A>	6
<0x8B>	6
<0x8C>	6
<0x8D>	6
<0x8E>	6
<0x8F>	6
<0x90>	6
<0x91>	6
<0x92>	6
<0x93>	6
<0x94>	6
<0x95>	6
<0x96>	6
<0x98>	6
<0x9A>	6
<0x9C>	6
<0x9D>	6
<0x9E>	6
<0x9F>	6
<0xA0>	6
<0xA1>	6
<0xA2>	6
<0xA3>	6
<0xA4>	6
<0xA5>	6
<0xA6>	6
<0xA7>	6
<0xA8>	6
<0xA9>	6
<0xAA>	6
<0xAC>	6
<0xAD>	6
<0xAE>	6
<0xB0>	6
<0xB1>	6
<0xB2>	6
<0xB3>	6
<0xB4>	6
<0xB5>	6
<0xB7>	6
<0xB8>	6
<0xB9>	6
<0xBA>	6
<0xBB>	6
<0xBC>	6
<0xBD>	6
<0xBE>	6
<0xBF>	6
<0xC0>	6
<0xC1>	6
<0xC2>	6
<0xC3>	6
<0xC4>	6
<0xC5>	6
<0xC6>	6
<0xC9>	6
<0xCB>	6
<0xCC>	6
<0xCD>	6
<0xCE>	6
<0xCF>	6
<0xD0>	6
<0xD2>	6
<0xD3>	6
<0xD4>	6
<0xD5>	6
<0xD6>	6
<0xD7>	6
<0xD8>	6
<0xD9>	6
<0xDA>	6
<0xDB>	6
<0xDC>	6
<0xDD>	6
<0xDE>	6
<0xDF>	6
<0xE0>	6
<0xE1>	6
<0xE2>	6
<0xE3>	6
<0xE4>	6
<0xE5>	6
<0xE6>	6
<0xE7>	6
<0xE8>	6
<0xEA>	6
<0xEB>	6
<0xEC>	6
<0xED>	6
<0xEE>	6
<0xEF>	6
<0xF0>	6
<0xF1>	6
<0xF2>	6
<0xF3>	6
<0xF4>	6
<0xF5>	6
<0xF6>	6
<0xF7>	6
<0xF8>	6
<0xF9>	6
<0xFA>	6
<0xFB>	6
<0xFC>	6
<0xFD>	6
<0xFE>	6
<0xFF>	6
ations	6
▁which	6
return	6
▁their	6
▁about	6
▁class	6
▁other	6
▁under	6
▁there	6
▁first	6
▁would	6
public	6
▁trans	6
▁these	6
▁after	6
▁using	6
▁where	6
▁exper	6
▁model	6
urrent	6
▁group	6
▁years	6
ection	6
▁start	6
▁could	6
▁every	6
▁incre	6
▁found	6
ically	6
▁value	6
▁right	6
▁appro	6
▁study	6
▁great	6
▁point	6
search	6
essage	6
ential	6
▁level	6
aining	6
▁state	6
rivate	6
▁again	6
action	6
▁being	6
▁three	6
String	6
▁while	6
▁count	6
ackage	6
▁those	6
▁build	6
▁think	6
▁child	6
ograph	6
▁order	6
ervice	6
▁treat	6
▁small	6
▁chang	6
▁ident	6
lement	6
▁elect	6
▁based	6
▁world	6
▁const	6
ration	6
▁field	6
ission	6
▁cells	6
▁place	6
ternal	6
▁still	6
▁organ	6
resent	6
▁There	6
▁sever	6
struct	6
▁since	6
lished	6
▁manag	6
▁given	6
▁power	6
ftware	6
export	6
▁water	6
▁range	6
nclass	6
▁prote	6
▁offer	6
▁event	6
▁check	6
ething	6
▁going	6
urther	6
▁known	6
▁large	6
assert	6
uction	6
▁These	6
▁links	6
▁light	6
▁gover	6
▁allow	6
▁might	6
▁invol	6
nusing	6
▁human	6
▁Count	6
ground	6
▁error	6
▁final	6
▁paper	6
idence	6
ording	6
▁women	6
ending	6
▁short	6
▁major	6
▁along	6
ention	6
▁evalu	6
▁space	6
ension	6
▁total	6
ponent	6
▁until	6
▁times	6
▁later	6
illion	6
▁https	6
▁energ	6
verage	6
▁micro	6
ession	6
▁indic	6
arning	6
▁image	6
▁exist	6
nconst	6
▁above	6
▁early	6
▁among	6
▁issue	6
▁below	6
roller	6
▁creat	6
▁today	6
▁means	6
▁needs	6
▁never	6
utions	6
indows	6
▁offic	6
result	6
ribute	6
iation	6
▁death	6
▁least	6
▁video	6
▁often	6
Object	6
ummary	6
▁cases	6
▁clear	6
▁input	6
▁house	6
▁works	6
dition	6
▁South	6
▁World	6
▁terms	6
atform	6
▁style	6
▁State	6
▁Gener	6
▁music	6
▁doesn	6
▁print	6
length	6
though	6
▁album	6
object	6
▁makes	6
leased	6
▁visit	6
▁lower	6
▁learn	6
▁polit	6
▁limit	6
▁color	6
ibrary	6
▁track	6
▁added	6
▁cover	6
▁admin	6
▁refer	6
▁block	6
istics	6
▁third	6
▁North	6
stract	6
portun	6
elling	6
▁young	6
▁chall	6
▁month	6
▁thing	6
▁money	6
itions	6
▁index	6
amples	6
script	6
iction	6
▁teach	6
▁super	6
active	6
▁match	6
▁areas	6
▁hours	6
uation	6
ulated	6
ensive	6
▁types	6
▁After	6
▁price	6
inding	6
expect	6
▁comes	6
▁enjoy	6
▁inhib	6
▁doing	6
▁quick	6
▁graph	6
▁close	6
▁influ	6
▁diagn	6
▁clean	6
▁users	6
▁decre	6
inally	6
▁shows	6
▁novel	6
▁beaut	6
▁begin	6
▁title	6
▁break	6
▁blood	6
▁games	6
▁polic	6
append	6
encies	6
client	6
module	6
▁media	6
▁email	6
lected	6
▁share	6
actory	6
status	6
▁night	6
anager	6
▁March	6
change	6
▁built	6
▁shown	6
▁story	6
▁array	6
▁cross	6
▁whole	6
static	6
▁write	6
▁spect	6
▁April	6
server	6
author	6
▁black	6
▁seems	6
ensity	6
ournal	6
▁front	6
▁exact	6
▁bring	6
respon	6
▁taken	6
▁Trans	6
▁multi	6
▁lines	6
▁label	6
▁compl	6
▁white	6
lation	6
▁Inter	6
▁prior	6
▁famil	6
cember	6
▁purch	6
atives	6
▁claim	6
▁focus	6
▁films	6
▁round	6
▁cause	6
▁speed	6
▁tests	6
▁bound	6
▁weeks	6
▁Group	6
▁accur	6
▁House	6
ective	6
▁maint	6
▁analy	6
Client	6
▁regul	6
▁staff	6
apping	6
▁store	6
▁dynam	6
▁named	6
source	6
▁click	6
commit	6
button	6
models	6
▁Japan	6
System	6
closed	6
▁liter	6
▁hyper	6
▁sites	6
coming	6
bruary	6
▁quite	6
▁takes	6
▁neuro	6
▁contr	6
define	6
▁brain	6
▁board	6
mathbb	6
▁deriv	6
▁looks	6
▁basis	6
ociety	6
▁broad	6
▁India	6
update	6
▁parts	6
▁party	6
▁resid	6
▁gives	6
▁stage	6
▁rates	6
▁hypot	6
▁tools	6
▁watch	6
method	6
target	6
stream	6
▁words	6
except	6
▁nucle	6
▁plant	6
ptions	6
▁equal	6
▁force	6
ighest	6
▁First	6
▁China	6
▁extra	6
▁wrong	6
▁basic	6
▁birth	6
▁reach	6
▁apply	6
▁phase	6
levant	6
▁entry	6
▁Class	6
▁avoid	6
images	6
number	6
▁sound	6
ounced	6
height	6
▁divid	6
python	6
▁ready	6
ameter	6
▁assum	6
ipment	6
▁enter	6
▁immed	6
▁asked	6
Result	6
▁coord	6
witter	6
ecause	6
select	6
Action	6
▁solve	6
mitted	6
common	6
▁hydro	6
▁brand	6
▁antib	6
▁began	6
▁tried	6
▁units	6
▁exhib	6
illing	6
mathrm	6
▁forms	6
▁While	6
Status	6
elcome	6
master	6
▁books	6
▁Black	6
filter	6
▁subst	6
▁daily	6
▁leave	6
▁charg	6
▁fully	6
▁award	6
▁ratio	6
rolled	6
▁Olymp	6
▁False	6
▁metab	6
▁fixed	6
isions	6
ometry	6
▁costs	6
▁happy	6
Button	6
sembly	6
▁width	6
▁prime	6
▁neigh	6
▁mount	6
▁whose	6
▁scale	6
▁teams	6
apache	6
▁absol	6
▁exerc	6
▁drive	6
▁Since	6
▁solid	6
▁cardi	6
ounter	6
▁sympt	6
matrix	6
▁names	6
▁innov	6
▁sales	6
▁Willi	6
params	6
icated	6
header	6
▁worth	6
nhttps	6
▁River	6
▁score	6
▁restr	6
▁goals	6
ishing	6
weight	6
margin	6
▁green	6
▁catch	6
spring	6
adding	6
▁labor	6
▁adapt	6
▁views	6
▁steps	6
▁lives	6
parser	6
▁moved	6
issues	6
lambda	6
Entity	6
nprint	6
reated	6
▁plans	6
▁legal	6
ouncil	6
Create	6
▁train	6
▁Using	6
Stream	6
▁rules	6
▁enzym	6
orders	6
▁shape	6
▁David	6
delete	6
hedule	6
▁Trump	6
itchen	6
▁Great	6
acters	6
▁Model	6
vector	6
▁fresh	6
▁wrote	6
google	6
center	6
▁woman	6
▁touch	6
▁helps	6
normal	6
ifying	6
Number	6
▁sleep	6
▁rapid	6
option	6
Server	6
▁occur	6
▁eight	6
▁React	6
▁piece	6
▁trust	6
▁stock	6
▁alter	6
▁older	6
▁Green	6
▁carry	6
▁north	6
ucture	6
▁aware	6
urrenc	6
porary	6
▁Gover	6
▁south	6
▁Check	6
undred	6
rought	6
▁coach	6
▁float	6
▁query	6
▁seven	6
▁surpr	6
▁White	6
iginal	6
▁floor	6
▁yield	6
ancing	6
▁radio	6
▁motor	6
Source	6
▁alone	6
render	6
▁remov	6
▁Build	6
border	6
▁molec	6
iately	6
▁stuff	6
rapper	6
system	6
▁metal	6
▁Texas	6
▁chain	6
▁James	6
plicit	6
anging	6
▁Party	6
▁frame	6
▁court	6
▁Games	6
▁trade	6
uesday	6
▁photo	6
entity	6
▁chrom	6
▁upper	6
▁movie	6
▁instr	6
contin	6
▁lymph	6
▁glass	6
▁angle	6
▁prove	6
ursday	6
▁trial	6
Method	6
▁plays	6
▁joint	6
▁thous	6
▁hands	6
▁proof	6
▁debut	6
ashion	6
▁smart	6
▁spent	6
▁adult	6
▁grant	6
istant	6
▁ideal	6
▁fight	6
▁maybe	6
▁arriv	6
encing	6
▁Elect	6
▁Other	6
▁drugs	6
▁guess	6
▁therm	6
▁songs	6
▁setup	6
ailway	6
Select	6
▁mouse	6
fields	6
aneous	6
annels	6
▁virus	6
▁Court	6
▁Award	6
▁cycle	6
▁Power	6
▁Super	6
▁Mount	6
▁vitro	6
▁shoot	6
allery	6
▁route	6
▁await	6
▁pharm	6
▁Union	6
nament	6
inated	6
▁agent	6
▁recip	6
Script	6
▁empty	6
▁minor	6
▁liver	6
▁delay	6
elines	6
direct	6
▁Board	6
▁dress	6
plugin	6
▁Franc	6
iences	6
▁Angel	6
inates	6
▁sides	6
▁coeff	6
▁Carol	6
should	6
▁Thank	6
ipping	6
before	6
▁leads	6
▁grand	6
▁heavy	6
▁catal	6
agment	6
random	6
▁drink	6
▁topic	6
▁Every	6
▁Color	6
▁Music	6
▁wants	6
Update	6
▁Roman	6
▁cloud	6
romise	6
othing	6
▁Press	6
▁thick	6
points	6
mathbf	6
▁plate	6
▁calls	6
▁alpha	6
▁Scott	6
access	6
ansion	6
▁Exper	6
▁theme	6
▁owner	6
▁Under	6
ocytes	6
▁spend	6
▁heard	6
▁Women	6
▁relax	6
▁mixed	6
double	6
▁morph	6
▁emerg	6
▁split	6
▁decor	6
▁accel	6
▁girls	6
Thread	6
▁Child	6
▁thank	6
custom	6
Filter	6
▁Grand	6
Logger	6
anning	6
▁Apple	6
▁hotel	6
▁serum	6
▁throw	6
▁Stand	6
unched	6
iology	6
▁occup	6
people	6
ported	6
Serial	6
person	6
▁Error	6
styles	6
▁ahead	6
efined	6
▁haven	6
▁roles	6
▁Start	6
▁tasks	6
ickets	6
Output	6
▁notes	6
printf	6
Parser	6
plates	6
handle	6
window	6
arrant	6
▁cryst	6
▁cards	6
▁agree	6
▁Royal	6
Return	6
ogenic	6
▁brief	6
▁scene	6
▁Which	6
domain	6
▁miles	6
Change	6
▁Image	6
player	6
▁Admin	6
▁plane	6
▁somew	6
▁Smith	6
▁voice	6
▁panel	6
Layout	6
achine	6
Column	6
▁absor	6
▁minim	6
friend	6
▁meant	6
▁Order	6
iatric	6
cluded	6
Format	6
Search	6
▁Water	6
▁parse	6
▁posts	6
layout	6
▁Louis	6
▁Frank	6
Length	6
astern	6
omorph	6
▁Point	6
▁noise	6
▁curve	6
▁noted	6
▁civil	6
ressed	6
Header	6
▁Enter	6
ateral	6
▁Array	6
▁steel	6
reland	6
▁Field	6
Assert	6
▁nodes	6
second	6
▁depth	6
depend	6
▁stack	6
▁Event	6
▁youth	6
▁recon	6
▁shall	6
▁gradu	6
global	6
bridge	6
assets	6
▁Based	6
▁medal	6
▁truly	6
▁sport	6
▁twice	6
▁chair	6
▁fluid	6
device	6
▁loved	6
▁sweet	6
▁Peter	6
▁stick	6
bottom	6
▁Earth	6
▁alleg	6
▁BASIS	6
column	6
▁Light	6
ceived	6
Access	6
commod	6
orough	6
engine	6
scribe	6
screen	6
icular	6
▁delet	6
Option	6
▁trees	6
▁holds	6
Widget	6
▁numpy	6
Reader	6
▁craft	6
istent	6
▁Organ	6
family	6
Window	6
inical	6
▁trail	6
Equals	6
▁usage	6
thread	6
Direct	6
▁fract	6
▁coast	6
aching	6
▁colon	6
ointer	6
▁Brown	6
▁coron	6
▁signs	6
▁chart	6
ntitle	6
▁funds	6
▁retro	6
uality	6
widget	6
▁ended	6
▁embed	6
▁inner	6
▁Media	6
▁citiz	6
▁grade	6
Schema	6
▁Italy	6
▁Three	6
combin	6
▁stars	6
▁raise	6
▁draft	6
Buffer	6
omatic	6
▁Asian	6
▁Cross	6
▁dream	6
▁veget	6
idents	6
▁union	6
▁urban	6
▁rooms	6
▁toler	6
▁audio	6
▁chief	6
▁newly	6
docker	6
isters	6
▁river	6
▁adopt	6
▁scope	6
monary	6
▁compr	6
▁Times	6
▁renal	6
▁owned	6
▁crypt	6
▁Solve	6
▁Table	6
errors	6
▁merge	6
▁polar	6
▁speak	6
▁sizes	6
prefix	6
▁javax	6
Custom	6
▁Click	6
ynamic	6
▁knows	6
Player	6
embers	6
▁rough	6
▁solar	6
router	6
▁Human	6
▁Beach	6
orrect	6
leases	6
▁deals	6
itness	6
ussian	6
▁reson	6
cludes	6
writer	6
▁spons	6
▁Study	6
urable	6
▁rural	6
▁proud	6
▁inher	6
▁Young	6
Helper	6
▁stone	6
Author	6
Engine	6
▁usual	6
ategor	6
sample	6
report	6
▁Local	6
▁waste	6
▁assay	6
Plugin	6
▁tight	6
region	6
ifiers	6
▁beach	6
Target	6
▁depos	6
▁fruit	6
ulator	6
record	6
▁cheap	6
Record	6
Params	6
buffer	6
▁genus	6
▁logic	6
ighter	6
tprint	6
▁lists	6
▁turns	6
upload	6
orship	6
▁truth	6
▁Chief	6
▁cache	6
offset	6
▁worry	6
groups	6
▁lived	6
▁counc	6
▁brown	6
Render	6
Bundle	6
▁Today	6
▁Input	6
▁cabin	6
▁renew	6
Dialog	6
▁blank	6
▁dance	6
▁actor	6
porter	6
▁manip	6
▁Graph	6
▁Jones	6
▁Index	6
▁newsp	6
▁viral	6
charge	6
secret	6
ocated	6
future	6
▁Coast	6
▁bench	6
▁sugar	6
▁login	6
▁Force	6
▁Linux	6
▁abuse	6
efully	6
ecraft	6
▁Creat	6
▁clust	6
unning	6
▁Chris	6
Vector	6
▁Appro	6
URPOSE	6
iverse	6
▁cream	6
▁kinds	6
▁Spain	6
▁paint	6
▁Jesus	6
▁wheel	6
commun	6
▁patch	6
Height	6
▁Where	6
▁drama	6
▁Hotel	6
▁saved	6
Please	6
lights	6
Writer	6
▁grown	6
▁Korea	6
▁Wales	6
▁Radio	6
▁peace	6
▁Maybe	6
▁risks	6
▁Micro	6
▁Store	6
verter	6
▁Saint	6
▁hence	6
comput	6
▁clubs	6
EFAULT	6
▁Space	6
▁react	6
▁pitch	6
▁Video	6
shared	6
ochond	6
▁surve	6
▁sheet	6
▁About	6
▁Irish	6
review	6
native	6
loader	6
▁Labor	6
submit	6
asters	6
▁acids	6
▁veter	6
enders	6
▁crime	6
▁tells	6
isting	6
unting	6
▁reput	6
Delete	6
otypes	6
Python	6
▁COVID	6
everal	6
ulture	6
events	6
encode	6
▁pilot	6
▁Cloud	6
ateway	6
▁Among	6
▁apopt	6
▁walls	6
letter	6
ouston	6
▁edges	6
▁nerve	6
▁paths	6
▁clock	6
▁fiber	6
upyter	6
▁mouth	6
usetts	6
▁Henry	6
▁goods	6
icture	6
design	6
▁maxim	6
consin	6
driver	6
▁Greek	6
▁drawn	6
▁doors	6
fusion	6
▁plain	6
FTWARE	6
▁negot	6
▁feels	6
esides	6
agraph	6
▁suppl	6
▁moves	6
▁tough	6
▁Trust	6
ailing	6
▁bytes	6
▁Santa	6
scious	6
rovers	6
nwhere	6
▁Night	6
Effect	6
Device	6
▁quote	6
▁asset	6
answer	6
Active	6
▁Obama	6
amount	6
▁Title	6
▁honor	6
▁trace	6
inline	6
▁throm	6
▁skill	6
▁knock	6
acking	6
▁chlor	6
▁Chair	6
▁Creek	6
▁Watch	6
▁decom	6
member	6
▁Round	6
▁fifth	6
havior	6
▁worse	6
▁Brook	6
radius	6
▁Prime	6
onomic	6
lywood	6
▁truck	6
▁trick	6
▁abund	6
▁batch	6
▁vital	6
▁Place	6
Loader	6
▁Right	6
▁Steve	6
ieving	6
▁aging	6
subset	6
▁robot	6
ussion	6
▁Small	6
▁Queen	6
socket	6
▁filed	6
▁sorry	6
▁Block	6
▁banks	6
▁judge	6
▁Latin	6
arters	6
stable	6
▁Print	6
switch	6
▁stuck	6
▁debug	6
▁alert	6
▁keeps	6
▁lunch	6
▁stead	6
▁lipid	6
▁Stock	6
▁Dutch	6
Common	6
hidden	6
▁Given	6
▁Short	6
▁Route	6
labels	6
▁Broad	6
▁strip	6
tconst	6
▁colle	6
▁faces	6
inator	6
▁Valid	6
▁reply	6
▁seats	6
▁horse	6
▁waves	6
▁cytok	6
▁parad	6
▁bread	6
▁quiet	6
▁fetch	6
▁crash	6
▁marks	6
rizona	6
▁grass	6
abling	6
called	6
▁OTHER	6
▁wound	6
▁Clean	6
▁props	6
▁fails	6
▁Egypt	6
rangle	6
folder	6
▁outer	6
bourne	6
▁Price	6
▁tomor	6
ushing	6
ectors	6
agonal	6
▁adhes	6
illary	6
atalog	6
engers	6
▁infer	6
editor	6
▁foods	6
▁finds	6
footer	6
living	6
▁Civil	6
outube	6
▁Daily	6
ETHODS	6
season	6
ometer	6
earing	6
▁Guide	6
▁Beaut	6
▁Major	6
▁opens	6
pected	6
cursor	6
▁Hence	6
simple	6
▁macro	6
reader	6
▁Those	6
▁Heart	6
▁toxic	6
detail	6
▁talks	6
icking	6
▁Total	6
orient	6
course	6
making	6
▁bands	6
Socket	6
ntyped	6
Matrix	6
▁votes	6
urname	6
equals	6
▁intra	6
▁hosts	6
Screen	6
▁onset	6
riends	6
Simple	6
abetic	6
ritish	6
ceptor	6
helper	6
▁slope	6
▁essay	6
▁chose	6
▁surge	6
stdout	6
▁stake	6
▁capac	6
▁Never	6
▁shoes	6
▁overl	6
▁magic	6
▁clone	6
▁Ident	6
Router	6
▁Phase	6
▁birds	6
▁heads	6
arring	6
decode	6
abases	6
figure	6
▁delta	6
▁param	6
iments	6
Policy	6
▁Multi	6
▁Ocean	6
▁Anton	6
SELECT	6
angers	6
▁modes	6
oustic	6
▁Smart	6
▁Final	6
health	6
square	6
cribed	6
▁Could	6
rivial	6
▁flows	6
Editor	6
▁anten	6
inking	6
linked	6
Depend	6
ichael	6
▁Brand	6
Handle	6
Google	6
▁Write	6
uclear	6
▁Sound	6
▁Davis	6
▁occas	6
▁likes	6
Global	6
▁tract	6
▁loves	6
apters	6
▁ships	6
ardens	6
▁chest	6
ourier	6
▁Guard	6
around	6
avirus	6
typeof	6
ancies	6
▁ocean	6
▁probe	6
intage	6
ployee	6
Report	6
▁Share	6
▁crowd	6
ortion	6
▁squad	6
branch	6
▁Basic	6
▁paras	6
▁tooth	6
memory	6
▁bonus	6
▁faced	6
volume	6
attice	6
▁LaTeX	6
▁fewer	6
▁blind	6
▁falls	6
▁oxide	6
▁folks	6
opathy	6
▁decay	6
▁spark	6
erving	6
outing	6
▁rugby	6
▁sight	6
▁gastr	6
Public	6
▁meets	6
malink	6
Random	6
▁sauce	6
▁gamma	6
▁Front	6
▁facts	6
accept	6
itcoin	6
ignore	6
▁drain	6
entral	6
▁Again	6
urches	6
covery	6
▁Const	6
chrome	6
▁Sport	6
▁crack	6
▁seeds	6
psilon	6
▁shops	6
▁stain	6
▁spots	6
▁crazy	6
▁Would	6
▁funny	6
expand	6
▁forth	6
starts	6
▁races	6
▁storm	6
Member	6
symbol	6
▁bunch	6
▁destr	6
▁towns	6
▁Forum	6
▁pulse	6
▁Stone	6
▁sharp	6
▁prize	6
▁Enron	6
assign	6
▁hopes	6
▁Brian	6
▁Diego	6
▁loans	6
▁pneum	6
▁venue	6
Detail	6
▁Czech	6
▁Unity	6
remote	6
▁Story	6
minute	6
▁spher	6
▁spoke	6
▁excit	6
▁Lewis	6
▁imper	6
Offset	6
▁rings	6
▁scrap	6
▁Early	6
▁atoms	6
▁Drive	6
energy	6
▁stere	6
▁taxes	6
rupted	6
Parent	6
Remove	6
cancel	6
▁orbit	6
locale	6
▁broke	6
ugging	6
▁melan	6
▁gifts	6
limits	6
▁renov	6
▁overs	6
pragma	6
▁Marsh	6
▁Paper	6
▁roads	6
toggle	6
▁hemat	6
series	6
ercise	6
hedral	6
mitter	6
▁Kevin	6
▁Email	6
▁tower	6
▁Polit	6
▁Azure	6
▁piano	6
▁aband	6
angles	6
▁voted	6
STRACT	6
▁nanop	6
▁Steel	6
actors	6
▁yards	6
▁advis	6
▁screw	6
Before	6
▁alive	6
Events	6
▁liked	6
origin	6
single	6
▁weird	6
▁Intel	6
▁loads	6
ursive	6
▁climb	6
▁Issue	6
▁Delhi	6
▁Prize	6
imeter	6
pleted	6
▁yours	6
scroll	6
▁Youth	6
erator	6
▁shots	6
▁Motor	6
▁smoke	6
▁Photo	6
market	6
period	6
▁stats	6
overty	6
▁smile	6
witzer	6
▁Miami	6
▁Maria	6
▁holes	6
phosph	6
▁laugh	6
▁Still	6
▁Third	6
▁Style	6
consum	6
▁Staff	6
dialog	6
binary	6
▁flags	6
▁Hawai	6
▁Harry	6
▁inhab	6
▁Trade	6
▁aside	6
▁Hello	6
jquery	6
▁proxy	6
▁Advis	6
rypted	6
Driver	6
▁reads	6
▁Learn	6
keeper	6
mobile	6
langle	6
▁wider	6
▁bases	6
▁Spect	6
urious	6
▁Books	6
posing	6
▁lucky	6
▁meals	6
ulates	6
Failed	6
▁anest	6
▁Cover	6
▁torch	6
likely	6
▁gonna	6
▁balls	6
Holder	6
▁rated	6
▁sixth	6
Double	6
extend	6
Import	6
▁tries	6
iating	6
iliary	6
acchar	6
▁fixes	6
▁donor	6
▁Liver	6
onical	6
▁Autom	6
▁advoc	6
▁fraud	6
▁flour	6
azines	6
▁Speed	6
lessly	6
▁Hills	6
school	6
factor	6
ailand	6
▁Simon	6
igious	6
ecture	6
driven	6
▁Files	6
▁Notes	6
effect	6
essary	6
▁Large	6
Fields	6
colors	6
▁Girls	6
▁bonds	6
▁argue	6
▁Vegas	6
shaped	6
▁prost	6
▁Range	6
▁divor	6
▁Bible	6
▁Tokyo	6
▁Plant	6
stroke	6
▁Jacob	6
places	6
ockets	6
policy	6
ackets	6
elfare	6
retion	6
Person	6
stderr	6
rivacy	6
rophic	6
erable	6
▁LIMIT	6
Compar	6
Inject	6
▁valve	6
▁Allen	6
▁Moore	6
▁urine	6
amazon	6
▁cater	6
incess	6
shadow	6
arding	6
▁Quick	6
Spring	6
▁Enjoy	6
▁slide	6
▁Neuro	6
▁Stack	6
▁dense	6
▁Kelly	6
▁Andre	6
▁Laure	6
wealth	6
Folder	6
iative	6
iotics	6
▁Alber	6
Prefix	6
▁Blood	6
signal	6
medium	6
▁grain	6
acular	6
▁basal	6
▁admit	6
alling	6
ifting	6
nwhich	6
Should	6
▁Grant	6
▁Trail	6
▁alarm	6
▁Dream	6
▁Incre	6
▁seeks	6
deploy	6
▁stops	6
Memory	6
Single	6
formed	6
▁weigh	6
▁minus	6
▁Domin	6
ternet	6
▁Scale	6
▁Swiss	6
velope	6
▁fired	6
inject	6
edical	6
▁Chile	6
▁pixel	6
isible	6
helium	6
▁pride	6
worker	6
ompson	6
▁gauge	6
Normal	6
▁wrest	6
ateful	6
bucket	6
▁grows	6
▁trips	6
rowave	6
iously	6
athers	6
visual	6
verify	6
▁fluct	6
▁arise	6
phabet	6
canvas	6
strong	6
▁Happy	6
▁infar	6
Visual	6
strict	6
▁cyber	6
Comput	6
▁loyal	6
▁Metro	6
▁Singh	6
ascade	6
ifacts	6
runner	6
Design	6
ainian	6
▁Hyper	6
methyl	6
▁drums	6
▁Later	6
▁incub	6
social	6
verted	6
▁Sarah	6
▁Optim	6
filled	6
▁tomat	6
approx	6
▁pseud	6
▁Tools	6
endors	6
▁Lower	6
▁stood	6
varphi	6
▁juice	6
▁Rural	6
routes	6
Sample	6
navbar	6
itored	6
▁comic	6
giving	6
▁Query	6
▁Match	6
Upload	6
choice	6
▁parks	6
▁Jason	6
Health	6
▁steam	6
Runner	6
▁Sorry	6
riving	6
▁Users	6
▁yeast	6
▁Usage	6
kernel	6
▁congr	6
inance	6
Secret	6
▁Glass	6
▁Added	6
▁TABLE	6
CONFIG	6
▁brick	6
ostics	6
apolis	6
▁mayor	6
▁Maine	6
▁gains	6
▁royal	6
▁Clark	6
▁Think	6
▁Baron	6
▁texts	6
▁Stage	6
inputs	6
Styles	6
▁medic	6
▁flask	6
illiam	6
Symbol	6
▁fatal	6
▁Mayor	6
ceiver	6
▁socio	6
▁eryth	6
bundle	6
▁swing	6
urgery	6
▁hired	6
▁Phill	6
GitHub	6
▁gross	6
ubuntu	6
▁Works	6
prises	6
▁Medal	6
▁slice	6
▁chunk	6
Submit	6
▁globe	6
Master	6
▁fluor	6
gender	6
Second	6
▁nurse	6
issing	6
listen	6
Struct	6
▁hypox	6
▁Token	6
▁Being	6
▁Coord	6
▁paste	6
▁loose	6
▁Saudi	6
▁tired	6
▁distr	6
▁timer	6
▁stiff	6
Thanks	6
makers	6
throws	6
tensor	6
▁crown	6
▁Veter	6
aurant	6
▁Rober	6
irable	6
online	6
ainers	6
▁burst	6
▁shirt	6
▁Break	6
▁Fixed	6
▁tours	6
▁hesit	6
owners	6
Center	6
▁Track	6
▁Death	6
creens	6
▁tuple	6
▁Tests	6
▁focal	6
osures	6
▁ather	6
launch	6
▁Money	6
forced	6
▁Flash	6
▁Magic	6
▁coins	6
▁merch	6
ocrine	6
Amount	6
father	6
▁Clear	6
▁Audio	6
▁flood	6
otypic	6
herent	6
oscopy	6
vendor	6
aceful	6
advant	6
repeat	6
▁chron	6
nwhile	6
▁Grade	6
▁lands	6
utures	6
▁enorm	6
▁noteb	6
▁Month	6
▁imped	6
▁orche	6
etooth	6
▁wings	6
▁Label	6
textbf	6
ferred	6
▁Pages	6
▁Posts	6
concat	6
▁prest	6
ousing	6
▁moder	6
Static	6
▁reper	6
▁Delta	6
Switch	6
upiter	6
sender	6
▁Dance	6
▁cited	6
celona	6
▁walks	6
▁epile	6
▁Urban	6
▁disag	6
▁Visit	6
▁Manag	6
months	6
Review	6
urring	6
▁inaug	6
unches	6
▁Phone	6
travis	6
▁Solar	6
▁arrow	6
▁Syria	6
avatar	6
▁Cabin	6
▁zones	6
▁rocks	6
outine	6
priate	6
Donald	6
imated	6
▁Upper	6
▁Prior	6
▁apple	6
▁drops	6
▁honey	6
webkit	6
rowing	6
astrop	6
▁locks	6
▁fever	6
▁Judge	6
placed	6
▁Years	6
listed	6
▁Chart	6
▁intro	6
secure	6
▁Excel	6
▁deleg	6
▁Medic	6
danger	6
▁verte	6
states	6
▁moral	6
lining	6
▁quest	6
office	6
▁tiles	6
▁pizza	6
▁sheep	6
▁Kings	6
▁EVENT	6
indent	6
▁spine	6
ulence	6
▁ports	6
▁chips	6
assium	6
Weight	6
▁Corps	6
▁adren	6
▁Bruce	6
▁Colon	6
▁Decor	6
amping	6
resses	6
osomes	6
hattan	6
blocks	6
▁gland	6
Shared	6
▁Falls	6
orneys	6
ophage	6
▁draws	6
▁sorts	6
abolic	6
▁tends	6
agrams	6
▁Croat	6
urally	6
Scroll	6
▁strat	6
▁helic	6
Mobile	6
▁fleet	6
sizeof	6
▁Birth	6
anners	6
▁Medit	6
grades	6
ennial	6
▁ruled	6
▁Bloom	6
▁Tower	6
▁Adams	6
boards	6
▁Close	6
▁Metal	6
atable	6
▁shear	6
▁rival	6
layers	6
umbing	6
Region	6
anghai	6
▁handy	6
ancers	6
enberg	6
▁acres	6
queous	6
rients	6
cookie	6
pytest	6
irates	6
otimes	6
▁vinyl	6
degree	6
Series	6
▁Tamil	6
▁patio	6
ATIONS	6
▁maker	6
▁alike	6
Binary	6
▁shade	6
tility	6
▁relay	6
▁Hydro	6
▁sinus	6
thlete	6
notify	6
▁reven	6
NUMBER	6
rosine	6
frames	6
Volume	6
camera	6
▁armed	6
▁breat	6
▁Eight	6
▁Catal	6
Points	6
Expand	6
▁Floor	6
▁ranks	6
▁endif	6
atinum	6
doctor	6
▁Costa	6
▁latex	6
▁Kenya	6
usions	6
▁cytos	6
▁Lanka	6
Camera	6
▁lease	6
▁sperm	6
▁repro	6
▁chick	6
Errorf	6
▁defin	6
ograms	6
follow	6
▁redis	6
▁smell	6
tbreak	6
▁steep	6
▁antim	6
▁Seven	6
failed	6
▁Niger	6
ooting	6
▁wheat	6
rating	6
▁juris	6
▁Legal	6
▁lying	6
nlocal	6
arious	6
▁lever	6
▁careg	6
ichard	6
▁peers	6
▁greet	6
Native	6
Docker	6
▁exped	6
▁Peace	6
▁Rugby	6
▁Susan	6
▁buyer	6
▁stays	6
Remote	6
observ	6
▁rally	6
▁Along	6
▁dozen	6
▁exert	6
Vertex	6
▁Alice	6
olytic	6
▁sends	6
▁radar	6
insula	6
reduce	6
carbon	6
▁Alpha	6
▁Ghana	6
rition	6
▁Stars	6
acting	6
▁sized	6
vision	6
twhile	6
▁Fried	6
▁irrit	6
▁penet	6
▁naked	6
▁resil	6
▁blogs	6
▁shelf	6
ximity	6
arians	6
opedia	6
achers	6
clipse	6
▁Entry	6
Arrays	6
Exists	6
attach	6
Errors	6
▁shore	6
astics	6
▁Woman	6
genase	6
▁dirty	6
aptist	6
▁loops	6
castle	6
Ignore	6
uclide	6
resize	6
▁Below	6
▁Carlo	6
▁olive	6
▁opera	6
▁Minor	6
attery	6
▁Suite	6
ctrine	6
Enable	6
▁Score	6
Intent	6
▁theta	6
▁minds	6
▁Wayne	6
Online	6
spaces	6
Future	6
braska	6
▁Draft	6
▁synth	6
ulsion	6
▁lemon	6
▁pussy	6
mailto	6
▁tuned	6
▁comed	6
▁dtype	6
Lambda	6
arness	6
▁Sweet	6
ounded	6
perial	6
▁lingu	6
mother	6
▁eager	6
▁Evans	6
▁Fresh	6
▁boats	6
▁Agent	6
STRING	6
▁fancy	6
▁punct	6
Worker	6
crypto	6
▁Joint	6
▁twist	6
preter	6
▁Orche	6
Insert	6
▁icons	6
▁picks	6
▁Armen	6
▁centr	6
▁fence	6
▁peaks	6
▁crate	6
ampton	6
prints	6
▁Krist	6
Accept	6
▁imply	6
▁knife	6
▁Blues	6
▁Chrom	6
▁actin	6
please	6
▁Coach	6
ishops	6
rocery	6
▁Honor	6
▁Opera	6
▁SHALL	6
▁Baker	6
reason	6
▁nicot	6
▁Train	6
affold	6
Office	6
▁perox	6
▁Panel	6
▁rigid	6
▁Brain	6
asting	6
asonic	6
income	6
rivers	6
▁Leban	6
SOURCE	6
proved	6
▁lobby	6
▁pools	6
▁straw	6
tsuper	6
Packet	6
[...]
