[UNUSED_TOKEN_100]	18
[UNUSED_TOKEN_101]	18
[UNUSED_TOKEN_102]	18
[UNUSED_TOKEN_103]	18
[UNUSED_TOKEN_104]	18
[UNUSED_TOKEN_105]	18
[UNUSED_TOKEN_106]	18
[UNUSED_TOKEN_107]	18
[UNUSED_TOKEN_108]	18
[UNUSED_TOKEN_109]	18
[UNUSED_TOKEN_110]	18
[UNUSED_TOKEN_111]	18
[UNUSED_TOKEN_112]	18
[UNUSED_TOKEN_113]	18
[UNUSED_TOKEN_114]	18
[UNUSED_TOKEN_115]	18
[UNUSED_TOKEN_116]	18
[UNUSED_TOKEN_117]	18
[UNUSED_TOKEN_118]	18
[UNUSED_TOKEN_119]	18
[UNUSED_TOKEN_120]	18
[UNUSED_TOKEN_121]	18
[UNUSED_TOKEN_122]	18
[UNUSED_TOKEN_123]	18
[UNUSED_TOKEN_124]	18
[UNUSED_TOKEN_125]	18
[UNUSED_TOKEN_126]	18
[UNUSED_TOKEN_127]	18
[UNUSED_TOKEN_128]	18
[UNUSED_TOKEN_129]	18
[UNUSED_TOKEN_130]	18
[UNUSED_TOKEN_131]	18
[UNUSED_TOKEN_132]	18
[UNUSED_TOKEN_133]	18
[UNUSED_TOKEN_134]	18
[UNUSED_TOKEN_135]	18
[UNUSED_TOKEN_136]	18
[UNUSED_TOKEN_137]	18
[UNUSED_TOKEN_138]	18
[UNUSED_TOKEN_139]	18
[UNUSED_TOKEN_140]	18
[UNUSED_TOKEN_141]	18
[UNUSED_TOKEN_142]	18
[UNUSED_TOKEN_143]	18
[UNUSED_TOKEN_144]	18
[UNUSED_TOKEN_145]	18
[UNUSED_TOKEN_146]	18
[UNUSED_TOKEN_10]	17
[UNUSED_TOKEN_11]	17
[UNUSED_TOKEN_12]	17
[UNUSED_TOKEN_13]	17
[UNUSED_TOKEN_14]	17
[UNUSED_TOKEN_15]	17
[UNUSED_TOKEN_16]	17
[UNUSED_TOKEN_17]	17
[UNUSED_TOKEN_18]	17
[UNUSED_TOKEN_19]	17
[UNUSED_TOKEN_20]	17
[UNUSED_TOKEN_21]	17
[UNUSED_TOKEN_22]	17
[UNUSED_TOKEN_23]	17
[UNUSED_TOKEN_24]	17
[UNUSED_TOKEN_25]	17
[UNUSED_TOKEN_26]	17
[UNUSED_TOKEN_27]	17
[UNUSED_TOKEN_28]	17
[UNUSED_TOKEN_29]	17
[UNUSED_TOKEN_30]	17
[UNUSED_TOKEN_31]	17
[UNUSED_TOKEN_32]	17
[UNUSED_TOKEN_33]	17
[UNUSED_TOKEN_34]	17
[UNUSED_TOKEN_35]	17
[UNUSED_TOKEN_36]	17
[UNUSED_TOKEN_37]	17
[UNUSED_TOKEN_38]	17
[UNUSED_TOKEN_39]	17
[UNUSED_TOKEN_40]	17
[UNUSED_TOKEN_41]	17
[UNUSED_TOKEN_42]	17
[UNUSED_TOKEN_43]	17
[UNUSED_TOKEN_44]	17
[UNUSED_TOKEN_45]	17
[UNUSED_TOKEN_46]	17
[UNUSED_TOKEN_47]	17
[UNUSED_TOKEN_48]	17
[UNUSED_TOKEN_49]	17
[UNUSED_TOKEN_50]	17
[UNUSED_TOKEN_51]	17
[UNUSED_TOKEN_52]	17
[UNUSED_TOKEN_53]	17
[UNUSED_TOKEN_54]	17
[UNUSED_TOKEN_55]	17
[UNUSED_TOKEN_56]	17
[UNUSED_TOKEN_57]	17
[UNUSED_TOKEN_58]	17
[UNUSED_TOKEN_59]	17
[UNUSED_TOKEN_60]	17
[UNUSED_TOKEN_61]	17
[UNUSED_TOKEN_62]	17
[UNUSED_TOKEN_63]	17
[UNUSED_TOKEN_64]	17
[UNUSED_TOKEN_65]	17
[UNUSED_TOKEN_66]	17
[UNUSED_TOKEN_67]	17
[UNUSED_TOKEN_68]	17
[UNUSED_TOKEN_69]	17
[UNUSED_TOKEN_70]	17
[UNUSED_TOKEN_71]	17
[UNUSED_TOKEN_72]	17
[UNUSED_TOKEN_73]	17
[UNUSED_TOKEN_74]	17
[UNUSED_TOKEN_75]	17
[UNUSED_TOKEN_76]	17
[UNUSED_TOKEN_77]	17
[UNUSED_TOKEN_78]	17
[UNUSED_TOKEN_79]	17
[UNUSED_TOKEN_80]	17
[UNUSED_TOKEN_81]	17
[UNUSED_TOKEN_82]	17
[UNUSED_TOKEN_83]	17
[UNUSED_TOKEN_84]	17
[UNUSED_TOKEN_85]	17
[UNUSED_TOKEN_86]	17
[UNUSED_TOKEN_87]	17
[UNUSED_TOKEN_88]	17
[UNUSED_TOKEN_89]	17
[UNUSED_TOKEN_90]	17
[UNUSED_TOKEN_91]	17
[UNUSED_TOKEN_92]	17
[UNUSED_TOKEN_93]	17
[UNUSED_TOKEN_94]	17
[UNUSED_TOKEN_95]	17
[UNUSED_TOKEN_96]	17
[UNUSED_TOKEN_97]	17
[UNUSED_TOKEN_98]	17
[UNUSED_TOKEN_99]	17
ancellationToken	16
▁MERCHANTABILITY	16
▁transformations	16
CompilerServices	16
▁reproducibility	16
▁straightforward	16
abcdefghijklmnop	16
▁representations	16
▁characteristics	16
ExecutionContext	16
aaaaaaaaaaaaaaaa	16
▁Redistributions	16
▁ResourceManager	16
XXXXXXXXXXXXXXXX	16
▁electromagnetic	16
▁differentiation	16
AAAAAAAAAAAAAAAA	16
▁computationally	16
▁standardization	16
▁superconducting	16
▁Electromagnetic	16
▁unterschiedlich	16
▁internationalen	16
▁Geschäftsführer	16
▁Herausforderung	16
▁Geschwindigkeit	16
▁Schwangerschaft	16
▁professionellen	16
▁Wissenschaftler	16
▁verschiedensten	16
▁personenbezogen	16
AntwortenLöschen	16
▁wirtschaftliche	16
▁Internationalen	16
▁österreichische	16
▁außergewöhnlich	16
Pressemitteilung	16
durchschnittlich	16
▁gesundheitliche	16
▁Persönlichkeits	16
Benachrichtigung	16
▁Kreuzworträtsel	16
Veröffentlichung	16
▁prostřednictvím	16
▁Moravskoslezský	16
▁Královéhradecký	16
▁ügyfélszolgálat	16
▁elengedhetetlen	16
▁Tudományegyetem	16
▁professzionális	16
▁légkondicionált	16
▁dichloromethane	16
▁tetrahydrofuran	16
▁chromatographed	16
methylideneamino	16
▁trifluoroacetic	16
methylmorpholine	16
[UNUSED_TOKEN_3]	16
[UNUSED_TOKEN_4]	16
[UNUSED_TOKEN_5]	16
[UNUSED_TOKEN_6]	16
[UNUSED_TOKEN_7]	16
[UNUSED_TOKEN_8]	16
[UNUSED_TOKEN_9]	16
<|action_start|>	16
springframework	15
▁representation	15
▁implementation	15
▁authentication	15
▁NotImplemented	15
▁classification	15
▁multiplication	15
▁transformation	15
PropertyChanged	15
▁Authentication	15
▁simultaneously	15
▁regularization	15
▁interpretation	15
▁characteristic	15
▁Classification	15
includegraphics	15
▁identification	15
ResourceManager	15
▁responsibility	15
▁representative	15
▁reconstruction	15
▁multiplicative	15
▁differentiable	15
transformations	15
▁correspondence	15
▁generalization	15
▁mathematically	15
openlocfilehash	15
▁Communications	15
▁chromatography	15
▁experimentally	15
▁mathematicians	15
▁asymptotically	15
▁incompressible	15
representations	15
▁beispielsweise	15
▁veröffentlicht	15
▁Zusammenarbeit	15
▁ausschließlich	15
▁wahrscheinlich	15
▁entsprechenden	15
▁internationale	15
▁Aufmerksamkeit	15
▁Preisvergleich	15
▁professionelle	15
▁Veranstaltungs	15
▁traditionellen	15
▁amerikanischen	15
▁Persönlichkeit	15
▁Veröffentlicht	15
▁Kommunikations	15
▁Internationale	15
▁entscheidenden	15
Geschäftsführer	15
▁erforderlichen	15
▁wirtschaftlich	15
▁Dienstleistung	15
▁Wahrscheinlich	15
▁verschiedenste	15
▁verantwortungs	15
▁Hotelbewertung	15
▁Bundesminister	15
▁živnostenského	15
▁nakladatelství	15
▁bezpečnostních	15
▁zastupitelstva	15
▁Magyarországon	15
▁szolgáltatások	15
▁miniszterelnök	15
▁rendelkezésére	15
▁Székesfehérvár	15
▁szolgáltatásai	15
▁elhelyezkedése	15
▁rendellenesség	15
▁megkülönböztet	15
trifluoromethyl	15
▁recrystallized	15
phenylphosphine	15
dimethoxyphenyl	15
methoxycarbonyl	15
dichloromethane	15
methylpiperidin	15
tetrahydropyran	15
methylpiperazin	15
▁monocarboxylic	15
dihydrochloride	15
trifluoroacetic	15
▁automatizovano	15
<|interpreter|>	15
▁configuration	14
▁corresponding	14
▁automatically	14
▁documentation	14
▁BeautifulSoup	14
▁functionality	14
Authentication	14
▁MonoBehaviour	14
▁Configuration	14
ComponentModel	14
▁StringBuilder	14
SerializeField	14
ArgumentParser	14
getElementById	14
▁understanding	14
FirstOrDefault	14
▁probabilities	14
▁authenticated	14
▁communication	14
▁compatibility	14
▁DateTimeField	14
authentication	14
▁interpolation	14
▁convolutional	14
▁authorization	14
classification	14
▁normalization	14
▁relationships	14
▁approximation	14
▁distributions	14
▁Unfortunately	14
representation	14
▁approximately	14
Classification	14
▁significantly	14
implementation	14
▁decomposition	14
▁circumstances	14
▁international	14
NotImplemented	14
▁concentration	14
▁independently	14
▁gravitational	14
▁International	14
▁differentiate	14
▁factorization	14
▁deterministic	14
▁computational	14
▁circumference	14
transformation	14
▁contradiction	14
▁contributions	14
▁Convolutional	14
▁comprehensive	14
▁cryptographic	14
▁perpendicular	14
▁Communication	14
NativeTypeName	14
multiplication	14
▁environmental	14
▁complementary	14
verticalLayout	14
▁reinforcement	14
▁exponentially	14
▁substantially	14
longrightarrow	14
▁participating	14
▁probabilistic	14
▁instantaneous	14
▁combinatorial	14
▁characterized	14
▁semiconductor	14
▁institutional	14
▁Entertainment	14
▁statistically	14
▁philosophical	14
▁methodologies	14
▁electrostatic	14
▁observational	14
▁Collaboration	14
▁Computational	14
▁electromagnet	14
▁hybridization	14
▁mathematician	14
▁thermodynamic	14
▁spectroscopic	14
▁Supplementary	14
▁hydrochloride	14
overrightarrow	14
▁trigonometric	14
▁algebraically	14
▁parallelogram	14
▁heuristically	14
▁quadrilateral	14
▁infinitesimal	14
▁discontinuous	14
▁Trigonometric	14
▁propositional	14
▁Gravitational	14
▁CommentAuthor	14
▁Corresponding	14
differentiable	14
characteristic	14
multiplicative	14
interpretation	14
Communications	14
regularization	14
▁Informationen	14
▁verschiedenen	14
▁Unterstützung	14
▁Möglichkeiten	14
Veröffentlicht	14
▁Veranstaltung	14
▁fotocommunity	14
▁Bürgermeister	14
▁Kommunikation	14
▁Anforderungen	14
▁entsprechende	14
▁Eigenschaften	14
▁Verantwortung	14
▁individuellen	14
▁Veröffentlich	14
▁grundsätzlich	14
▁Versandkosten	14
▁erfolgreichen	14
▁veröffentlich	14
▁wunderschönen	14
▁französischen	14
▁verschiedener	14
▁Versicherungs	14
▁einzigartigen	14
▁hervorragende	14
▁italienischen	14
▁traditionelle	14
▁professionell	14
▁interessanten	14
▁Gemeinschafts	14
▁amerikanische	14
▁medizinischen	14
▁weiterentwick	14
wahrscheinlich	14
▁elektronische	14
▁entscheidende	14
▁Entscheidungs	14
▁Untersuchungs	14
▁Finanzierungs	14
▁Artikelnummer	14
▁Verteidigungs	14
▁Innenminister	14
▁Mitarbeiterin	14
▁Gesellschafts	14
▁Wissenschafts	14
▁erforderliche	14
Preisvergleich	14
▁Durchschnitts	14
Wahrscheinlich	14
▁příslušenství	14
▁profesionální	14
▁následujících	14
▁internetových	14
▁pravděpodobně	14
▁elektronickou	14
▁identifikační	14
▁insolvenčního	14
▁předpokládané	14
▁természetesen	14
▁rendelkezésre	14
▁magyarországi	14
▁együttműködés	14
Patyolattiszta	14
▁információkat	14
▁legnépszerűbb	14
▁szálláshelyek	14
▁önkormányzati	14
▁meghatározott	14
▁következtében	14
▁szempontjából	14
▁Természetesen	14
▁automatikusan	14
▁gyakorlatilag	14
▁kommunikációs	14
▁szolgáltatást	14
▁mezőgazdasági	14
▁vállalkozások	14
▁tájékoztatást	14
▁szálláshelyen	14
▁Franciaország	14
▁álláshirdetés	14
▁megjelenítése	14
▁országgyűlési	14
▁Önkormányzata	14
▁cukorbetegség	14
▁kötelezettség	14
▁tevékenységek	14
▁Hozzászólások	14
▁költségvetési	14
▁közigazgatási	14
Székesfehérvár	14
Magyarországon	14
▁regisztrációs	14
▁elhelyezkedés	14
▁Polgármesteri	14
▁módosításáról	14
▁frakcióvezető	14
▁Bejelentkezés	14
▁szálláshelyet	14
▁hasnyálmirigy	14
▁szolgáltatása	14
▁Elhelyezkedés	14
▁chromatograph	14
▁standardizing	14
▁triethylamine	14
methylsulfonyl	14
butoxycarbonyl	14
methylsulfanyl	14
dichlorophenyl	14
dimethylphenyl	14
trimethylsilyl	14
difluorophenyl	14
rystallization	14
▁chloroformate	14
▁deprotonation	14
chromatography	14
▁registrirajte	14
▁registriranim	14
▁gradonačelnik	14
▁Radiosarajevo	14
<|action_end|>	14
Configuration	13
▁dependencies	13
▁Initializing	13
stackoverflow	13
▁distribution	13
stackexchange	13
▁representing	13
▁HttpResponse	13
▁relationship	13
▁successfully	13
Serialization	13
configuration	13
▁applications	13
DateTimeField	13
▁dictionaries	13
NullException	13
▁instructions	13
Authorization	13
▁respectively	13
▁requirements	13
▁notification	13
▁assertEquals	13
▁registration	13
IsNullOrEmpty	13
▁intersection	13
preprocessing	13
▁specifically	13
▁manipulation	13
documentclass	13
▁coefficients	13
▁permutations	13
▁mathematical	13
documentation	13
▁authenticate	13
▁optimization	13
▁organization	13
▁architecture	13
▁calculations	13
▁continuously	13
▁asynchronous	13
▁construction	13
▁RandomForest	13
▁acceleration	13
▁particularly	13
▁observations	13
▁conversation	13
▁findViewById	13
▁intermediate	13
▁redistribute	13
Unfortunately	13
▁DecisionTree	13
▁measurements	13
▁Registration	13
ValueHandling	13
StringBuilder	13
▁temperatures	13
▁differential	13
▁BindingFlags	13
▁substitution	13
▁interactions	13
▁professional	13
setObjectName	13
▁introduction	13
▁computations	13
▁transmission	13
▁neighborhood	13
▁Distribution	13
Communication	13
▁participants	13
▁contribution	13
▁experimental	13
decomposition	13
SelectedIndex	13
▁constructing	13
▁proportional	13
▁Applications	13
▁eigenvectors	13
▁significance	13
▁displacement	13
▁Introduction	13
▁discriminant	13
▁cancellation	13
▁sufficiently	13
▁manipulating	13
UnmanagedType	13
BeautifulSoup	13
distributions	13
communication	13
▁hierarchical	13
▁completeness	13
probabilities	13
specification	13
▁sequentially	13
▁conventional	13
▁Optimization	13
normalization	13
▁multivariate	13
▁publications	13
▁Transactions	13
GeneratedCode	13
international	13
▁interference	13
▁subsequently	13
International	13
▁correlations	13
▁simultaneous	13
▁demonstrated	13
understanding	13
▁conservation	13
▁homomorphism	13
▁Mathematical	13
▁dataGridView	13
automatically	13
▁considerable	13
▁perturbation	13
▁approximated	13
▁Differential	13
▁introductory	13
▁intellectual	13
▁quantitative	13
▁automorphism	13
▁Intermediate	13
▁increasingly	13
▁investigated	13
▁incorporated	13
▁longitudinal	13
▁concentrated	13
▁purification	13
▁enthusiastic	13
▁Publications	13
▁evolutionary	13
▁incorporates	13
▁conductivity	13
▁characterize	13
▁polarization	13
▁Experimental	13
▁Encyclopedia	13
▁Kindergarten	13
▁inequalities	13
approximately	13
▁distillation	13
▁successively	13
▁precipitated	13
▁hydrochloric	13
environmental	13
▁entanglement	13
projecteuclid	13
▁relativistic	13
▁distributive	13
▁cosmological	13
▁Grothendieck	13
▁displaystyle	13
corresponding	13
approximation	13
▁Substituting	13
▁compressible	13
▁Zentralblatt	13
Computational	13
perpendicular	13
Trigonometric	13
concentration	13
factorization	13
gravitational	13
Supplementary	13
CitationClass	13
combinatorial	13
computational	13
circumference	13
trigonometric	13
probabilistic	13
exponentially	13
algebraically	13
independently	13
▁verschiedene	13
▁funktioniert	13
▁Gesellschaft	13
▁unterstützen	13
möglichkeiten	13
▁Entscheidung	13
▁gleichzeitig	13
▁mittlerweile	13
▁insbesondere	13
▁Unternehmens	13
▁Schlafzimmer	13
▁persönlichen	13
▁öffentlichen	13
▁Lebensmittel	13
▁Wissenschaft	13
▁entsprechend	13
▁Zusammenhang	13
▁erforderlich	13
▁Deutschlands	13
▁europäischen	13
▁durchschnitt	13
▁interessante	13
Artikelnummer	13
▁individuelle	13
▁hervorragend	13
▁kennenlernen	13
▁Durchschnitt	13
▁Verarbeitung	13
▁beliebtesten	13
▁Schülerinnen	13
▁zusätzlichen	13
▁Gemeinschaft	13
▁wissenschaft	13
▁hochwertigen	13
▁Beschreibung	13
▁historischen	13
▁Informations	13
▁Europäischen	13
▁Anschließend	13
▁erfolgreiche	13
▁einzigartige	13
▁Arbeitnehmer	13
▁gesellschaft	13
▁abwechslungs	13
▁Finanzierung	13
▁Jahrhunderts	13
▁Staatsanwalt	13
▁Gleichzeitig	13
▁Entwicklungs	13
▁Versicherung	13
▁wunderschöne	13
▁Schreibtisch	13
▁ausdrücklich	13
▁diesjährigen	13
▁Kinderzimmer	13
▁gesetzlichen	13
▁finanziellen	13
▁umfangreiche	13
▁entscheidend	13
▁französische	13
▁menschlichen	13
▁partnersuche	13
▁medizinische	13
▁chinesischen	13
▁vollständige	13
▁irgendwelche	13
▁Ausstellungs	13
▁traditionell	13
▁Erscheinungs	13
▁italienische	13
▁regelmäßigen	13
▁Kreditkarten	13
▁Arbeitslosen	13
▁wesentlichen	13
▁Einrichtungs	13
▁automatische	13
▁langfristige	13
▁Verteidigung	13
▁vorliegenden	13
Unterstützung	13
versicherungs	13
Veröffentlich	13
▁Investitions	13
Bürgermeister	13
▁elektronisch	13
▁Universitäts	13
▁Kooperations	13
Möglichkeiten	13
▁Herausforder	13
Versandkosten	13
▁amerikanisch	13
▁jednotlivých	13
▁doporučujeme	13
▁registrovaní	13
▁bezpečnostní	13
▁individuální	13
předpokládané	13
▁kompatibilní	13
▁odpovídající	13
▁elektronické	13
▁Doporučujeme	13
▁zahraničních	13
▁Jihomoravský	13
▁Bezpečnostní	13
▁Magyarország	13
▁szolgáltatás	13
▁köszönhetően	13
▁segítségével	13
▁teljesítmény	13
▁legfontosabb	13
▁kapcsolatban	13
▁folyamatosan	13
▁polgármester	13
▁egészségügyi	13
▁tájékoztatás	13
atyolattiszta	13
Hozzászólások	13
▁felhasználók	13
▁rendszeresen	13
▁regisztráció	13
▁kifejezetten	13
▁valószínűleg	13
▁kereskedelmi	13
▁önkormányzat	13
▁elektronikus	13
▁kiválasztott	13
▁mindenképpen	13
Bejelentkezés	13
▁feltüntetett	13
▁felhasználói	13
▁rozsdamentes	13
▁alkalmazható	13
▁kommunikáció	13
▁leggyakoribb	13
▁egyértelműen	13
▁Önkormányzat	13
▁Teljesítmény	13
▁tevékenysége	13
▁megállapodás	13
▁kedvezményes	13
▁pikkelysömör	13
▁berendezések	13
▁technológiai	13
▁Kereskedelmi	13
▁dohányzásról	13
▁felhasználás	13
▁intézkedések	13
▁meglehetősen	13
▁informatikai	13
▁költségvetés	13
▁rendezvények	13
▁értékesítési	13
▁megtakarítás	13
optimalizálás	13
Természetesen	13
▁továbbiakban	13
▁Szolgáltatás	13
▁mezőgazdaság	13
▁karbantartás	13
▁jogszabályok	13
▁statisztikai	13
Franciaország	13
▁hozzájárulás	13
▁prosztatitis	13
▁Regisztráció	13
Elhelyezkedés	13
▁nevezetesség	13
vállalkozások	13
▁Kedvezményes	13
▁megjelenítés	13
regisztrációs	13
▁bekezdésében	13
▁Polgármester	13
oxidanylidene	13
methoxyphenyl	13
dimethylamino	13
▁acetonitrile	13
hydroxymethyl	13
hydrochloride	13
carbonylamino	13
▁Purification	13
hydroxyphenyl	13
▁crystallized	13
methylpyridin	13
butyldimethyl	13
methylpyrazol	13
▁hydrogenated	13
dicarboxylate	13
butylammonium	13
hydroxylamine	13
ethylsulfanyl	13
ethylsulfonyl	13
ecarbonitrile	13
triethylamine	13
▁aplikacijama	13
▁Ministarstva	13
▁Instalirajte	13
Radiosarajevo	13
▁Ministarstvo	13
▁konferenciji	13
▁predsjednika	13
▁zahvaljujući	13
▁predsednikom	13
▁Vietnamobile	13
cungquanghang	13
▁application	12
▁description	12
▁information	12
▁environment	12
▁constructor	12
▁distributed	12
▁coordinates	12
▁UnityEngine	12
▁collections	12
JsonProperty	12
▁permissions	12
▁transaction	12
▁IEnumerable	12
▁destination	12
▁temperature	12
▁Application	12
▁performance	12
▁Calculating	12
▁predictions	12
▁probability	12
IntegerField	12
▁implemented	12
▁appropriate	12
▁placeholder	12
▁credentials	12
▁Description	12
▁limitations	12
▁development	12
▁directories	12
▁programming	12
▁combination	12
staticmethod	12
▁connections	12
Notification	12
▁defaultdict	12
▁IOException	12
▁initialized	12
GetComponent	12
Serializable	12
▁Constructor	12
▁expressions	12
▁translation	12
▁serializers	12
▁differences	12
▁alternative	12
▁appreciated	12
▁represented	12
▁calculation	12
▁immediately	12
▁Environment	12
▁recursively	12
▁instruction	12
▁significant	12
▁responsible	12
▁Recursively	12
▁convolution	12
▁independent	12
OutputStream	12
Registration	12
▁interesting	12
EventHandler	12
▁explanation	12
▁consecutive	12
▁Initializes	12
▁Instantiate	12
BooleanField	12
▁constraints	12
▁requirement	12
▁permutation	12
▁correlation	12
▁declaration	12
▁definitions	12
▁integration	12
▁multiplying	12
▁replacement	12
▁coefficient	12
▁corresponds	12
▁urlpatterns	12
▁frequencies	12
PropertyName	12
▁observation	12
▁interacting	12
findViewById	12
▁calculating	12
▁subtracting	12
▁computation	12
▁orientation	12
▁denominator	12
▁measurement	12
▁interaction	12
▁necessarily	12
▁categorical	12
▁interactive	12
▁transformed	12
▁propagating	12
▁complicated	12
distribution	12
registration	12
▁essentially	12
▁considering	12
▁compression	12
▁conditional	12
▁constructed	12
▁Information	12
▁possibility	12
▁effectively	12
▁Development	12
▁identifiers	12
▁restriction	12
▁exponential	12
dependencies	12
▁ingredients	12
Organization	12
intersection	12
▁potentially	12
Distribution	12
assertRaises	12
▁torchvision	12
▁Programming	12
HttpResponse	12
▁Explanation	12
▁substantial	12
▁established	12
requirements	12
▁publication	12
incrementing	12
▁interpreted	12
applications	12
▁demonstrate	12
Transactions	12
RequestParam	12
▁composition	12
DefaultValue	12
▁subtraction	12
crossentropy	12
DecimalField	12
Applications	12
▁Mathematica	12
▁traditional	12
▁participant	12
▁association	12
▁eigenvalues	12
▁statistical	12
▁recognition	12
▁experiments	12
▁distinguish	12
▁fundamental	12
▁Temperature	12
▁individuals	12
▁consumption	12
ServiceModel	12
operatorname	12
▁reconstruct	12
▁transitions	12
▁efficiently	12
▁approximate	12
▁dimensional	12
▁opportunity	12
▁experienced	12
▁convergence	12
▁Performance	12
▁consistency	12
▁mathematics	12
▁derivatives	12
▁topological	12
▁calibration	12
▁assumptions	12
▁Integration	12
experimental	12
▁determining	12
▁comfortable	12
▁maintaining	12
▁expectation	12
▁descriptive	12
▁theoretical	12
▁engineering	12
▁polynomials	12
▁identifying	12
▁surrounding	12
▁sensitivity	12
▁simulations	12
displaystyle	12
▁interrupted	12
▁Independent	12
▁transferred	12
▁determinant	12
▁propagation	12
▁rectangular	12
▁distinction	12
▁uncertainty	12
▁equivalence	12
construction	12
Cancellation	12
▁equilibrium	12
▁progression	12
▁Hamiltonian	12
Introduction	12
▁Conditional	12
▁institution	12
▁Furthermore	12
dictionaries	12
▁isomorphism	12
▁Probability	12
acceleration	12
▁logarithmic	12
▁Engineering	12
▁consequence	12
introduction	12
▁Measurement	12
▁Pythagorean	12
intermediate	12
Optimization	12
▁generalized	12
measurements	12
▁acknowledge	12
▁assertEqual	12
▁irreducible	12
▁investigate	12
▁cardinality	12
optimization	12
▁Calculation	12
▁alternating	12
▁arbitrarily	12
▁Multiplying	12
▁constrained	12
publications	12
Initializing	12
▁associative	12
▁practically	12
▁Publication	12
▁partitioned	12
▁commutative	12
▁proposition	12
▁Mathematics	12
▁Exponential	12
▁participate	12
▁standardize	12
▁homogeneous	12
▁formulation	12
▁functioning	12
▁numerically	12
mathoverflow	12
Intermediate	12
▁integrating	12
successfully	12
interactions	12
▁disappeared	12
▁substituted	12
▁eigenvector	12
▁educational	12
▁Coefficient	12
▁directional	12
transmission	12
▁approaching	12
▁manipulated	12
▁operational	12
▁methodology	12
multivariate	12
▁atmospheric	12
DataGridView	12
▁researchers	12
specifically	12
▁competitive	12
representing	12
professional	12
▁nonnegative	12
displacement	12
▁accompanied	12
▁adversarial	12
▁identically	12
▁illustrated	12
▁concentrate	12
▁equilateral	12
▁tablespoons	12
▁anticipated	12
▁Philippines	12
▁cylindrical	12
▁cholesterol	12
▁threatening	12
▁facilitated	12
▁Attribution	12
▁deformation	12
▁qualitative	12
▁desperately	12
▁unconscious	12
▁spontaneous	12
▁constitutes	12
▁realization	12
▁Proceedings	12
▁Considering	12
▁Ingredients	12
▁radioactive	12
▁Statistical	12
▁centrifugal	12
▁evaporation	12
▁microscopic	12
▁articulated	12
▁dissolution	12
▁crystalline	12
▁diffraction	12
▁oscillation	12
Publications	12
particularly	12
▁Operational	12
▁Restaurants	12
▁embodiments	12
▁compressive	12
▁Theoretical	12
▁Fundamental	12
▁bicarbonate	12
▁Proposition	12
▁Innovations	12
▁geometrical	12
▁anisotropic	12
▁Lamborghini	12
▁precipitate	12
▁vibrational	12
▁holomorphic	12
▁orthonormal	12
▁variational	12
▁Schrödinger	12
▁Convergence	12
▁Generalized	12
differential	12
▁Computation	12
▁Topological	12
relativistic	12
▁algorithmic	12
▁bifurcation	12
▁mathematica	12
▁CommentTime	12
▁macroscopic	12
respectively	12
▁Variational	12
▁gravitation	12
▁Dimensional	12
encyclopedia	12
substitution	12
▁Universität	12
completeness	12
▁Gravitation	12
homomorphism	12
conventional	12
compressible	12
polarization	12
proportional	12
▁Acknowledge	12
conservation	12
sufficiently	12
Grothendieck	12
constructing	12
eigenvectors	12
correlations	12
inequalities	12
significance	12
calculations	12
▁TripAdvisor	12
▁Deutschland	12
▁Unternehmen	12
▁verschieden	12
▁Bewertungen	12
▁entsprechen	12
▁Möglichkeit	12
▁unterschied	12
▁Mitarbeiter	12
▁vergangenen	12
▁Entwicklung	12
▁entscheiden	12
▁Nachrichten	12
▁erfolgreich	12
▁Erfahrungen	12
▁internation	12
▁unterstützt	12
▁Sicherheits	12
▁tatsächlich	12
▁geschrieben	12
▁schließlich	12
▁Hintergrund	12
verständlich	12
▁Gesundheits	12
▁wichtigsten	12
▁entschieden	12
▁informieren	12
▁zahlreichen	12
▁Datenschutz	12
▁Ausstellung	12
▁automatisch	12
gesellschaft	12
▁Wirtschafts	12
▁hochwertige	12
▁interessant	12
▁zusätzliche	12
versicherung	12
▁miteinander	12
▁individuell	12
▁Materialien	12
▁Weiterlesen	12
▁Gelegenheit	12
▁Verbraucher	12
▁vergleichen	12
▁Krankenhaus	12
▁persönliche	12
▁Geschichten	12
▁ausreichend	12
▁Bedingungen	12
▁vollständig	12
▁Jahrhundert	12
▁Arbeitgeber	12
▁Unterschied	12
▁gemeinsamen	12
▁Einrichtung	12
▁profitieren	12
▁Technologie	12
▁klassischen	12
▁Kooperation	12
▁außergewöhn	12
gemeinschaft	12
▁sogenannten	12
▁kostenlosen	12
▁technischen	12
▁weiterlesen	12
▁Bedürfnisse	12
▁politischen	12
▁auseinander	12
▁Verwaltungs	12
▁Unternehmer	12
wissenschaft	12
▁öffentliche	12
▁natürlichen	12
▁Ausbildungs	12
▁gewünschten	12
▁offiziellen	12
▁Schließlich	12
▁unglaublich	12
▁umfangreich	12
▁Investition	12
▁deutschland	12
▁Weltmeister	12
▁bestehenden	12
▁Flüchtlings	12
▁notwendigen	12
▁praktischen	12
▁langfristig	12
▁Frankfurter	12
öffentlichen	12
▁günstigsten	12
▁historische	12
▁Naturschutz	12
▁europäische	12
▁allgemeinen	12
▁finanzielle	12
▁betroffenen	12
▁vorhandenen	12
▁aufeinander	12
▁Oberflächen	12
▁nachhaltige	12
▁zuständigen	12
▁Europäische	12
▁einzigartig	12
▁Kreditkarte	12
▁verfügbaren	12
▁Mecklenburg	12
entsprechend	12
durchschnitt	12
▁Landschafts	12
▁Produktions	12
▁regelmäßige	12
▁beruflichen	12
▁Wettbewerbs	12
Beschreibung	12
▁Behandlungs	12
▁Bayerischen	12
▁Verfassungs	12
entscheidung	12
▁eigentliche	12
▁schriftlich	12
▁menschliche	12
▁elektrische	12
▁körperliche	12
▁angegebenen	12
▁Versorgungs	12
▁mittelalter	12
▁chinesische	12
▁Unterrichts	12
▁gesetzliche	12
öglichkeiten	12
▁rechtlichen	12
▁Grundstücks	12
▁staatlichen	12
▁Gestaltungs	12
▁wesentliche	12
▁Eigenschaft	12
▁Verpackungs	12
▁Verbindungs	12
▁Geburtstags	12
Gesellschaft	12
▁beliebteste	12
▁Testbericht	12
▁Mannschafts	12
▁Geschlechts	12
schaftlichen	12
▁Anforderung	12
Versicherung	12
▁unterstütze	12
Schlafzimmer	12
▁französisch	12
▁vorliegende	12
▁Landeshaupt	12
▁medizinisch	12
Anschließend	12
▁Krampfadern	12
Lebensmittel	12
Unternehmens	12
▁Arbeitslose	12
▁Erzeugnisse	12
Entscheidung	12
Gemeinschaft	12
Finanzierung	12
▁Internation	12
Deutschlands	12
insbesondere	12
▁společnosti	12
▁následující	12
▁nemovitosti	12
▁mezinárodní	12
▁technologie	12
▁potřebujete	12
▁představuje	12
▁nemovitostí	12
▁aktualizace	12
▁kontaktovat	12
▁společností	12
▁kontaktujte	12
▁zaměstnanců	12
▁automaticky	12
▁příležitost	12
▁nejlevnější	12
▁univerzální	12
▁skutečnosti	12
▁vzdálenosti	12
▁související	12
▁souvislosti	12
Marketingové	12
▁mistrovství	12
▁poskytování	12
▁sportovních	12
▁internetové	12
▁Mezinárodní	12
▁energetické	12
▁technických	12
▁automatické	12
▁Potřebujete	12
▁Středočeský	12
▁Nejlevnější	12
▁společenské	12
▁zpracováním	12
▁prodávající	12
▁internetový	12
▁Energetická	12
▁zdravotních	12
▁Kontaktujte	12
▁Mistrovství	12
▁Podrobnosti	12
▁uživatelské	12
▁Karlovarský	12
▁Související	12
▁Aktualizace	12
▁insolvenční	12
▁információk	12
▁szálláshely	12
▁rendelkezik	12
▁kapcsolatos	12
▁rendelkezés	12
▁természetes	12
▁hőmérséklet	12
▁használható	12
▁megrendelés	12
▁tartalmazza	12
▁megfelelően	12
▁lehetőséget	12
▁tájékoztató	12
▁hagyományos	12
▁hozzászólás	12
▁kiszállítás	12
▁kapcsolatot	12
▁tapasztalat	12
▁százalékkal	12
▁regisztrált	12
▁tevékenység	12
▁felhasználó	12
▁koronavírus	12
▁Paraméterek	12
Magyarország	12
▁szolgáltató	12
▁közvetlenül	12
▁biztonságos	12
▁lehetőségek	12
▁akkumulátor	12
▁információt	12
▁mindenkinek	12
megtakarítás	12
▁csütörtökön	12
▁legmagasabb	12
▁személyesen	12
▁körülmények	12
▁legfrissebb	12
▁tökéletesen	12
▁értékesítés	12
▁vállalkozás	12
▁technológia	12
▁egyedülálló	12
▁szeretettel	12
▁Németország	12
▁jelentkezés	12
szolgáltatás	12
ékesfehérvár	12
▁szakemberek	12
▁alkalmazott	12
▁munkavégzés	12
▁kapcsolatba	12
▁alkatrészek	12
▁kellemetlen	12
▁személyiség	12
▁függetlenül	12
▁úgynevezett	12
▁szempontból	12
Feliratkozom	12
▁Elérhetőség	12
▁gyógyszerek	12
Teljesítmény	12
▁meghatározó	12
▁szervezetek	12
kereskedelmi	12
▁biztosítani	12
▁alacsonyabb	12
▁helyezkedik	12
▁kapcsolatok	12
▁intézmények	12
Regisztráció	12
▁folyamatban	12
▁közlekedési	12
▁feltétlenül	12
▁kialakított	12
▁kiegyensúly	12
▁vizsgálatok	12
▁világháború	12
▁alkalmazása	12
▁fejlesztési	12
▁elhelyezked	12
▁automatikus	12
▁mesterséges	12
▁meghosszabb	12
▁munkatársat	12
▁Szolgáltató	12
▁kormányzati	12
▁Köztársaság	12
▁konferencia	12
▁befektetési	12
▁korlátozott	12
egészségügyi	12
▁információs	12
▁egészségügy	12
▁statisztika	12
▁együttműköd	12
Csatlakozott	12
teljesítmény	12
▁adatvédelmi	12
▁Megtekintve	12
▁Hozzászólás	12
▁Természetes	12
▁tartózkodás	12
Kedvezményes	12
▁koleszterin	12
▁gyógyszeres	12
▁biztosítási	12
▁Felhasználó	12
▁gyulladásos	12
▁Szeretettel	12
▁kulcsszavak	12
▁adatkezelés	12
▁Szálláshely	12
▁Információs	12
▁felvásárlás	12
▁nemdohányzó	12
▁költöztetés	12
felhasználás	12
felhasználók	12
▁Regisztrált	12
Tartózkodási	12
▁jogosultság	12
▁rendezvénye	12
▁Telefonszám	12
▁Alapterület	12
felhasználói	12
regisztráció	12
▁Megtaláltam	12
Önkormányzat	12
rendszeresen	12
▁Nowodvorski	12
▁végrehajtás	12
fluorophenyl	12
chlorophenyl	12
methylphenyl	12
phenylmethyl	12
carbonitrile	12
benzimidazol	12
▁preparative	12
▁diisopropyl	12
benzaldehyde	12
hydroxyethyl	12
methylpropyl	12
benzonitrile	12
▁articulates	12
▁neutralized	12
benzothiazol	12
ecarboxamide	12
carbaldehyde	12
isoquinoline	12
phenylphenyl	12
carbodiimide	12
▁methanesulf	12
methylpropan	12
▁borohydride	12
ecarboxylate	12
acetonitrile	12
dibenzofuran	12
ethoxyphenyl	12
▁monohydrate	12
cyclopropane	12
▁portionwise	12
dioxaborolan	12
▁orchestrate	12
naphthyridin	12
butyllithium	12
propionamide	12
▁Evaporation	12
▁reformatted	12
dicarboxylic	12
dihydrobenzo	12
fluoromethyl	12
esulfonamide	12
hydrochloric	12
trimethylsil	12
oxidanyliden	12
▁predsednika	12
▁predstavlja	12
▁preuzimanje	12
▁informacije	12
▁predsjednik	12
▁unutrašnjih	12
▁komentirati	12
▁jednostavno	12
Instalirajte	12
▁svakodnevno	12
Ministarstvo	12
▁Demokratske	12
▁Predsjednik	12
▁Vietcombank	12
supportLists	12
Vietnamobile	12
<|im_start|>	12
▁Initialize	11
▁dictionary	11
Collections	11
▁characters	11
▁connection	11
▁parameters	11
▁operations	11
▁migrations	11
▁collection	11
▁difference	11
▁expression	11
▁matplotlib	11
Application	11
assertEqual	11
description	11
▁represents	11
hentication	11
▁containing	11
▁understand	11
▁background	11
▁successful	11
Description	11
▁implements	11
▁indicating	11
▁associated	11
▁attributes	11
▁properties	11
application	11
▁definition	11
▁additional	11
▁Dictionary	11
▁validation	11
▁calculates	11
▁particular	11
▁controller	11
▁isinstance	11
▁ValueError	11
▁serializer	11
▁calculated	11
▁repository	11
autifulSoup	11
▁subprocess	11
▁activation	11
▁conditions	11
▁initialize	11
▁everything	11
▁processing	11
Transaction	11
▁components	11
▁identifier	11
▁prediction	11
▁WARRANTIES	11
Environment	11
▁permission	11
▁applicable	11
▁dimensions	11
▁experience	11
▁individual	11
▁whitespace	11
▁tensorflow	11
▁equivalent	11
▁compliance	11
▁classifier	11
Constructor	11
▁GameObject	11
Implemented	11
▁CONDITIONS	11
▁categories	11
▁considered	11
urlpatterns	11
Information	11
▁percentage	11
IOException	11
▁converting	11
▁Parameters	11
▁Connection	11
▁coordinate	11
▁conversion	11
▁Collection	11
▁sqlalchemy	11
▁iterations	11
▁completely	11
▁JavaScript	11
persistence	11
Diagnostics	11
▁simulation	11
InputStream	11
▁Foundation	11
▁references	11
▁exceptions	11
▁Validation	11
classmethod	11
▁complexity	11
▁experiment	11
▁resolution	11
serializers	11
▁SQLAlchemy	11
▁management	11
▁statistics	11
▁regression	11
▁transition	11
▁Newtonsoft	11
▁production	11
▁Controller	11
▁Properties	11
IEnumerable	11
▁serialized	11
transaction	11
▁comparison	11
▁statements	11
▁setuptools	11
▁Expression	11
▁population	11
▁horizontal	11
▁interested	11
▁mathematic	11
▁descending	11
▁comprehens	11
▁ForeignKey	11
▁polynomial	11
▁validators	11
placeholder	11
▁dependency	11
▁generating	11
fortunately	11
▁assignment	11
▁constraint	11
▁explicitly	11
▁encryption	11
Programming	11
▁configured	11
DisplayName	11
▁especially	11
▁generation	11
▁instanceof	11
▁evaluation	11
destination	11
▁algorithms	11
▁TensorFlow	11
Deserialize	11
▁assertThat	11
coordinates	11
▁respective	11
environment	11
▁increasing	11
▁directions	11
predictions	11
▁normalized	11
▁submission	11
▁Definition	11
CreateModel	11
▁transforms	11
▁similarity	11
dimensional	11
▁derivative	11
▁Permission	11
▁Observable	11
▁compatible	11
▁projection	11
▁superclass	11
▁continuous	11
▁previously	11
▁structures	11
permissions	11
▁multiplied	11
▁determines	11
▁themselves	11
▁connecting	11
▁Dependency	11
temperature	11
Explanation	11
▁underlying	11
▁definitely	11
translation	11
▁determined	11
▁distribute	11
Integration	11
▁completion	11
▁impossible	11
collections	11
▁convention	11
edException	11
▁functional	11
▁Sequential	11
Certificate	11
▁Migrations	11
▁arithmetic	11
▁confidence	11
▁performing	11
▁sufficient	11
▁MessageBox	11
▁translated	11
categorical	11
directories	11
concatenate	11
information	11
▁consistent	11
▁cumulative	11
▁checkpoint	11
▁relatively	11
initializer	11
▁calculator	11
▁compressed	11
▁complement	11
▁reasonable	11
▁eventually	11
▁Quaternion	11
▁Regression	11
basicConfig	11
constraints	11
Instruction	11
▁discussion	11
Development	11
▁correspond	11
▁subsequent	11
Declaration	11
▁recognized	11
▁clustering	11
▁unexpected	11
▁Additional	11
▁attempting	11
▁proportion	11
▁University	11
▁developing	11
▁situations	11
▁appreciate	11
▁limitation	11
▁sequential	11
▁Management	11
TryGetValue	11
▁describing	11
orientation	11
▁protection	11
sourceforge	11
▁covariance	11
▁multiplier	11
▁absolutely	11
▁activities	11
▁assumption	11
▁Concurrent	11
▁Complexity	11
tikzpicture	11
▁technology	11
▁apparently	11
▁understood	11
integration	11
▁frequently	11
▁resistance	11
▁discovered	11
development	11
▁techniques	11
▁ingredient	11
connections	11
▁originally	11
probability	11
▁hypothesis	11
▁Identifier	11
▁reflection	11
performance	11
interactive	11
▁identified	11
▁introduced	11
composition	11
▁Processing	11
▁historical	11
▁Calculator	11
▁simplified	11
▁trajectory	11
▁maintained	11
Performance	11
▁approaches	11
▁efficiency	11
▁throughout	11
▁likelihood	11
▁convenient	11
permutation	11
▁Department	11
▁KNeighbors	11
▁incomplete	11
▁personally	11
programming	11
▁scientific	11
▁vertically	11
▁commercial	11
▁observable	11
▁controlled	11
▁everywhere	11
initialized	11
▁correction	11
▁importance	11
▁appearance	11
▁decreasing	11
▁generators	11
▁substitute	11
▁restricted	11
▁extraction	11
▁credential	11
▁consisting	11
▁government	11
Measurement	11
▁Horizontal	11
▁sublicense	11
▁structured	11
correlation	11
▁Coordinate	11
Probability	11
▁Restaurant	11
▁Statistics	11
▁variations	11
▁integrated	11
▁inequality	11
▁separation	11
measurement	11
distributed	11
▁Everything	11
▁strategies	11
definitions	11
expressions	11
defaultdict	11
▁Simulation	11
▁Polynomial	11
▁wavelength	11
▁conclusion	11
▁struggling	11
▁Experiment	11
▁Transition	11
▁collisions	11
▁Categories	11
▁constantly	11
▁reasonably	11
▁investment	11
▁triangular	11
combination	11
▁supporting	11
interaction	11
▁simplicity	11
▁quantities	11
▁literature	11
▁Constraint	11
transformed	11
▁conference	11
▁procedures	11
▁estimation	11
▁electrical	11
▁Annotation	11
▁contribute	11
▁References	11
▁guidelines	11
▁classified	11
setGeometry	11
▁atmosphere	11
▁Technology	11
▁fractional	11
▁impression	11
▁continuing	11
▁orthogonal	11
▁physically	11
▁elementary	11
▁Substitute	11
▁isomorphic	11
▁directives	11
▁saturation	11
experiments	11
▁mechanical	11
frequencies	11
publication	11
▁volatility	11
▁infinitely	11
conditional	11
▁illustrate	11
▁profession	11
▁electronic	11
▁conjecture	11
Ingredients	11
alternative	11
▁comparable	11
calculation	11
independent	11
▁accurately	11
▁stochastic	11
▁surrounded	11
▁Difference	11
▁artificial	11
▁eigenvalue	11
▁underneath	11
engineering	11
Publication	11
implemented	11
▁Functional	11
▁Algorithms	11
▁satisfying	11
▁stationary	11
▁undirected	11
▁Population	11
▁derivation	11
▁structural	11
▁randomized	11
▁Arithmetic	11
convolution	11
calibration	11
▁deviations	11
▁California	11
▁projective	11
▁triggering	11
▁travelling	11
▁transistor	11
▁divergence	11
Furthermore	11
▁concerning	11
▁correlated	11
▁phenomenon	11
▁incredibly	11
appropriate	11
Coefficient	11
transitions	11
▁Especially	11
▁motivation	11
▁transitive	11
▁successive	11
▁recurrence	11
Engineering	11
▁introduces	11
▁cohomology	11
▁reciprocal	11
limitations	11
▁Scientific	11
▁Difficulty	11
Calculating	11
represented	11
▁navigating	11
▁facilitate	11
▁EntryPoint	11
exponential	11
consecutive	11
expandafter	11
▁measurable	11
▁contradict	11
▁accounting	11
significant	11
▁designated	11
Initializes	11
▁Continuous	11
▁analytical	11
▁continuity	11
▁identities	11
▁thoroughly	11
Exponential	11
▁suspicious	11
▁DevExpress	11
▁suspension	11
explanation	11
▁collective	11
▁Conference	11
▁hyperbolic	11
▁oscillator	11
regularizer	11
▁Derivative	11
differences	11
interesting	11
▁conceptual	11
▁invertible	11
▁scattering	11
▁accelerate	11
▁remembered	11
computation	11
FindElement	11
▁biological	11
▁Stochastic	11
▁relativity	11
▁generalize	11
▁attractive	11
▁attributed	11
Computation	11
▁dispersion	11
▁Washington	11
▁smartphone	11
▁dependence	11
▁parametric	11
constructed	11
sensitivity	11
▁protecting	11
▁commitment	11
▁convergent	11
▁Lagrangian	11
restriction	11
▁asymptotic	11
▁industrial	11
▁luminosity	11
▁Australian	11
▁influenced	11
▁irrational	11
▁accordance	11
necessarily	11
▁modulation	11
▁supervised	11
Restaurants	11
▁asymmetric	11
▁rotational	11
▁predictive	11
▁nontrivial	11
▁estimating	11
▁peripheral	11
▁absorption	11
▁surjective	11
▁occasional	11
▁representa	11
▁television	11
constrained	11
▁procedural	11
▁researcher	11
▁revolution	11
▁indefinite	11
directional	11
▁negatively	11
▁leadership	11
▁Manchester	11
▁protective	11
▁tablespoon	11
▁excitement	11
▁Elementary	11
▁threatened	11
▁transverse	11
▁approached	11
▁prescribed	11
▁Industrial	11
▁substances	11
▁Innovation	11
▁positively	11
▁undergoing	11
▁embodiment	11
▁relaxation	11
▁systematic	11
▁perfection	11
otechnology	11
▁Electronic	11
▁Electrical	11
▁distracted	11
▁Wellington	11
▁conduction	11
▁Philippine	11
▁Originally	11
▁Newsletter	11
▁dielectric	11
▁Lieutenant	11
▁filtration	11
▁Vietnamese	11
▁Mechanical	11
▁reproduced	11
▁phosphorus	11
established	11
▁contingent	11
▁elasticity	11
▁worksheets	11
▁Volkswagen	11
▁excitation	11
experienced	11
▁enthusiast	11
▁Bundesliga	11
▁Correspond	11
▁Supplement	11
▁initiating	11
▁refractive	11
traditional	11
▁achievable	11
▁dissolving	11
responsible	11
▁evaporated	11
▁Snapdragon	11
▁Meditation	11
▁vigorously	11
▁Confidence	11
▁stipulated	11
complicated	11
▁attainable	11
▁Mitsubishi	11
▁complicate	11
▁ionization	11
▁regularity	11
▁straighten	11
▁Metropolis	11
▁metabolite	11
educational	11
▁Université	11
▁Smartphone	11
▁QuickBooks	11
▁Assumption	11
▁differenti	11
istribution	11
▁uncertaint	11
▁integrable	11
▁Riemannian	11
▁simplicial	11
▁symplectic	11
blacksquare	11
▁Differenti	11
▁degenerate	11
xrightarrow	11
▁Asymptotic	11
▁Heisenberg	11
scriptstyle	11
Proposition	11
▁Parametric	11
▁discontinu	11
Topological	11
Dimensional	11
▁Fractional	11
▁Orthogonal	11
convergence	11
generalized	11
holomorphic	11
topological	11
isomorphism	11
Convergence	11
logarithmic	11
approximate	11
theoretical	11
Hamiltonian	11
interacting	11
Statistical	11
polynomials	11
essentially	11
algorithmic	11
multiplying	11
irreducible	11
interpreted	11
fundamental	11
▁Mathematic	11
derivatives	11
integrating	11
▁combinator	11
▁Subsection	11
statistical	11
▁Fundamenta	11
eigenvalues	11
rectangular	11
▁Forschungs	11
calculating	11
▁Technische	11
considering	11
expectation	11
potentially	11
alternating	11
ultaneously	11
subtraction	11
cylindrical	11
variational	11
▁Proceeding	11
eigenvector	11
▁Generalize	11
effectively	11
possibility	11
arbitrarily	11
▁allerdings	11
▁Geschichte	11
▁eigentlich	11
▁vielleicht	11
▁Wirtschaft	11
▁Österreich	11
▁Kommentare	11
▁Sicherheit	11
▁Donnerstag	11
▁Hersteller	11
▁entwickelt	11
▁Teilnehmer	11
▁Mannschaft	11
▁Weihnachts	11
▁Immobilien	11
▁Wochenende	11
▁Mitglieder	11
▁mindestens	11
▁Temperatur	11
schließlich	11
▁Ergebnisse	11
▁Ausbildung	11
▁Geburtstag	11
▁Produktion	11
▁Verbindung	11
▁zahlreiche	11
▁Gesundheit	11
▁zusätzlich	11
▁erhältlich	11
▁Wohnzimmer	11
▁ermöglicht	11
▁Milliarden	11
▁Allerdings	11
▁Unterkunft	11
▁Frankreich	11
▁regelmäßig	11
▁Verantwort	11
▁ausreichen	11
bewertungen	11
▁persönlich	11
▁Badezimmer	11
bedingungen	11
▁Behandlung	11
▁besonderen	11
▁entwickeln	11
▁jeweiligen	11
▁inzwischen	11
▁eingesetzt	11
▁Leistungen	11
▁Verwendung	11
▁Grundstück	11
▁Startseite	11
▁verbessern	11
▁sicherlich	11
▁vorstellen	11
geschrieben	11
▁kostenlose	11
▁Interessen	11
▁Vielleicht	11
▁bestimmten	11
▁wirtschaft	11
▁Wettbewerb	11
▁Kunststoff	11
▁Bestellung	11
▁Unterricht	11
▁ehemaligen	11
▁Kategorien	11
▁Erwachsene	11
▁wesentlich	11
▁österreich	11
▁aufmerksam	11
▁Änderungen	11
▁Landschaft	11
▁öffentlich	11
▁gemeinsame	11
▁Aufmerksam	11
▁hinzufügen	11
▁sogenannte	11
▁Verwaltung	11
▁Hauptstadt	11
▁bisherigen	11
Deutschland	11
▁Oberfläche	11
▁problemlos	11
▁Zusätzlich	11
▁Bildschirm	11
▁speziellen	11
▁Entfernung	11
▁Konkurrenz	11
▁besonderes	11
▁technische	11
▁klassische	11
▁natürliche	11
▁politische	11
▁Versorgung	11
▁schlechter	11
▁Hochschule	11
▁betrachtet	11
▁vollkommen	11
▁praktische	11
▁Regierungs	11
▁nachhaltig	11
▁diejenigen	11
▁Ressourcen	11
▁offizielle	11
deutschland	11
▁Spielothek	11
▁Reinigungs	11
▁Allgemeine	11
▁gewünschte	11
Unternehmen	11
möglichkeit	11
▁wichtigste	11
▁Erfahrungs	11
▁spannenden	11
▁Bestseller	11
▁britischen	11
▁Geschlecht	11
▁Verpackung	11
▁schlechten	11
▁besonderer	11
▁Eigentlich	11
▁bestehende	11
▁russischen	11
▁regionalen	11
Nachrichten	11
▁Kostenlose	11
▁umfassende	11
▁Alternativ	11
▁weitgehend	11
▁häufigsten	11
Weiterlesen	11
▁Ernährungs	11
▁wohnzimmer	11
▁allgemeine	11
vermittlung	11
▁notwendige	11
▁hochwertig	11
▁Anwendungs	11
Mitarbeiter	11
▁nationalen	11
▁Bewerbungs	11
▁finanziell	11
▁Testsieger	11
▁existieren	11
▁Beschwerde	11
▁Kraftstoff	11
▁zukünftige	11
▁intensiven	11
rechtlichen	11
▁Sauerstoff	11
▁vorhandene	11
▁westlichen	11
▁zuständige	11
▁Gedächtnis	11
▁Vertrauens	11
▁vergangene	11
▁weiblichen	11
Bewertungen	11
▁Betreuungs	11
▁berufliche	11
▁gesetzlich	11
▁Verhaltens	11
▁staatliche	11
▁Krankheits	11
▁erhebliche	11
▁Verfassung	11
▁Vergleichs	11
▁rechtliche	11
▁Verfahrens	11
Sicherheits	11
▁verfügbare	11
▁Erziehungs	11
▁badezimmer	11
▁günstigste	11
▁alternativ	11
▁körperlich	11
weiterlesen	11
▁Schönheits	11
▁Geschmacks	11
Entwicklung	11
▁Frühstücks	11
▁betroffene	11
▁elektrisch	11
▁zusammenge	11
Ausstellung	11
▁Klassische	11
schaftliche	11
unterschied	11
▁Flüchtling	11
▁ultimative	11
▁Geschichts	11
▁Bayerische	11
Datenschutz	11
politischen	11
▁historisch	11
▁Sicherungs	11
▁angegebene	11
▁Beziehungs	11
▁Einkommens	11
▁Unterhalts	11
▁Bewertungs	11
Hintergrund	11
TripAdvisor	11
Gesundheits	11
▁zusammenzu	11
Erfahrungen	11
Geschichten	11
▁menschlich	11
Wirtschafts	11
▁wahrschein	11
Unterschied	11
Frankfurter	11
▁kennenlern	11
interessant	11
▁intellektu	11
Verbraucher	11
sverhältnis	11
Schließlich	11
▁couchtisch	11
Unternehmer	11
▁Koalitions	11
Materialien	11
Verwaltungs	11
▁europäisch	11
▁entscheide	11
öffentliche	11
▁společnost	11
▁originální	11
▁technologi	11
▁objednávky	11
▁fotografie	11
Související	11
▁zpracování	11
▁samozřejmě	11
▁zkušenosti	11
▁pracovních	11
▁posledních	11
▁vlastnosti	11
▁připraveno	11
▁spolupráci	11
▁organizace	11
▁konstrukce	11
▁restaurace	11
▁bezpečnost	11
▁vynikající	11
▁vyzvednutí	11
▁rozhodnutí	11
▁dodavatele	11
▁dostupnost	11
▁objednávce	11
▁jednoduché	11
▁Dostupnost	11
▁objednávku	11
▁informační	11
▁Budějovice	11
▁vzdělávání	11
▁pravidelně	11
▁pneumatiky	11
▁oblíbených	11
▁sociálních	11
▁Společnost	11
▁přihlášení	11
Registrován	11
Potřebujete	11
▁jednotlivé	11
▁kvalitního	11
▁onemocnění	11
▁nejlepších	11
▁základních	11
▁kvalitních	11
▁každodenní	11
▁nemovitost	11
▁dlouhodobě	11
▁standardní	11
▁přírodních	11
▁doporučuje	11
▁nejčastěji	11
▁závislosti	11
▁zastupitel	11
▁prezidenta	11
▁elektrické	11
▁pracovního	11
▁intenzivní	11
Podrobnosti	11
▁nejpozději	11
▁vzdálenost	11
Publikování	11
▁zahraniční	11
▁dostatečně	11
▁největších	11
▁evropských	11
▁odstranění	11
▁obchodních	11
▁Zásilkovna	11
▁historické	11
▁vzdělávací	11
▁obchodního	11
▁zajímavých	11
▁samostatné	11
▁průmyslové	11
▁finančních	11
▁neobsahuje	11
▁zemědělské	11
▁stavebních	11
▁požadované	11
▁rezervovat	11
▁prodlužuje	11
▁jedinečnou	11
▁Nejnovější	11
▁skutečnost	11
▁Originální	11
▁investiční	11
▁Evropského	11
▁ekonomické	11
▁stavebního	11
▁odpovídají	11
▁povinnosti	11
▁komerčních	11
Nejlevnější	11
▁nebankovní	11
▁poskytnutí	11
▁ustanovení	11
▁Vlastnosti	11
▁pozdějších	11
Mezinárodní	11
▁Pardubický	11
▁Požadujeme	11
▁pozorování	11
Středočeský	11
▁Katalogové	11
▁kupujícímu	11
▁Vzdálenost	11
▁Regionální	11
▁Doporučená	11
▁Standardní	11
▁Doporučené	11
▁Statutární	11
▁odstoupení	11
▁Electrolux	11
▁Orientační	11
Prodávající	11
▁Nebankovní	11
▁pohledávky	11
▁souvislost	11
automatické	11
▁kupujícího	11
následující	11
▁Doporučuje	11
kontaktujte	11
internetové	11
▁felhasznál	11
▁információ	11
▁szeptember	11
▁legnagyobb	11
▁nemzetközi	11
▁fizethetsz	11
▁rendezvény	11
▁különleges	11
▁szállítási	11
▁alkalommal	11
▁kedvezmény	11
Elérhetőség	11
▁egyszerűen	11
▁lehetséges	11
▁rendelkező	11
▁egészséges	11
▁elektromos	11
▁elsősorban	11
▁számítógép	11
▁Budapesten	11
▁dokumentum	11
▁biztonsági	11
▁kiegészítő	11
▁klasszikus	11
▁válogatott	11
▁megbízható	11
▁használata	11
▁társkereső	11
▁kapcsolódó	11
▁jelentette	11
▁termékeket	11
▁ugyanakkor	11
▁élelmiszer	11
▁folyamatos	11
▁feltételek	11
▁karbantart	11
▁segítséget	11
▁állapotban	11
▁figyelembe	11
▁helyszínen	11
▁százalékos	11
▁hozzájárul	11
▁felszerelt	11
▁érdeklődés	11
▁eredmények	11
▁biztosítja	11
▁szeretnénk	11
▁Amennyiben	11
Alapterület	11
▁kulturális	11
▁ingyenesen	11
▁egyáltalán	11
▁jogszabály	11
▁egyértelmű	11
▁Facebookon	11
▁kattintson	11
▁megjegyzés	11
▁végzettség	11
▁Nemzetközi	11
▁Alapítvány	11
▁távolságra	11
▁megjelenés	11
▁választott	11
▁munkanapon	11
▁költségvet	11
▁tudományos	11
▁ellenőrzés	11
▁készítmény	11
▁valamilyen	11
▁feszültség	11
▁alkalmazás	11
▁internetes	11
▁társadalmi	11
▁karácsonyi	11
▁tartalmazó	11
▁csatlakozó	11
▁fürdőszoba	11
▁rendszeres	11
▁vélemények	11
▁történelmi	11
▁jelentősen	11
▁interneten	11
▁amennyiben	11
▁fejlesztés	11
▁lehetősége	11
▁betegségek	11
▁csodálatos	11
▁mindennapi	11
▁körülbelül	11
▁weboldalon	11
▁rendszerek	11
▁kezelésére	11
▁ismeretlen	11
▁megszokott	11
▁támogatást	11
▁kiemelkedő	11
▁mennyiségű	11
hőmérséklet	11
▁kötelezett	11
Regisztrált	11
Hozzászólás	11
▁valamennyi	11
▁társadalom	11
▁foglalkozó	11
▁Szállítási	11
▁változatos	11
fejlesztési	11
▁valamelyik	11
▁alternatív	11
▁gyakorlati	11
▁felelősség	11
▁parlamenti	11
▁rendkívüli	11
▁keresztény	11
▁legfeljebb	11
▁szervezett	11
▁paradicsom	11
▁megoldások	11
▁történelem	11
▁fogyasztás	11
▁hatékonyan	11
▁könnyebben	11
információk	11
▁megrendelt	11
▁folyamatok	11
▁közlekedés	11
▁technológi	11
▁használati	11
▁Kulturális	11
▁viszonylag	11
▁változások	11
▁Ugyanakkor	11
▁támogatott	11
▁intézkedés	11
▁felesleges	11
▁természeti	11
▁mindenféle	11
▁jelentkező	11
▁választási	11
▁szénhidrát	11
▁ajánlatunk	11
szentmiklós	11
▁környezeti	11
▁elsődleges	11
eljesítmény	11
▁ügyintézés	11
Szálláshely	11
▁befektetés	11
▁Kedvezmény	11
▁mindenképp	11
▁pályázatot	11
▁Tudományos	11
▁tapasztalt	11
▁köszönhető	11
▁stratégiai	11
▁személyzet	11
▁határozott	11
Telefonszám	11
▁fogyasztói	11
▁Református	11
▁biztosítás	11
▁vendéglátó	11
▁regisztrál	11
Szeretettel	11
▁jogviszony	11
▁támogatási	11
▁eredményes	11
Németország	11
▁kalkulátor	11
▁mennyezeti	11
▁beépíthető	11
▁színvonalú	11
▁Kiszerelés	11
▁Elektromos	11
▁összefüggő	11
▁közterület	11
▁Fürdőszoba	11
▁szabadidős	11
▁Különleges	11
▁látnivalók	11
▁cukorbeteg	11
biztosítási	11
▁merevedési	11
szeretettel	11
alacsonyabb	11
▁Megjegyzés	11
▁megállapod	11
▁szolgáltat	11
▁Vélemények	11
Természetes	11
▁programját	11
▁szervezete	11
▁anyagcsere	11
▁tájékoztat	11
▁weboldalak	11
lehetőségek	11
▁látogatása	11
▁Információ	11
▁Megjelenés	11
▁bizottsági	11
▁Hozzávalók	11
korlátozott	11
▁Kapcsolódó	11
▁vízmelegít	11
jelentkezés	11
▁teljesítés	11
▁települési	11
▁Franciaágy	11
lehetőséget	11
▁minisztere	11
alkatrészek	11
szervezetek	11
hozzászólás	11
▁autóbérlés	11
folyamatban	11
▁használhat	11
▁kifejezett	11
vállalkozás	11
▁adatkezelő	11
természetes	11
információs	11
kapcsolatos	11
intézmények	11
hagyományos	11
▁VOLKSWAGEN	11
▁megjelenít	11
személyesen	11
vizsgálatok	11
▁intézménye	11
▁előfizetői	11
felhasználó	11
egészségügy	11
automatikus	11
▁természete	11
▁standardiz	11
carboxamide	11
carboxylate	11
▁tetrahydro	11
cyclopropyl	11
oxycarbonyl	11
▁chloroform	11
▁recrystall	11
pyrrolidine	11
methylidene	11
methylamino	11
benzenesulf	11
▁methodolog	11
propanamide	11
▁delineates	11
nitrophenyl	11
tetramethyl	11
cyclopentyl	11
methanesulf	11
▁triturated	11
bromophenyl	11
isoquinolin	11
aminomethyl	11
ecarboxylic	11
▁delineated	11
▁prescribes	11
azatricyclo	11
ntermediate	11
phenanthren	11
cyclohexane	11
diisopropyl	11
sulfonamide	11
methanamine	11
thiazolidin	11
cyclopropan	11
▁apotheosis	11
▁colourless	11
naphthalene	11
▁flawlessly	11
benzodioxol	11
borohydride	11
benzenecarb	11
benzoxazine	11
▁elucidated	11
▁elucidates	11
▁stipulates	11
▁triacetoxy	11
ethylphenyl	11
ylcarbamate	11
▁hexafluoro	11
▁separatory	11
ylpiperidin	11
ylpiperazin	11
▁obavestite	11
▁predsednik	11
▁automatski	11
▁računajući	11
▁uredništva	11
▁Aleksandar	11
▁predsjedni	11
▁aplikaciju	11
▁pogledajte	11
▁korišćenja	11
▁saopštenju	11
▁aplikacije	11
▁društvenih	11
▁Aleksandra	11
▁poslednjih	11
▁Predsednik	11
▁korisnički	11
▁kilometara	11
▁rezultatom	11
▁potpunosti	11
▁teritoriji	11
▁različitih	11
▁Pogledajte	11
▁različitim	11
▁aplikacija	11
predsjednik	11
▁prdelivery	11
▁Batdongsan	11
▁Vietnamgsm	11
Vietcombank	11
▁parameter	10
Collection	10
▁Importing	10
▁directory	10
▁necessary	10
▁following	10
▁character	10
▁namespace	10
▁different	10
▁Calculate	10
▁arguments	10
▁specified	10
▁interface	10
▁represent	10
▁variables	10
▁something	10
▁migration	10
Controller	10
▁functions	10
Repository	10
▁Microsoft	10
▁implement	10
▁attribute	10
▁libraries	10
▁exception	10
▁protected	10
▁reference	10
▁condition	10
▁calculate	10
▁Exception	10
▁available	10
▁operation	10
▁correspon	10
▁className	10
Connection	10
Serializer	10
▁DataFrame	10
▁Copyright	10
▁transform	10
▁statement	10
▁generated	10
▁algorithm	10
annotation	10
▁component	10
Enumerable	10
Extensions	10
▁Increment	10
▁increment	10
▁structure	10
▁direction	10
▁extension	10
▁enumerate	10
▁container	10
▁specifies	10
connection	10
▁otherwise	10
Properties	10
▁frequency	10
▁questions	10
▁currently	10
▁correctly	10
▁remaining	10
▁dataframe	10
▁installed	10
ForeignKey	10
components	10
Expression	10
▁ArrayList	10
▁timestamp	10
▁iteration	10
▁connected	10
▁execution	10
collection	10
Parameters	10
controller	10
▁instances	10
▁Construct	10
Definition	10
ationToken	10
▁framework	10
▁displayed	10
▁determine	10
▁CharField	10
▁Migration	10
Validation	10
▁converted	10
▁generator	10
▁positions	10
▁Otherwise	10
processing	10
▁important	10
▁partition	10
▁threshold	10
▁commented	10
Dictionary	10
▁including	10
AspNetCore	10
▁dimension	10
▁temporary	10
▁construct	10
▁resources	10
▁divisible	10
▁processed	10
parameters	10
validation	10
▁according	10
▁PropTypes	10
Classifier	10
▁operating	10
migrations	10
▁rectangle	10
▁beginning	10
Attributes	10
repository	10
▁Component	10
▁constants	10
▁recommend	10
▁lowercase	10
▁selection	10
▁supported	10
▁decorator	10
usepackage	10
▁performed	10
Identifier	10
background	10
▁governing	10
▁formatted	10
▁duplicate	10
▁processes	10
▁factorial	10
▁serialize	10
▁documents	10
▁indicates	10
properties	10
▁threading	10
▁predicted	10
▁configure	10
▁numerical	10
▁Uncomment	10
▁delimiter	10
▁webdriver	10
▁potential	10
▁generates	10
▁mentioned	10
▁resulting	10
▁itertools	10
▁difficult	10
▁Attribute	10
Background	10
dictionary	10
▁Fibonacci	10
▁solutions	10
▁separated	10
Descriptor	10
▁incorrect	10
▁Transform	10
javascript	10
▁optimizer	10
▁Configure	10
▁remainder	10
AlterField	10
▁recursive	10
▁undefined	10
▁efficient	10
▁situation	10
Management	10
▁EventArgs	10
Components	10
startswith	10
▁signature	10
▁animation	10
Dependency	10
assertTrue	10
ategorical	10
▁returning	10
Permission	10
exceptions	10
▁depending	10
▁sequences	10
▁completed	10
▁candidate	10
▁sentences	10
StatusCode	10
▁wondering	10
categories	10
▁sometimes	10
▁uppercase	10
▁embedding	10
▁published	10
▁histogram	10
▁precision	10
gameObject	10
▁languages	10
Regression	10
▁generally	10
▁ascending	10
Reflection	10
▁intervals	10
▁translate	10
▁grayscale	10
▁Directory	10
▁basically	10
▁deviation	10
TestMethod	10
▁extracted	10
▁searching	10
attributes	10
▁TypeError	10
▁therefore	10
▁distances	10
coordinate	10
▁requested	10
▁copyright	10
Initialize	10
▁normalize	10
▁described	10
▁confusion	10
expression	10
▁neighbors	10
prediction	10
▁technique	10
GameObject	10
▁typically	10
Navigation	10
serializer	10
▁Framework	10
▁paragraph	10
▁somewhere	10
▁detection	10
classifier	10
Constraint	10
▁Character	10
▁Container	10
▁validator	10
▁Parameter	10
▁knowledge	10
▁functools	10
▁procedure	10
inheritdoc	10
▁timedelta	10
▁operators	10
▁Constants	10
▁formatter	10
▁Decorator	10
▁Reference	10
▁Determine	10
Processing	10
▁importing	10
definition	10
▁processor	10
▁suggested	10
▁Rectangle	10
matplotlib	10
▁Therefore	10
▁regarding	10
permission	10
InlineData	10
▁executing	10
▁arbitrary	10
▁behaviour	10
▁transport	10
subprocess	10
▁Blueprint	10
▁community	10
▁happening	10
▁perfectly	10
statistics	10
▁automatic	10
▁splitting	10
initialize	10
▁principal	10
▁equations	10
rightarrow	10
Categories	10
identifier	10
▁certainly	10
▁contained	10
functional	10
▁obviously	10
▁advantage	10
▁replacing	10
conditions	10
Observable	10
▁Operation	10
Annotation	10
Horizontal	10
▁dependent	10
▁continues	10
▁introduce	10
DataMember	10
▁attention	10
▁interpret	10
▁collision	10
difference	10
▁comparing	10
▁traceback	10
Calculator	10
▁identical	10
Visibility	10
Comparison	10
experiment	10
▁magnitude	10
MainWindow	10
▁describes	10
▁interrupt	10
▁Condition	10
▁blueprint	10
validators	10
▁secondary	10
▁linewidth	10
▁useEffect	10
JavaScript	10
▁mechanism	10
decorators	10
▁particles	10
▁Wikipedia	10
▁Arguments	10
▁challenge	10
newcommand	10
▁tokenizer	10
Statistics	10
▁receiving	10
Sequential	10
▁objective	10
▁listening	10
▁effective	10
▁initially	10
ImageField	10
▁anonymous	10
▁expensive	10
transition	10
▁providing	10
▁evaluated	10
▁unordered	10
XmlElement	10
population	10
dependency	10
resolution	10
▁materials	10
MethodImpl	10
activation	10
▁explained	10
horizontal	10
▁preferred	10
▁companies	10
characters	10
▁publisher	10
▁recording	10
▁Functions	10
▁establish	10
▁numerator	10
▁computing	10
▁adjacency	10
checkpoint	10
▁bootstrap	10
stylesheet	10
▁constexpr	10
percentage	10
▁extremely	10
▁aggregate	10
▁increases	10
PrimaryKey	10
▁QtWidgets	10
▁intensity	10
▁symmetric	10
▁Algorithm	10
▁tradition	10
▁technical	10
ValueError	10
▁intersect	10
▁perimeter	10
distribute	10
normalized	10
▁reduction	10
▁referring	10
▁expansion	10
▁Recursive	10
▁developed	10
iterations	10
Foundation	10
▁repeating	10
▁recognize	10
▁Something	10
▁sensitive	10
transforms	10
AppendLine	10
▁Euclidean	10
operations	10
▁equipment	10
▁thickness	10
production	10
estimators	10
Convention	10
▁primitive	10
▁worksheet	10
▁quadratic	10
▁collected	10
▁expecting	10
Department	10
regression	10
assertThat	10
▁inference	10
▁principle	10
▁increased	10
submission	10
▁concerned	10
similarity	10
sqlalchemy	10
constraint	10
▁discrimin	10
References	10
▁practical	10
▁existence	10
▁portfolio	10
▁obtaining	10
ColumnName	10
▁ReSharper	10
▁switching	10
assignment	10
▁criterion	10
▁estimated	10
▁injection	10
MessageBox	10
dimensions	10
▁destroyed	10
▁triangles	10
▁interview	10
▁variation	10
▁bandwidth	10
▁integrate	10
▁composite	10
▁scenarios	10
ObjectName	10
▁alternate	10
descriptor	10
▁influence	10
▁Statement	10
▁confirmed	10
▁Translate	10
▁guarantee	10
preprocess	10
projection	10
▁intention	10
▁WordPress	10
▁Structure	10
▁estimator	10
▁combining	10
▁linestyle	10
▁amplitude	10
▁presented	10
▁permanent	10
▁relations	10
calculator	10
▁canonical	10
▁fractions	10
simulation	10
▁Dimension	10
additional	10
▁PartialEq	10
▁expressed	10
▁dedicated	10
▁satisfies	10
conversion	10
serialized	10
▁classical	10
▁excellent	10
▁iterative	10
▁Sometimes	10
▁multiplic	10
generation	10
▁thousands	10
▁universal	10
tensorflow	10
▁financial	10
evaluation	10
algorithms	10
▁immediate	10
▁satisfied	10
successful	10
▁According	10
structures	10
whitespace	10
consistent	10
Restaurant	10
▁Bluetooth	10
▁precisely	10
Diagnostic	10
▁associate	10
▁yesterday	10
▁indicated	10
▁inclusive	10
▁imaginary	10
isinstance	10
▁Available	10
▁reproduce	10
▁dangerous	10
experience	10
▁Frequency	10
▁practices	10
▁Community	10
▁Transport	10
▁AutoField	10
confidence	10
▁discussed	10
artifactId	10
▁agreement	10
▁partially	10
▁furnished	10
efficients	10
▁beautiful	10
individual	10
▁electrons	10
▁attempted	10
▁statistic	10
references	10
▁algebraic	10
▁Different	10
▁truncated	10
▁treatment	10
▁Challenge	10
▁Questions	10
▁predictor	10
▁graphical	10
▁geometric	10
▁carefully	10
▁essential	10
▁logarithm	10
▁measuring	10
continuous	10
▁passenger	10
▁similarly	10
sufficient	10
comparison	10
▁surprised	10
▁estimates	10
▁protocols	10
▁committed	10
▁evolution	10
▁primarily	10
▁education	10
amiltonian	10
▁insurance	10
▁molecules	10
Algorithms	10
▁preceding	10
EnumMember	10
▁producing	10
▁auxiliary	10
▁naturally	10
▁involving	10
▁scripting	10
▁Processor	10
Everything	10
likelihood	10
▁simulated	10
▁radiation	10
▁answering	10
▁Publisher	10
▁mechanics	10
▁reasoning	10
▁invariant	10
▁smoothing	10
▁reflected	10
▁Instagram	10
▁disappear	10
▁Similarly	10
▁telephone	10
▁capacitor	10
encryption	10
varepsilon	10
▁satellite	10
▁posterior	10
▁summation	10
▁localized	10
▁stability	10
▁inclusion	10
▁authentic	10
▁reactions	10
PowerShell	10
▁unchecked	10
especially	10
Quaternion	10
▁intuitive	10
▁decreases	10
recognized	10
statements	10
▁uniformly	10
▁bluetooth	10
▁Automatic	10
▁Principal	10
clustering	10
pushButton	10
▁apartment	10
▁Computing	10
▁spherical	10
polynomial	10
▁September	10
▁Christian	10
▁chocolate	10
Rightarrow	10
MaxPooling	10
▁projected	10
▁Traceback	10
▁curvature	10
derivative	10
▁countable	10
▁induction	10
▁organized	10
▁encourage	10
▁cartesian	10
▁inversion	10
▁formation	10
▁intuition	10
▁continued	10
reflection	10
everything	10
▁instantly	10
complement	10
▁Following	10
▁Universal	10
generators	10
▁lightning	10
▁Australia	10
▁Cartesian	10
importance	10
▁seriously	10
▁belonging	10
▁synthetic	10
▁converges	10
University	10
▁transient	10
protection	10
TagHelpers	10
▁traveling	10
supervised	10
▁Solutions	10
▁impedance	10
imensional	10
historical	10
Appearance	10
▁political	10
▁heartbeat	10
Polynomial	10
Newtonsoft	10
restricted	10
Continuous	10
dependence	10
▁molecular	10
▁Operators	10
▁compounds	10
▁nonlinear	10
equivalent	10
▁emergency	10
▁conjugate	10
▁seemingly	10
increasing	10
▁marketing	10
decreasing	10
▁resultant	10
▁finishing	10
▁extensive	10
▁Discovery	10
▁Institute	10
▁schematic	10
▁household	10
calculated	10
correction	10
▁Professor	10
covariance	10
▁substance	10
playground	10
▁diffusion	10
▁Christmas	10
▁elaborate	10
classified	10
sequential	10
▁intrinsic	10
containing	10
▁forgotten	10
hypothesis	10
▁subgroups	10
▁Bernoulli	10
▁corporate	10
discussion	10
▁Iteration	10
romagnetic	10
▁varieties	10
▁alongside	10
▁gradually	10
▁initiated	10
boldsymbol	10
▁ourselves	10
▁empirical	10
responding	10
▁rewritten	10
Conference	10
complexity	10
substitute	10
▁chemistry	10
▁integrals	10
▁President	10
arithmetic	10
proportion	10
▁wonderful	10
▁monitored	10
▁suspended	10
▁analogous	10
▁interfere	10
descending	10
▁achieving	10
▁Financial	10
▁conductor	10
centration	10
▁companion	10
connecting	10
▁religious	10
▁Important	10
determined	10
▁Symmetric	10
▁Dirichlet	10
SQLAlchemy	10
▁intensive	10
commercial	10
▁manifolds	10
▁Numerical	10
▁constrain	10
associated	10
▁branching	10
▁irregular	10
▁preserves	10
simplified	10
wavelength	10
▁microwave	10
▁retention	10
▁convinced	10
▁separable	10
▁Published	10
▁responded	10
▁injective	10
▁significa	10
generating	10
▁bipartite	10
▁overnight	10
▁afternoon	10
▁Wednesday	10
▁Technical	10
efficiency	10
▁announced	10
▁Quadratic	10
▁abandoned	10
estimation	10
gridLayout	10
▁spacetime	10
▁vibration	10
converting	10
▁breakfast	10
implements	10
▁Statistic	10
▁mountains	10
▁Interview	10
▁unbounded	10
▁exponents	10
▁intermedi	10
▁vegetable	10
▁Evolution	10
scientific	10
▁Geometric	10
▁utilizing	10
▁Exercises	10
▁scattered	10
integrated	10
▁resonance	10
▁bijection	10
▁stretched	10
▁Potential	10
▁Cambridge	10
identified	10
government	10
▁Efficient	10
▁correlate	10
▁Hausdorff	10
▁Effective	10
▁Marketing	10
▁breathing	10
▁Commander	10
▁uncertain	10
▁stiffness	10
▁Classical	10
reasonable	10
investment	10
triangular	10
TensorFlow	10
▁Alexander	10
▁chemicals	10
▁conducted	10
▁Materials	10
▁configura	10
understand	10
▁cognitive	10
▁conserved	10
resistance	10
respective	10
▁emotional	10
▁phenomena	10
underbrace	10
▁exchanged	10
▁comprises	10
▁invention	10
▁discloses	10
▁contribut	10
▁executive	10
▁delicious	10
▁defensive	10
▁spiritual	10
▁childhood	10
▁electrode	10
▁strategic	10
▁Elizabeth	10
▁Liverpool	10
▁Hollywood	10
▁Champions	10
▁hydraulic	10
▁Singapore	10
▁distribut	10
▁struggled	10
▁Melbourne	10
▁Charlotte	10
▁suspected	10
▁Barcelona	10
▁Halloween	10
▁motivated	10
▁dominated	10
▁Indonesia	10
▁shoulders	10
▁subjected	10
▁Argentina	10
▁abundance	10
▁desperate	10
▁favorable	10
▁Chemistry	10
▁Nutrition	10
▁revealing	10
▁fundament	10
▁Sheffield	10
▁dissolved	10
▁oxidation	10
▁teaspoons	10
▁Tottenham	10
▁energetic	10
▁discontin	10
▁potassium	10
roximately	10
▁magnesium	10
▁spectrosc	10
▁saturated	10
▁eccentric	10
▁Testament	10
▁Princeton	10
▁reinforce	10
▁petroleum	10
▁Sebastian	10
▁Riverside	10
▁Molecular	10
cyclopedia	10
▁polyester	10
Originally	10
▁Hungarian	10
▁phosphate	10
▁Detective	10
▁footsteps	10
▁Symposium	10
▁Retrieved	10
▁Chevrolet	10
▁Frankfurt	10
▁planetary	10
▁carbonate	10
▁viscosity	10
▁turbulent	10
▁Schneider	10
▁unwilling	10
performing	10
Manchester	10
▁Editorial	10
▁customary	10
▁Regarding	10
▁Submitted	10
▁amorphous	10
▁polarized	10
▁continuum	10
▁tightened	10
▁Unlimited	10
▁hydroxide	10
▁depiction	10
▁Mechanics	10
▁Friedrich	10
▁distilled	10
Electronic	10
▁Stuttgart	10
▁elucidate	10
▁swallowed	10
▁whispered	10
ccessfully	10
electronic	10
▁spatially	10
▁exclaimed	10
▁evaporate	10
▁Estimated	10
▁inductive	10
▁dynamical	10
▁Applicant	10
interested	10
supporting	10
Electrical	10
▁Christoph	10
▁Situation	10
previously	10
structural	10
▁inversely	10
formations	10
▁insoluble	10
absolutely	10
▁navigated	10
▁sarcastic	10
▁chromatic	10
▁Variation	10
▁enlighten	10
ossibility	10
mechanical	10
▁anomalous	10
plementary	10
▁Panasonic	10
▁palladium	10
Newsletter	10
▁colorless	10
▁vanishing	10
plications	10
▁Equations	10
▁Algebraic	10
▁Nonlinear	10
▁parabolic	10
▁morphisms	10
▁congruent	10
▁Lipschitz	10
▁conformal	10
▁Chebyshev	10
▁piecewise	10
▁Hermitian	10
▁isosceles	10
MathSciNet	10
▁countably	10
▁Frobenius	10
▁comprehen	10
▁Integrals	10
▁Existence	10
▁covariant	10
▁conjugacy	10
▁reflexive	10
▁Minkowski	10
▁Boltzmann	10
▁isotropic	10
▁Dynamical	10
▁theoretic	10
▁Universit	10
istinguish	10
▁perturbed	10
▁adiabatic	10
▁Newtonian	10
measurable	10
differenti	10
normalsize	10
▁radiative	10
isomorphic	10
stationary	10
▁Corollary	10
▁Moderator	10
Riemannian	10
transitive	10
integrable	10
orthogonal	10
projective	10
▁tetration	10
hyperbolic	10
elementary	10
allelogram	10
continuity	10
ionization	10
invertible	10
Elementary	10
▁transvers	10
rotational	10
stochastic	10
Stochastic	10
ignificant	10
fractional	10
particular	10
convergent	10
▁idealized	10
regularity	10
represents	10
inequality	10
Lagrangian	10
infinitely	10
▁Forschung	10
correspond	10
multiplied	10
relatively	10
scattering	10
completely	10
correlated	10
understood	10
eigenvalue	10
analytical	10
Heisenberg	10
separation	10
▁Permalink	10
ependently	10
onditional	10
excitation	10
irrational	10
relaxation	10
everywhere	10
Supplement	10
considered	10
▁associati	10
▁verfügbar	10
opological	10
introduced	10
▁anhydrous	10
electrical	10
assumption	10
transverse	10
▁Theoretic	10
undirected	10
▁projectiv	10
approaches	10
▁Aluminium	10
öffentlich	10
▁natürlich	10
▁besonders	10
▁gemeinsam	10
▁Millionen	10
▁unterstüt	10
▁kostenlos	10
▁ebenfalls	10
▁Verfügung	10
▁vergangen	10
▁Geschäfts	10
▁Restauran	10
▁Vergleich	10
▁deutschen	10
▁Unterstüt	10
▁aktuellen	10
▁innerhalb	10
▁erreichen	10
▁insgesamt	10
▁gegenüber	10
▁empfehlen	10
▁verwendet	10
▁vorhanden	10
▁Deutschen	10
▁Erfahrung	10
▁Antworten	10
▁weiterhin	10
▁verbesser	10
schließend	10
▁überhaupt	10
▁verwenden	10
▁Kommentar	10
▁unterwegs	10
▁Feuerwehr	10
▁Bewertung	10
Startseite	10
▁kommenden	10
▁zufrieden	10
▁enthalten	10
▁bestellen	10
▁richtigen	10
▁schreiben	10
▁Flughafen	10
▁Kategorie	10
▁Interesse	10
▁Regierung	10
▁folgenden	10
▁Geschmack	10
▁einzelnen	10
▁unbedingt	10
▁Frühstück	10
▁zumindest	10
▁besondere	10
▁Schweizer	10
▁Patienten	10
▁Anschluss	10
▁Industrie	10
▁Abschluss	10
▁Bedeutung	10
▁lediglich	10
▁Kilometer	10
▁versuchen	10
▁entstehen	10
▁vergessen	10
▁möglichst	10
▁verlassen	10
▁jederzeit	10
▁gestalten	10
▁Gutschein	10
▁Allgemein	10
▁verstehen	10
▁teilweise	10
▁schneller	10
▁benötigen	10
▁Zeitpunkt	10
▁verkaufen	10
▁Maßnahmen	10
▁erstellen	10
▁Natürlich	10
▁Charakter	10
▁überzeugt	10
▁Anmeldung	10
▁Leistungs	10
▁Lieblings	10
▁notwendig	10
▁Besonders	10
▁Landkreis	10
▁irgendwie	10
▁Schlüssel	10
▁passenden	10
▁inklusive	10
▁Präsident	10
▁Trainings	10
▁wichtigen	10
▁Anwendung	10
▁Überblick	10
▁Produkten	10
▁Versicher	10
▁wichtiger	10
▁Zuschauer	10
▁Redaktion	10
▁Nachricht	10
▁Ernährung	10
▁Bereichen	10
▁Edelstahl	10
▁Lieferung	10
▁anschauen	10
▁Übersicht	10
▁Abenteuer	10
▁Verhalten	10
▁bestimmte	10
▁praktisch	10
▁Verfahren	10
▁Beziehung	10
▁plötzlich	10
▁schönsten	10
▁Maschinen	10
▁Teilnahme	10
▁Insgesamt	10
▁bekannten	10
▁Kontrolle	10
▁vergleich	10
▁entfernen	10
▁glücklich	10
▁Literatur	10
▁gebraucht	10
▁Hamburger	10
▁Schwanger	10
▁wunderbar	10
▁einfachen	10
▁Studenten	10
▁schwierig	10
▁Reparatur	10
▁Austausch	10
▁Tourismus	10
▁Vertrauen	10
▁Grundlage	10
▁möglichen	10
▁komplette	10
▁Technolog	10
▁spezielle	10
▁außerhalb	10
▁günstigen	10
▁hilfreich	10
▁genannten	10
▁digitalen	10
▁Nachwuchs	10
▁Hochzeits	10
▁Gemeinsam	10
▁Betreuung	10
▁Vertreter	10
▁ehemalige	10
▁spannende	10
ologischen	10
▁verdienen	10
▁definitiv	10
▁Reinigung	10
▁perfekten	10
▁sämtliche	10
▁Krankheit	10
▁Immobilie	10
▁schnellen	10
▁offiziell	10
▁deutscher	10
▁Bewegungs	10
▁Kostenlos	10
▁Schönheit	10
▁täglichen	10
▁allgemein	10
▁Favoriten	10
▁schwarzen	10
▁Politiker	10
▁Haushalts	10
▁Nordrhein	10
▁schlechte	10
▁Rheinland	10
▁Einkommen	10
▁Touristen	10
▁Weihnacht	10
▁Koalition	10
▁Beratungs	10
▁Mietwagen	10
▁geplanten	10
▁Bewerbung	10
▁Stadtteil	10
▁Verkäufer	10
▁keinerlei	10
▁positiven	10
▁überlegen	10
▁laufenden	10
Verhältnis	10
▁beliebten	10
▁Vermieter	10
▁Kriterien	10
Hersteller	10
▁Schleswig	10
▁Automobil	10
▁Verbrauch	10
▁zuständig	10
▁Terrassen	10
▁Qualitäts	10
ministerin	10
▁Vorstands	10
▁Deutscher	10
▁Mobilfunk	10
▁erheblich	10
▁Ansonsten	10
▁Beschluss	10
▁wertvolle	10
▁Rezension	10
▁führenden	10
Kategorien	10
▁Bedienung	10
▁kleineren	10
▁reichlich	10
▁technisch	10
▁Frühlings	10
▁gewünscht	10
▁scheinbar	10
▁zentralen	10
▁Insolvenz	10
▁britische	10
Donnerstag	10
▁zukünftig	10
▁konkreten	10
▁Handlungs	10
▁entschied	10
Vielleicht	10
▁jeweilige	10
▁bestehend	10
▁niedrigen	10
Österreich	10
▁regionale	10
▁geeignete	10
▁damaligen	10
▁folgendes	10
▁ähnlichen	10
▁wichtiges	10
▁bisherige	10
▁Toiletten	10
Wirtschaft	10
Mitglieder	10
▁deutliche	10
▁Eigentums	10
▁Eisenbahn	10
▁russische	10
▁politisch	10
▁örtlichen	10
▁charakter	10
▁Hochschul	10
▁negativen	10
▁Besondere	10
▁Kartoffel	10
▁Rechnungs	10
▁Schwarzen	10
schreibung	10
▁Wachstums	10
▁Sicherung	10
▁umfassend	10
▁Rollstuhl	10
▁weibliche	10
▁nützliche	10
▁Erziehung	10
▁Ausländer	10
▁Vertriebs	10
Geschichte	10
▁sonstigen	10
▁klassisch	10
▁Übergangs	10
▁Gründungs	10
▁nationale	10
▁Wochenend	10
rechtliche	10
▁Unternehm	10
Allerdings	10
Sicherheit	10
▁beruflich	10
▁Funktions	10
▁wiederher	10
▁geltenden	10
▁Spannungs	10
Produktion	10
▁Gesprächs	10
Verbindung	10
Gesundheit	10
▁Differenz	10
▁Religions	10
▁derartige	10
▁Erholungs	10
Smartphone	10
Ausbildung	10
▁rechtlich	10
politische	10
▁Vermögens	10
▁Bedürfnis	10
▁Milliarde	10
▁Mitarbeit	10
vielleicht	10
▁grundsätz	10
▁differenz	10
▁Mitglieds	10
Teilnehmer	10
Wochenende	10
Mannschaft	10
Kostenlose	10
Ergebnisse	10
intergrund	10
Geburtstag	10
▁Schülerin	10
▁staatlich	10
▁Megapixel	10
▁zahlreich	10
▁Bedingung	10
▁Bundeslig	10
Bildschirm	10
schaftlich	10
mitteilung	10
Wohnzimmer	10
Leistungen	10
Badezimmer	10
▁Selbstver	10
Unterricht	10
▁Entscheid	10
▁parlament	10
Unterkunft	10
mindestens	10
Kunststoff	10
▁westliche	10
Behandlung	10
Allgemeine	10
▁häufigste	10
Bestseller	10
▁Geschicht	10
eigentlich	10
Landschaft	10
öglichkeit	10
Volkswagen	10
▁edelstahl	10
allerdings	10
Bestellung	10
Oberfläche	10
Erfahrungs	10
vergleiche	10
▁Durchschn	10
▁Berufungs	10
persönlich	10
Verwaltung	10
▁diejenige	10
Kraftstoff	10
▁informace	10
▁příspěvek	10
▁informací	10
▁dispozici	10
▁kategorii	10
Dostupnost	10
▁například	10
▁hodnocení	10
▁především	10
▁ubytování	10
▁prostředí	10
▁naleznete	10
▁jednotliv	10
▁materiálu	10
▁provedení	10
▁kategorie	10
▁parametry	10
▁speciální	10
▁zobrazení	10
▁velikosti	10
▁sportovní	10
▁uživatelů	10
▁fotografi	10
▁stránkách	10
▁republice	10
▁republiky	10
▁objednání	10
▁republika	10
▁maximální	10
▁zákazníků	10
▁zaměstnan	10
▁listopadu	10
▁příspěvky	10
▁internetu	10
▁uživatelé	10
▁jednoduše	10
▁odpoledne	10
▁zajišťuje	10
▁některých	10
▁poskytuje	10
▁nastavení	10
▁předchozí	10
▁uživatele	10
▁kompletní	10
▁připojení	10
▁zdravotní	10
▁kombinaci	10
▁digitální	10
▁pojištění	10
▁technické	10
▁prezident	10
▁konkrétní	10
▁vyhrazena	10
▁příspěvků	10
▁požadavky	10
▁komentářů	10
▁ostatních	10
▁používání	10
▁blízkosti	10
Katalogové	10
▁přihlaste	10
▁přibližně	10
▁poškození	10
▁minimální	10
▁podporuje	10
▁Informace	10
▁neváhejte	10
▁Zobrazení	10
▁František	10
▁oficiální	10
▁elegantní	10
▁nabídnout	10
▁pozornost	10
▁rezervace	10
▁perfektní	10
▁pozitivní	10
▁minimálně	10
▁maximálně	10
▁nejbližší	10
▁destinaci	10
▁optimální	10
▁praktické	10
▁prakticky	10
▁schopnost	10
▁vlastních	10
▁schválení	10
▁informaci	10
▁životního	10
▁zajištění	10
▁barevných	10
▁písemného	10
Nejnovější	10
▁zkušenost	10
▁porovnání	10
▁vybraných	10
▁rozlišení	10
▁případech	10
▁předpověď	10
▁potřebuje	10
▁kontaktní	10
▁Podívejte	10
▁Příspěvky	10
▁speciálně	10
▁letošního	10
▁telefonní	10
▁vytvoření	10
▁uvedených	10
▁pneumatik	10
▁jakékoliv	10
▁příspěvku	10
▁efektivní	10
▁předpoklá	10
▁zobrazeno	10
▁vlastnost	10
▁potvrzení	10
▁ostatními	10
▁oprávnění	10
▁sledování	10
▁komplexní	10
▁dosáhnout	10
▁Maximální	10
▁disponuje	10
▁centrální	10
▁přípravek	10
▁vlastního	10
▁rekreační	10
▁veřejných	10
▁posledním	10
▁rodinného	10
▁perfektně	10
▁Hodnocení	10
▁největším	10
▁televizní	10
▁Zobrazeno	10
▁obsahovat	10
▁Sportovní	10
▁policejní	10
▁obchodním	10
▁Ubytování	10
▁celkového	10
▁představy	10
▁naposledy	10
▁zabraňuje	10
▁odstranit	10
▁připraven	10
▁kvalitním	10
▁rodinných	10
▁Minimální	10
▁středních	10
▁virtuální	10
▁prohlásil	10
▁praktická	10
▁politické	10
▁povinnost	10
▁Kompletní	10
▁dodavatel	10
▁pracovním	10
▁veřejného	10
▁Speciální	10
▁Technické	10
▁Stanislav	10
▁přípravku	10
▁odborných	10
▁Provedení	10
▁generální	10
▁Komentáře	10
konstrukce	10
Požadujeme	10
▁představu	10
▁doplňkové	10
▁základním	10
▁regionech	10
▁Přepravní	10
▁Povrchová	10
▁Parametry	10
▁Digitální	10
▁Jihočeský	10
▁Olomoucký	10
▁Liberecký	10
▁Naposledy	10
▁Oficiální	10
▁Kontaktní	10
▁prodávají	10
▁Rozlišení	10
▁fyzických	10
▁Technická	10
▁Příspěvek	10
▁oddlužení	10
▁Budějovic	10
▁Předpoklá	10
dostupnost	10
▁závislost	10
▁Montovací	10
▁Otevírací	10
▁Odpovědět	10
▁povinného	10
▁Objednací	10
Regionální	10
▁právnické	10
restaurace	10
▁Používáme	10
nejpozdji	10
objednávky	10
▁přihlášce	10
▁Televizní	10
vyzvednutí	10
▁následují	10
▁čtvereční	10
▁lehetőség	10
▁megfelelő	10
▁szállítás	10
▁tartalmaz	10
▁található	10
▁természet	10
▁következő	10
▁biztonság	10
▁rendelkez	10
▁szükséges	10
▁értékelés	10
▁támogatás	10
▁tapasztal	10
▁környezet	10
▁szervezet	10
▁különböző	10
▁megtekint	10
▁foglalkoz	10
▁keresztül	10
▁érdekében	10
▁használat	10
▁augusztus	10
▁termékről	10
▁jelentkez	10
▁kártyával	10
▁mennyiség	10
▁területén	10
▁település	10
▁hozzászól	10
▁csütörtök	10
▁vállalkoz	10
Szállítási	10
▁kapcsolat	10
▁gyakorlat	10
Vélemények	10
▁képviselő	10
▁technológ	10
▁tökéletes	10
▁kiállítás	10
▁szakember	10
▁rendkívül	10
▁miniszter	10
▁kiválaszt	10
▁közvetlen	10
▁személyes	10
▁gyógyszer	10
▁digitális	10
▁önkormány	10
▁tanulmány	10
▁szerződés	10
▁készített	10
▁intézmény	10
▁általában	10
▁bármilyen	10
▁karácsony	10
▁vonatkozó	10
▁közelében	10
▁bejegyzés	10
▁vérnyomás	10
▁választás	10
▁született	10
▁alkatrész	10
▁keretében	10
▁független	10
▁közösségi	10
▁webáruház	10
▁hivatalos	10
▁általános	10
▁kizárólag	10
▁valószínű	10
▁különösen	10
▁gazdasági	10
▁leginkább	10
▁megjelent	10
▁kényelmes	10
▁budapesti	10
Kapcsolódó	10
▁visszatér	10
▁speciális	10
▁Egyesület	10
▁feladatok	10
▁egyébként	10
▁jelenlegi	10
▁figyelmet	10
▁Szállítás	10
▁részletes	10
▁területen	10
▁szeretnél	10
▁hagyomány	10
▁maximális	10
▁kezdemény	10
▁vizsgálat	10
▁kattintva	10
▁rendőrség	10
Amennyiben	10
▁politikai	10
▁telefonon	10
▁hamarosan	10
▁gyermekek	10
▁Természet	10
▁szombaton	10
népszerűbb	10
▁részletek	10
▁kategória	10
▁gyulladás	10
▁azonosító	10
▁tanfolyam	10
▁szeretnék	10
▁nyilvános	10
▁előfordul	10
▁másodperc	10
▁részvétel	10
▁használni	10
▁mindössze	10
▁amelyeket	10
▁mindennap	10
▁tervezett	10
▁Bizottság	10
▁mértékben	10
▁programok	10
▁Önkormány	10
▁egyszerre	10
▁elégedett	10
▁Általános	10
▁problémák	10
▁állítható	10
▁kilométer	10
▁esetleges	10
▁semmilyen	10
Kedvezmény	10
▁értesítés	10
▁környékén	10
▁készleten	10
▁százaléka	10
▁tartózkod	10
▁megoldást	10
▁különféle	10
▁Szövetség	10
▁időpontja	10
▁könnyedén	10
▁csillagos	10
Megjelenés	10
▁színvonal	10
▁legjobban	10
▁munkahely	10
▁Részletek	10
▁véleményt	10
▁összefügg	10
▁paraziták	10
▁Budapesti	10
▁nagyszerű	10
▁helyezett	10
▁várhatóan	10
▁következt	10
▁dohányzás	10
▁elküldjük	10
▁technikai	10
▁története	10
▁alumínium	10
▁beépített	10
▁helyettes	10
▁szociális	10
▁labdarúgó	10
▁praktikus	10
▁látogatók	10
▁bizottság	10
▁helyezked	10
▁problémát	10
▁számított	10
▁látogatás	10
▁telekocsi	10
▁események	10
▁fürdőszob	10
▁felújítás	10
▁eredménye	10
▁Fesztivál	10
▁nincsenek	10
▁városában	10
▁készítése	10
▁szexuális	10
▁megjelenő	10
▁híreinket	10
▁szabadság	10
Kiszerelés	10
▁részletei	10
▁minimális	10
▁Kategória	10
▁szerintem	10
▁üzemanyag	10
▁veszélyes	10
▁rendezett	10
▁számtalan	10
▁csökkenti	10
▁véleménye	10
▁nagyjából	10
▁pályázati	10
▁feltétlen	10
▁rendszert	10
▁különbség	10
▁szolgálat	10
▁egyensúly	10
biztosítás	10
▁szeretnéd	10
▁segítenek	10
▁költségek	10
▁megpróbál	10
▁csoportos	10
fogyasztás	10
▁személyre	10
▁rózsaszín	10
▁személyek	10
▁ajánlatok	10
▁Hozzászól	10
▁Független	10
▁szabályok	10
▁eredményt	10
▁jövedelem	10
▁katolikus	10
▁Szélesség	10
▁művészeti	10
▁körülmény	10
▁Széchenyi	10
▁katalógus	10
imalizálás	10
▁Debreceni	10
▁látványos	10
biztonsági	10
▁szeretném	10
▁sikeresen	10
▁ellenében	10
▁bármelyik	10
▁biztosító	10
▁veszteség	10
▁ellenzéki	10
▁határozat	10
▁menetrend	10
▁Gimnázium	10
▁diagnoszt	10
▁virtuális	10
▁visszavon	10
fejlesztés	10
▁bekapcsol	10
Hozzávalók	10
▁ismeretek	10
vélemények	10
▁Köszönjük	10
▁Művészeti	10
▁vállalati	10
▁Webáruház	10
▁szakértők	10
▁termékkel	10
▁megteremt	10
▁fontosabb	10
▁fejlesztő	10
információ	10
▁szabadidő	10
feszültség	10
agyulladás	10
▁alkotmány	10
▁Találatok	10
▁terhesség	10
▁tisztában	10
▁érettségi	10
▁egyenesen	10
▁tartalmak	10
▁Digitális	10
kiegészítő	10
▁szeretett	10
▁illetékes	10
▁operációs	10
▁helyszíne	10
▁optimaliz	10
▁Vendégház	10
▁jelentett	10
▁tisztítás	10
▁kényelmet	10
Elektromos	10
▁merevedés	10
▁Gyógyszer	10
▁Kapcsolat	10
▁megjelölt	10
▁szakszerű	10
▁létrejött	10
▁felvételi	10
▁szakértői	10
▁felmerülő	10
▁fájdalmas	10
▁transzfer	10
▁stratégia	10
▁fogyasztó	10
▁Környezet	10
szeptember	10
▁szerettem	10
▁évtizedek	10
▁prosztata	10
Különleges	10
▁Személyes	10
▁melléklet	10
▁tabletták	10
▁teáskanál	10
Nemzetközi	10
▁allergiás	10
▁Gazdasági	10
▁határozza	10
▁Maximális	10
▁földrajzi	10
szállítási	10
▁foglaltak	10
▁rendszere	10
▁Értékelés	10
betegségek	10
▁szennyvíz	10
▁Közösségi	10
▁Képviselő	10
▁Részletes	10
▁kapcsolód	10
▁tartalmat	10
▁feltétele	10
▁hátrányos	10
▁Szerkeszt	10
▁Speciális	10
▁rendellen	10
▁anyagcser	10
kalkulátor	10
▁egészségi	10
▁genetikai	10
▁takarítás	10
▁íróasztal	10
▁felsorolt	10
▁üzenetére	10
▁csatlakoz	10
▁weboldala	10
▁mennyezet	10
dokumentum	10
▁látnivaló	10
kedvezmény	10
▁Hálószoba	10
▁betegsége	10
rendszerek	10
▁Repülőtér	10
▁vastagbél	10
▁nemzetköz	10
ökéletesen	10
Ugyanakkor	10
▁bekezdése	10
Budapesten	10
Hozzáférés	10
▁helminták	10
▁engedélye	10
▁Budakeszi	10
használati	10
eredmények	10
▁egészsége	10
▁bérelhető	10
nyálmirigy	10
rendezvény	10
▁állapotba	10
▁nevezetes	10
paradicsom	10
alkalmazás	10
számítógép	10
történelem	10
▁társadalm	10
▁kulcsszav	10
változások	10
▁adásvétel	10
klasszikus	10
százalékos	10
▁havidíjas	10
▁Fogyasztó	10
▁társkeres	10
élelmiszer	10
mennyezeti	10
▁segítsége	10
készítmény	10
▁köszönhet	10
választási	10
ügyintézés	10
kulturális	10
nemzetközi	10
▁örökbefog	10
▁pontjában	10
határozott	10
▁szolgálta	10
megjelenés	10
▁Prosztata	10
amennyiben	10
▁felelőssé	10
▁kiegészít	10
▁elérhetik	10
jelentette	10
carboxylic	10
tetrahydro	10
pyrrolidin	10
ethylamine	10
piperidine	10
▁methylene	10
cyclohexyl	10
pyrimidine	10
icarbonate	10
ethanamide	10
benzofuran	10
piperazine	10
▁acidified	10
ethylamino	10
naphthalen	10
cyclopenta	10
▁furnishes	10
quinazolin	10
▁trifluoro	10
orohydride	10
propanoate	10
azabicyclo	10
phosphoryl	10
▁expounded	10
▁signified	10
thiadiazol	10
cyclohexan	10
▁anhydride	10
▁isopropyl	10
butanamide	10
ethanamine	10
oxadiazole	10
diazaspiro	10
ylsulfonyl	10
chloroform	10
▁affording	10
▁volatiles	10
ethylidene	10
▁flowchart	10
▁hydrazine	10
methylprop	10
ylsulfanyl	10
evaporated	10
▁triphenyl	10
enylmethyl	10
▁predsedni	10
▁Activated	10
▁proverena	10
▁savesnost	10
softverski	10
▁poslednji	10
▁nastavlja	10
▁Republike	10
▁sadržajem	10
Predsednik	10
▁saopštila	10
Objavljeno	10
▁kompanije	10
▁prethodno	10
▁proverite	10
▁komentara	10
▁situacija	10
▁poslednje	10
▁mogućnost	10
▁verovatno	10
▁dopušteno	10
▁izaberite	10
▁milijardi	10
▁prijaviti	10
▁Skupštine	10
▁premijera	10
▁direktora	10
▁Pogledano	10
▁najboljih	10
▁Komentari	10
▁poslednja	10
▁Predsedni	10
▁američkog	10
Pogledajte	10
▁političke	10
▁politički	10
▁različite	10
predsednik	10
▁Fudbaleri	10
▁Košarkaši	10
▁Poslednji	10
▁Poslednja	10
▁društveni	10
ripAdvisor	10
▁superslot	10
▁Cleansing	10
▁Campuchia	10
▁Vinaphone	10
▁photocopy	10
Vietnamgsm	10
Vietnamese	10
▁Authentic	10
▁Photocopy	10
▁Moonlight	10
smartphone	10
▁Consadole	10
Batdongsan	10
▁Philippin	10
▁Sponsored	10
<|plugin|>	10
<|im_end|>	10
▁function	9
▁variable	9
namespace	9
Exception	9
▁argument	9
▁response	9
▁database	9
▁instance	9
formation	9
▁position	9
▁Function	9
▁question	9
▁password	9
▁elements	9
▁template	9
▁document	9
▁specific	9
vironment	9
▁override	9
▁possible	9
Component	9
▁required	9
▁requests	9
▁contains	9
▁expected	9
▁continue	9
▁Defining	9
▁provided	9
▁datetime	9
ification	9
framework	9
▁solution	9
▁Creating	9
▁filename	9
▁settings	9
▁original	9
▁sequence	9
▁distance	9
▁readonly	9
▁operator	9
CharField	9
▁language	9
▁username	9
▁generate	9
▁Solution	9
▁training	9
▁Printing	9
▁previous	9
▁property	9
Parameter	9
▁standard	9
Attribute	9
▁multiple	9
transform	9
▁location	9
▁directly	9
Threading	9
▁resource	9
▁internal	9
questions	9
▁encoding	9
WriteLine	9
▁integers	9
▁features	9
▁messages	9
▁addition	9
▁sentence	9
▁creating	9
▁software	9
▁DateTime	9
▁Generate	9
▁consider	9
▁category	9
wikipedia	9
▁register	9
▁inherits	9
▁redirect	9
▁abstract	9
▁commands	9
▁selected	9
Container	9
▁complete	9
▁starting	9
▁actually	9
▁Checking	9
Interface	9
▁download	9
▁anything	9
▁probably	9
▁interval	9
▁unittest	9
▁callback	9
ViewModel	9
▁provides	9
▁returned	9
ategories	9
Reference	9
exception	9
Framework	9
▁existing	9
▁serializ	9
▁positive	9
▁executed	9
▁Argument	9
Directory	9
▁Response	9
▁negative	9
▁indicate	9
avascript	9
▁relation	9
▁Register	9
container	9
Generator	9
▁received	9
struction	9
▁contents	9
▁absolute	9
▁includes	9
▁interact	9
▁constant	9
DataFrame	9
▁endpoint	9
▁argparse	9
▁included	9
▁services	9
directory	9
▁Licensed	9
localhost	9
Converter	9
▁computer	9
Operation	9
▁packages	9
algorithm	9
▁separate	9
▁relative	9
Transform	9
▁approach	9
▁comments	9
▁metadata	9
▁patterns	9
▁accuracy	9
▁learning	9
▁validate	9
Migration	9
endregion	9
▁Optional	9
reference	9
Serialize	9
orizontal	9
▁children	9
microsoft	9
interface	9
▁optional	9
▁handling	9
▁modified	9
▁retrieve	9
▁problems	9
▁unsigned	9
▁increase	9
EventArgs	9
▁together	9
▁interpre	9
▁followed	9
▁examples	9
▁Software	9
▁nullable	9
timestamp	9
▁appropri	9
▁reserved	9
▁TreeNode	9
▁duration	9
▁interest	9
▁platform	9
▁customer	9
▁Resource	9
▁requires	9
▁products	9
▁behavior	9
Validator	9
structure	9
▁checking	9
▁Property	9
▁division	9
▁determin	9
▁Abstract	9
▁progress	9
protected	9
▁converts	9
selection	9
▁analysis	9
condition	9
Constants	9
▁security	9
Formatter	9
ArrayList	9
TextField	9
▁dispatch	9
▁triangle	9
▁creation	9
▁smallest	9
▁assigned	9
▁ListNode	9
▁Category	9
Extension	9
component	9
▁matching	9
▁explicit	9
▁Database	9
▁material	9
▁designed	9
▁activity	9
getLogger	9
▁terminal	9
▁subtract	9
▁equation	9
▁external	9
Condition	9
▁Language	9
Resources	9
▁building	9
▁rotation	9
▁imported	9
▁properly	9
Character	9
▁provider	9
▁queryset	9
direction	9
Processor	9
▁priority	9
▁vertices	9
▁Document	9
resources	9
▁keyboard	9
▁Template	9
Direction	9
▁changing	9
generator	9
▁compiler	9
▁Variable	9
▁protocol	9
▁selenium	9
▁maintain	9
▁Standard	9
▁Password	9
dependent	9
▁Settings	9
▁channels	9
developer	9
▁contract	9
▁velocity	9
▁schedule	9
▁removing	9
▁intended	9
parameter	9
▁purposes	9
▁pipeline	9
▁iterator	9
functions	9
▁practice	9
▁students	9
▁quantity	9
▁whatever	9
▁accessed	9
attribute	9
▁deleting	9
▁filtered	9
▁finished	9
Selection	9
▁gradient	9
▁transfer	9
▁signific	9
▁Redirect	9
▁identify	9
generated	9
shortcuts	9
▁reversed	9
▁optimize	9
▁Infinite	9
available	9
velopment	9
▁relevant	9
▁describe	9
▁vertical	9
▁replaced	9
OrDefault	9
DbContext	9
minecraft	9
▁remember	9
Animation	9
▁Position	9
▁datasets	9
character	9
▁plotting	9
▁Question	9
Statement	9
▁identity	9
typeparam	9
▁evaluate	9
dimension	9
▁demonstr	9
▁capacity	9
▁Customer	9
▁fileName	9
Namespace	9
Microsoft	9
▁Retrieve	9
▁Location	9
▁exchange	9
serialize	9
variables	9
▁yourself	9
translate	9
▁useState	9
▁articles	9
extension	9
▁repeated	9
▁multiply	9
▁performs	9
▁latitude	9
▁supports	9
Execution	9
▁matrices	9
▁detected	9
threshold	9
▁business	9
▁parallel	9
▁thinking	9
▁Validate	9
▁accounts	9
copyright	9
▁assembly	9
▁incoming	9
▁descript	9
▁research	9
▁interpol	9
▁typename	9
▁recently	9
▁iterates	9
▁timezone	9
▁supposed	9
▁strategy	9
▁exponent	9
▁warnings	9
constants	9
increment	9
connected	9
▁displays	9
▁infinite	9
▁boundary	9
configure	9
Configure	9
bootstrap	9
▁geometry	9
Arguments	9
▁subclass	9
▁scenario	9
▁defaults	9
▁Instance	9
▁tutorial	9
▁movement	9
Completed	9
▁distinct	9
▁neighbor	9
▁straight	9
▁delegate	9
▁consumer	9
▁randomly	9
▁Gaussian	9
▁obtained	9
▁trailing	9
arguments	9
▁hardware	9
▁uploaded	9
▁physical	9
▁floating	9
▁Download	9
▁decision	9
prototype	9
▁adjacent	9
▁personal	9
getString	9
▁Assembly	9
▁fraction	9
▁pressure	9
Algorithm	9
Generated	9
▁occurred	9
webdriver	9
▁purchase	9
▁slightly	9
▁dividing	9
▁combined	9
▁programs	9
operation	9
▁although	9
▁graphics	9
▁SOFTWARE	9
supported	9
Available	9
construct	9
▁accepted	9
▁variance	9
embedding	9
▁internet	9
AutoField	9
▁bounding	9
▁normally	9
Something	9
▁clusters	9
processed	9
unordered	9
▁criteria	9
▁diagonal	9
transpose	9
Inventory	9
calculate	9
▁assuming	9
▁implicit	9
▁TestCase	9
▁fontsize	9
▁controls	9
rocessing	9
▁particip	9
▁TimeSpan	9
▁simulate	9
▁whenever	9
▁possibly	9
▁onChange	9
▁Security	9
▁Required	9
something	9
▁attached	9
SetActive	9
▁particle	9
▁Keyboard	9
neighbors	9
Substring	9
partition	9
▁attempts	9
▁shortest	9
▁compared	9
sequences	9
▁Facebook	9
▁Encoding	9
Transport	9
▁defining	9
▁official	9
▁decrease	9
▁applying	9
frequency	9
▁Training	9
▁frequent	9
▁Expected	9
Rectangle	9
▁electron	9
▁detailed	9
▁restrict	9
▁computed	9
▁exercise	9
▁discount	9
Signature	9
▁workflow	9
▁happened	9
▁feedback	9
▁produces	9
rectangle	9
▁Material	9
▁allowing	9
▁anywhere	9
▁integral	9
▁Exchange	9
▁searched	9
▁sections	9
validator	9
Connector	9
▁numberOf	9
▁everyone	9
optimizer	9
▁counting	9
▁estimate	9
▁released	9
▁extended	9
▁favorite	9
▁strength	9
positions	9
▁declared	9
Alignment	9
▁KeyError	9
▁Internet	9
▁Sequence	9
▁confused	9
normalize	9
According	9
▁Override	9
Publisher	9
ictionary	9
▁tracking	9
▁noexcept	9
Variables	9
▁Logistic	9
▁WARRANTY	9
▁notation	9
▁onCreate	9
▁opposite	9
▁consists	9
implement	9
▁entirely	9
precision	9
▁suitable	9
▁backward	9
▁Internal	9
dataframe	9
▁Evaluate	9
necessary	9
Copyright	9
▁Multiply	9
undefined	9
DateField	9
tablename	9
▁involved	9
constexpr	9
GetString	9
▁Decision	9
▁somewhat	9
Questions	9
statement	9
▁preserve	9
▁weighted	9
▁Continue	9
▁licenses	9
factorial	9
▁familiar	9
omitempty	9
endencies	9
▁networks	9
efficient	9
▁sampling	9
Frequency	9
▁singular	9
▁embedded	9
▁Examples	9
▁greatest	9
▁Callback	9
▁hashCode	9
▁produced	9
▁critical	9
▁creature	9
▁captured	9
▁answered	9
TestClass	9
signature	9
completed	9
instances	9
transport	9
▁Constant	9
documents	9
▁navigate	9
published	9
▁reaction	9
Regressor	9
▁Analysis	9
▁observer	9
▁IService	9
▁pointing	9
▁suggests	9
▁Learning	9
▁commonly	9
▁infinity	9
className	9
community	9
▁accurate	9
▁circular	9
▁markdown	9
▁activate	9
Dimension	9
predicted	9
Calculate	9
TextInput	9
▁forecast	9
▁affected	9
separated	9
▁detector	9
▁concrete	9
▁Graphics	9
▁Business	9
▁electric	9
▁Contract	9
Iteration	9
▁Assuming	9
▁balanced	9
▁advanced	9
timedelta	9
Construct	9
Separator	9
▁spectrum	9
formatted	9
▁explains	9
including	9
▁observed	9
▁delivery	9
Collector	9
▁majority	9
▁Overflow	9
▁diameter	9
addWidget	9
▁Duration	9
▁evidence	9
recursive	9
levelname	9
▁contrast	9
▁involves	9
▁Distance	9
▁substant	9
▁powerful	9
▁simplify	9
▁Computer	9
▁compress	9
▁breaking	9
▁managing	9
▁entering	9
histogram	9
▁accident	9
▁speaking	9
▁momentum	9
▁topology	9
▁prepared	9
TypeError	9
lowercase	9
▁computes	9
▁birthday	9
detection	9
▁Consider	9
▁presence	9
▁Multiple	9
publisher	9
▁Exercise	9
▁Applying	9
▁planning	9
▁quotient	9
intervals	9
▁Selenium	9
▁residual	9
Increment	9
▁minimize	9
intercept	9
▁universe	9
▁tempfile	9
▁equality	9
▁Complete	9
▁Building	9
▁logarith	9
iteration	9
▁reported	9
▁adjusted	9
▁measures	9
▁Markdown	9
▁achieved	9
▁Operator	9
enumerate	9
▁compound	9
▁distingu	9
DllImport	9
▁Gradient	9
▁measured	9
▁simplest	9
▁directed	9
remaining	9
distances	9
▁stopping	9
▁strongly	9
installed	9
▁strictly	9
▁American	9
▁discrete	9
▁PROVIDED	9
▁External	9
▁centered	9
▁portions	9
▁extracts	9
different	9
important	9
▁shopping	9
▁logistic	9
▁choosing	9
matically	9
paragraph	9
solutions	9
▁Transfer	9
▁Randomly	9
estimator	9
secondary	9
▁discover	9
▁Original	9
▁pressing	9
▁cleaning	9
▁thoughts	9
▁Relation	9
▁Defaults	9
Wikipedia	9
threading	9
QtWidgets	9
▁designer	9
▁investig	9
▁referred	9
confusion	9
languages	9
▁concepts	9
▁facebook	9
▁communic	9
processes	9
▁Triangle	9
▁Modified	9
▁Although	9
▁jupytext	9
▁symbolic	9
▁baseline	9
▁friendly	9
migration	9
▁surround	9
▁magnetic	9
▁district	9
▁Fraction	9
▁Advanced	9
▁molecule	9
▁ignoring	9
collision	9
uppercase	9
Therefore	9
▁flexible	9
portfolio	9
itertools	9
▁Determin	9
▁Positive	9
▁resistor	9
▁wireless	9
▁exposure	9
▁throwing	9
▁shipping	9
▁occasion	9
represent	9
▁proposed	9
▁director	9
Challenge	9
▁Geometry	9
▁realized	9
▁manifold	9
▁DEALINGS	9
▁rational	9
operators	9
Different	9
▁industry	9
▁Particle	9
principal	9
ublicense	9
specified	9
▁improved	9
▁chemical	9
following	9
▁Comments	9
magnitude	9
▁Vertical	9
▁semantic	9
▁periodic	9
▁mountain	9
▁Verifica	9
intersect	9
Community	9
libraries	9
▁reducing	9
linewidth	9
▁switched	9
▁problema	9
▁Relative	9
▁homework	9
▁cylinder	9
interpret	9
▁appeared	9
▁cardinal	9
▁Parallel	9
▁incident	9
▁ordinary	9
▁conclude	9
▁watching	9
Published	9
▁standing	9
numerator	9
converted	9
Unmanaged	9
▁stronger	9
▁formulas	9
▁rotating	9
objective	9
▁Remember	9
▁thousand	9
▁binomial	9
mplements	9
▁collapse	9
▁Absolute	9
particles	9
▁symmetry	9
▁Keywords	9
▁subgroup	9
▁Research	9
Sometimes	9
▁graphene	9
▁Personal	9
criterion	9
▁ensemble	9
intensity	9
▁spectral	9
▁announce	9
education	9
▁envelope	9
▁suddenly	9
remainder	9
▁scanning	9
PropTypes	9
▁instruct	9
▁pairwise	9
disposing	9
▁governed	9
▁surfaces	9
▁indirect	9
▁outcomes	9
integrate	9
incorrect	9
▁studying	9
▁visiting	9
perimeter	9
Intercept	9
▁Shopping	9
▁incorpor	9
▁Designer	9
procedure	9
▁reaching	9
BatchNorm	9
▁calories	9
inference	9
sensitive	9
▁becoming	9
▁maximize	9
▁National	9
▁modeling	9
▁European	9
▁hospital	9
▁isolated	9
▁sleeping	9
▁limiting	9
▁teaching	9
▁Contacts	9
Otherwise	9
▁friction	9
predictor	9
▁tomorrow	9
temporary	9
canonical	9
omorphism	9
▁avoiding	9
▁February	9
▁academic	9
relations	9
▁feasible	9
▁engineer	9
Solutions	9
▁patients	9
potential	9
▁spending	9
▁Previous	9
▁December	9
Bluetooth	9
▁harmonic	9
primitive	9
traceback	9
▁disjoint	9
▁covering	9
▁steering	9
▁uniquely	9
▁numbered	9
▁Physical	9
ascending	9
▁national	9
knowledge	9
TagHelper	9
▁Negative	9
▁Specific	9
▁dynamics	9
▁convince	9
materials	9
▁definite	9
▁interior	9
▁Approach	9
▁surprise	9
▁hydrogen	9
composite	9
▁military	9
Universal	9
▁apparent	9
▁thorough	9
▁Division	9
Fibonacci	9
currently	9
▁emphasis	9
▁circuits	9
▁Accepted	9
▁numerous	9
effective	9
functools	9
▁valuable	9
▁charging	9
▁Received	9
▁linearly	9
▁Actually	9
▁diagrams	9
ervations	9
▁Descript	9
thickness	9
ributions	9
permalink	9
▁textbook	9
▁Hardware	9
▁oriented	9
otherwise	9
▁daughter	9
▁dominant	9
▁Students	9
▁wherever	9
▁analytic	9
▁presents	9
▁touching	9
symmetric	9
▁Moreover	9
▁terrible	9
▁Bayesian	9
▁November	9
mentioned	9
▁offering	9
▁families	9
▁temporal	9
▁converge	9
Blueprint	9
contained	9
statistic	9
▁Addition	9
Financial	9
▁elliptic	9
▁Electron	9
ReSharper	9
▁overcome	9
▁inspired	9
▁energies	9
▁carrying	9
▁superior	9
▁fighting	9
▁spanning	9
Similarly	9
▁revealed	9
▁indented	9
▁survival	9
reduction	9
▁crossing	9
numerical	9
▁finitely	9
triangles	9
▁glVertex	9
deviation	9
▁emission	9
▁Circular	9
underline	9
▁marginal	9
▁adaptive	9
BackColor	9
▁Practice	9
▁nonlocal	9
amplitude	9
▁coupling	9
▁Rational	9
universal	9
setlength	9
▁Revision	9
ferential	9
computing	9
ElementAt	9
▁calculus	9
▁arranged	9
▁carriage	9
▁creative	9
▁theories	9
technical	9
depending	9
GetObject	9
▁marriage	9
▁redshift	9
▁unstable	9
financial	9
▁Compound	9
▁relating	9
▁bringing	9
extracted	9
▁Discrete	9
explained	9
▁subspace	9
▁Weighted	9
geometric	9
▁ultimate	9
▁asymptot	9
▁everyday	9
according	9
Symmetric	9
▁Mountain	9
ordinates	9
displayed	9
▁longitud	9
▁focusing	9
▁District	9
▁silently	9
estimated	9
▁Estimate	9
▁additive	9
▁graduate	9
divisible	9
Importing	9
▁Electric	9
▁homotopy	9
▁informed	9
▁pendulum	9
▁quantile	9
▁Networks	9
▁attacked	9
beginning	9
▁configur	9
▁drinking	9
expensive	9
▁Saturday	9
▁Director	9
grayscale	9
alternate	9
▁football	9
▁Equation	9
▁bathroom	9
▁horrible	9
▁grateful	9
▁Jacobian	9
▁gathered	9
▁emotions	9
▁catching	9
quadratic	9
Exercises	9
September	9
▁equipped	9
Determine	9
▁believed	9
▁stumbled	9
▁entrance	9
sometimes	9
automatic	9
▁contrary	9
▁Boundary	9
▁soldiers	9
▁mutually	9
evolution	9
▁outlined	9
comparing	9
▁regional	9
▁wondered	9
▁sometime	9
chemistry	9
▁formally	9
expansion	9
▁Engineer	9
localized	9
▁economic	9
▁Problems	9
▁Pressure	9
▁Topology	9
TimeField	9
▁employed	9
iterative	9
▁shoulder	9
▁Creative	9
▁journals	9
ToolStrip	9
▁algebras	9
mediately	9
▁stepping	9
Interview	9
▁FileType	9
glyphicon	9
▁yielding	9
▁aluminum	9
treatment	9
typically	9
▁Reaction	9
variation	9
▁Canadian	9
▁morphism	9
Exclusive	9
▁theorems	9
▁exterior	9
countable	9
Computing	9
essential	9
▁Critical	9
▁galaxies	9
posterior	9
▁distract	9
equations	9
▁feelings	9
technique	9
▁interfer	9
▁Whatever	9
▁membrane	9
marketing	9
▁Homework	9
Cartesian	9
▁criminal	9
ByVersion	9
Marketing	9
Professor	9
correctly	9
▁Wireless	9
▁Einstein	9
basically	9
▁Birthday	9
▁Thursday	9
reactions	9
▁orbitals	9
Euclidean	9
continued	9
▁remained	9
▁grabbing	9
operating	9
▁regarded	9
▁Everyone	9
▁Lagrange	9
▁domestic	9
commented	9
▁Catholic	9
▁proceeds	9
▁mechanic	9
conscious	9
▁nitrogen	9
▁Dividing	9
Instagram	9
▁Recently	9
▁realised	9
▁homology	9
obviously	9
▁reformat	9
▁seasonal	9
invariant	9
linestyle	9
immediate	9
▁Integral	9
WordPress	9
▁entitled	9
▁claiming	9
beautiful	9
ForeColor	9
▁historic	9
▁darkness	9
▁cellular	9
Numerical	9
Geometric	9
▁paradigm	9
▁coherent	9
projected	9
▁admitted	9
▁Spectral	9
▁enormous	9
▁operated	9
▁absorbed	9
imaginary	9
▁Official	9
▁cultural	9
▁outlines	9
▁Periodic	9
▁Detailed	9
▁dissolve	9
fractions	9
described	9
▁WhatsApp	9
▁acoustic	9
▁Simplify	9
▁bilinear	9
▁sounding	9
▁Exponent	9
classical	9
AppCompat	9
PageIndex	9
▁judgment	9
▁pleasant	9
▁rigorous	9
▁brothers	9
▁Brownian	9
▁Champion	9
▁localize	9
▁pleasure	9
▁geodesic	9
arbitrary	9
emergency	9
▁displace	9
identical	9
▁Dynamics	9
▁opportun	9
▁experien	9
▁controll	9
▁independ	9
▁Minister	9
▁clinical	9
▁Southern	9
▁suffered	9
▁Northern	9
▁algorith	9
ventional	9
▁stirring	9
▁southern	9
▁northern	9
▁concentr	9
▁teaspoon	9
▁enjoying	9
▁phenomen	9
▁Sciences	9
▁Regional	9
▁Victoria	9
lementary	9
▁examined	9
▁emerging	9
▁mathemat	9
▁Hamilton	9
▁reminded	9
mentation	9
▁promised	9
▁artistic	9
▁Jonathan	9
▁romantic	9
▁dressing	9
▁utilized	9
▁precious	9
ationally	9
▁hypothes	9
▁electrom	9
▁Jennifer	9
▁literary	9
iological	9
President	9
▁Malaysia	9
▁catalyst	9
etermined	9
▁Athletic	9
▁Citation	9
▁Thailand	9
▁Margaret	9
▁recalled	9
▁Academic	9
▁Princess	9
▁Graduate	9
▁Benjamin	9
▁infrared	9
unctional	9
▁saucepan	9
▁listened	9
▁delicate	9
▁Mathemat	9
▁exhibits	9
▁wellness	9
▁comprise	9
▁insisted	9
▁demanded	9
▁laughing	9
▁regulate	9
▁Airlines	9
▁Chemical	9
▁innocent	9
▁fracture	9
▁imagined	9
▁Workshop	9
▁instinct	9
▁laughter	9
▁Reynolds	9
▁metallic	9
▁hesitate	9
▁Mercedes	9
▁shredded	9
▁crystals	9
▁Brisbane	9
▁belonged	9
▁eventual	9
▁reciproc	9
▁chloride	9
▁dominate	9
▁improper	9
▁conveyed	9
▁Vladimir	9
▁motivate	9
▁utilizes	9
▁Johannes	9
requently	9
▁depicted	9
▁handsome	9
Christian	9
▁peculiar	9
▁threaten	9
▁stubborn	9
Christmas	9
▁purified	9
▁Sunshine	9
▁reacting	9
▁Visitors	9
▁collagen	9
▁Wellness	9
▁Shanghai	9
sectional	9
▁Religion	9
▁helpless	9
▁squeezed	9
▁alkaline	9
▁dedicate	9
▁Springer	9
▁conserve	9
▁chlorine	9
▁Stamford	9
▁Sporting	9
▁cheerful	9
developed	9
▁coincide	9
▁Sergeant	9
▁Leonardo	9
▁unsalted	9
▁Deutsche	9
▁Budapest	9
Liverpool	9
▁forehead	9
producing	9
Elizabeth	9
▁narrowed	9
Sponsored	9
▁afforded	9
▁Modeling	9
▁Atletico	9
▁Lighting	9
▁fluoride	9
▁ammonium	9
▁Oriental	9
▁Suddenly	9
▁predator	9
▁Clifford	9
▁Magnetic	9
▁resonant	9
intensive	9
▁Californ	9
▁eyebrows	9
▁unbiased	9
▁Qualcomm	9
iscovered	9
▁solvents	9
▁screamed	9
▁Ordinary	9
▁Scarlett	9
▁dictates	9
Cambridge	9
▁methanol	9
▁Hydrogen	9
▁Advances	9
▁dictated	9
▁clinging	9
▁Wolfgang	9
▁transact	9
Institute	9
Singapore	9
▁Calories	9
Barcelona	9
▁breathed	9
▁Institut	9
religious	9
▁Heinrich	9
molecular	9
announced	9
ificantly	9
▁showroom	9
▁Galactic	9
Molecular	9
▁Matthias	9
ifference	9
▁Appendix	9
▁modality	9
▁Kawasaki	9
▁covalent	9
emotional	9
▁baccarat	9
▁neutrons	9
afternoon	9
Detective	9
carbonate	9
extremely	9
Tottenham	9
▁dimethyl	9
ependence	9
rotective	9
stretched	9
▁sulfuric	9
▁shrugged	9
oxidation	9
performed	9
▁especial	9
radiation	9
Chemistry	9
▁Relevant	9
▁inertial	9
generally	9
▁Entering	9
difficult	9
▁Calculus	9
▁industri	9
▁sulphate	9
receiving	9
Indonesia	9
▁Panorama	9
existence	9
▁filtrate	9
▁therefor	9
▁conforms	9
▁approxim	9
plication	9
textcolor	9
▁hyperbol	9
itational	9
therefore	9
onometric	9
▁parabola	9
ativistic	9
▁Lebesgue	9
▁neutrino	9
manifolds	9
▁monotone	9
widetilde	9
entations	9
theoretic	9
downarrow	9
▁nonempty	9
▁Binomial	9
onsistent	9
▁Elliptic	9
▁enthalpy	9
▁monoidal	9
▁preprint	9
▁Legendre	9
▁Harmonic	9
▁Poincaré	9
▁automata	9
▁graphing	9
▁extremal	9
▁Analytic	9
▁Lyapunov	9
Algebraic	9
▁Informat	9
algebraic	9
▁Rayleigh	9
Equations	9
▁Symbolic	9
imization	9
diffusion	9
textstyle	9
logarithm	9
pectation	9
RowNumber	9
▁arithmet	9
vanishing	9
separable	9
Universit	9
▁Cholesky	9
Corollary	9
spherical	9
Boltzmann	9
saturated	9
Bernoulli	9
Nonlinear	9
principle	9
ultaneous	9
▁differen	9
Classical	9
polarized	9
▁unpaired	9
Dirichlet	9
uniformly	9
stability	9
converges	9
Frobenius	9
morphisms	9
dynamical	9
curvature	9
▁parametr	9
Newtonian	9
nonlinear	9
electrons	9
▁probabil	9
▁Internat	9
conformal	9
induction	9
molecules	9
▁quenched	9
mathstrut	9
Chebyshev	9
parabolic	9
planetary	9
expressed	9
▁CrossRef	9
empirical	9
splitting	9
inductive	9
Sebastian	9
▁symplect	9
▁Bernhard	9
similarly	9
▁Englisch	9
▁Probabil	9
integrals	9
estimates	9
Christoph	9
▁Schatten	9
resonance	9
▁Szabolcs	9
covariant	9
partially	9
piecewise	9
mechanics	9
▁Funktion	9
continuum	9
increases	9
▁dokument	9
▁Aleksand	9
regarding	9
resulting	9
synthetic	9
capacitor	9
evaluated	9
presented	9
involving	9
olynomial	9
otational	9
impedance	9
▁informat	9
electrode	9
switching	9
initially	9
Kategorie	9
practical	9
naturally	9
▁homogene	9
branching	9
osciences	9
▁pyridine	9
decreases	9
▁Debrecen	9
▁Menschen	9
ternehmen	9
▁zwischen	9
▁besonder	9
▁zusammen	9
▁erhalten	9
▁wirklich	9
▁Geschäft	9
sterreich	9
▁Zusammen	9
▁interess	9
▁Qualität	9
▁Beispiel	9
▁Dezember	9
▁bekommen	9
▁nächsten	9
▁Personen	9
▁Produkte	9
▁Programm	9
▁Familien	9
▁deutlich	9
▁funktion	9
▁gefunden	9
▁weiteren	9
▁Angebote	9
▁individu	9
▁entfernt	9
▁Entschei	9
▁befindet	9
▁erfahren	9
▁arbeiten	9
▁anzeigen	9
▁Umgebung	9
▁Ergebnis	9
▁Probleme	9
▁Mittwoch	9
▁Gemeinde	9
▁beispiel	9
▁Besucher	9
▁Richtung	9
entlichen	9
▁Außerdem	9
▁Dienstag	9
▁geeignet	9
▁geworden	9
▁zunächst	9
▁komplett	9
besondere	9
▁bedeutet	9
▁aufgrund	9
▁deutsche	9
▁richtige	9
▁Leistung	9
▁befinden	9
▁Fahrzeug	9
▁erreicht	9
▁erwartet	9
▁Besonder	9
▁genießen	9
▁trotzdem	9
▁außerdem	9
▁gestellt	9
▁Verkehrs	9
▁aktuelle	9
▁Freizeit	9
▁gewinnen	9
▁schaffen	9
▁weltweit	9
▁erforder	9
▁Künstler	9
▁brauchen	9
▁Anbieter	9
▁bestimmt	9
▁Gedanken	9
▁Gespräch	9
▁genommen	9
▁gekommen	9
▁gebracht	9
▁wichtige	9
▁ziemlich	9
▁Beiträge	9
▁Pflanzen	9
▁Mitglied	9
▁verloren	9
▁Webseite	9
▁erwarten	9
▁bisschen	9
▁Geschenk	9
▁herunter	9
▁schlecht	9
▁Beratung	9
▁Aufgaben	9
▁Zwischen	9
▁gleichen	9
▁sprechen	9
▁erkennen	9
▁Experten	9
▁manchmal	9
▁Hannover	9
▁gefallen	9
▁Berliner	9
▁mehreren	9
▁gesamten	9
▁perfekte	9
▁benötigt	9
▁versucht	9
▁folgende	9
▁beginnen	9
▁Vorstand	9
▁durchaus	9
▁beachten	9
▁wünschen	9
▁entgegen	9
▁passende	9
▁passiert	9
▁erstellt	9
▁erklärte	9
▁schreibt	9
▁Standort	9
▁darunter	9
▁Projekte	9
▁Hochzeit	9
▁Vorteile	9
vergleich	9
▁Sekunden	9
istischen	9
▁heutigen	9
▁Anspruch	9
▁Terrasse	9
▁gespielt	9
▁Netzwerk	9
▁Bewegung	9
▁verkauft	9
▁Erlebnis	9
▁übrigens	9
▁Benutzer	9
▁bekannte	9
▁schnelle	9
▁modernen	9
▁bewerten	9
▁schützen	9
▁entweder	9
▁einfache	9
▁Senioren	9
▁verfügen	9
ternehmer	9
▁Eindruck	9
▁Betriebs	9
▁leichter	9
▁speziell	9
▁eingesch	9
▁Motorrad	9
▁angenehm	9
▁weiteres	9
▁Speicher	9
▁weiterer	9
▁herzlich	9
▁Hinweise	9
▁Tabellen	9
▁Vielzahl	9
▁Karriere	9
▁Freundin	9
▁erklären	9
▁Interess	9
▁Rechnung	9
▁Rettungs	9
▁Wachstum	9
▁sinnvoll	9
▁einzelne	9
▁solltest	9
▁privaten	9
▁aussehen	9
▁Zahlungs	9
▁Aufnahme	9
präsident	9
▁Bildungs	9
▁neuesten	9
▁kontroll	9
▁gespannt	9
▁Stiftung	9
▁Dokument	9
▁Kalender	9
▁Vertrieb	9
▁Einfluss	9
▁sozialen	9
▁elektron	9
ologische	9
▁günstige	9
▁Haushalt	9
▁ungefähr	9
▁Aussicht	9
▁Wohnungs	9
▁Branchen	9
▁intensiv	9
▁Therapie	9
▁regelmäß	9
▁schweren	9
▁Struktur	9
▁erinnern	9
▁digitale	9
▁größeren	9
▁mögliche	9
▁spannend	9
▁optimale	9
▁mehrfach	9
▁Einkaufs	9
▁Aufgrund	9
▁dringend	9
▁Führungs	9
▁normalen	9
▁Frühling	9
▁Garantie	9
▁höchsten	9
▁Autobahn	9
▁Getränke	9
▁früheren	9
▁Änderung	9
▁genügend	9
▁Optionen	9
▁Anzeigen	9
▁Bereiche	9
Präsident	9
▁zurückge	9
▁Faktoren	9
▁Vermögen	9
▁Trotzdem	9
▁direkten	9
Antworten	9
▁Werkzeug	9
▁Schützen	9
▁Maschine	9
▁besseren	9
▁Gebühren	9
▁Spannung	9
▁Parteien	9
▁Ausnahme	9
▁Tatsache	9
Leistungs	9
▁untersch	9
▁Schulter	9
▁Batterie	9
▁Münchner	9
▁schwarze	9
bewertung	9
▁kleinere	9
▁frischen	9
▁Wahrheit	9
▁einzigen	9
▁Verkaufs	9
▁Scheiben	9
▁Strecken	9
▁verwende	9
scheidung	9
▁diversen	9
▁sicheren	9
▁Vertrags	9
▁leichten	9
▁ähnliche	9
▁beliebte	9
▁Logistik	9
▁Gründung	9
▁Aktuelle	9
▁Republik	9
▁jemanden	9
leistungs	9
▁Flaschen	9
▁jüngsten	9
▁gewissen	9
▁zentrale	9
▁Komplett	9
▁Schulden	9
fahrungen	9
Bewertung	9
▁Hinsicht	9
▁Gefahren	9
▁Ähnliche	9
▁Nutzungs	9
Kommentar	9
▁struktur	9
▁geplante	9
▁kommende	9
▁personen	9
▁Berichte	9
▁Weiteren	9
▁Gerichts	9
▁dahinter	9
Natürlich	9
▁üblichen	9
deutschen	9
▁Kosmetik	9
▁Konflikt	9
▁Arbeiter	9
▁versuche	9
▁Heiligen	9
▁maximale	9
▁geringen	9
▁konkrete	9
▁Manchmal	9
versicher	9
▁menschen	9
lafzimmer	9
▁Existenz	9
▁Artikeln	9
▁Prüfungs	9
▁Deswegen	9
▁gesunden	9
▁Gesichts	9
▁späteren	9
▁Zunächst	9
▁falschen	9
▁genannte	9
▁zurückzu	9
▁riesigen	9
▁Direktor	9
adezimmer	9
sicherung	9
▁längeren	9
▁Handlung	9
▁Schlacht	9
▁Gesetzes	9
▁tägliche	9
▁Kontroll	9
▁Kalorien	9
▁schreibe	9
▁abnehmen	9
▁Günstige	9
▁Kriminal	9
▁Baumwoll	9
▁Planungs	9
▁Maßnahme	9
schiedene	9
▁familien	9
▁Liebling	9
▁Schlauch	9
▁Berufung	9
▁verstehe	9
▁Toilette	9
▁schönste	9
▁Referenz	9
▁Verbands	9
▁Beitrags	9
▁Gewichts	9
▁sonstige	9
▁Schimmel	9
▁Übergang	9
▁editiert	9
▁externen	9
▁Heizungs	9
▁globalen	9
Anschluss	9
▁Eingangs	9
▁Intensiv	9
▁Langzeit	9
Insgesamt	9
Allgemein	9
▁berühmte	9
onnerstag	9
▁Produkts	9
▁jegliche	9
rechtlich	9
▁Angebots	9
▁führende	9
▁Kristall	9
▁wertvoll	9
▁laufende	9
▁Schwarze	9
▁Schweine	9
▁empfehle	9
▁Ausgangs	9
nVerfasst	9
▁Meinungs	9
▁Buchungs	9
Vergleich	9
Rezension	9
▁Digitale	9
▁Abwasser	9
▁Friedens	9
Frankfurt	9
Redaktion	9
▁weiterzu	9
▁Handtuch	9
▁Sonntags	9
▁Zukunfts	9
▁gelistet	9
▁niedrige	9
▁Glaubens	9
▁Infrarot	9
▁Zeitungs	9
Gutschein	9
▁Auslands	9
▁Währungs	9
Übersicht	9
▁Preisver	9
Regierung	9
zufrieden	9
▁sexuelle	9
▁Auftrags	9
Geschäfts	9
▁damalige	9
▁Nachwuch	9
▁Schadens	9
bestellen	9
▁Teleskop	9
Lieferung	9
ehandlung	9
ständlich	9
▁herausge	9
Frühstück	9
twicklung	9
▁Bestands	9
Verfahren	9
▁weiblich	9
▁Michaela	9
möglichen	9
Landkreis	9
Produkten	9
Patienten	9
kostenlos	9
atürliche	9
▁Holstein	9
▁herauszu	9
▁verschie	9
▁benötige	9
▁örtliche	9
natürlich	9
▁aufgesch	9
▁Bischofs	9
Charakter	9
Maßnahmen	9
richtigen	9
Erfahrung	9
Schlüssel	9
Nachricht	9
Literatur	9
▁Verfasst	9
Millionen	9
▁Abschlus	9
Trainings	9
deutscher	9
▁Verkäufe	9
▁Teilnahm	9
Kostenlos	9
Feuerwehr	9
Maschinen	9
inklusive	9
▁verkaufe	9
Abschluss	9
Tourismus	9
versuchen	9
Schweizer	9
Nachwuchs	9
zumindest	9
▁erstelle	9
bekannten	9
Situation	9
entscheid	9
bezogenen	9
besonders	9
▁Antriebs	9
▁ergebnis	9
ffentlich	9
▁kommunik	9
Teilnahme	9
Deutscher	9
Haushalts	9
eilnehmer	9
▁Veronika	9
Vorstands	9
▁Showroom	9
Forschung	9
verteiler	9
▁geltende	9
gegenüber	9
▁esstisch	9
▁russisch	9
Hochzeits	9
Überblick	9
Halloween	9
Ernährung	9
▁entschei	9
Aluminium	9
▁Schreibt	9
▁Titanium	9
Beziehung	9
▁Milliard	9
aktuellen	9
politisch	9
Hamburger	9
anagement	9
insgesamt	9
▁bestelle	9
genannten	9
▁Greuther	9
Kilometer	9
schwarzen	9
Terrassen	9
ungsfähig	9
Reinigung	9
Rheinland	9
Nordrhein	9
Lieblings	9
▁Collagen	9
andschaft	9
gemeinsam	9
▁MERCEDES	9
Beratungs	9
teilweise	9
Deutschen	9
Kontrolle	9
Panasonic	9
möglichst	9
▁produktu	9
▁kategori	9
▁poslední	9
▁představ	9
▁pracovní	9
▁materiál	9
▁kvalitní	9
▁produkty	9
▁zařízení	9
▁nejlepší	9
▁nemovito	9
▁obsahuje	9
▁prostřed	9
▁přírodní	9
▁aktuální	9
▁množství	9
▁doručení	9
▁produktů	9
Informace	9
▁velikost	9
▁součástí	9
▁Materiál	9
▁základní	9
▁několika	9
▁sociální	9
▁případně	9
Parametry	9
▁největší	9
▁možnosti	9
Hodnocení	9
▁programu	9
▁pravidel	9
▁automati	9
▁podmínky	9
▁pneumati	9
▁spoluprá	9
▁prodejně	9
▁umožňuje	9
▁možností	9
▁oblečení	9
▁aplikace	9
▁projektu	9
▁vybavení	9
▁pronájem	9
▁příležit	9
▁odeslání	9
▁obchodní	9
▁Velikost	9
▁nejvyšší	9
▁Hmotnost	9
▁komentář	9
▁uživatel	9
▁společně	9
▁výsledky	9
▁současné	9
▁objednat	9
▁činnosti	9
▁prostoru	9
▁nabízíme	9
▁finanční	9
▁způsobem	9
▁dopravní	9
▁problémy	9
▁osobních	9
▁rychlost	9
▁důležité	9
▁telefonu	9
▁oblíbené	9
▁tlačítko	9
▁používat	9
▁kancelář	9
Příspěvky	9
▁obyvatel	9
▁hmotnost	9
▁prosince	9
▁prodejce	9
▁července	9
▁rozhodně	9
▁postupně	9
▁ovládání	9
▁formulář	9
▁stavební	9
▁prostory	9
▁skutečně	9
▁dostupné	9
▁tradiční	9
Zobrazeno	9
▁aplikaci	9
▁opatření	9
▁Zobrazit	9
▁Nabízíme	9
Technické	9
▁většinou	9
▁naprosto	9
▁venkovní	9
▁výsledek	9
▁následně	9
▁oddělení	9
▁poplatek	9
Komentáře	9
▁vytvořit	9
▁okamžitě	9
▁pronájmu	9
▁souhlasu	9
▁klikněte	9
▁odolnost	9
▁zajímavé	9
▁narození	9
▁dostupný	9
▁Základní	9
▁zástupce	9
▁příjemné	9
▁pohodlné	9
▁vyrobena	9
▁vzdělání	9
▁klasické	9
▁normální	9
▁náhradní	9
▁podmínek	9
▁výsledků	9
▁zobrazit	9
▁podařilo	9
▁Poslední	9
▁unikátní	9
Doplňkové	9
▁umístění	9
▁dokonale	9
▁neustále	9
▁Jaroslav	9
▁zákazník	9
▁cestovní	9
▁nemusíte	9
▁Vrchlabí	9
▁potřebné	9
▁doručeno	9
▁zakázáno	9
▁současně	9
▁zahrnuje	9
▁vzhledem	9
▁Děkujeme	9
▁Evropské	9
▁lokalitě	9
▁Součástí	9
▁webových	9
▁zajistit	9
▁vlastním	9
hodnocení	9
▁časopisu	9
▁technika	9
▁Odpovědi	9
▁potvrzen	9
Kontaktní	9
▁Pracovní	9
Zobrazení	9
Autokšeft	9
▁srovnání	9
▁komerční	9
▁oznámení	9
Naposledy	9
▁platební	9
▁zaručuje	9
▁Miroslav	9
▁zahradní	9
▁dostatek	9
▁konferen	9
▁odpovědi	9
▁označení	9
▁sluneční	9
▁americké	9
▁aktuálně	9
▁příjemný	9
▁kulturní	9
▁nejnižší	9
▁vyrobené	9
▁poptávku	9
▁potiskem	9
▁zařazeno	9
Maximální	9
▁polovině	9
▁miliardy	9
▁odpovídá	9
▁stabilní	9
▁zvláštní	9
▁správnou	9
▁Obsahuje	9
▁kontrolu	9
▁aktualiz	9
▁použitím	9
▁registru	9
Ubytování	9
▁bezpečné	9
▁Vladimír	9
▁předseda	9
▁kyseliny	9
▁hlavního	9
▁Obchodní	9
▁umožňují	9
▁prodejní	9
▁hlediska	9
▁nemůžete	9
▁nedaleko	9
▁Nejlepší	9
▁existuje	9
▁expedice	9
▁kontaktu	9
▁zlepšení	9
▁domácích	9
▁plastové	9
▁nebudete	9
▁případné	9
▁kapacita	9
▁knihovna	9
▁hlavních	9
▁příjemně	9
▁ukončení	9
▁zahájení	9
▁nerezové	9
▁pomáhají	9
Otevírací	9
▁ostatním	9
▁společné	9
▁Vzhledem	9
Minimální	9
▁provozní	9
▁evropské	9
▁svatební	9
▁dětských	9
▁rozhraní	9
▁Kvalitní	9
▁asistent	9
▁Aktuální	9
▁moderním	9
▁originál	9
▁týkající	9
▁letošním	9
▁Dostupné	9
▁minimali	9
▁osobního	9
▁Výsledky	9
▁mateřské	9
▁bankovní	9
▁ochranné	9
▁servisní	9
▁místních	9
▁Kateřina	9
▁Pronájem	9
▁minulého	9
▁přístupu	9
▁vyžaduje	9
▁reklamní	9
▁vybavena	9
▁oblíbený	9
▁starších	9
▁uzavření	9
▁důkladně	9
▁operační	9
▁pacientů	9
▁ideálním	9
▁listopad	9
▁zasedání	9
Provedení	9
▁nařízení	9
▁dokonalé	9
▁důsledku	9
▁soukromé	9
▁dětského	9
▁Komerční	9
▁převzetí	9
▁povolení	9
Sportovní	9
▁Jablonec	9
▁vyřízení	9
▁vysokých	9
▁přispívá	9
▁takového	9
▁takových	9
▁předpisů	9
Speciální	9
▁Uživatel	9
▁extrémně	9
▁Aktuálně	9
▁Ladislav	9
▁loňského	9
▁východní	9
▁Kapacita	9
▁ministra	9
▁Ušetříte	9
▁Nejvyšší	9
▁celkovou	9
▁kupující	9
zobrazeno	9
František	9
▁Jestliže	9
▁Největší	9
Příspěvek	9
▁školního	9
▁jakékoli	9
▁Zahradní	9
▁duchovní	9
▁vysavače	9
▁Přírodní	9
▁Reagovat	9
▁Poštovné	9
▁pozdější	9
logických	9
▁Využijte	9
Odpovdt	9
▁politika	9
▁kyselina	9
▁lidských	9
▁vojenské	9
▁státního	9
▁Náhradní	9
▁živnosti	9
▁pronájmy	9
▁Poznámka	9
stanovení	9
▁Vybavení	9
předchozí	9
▁Stavební	9
Televizní	9
▁elektrom	9
▁Plzeňský	9
Rozlišení	9
▁členství	9
▁porušení	9
▁Rychlost	9
▁proveden	9
▁nějakého	9
▁Jindřich	9
▁usnesení	9
▁Speciali	9
▁kreditní	9
▁zkušební	9
▁významně	9
▁Oblíbené	9
schopnost	9
▁právních	9
▁Výsledek	9
▁sociálně	9
▁Provozní	9
▁Sociální	9
▁Finanční	9
▁Podmínky	9
například	9
▁Valašské	9
▁územního	9
▁hokejové	9
▁Doručení	9
▁Průměrná	9
▁Oznámení	9
▁Moravské	9
▁zataženo	9
▁předpově	9
▁Operační	9
▁čtrnácti	9
▁Detailní	9
ubytování	9
▁Platnost	9
▁stavitel	9
▁zajištěn	9
▁doložení	9
▁Americký	9
▁Východní	9
▁soumraku	9
▁Komentář	9
▁zobrazen	9
maximální	9
kontaktní	9
▁Podrobný	9
▁pojistné	9
Olomoucký	9
▁Originál	9
▁výplatou	9
▁schválen	9
▁Průměrné	9
▁nebankov	9
kompletní	9
příspěvek	9
▁identifi	9
listopadu	9
▁užitečný	9
▁renovace	9
▁přípojky	9
▁hokejový	9
▁pojišťov	9
▁oprávněn	9
▁připojen	9
▁věřitele	9
▁Události	9
minimální	9
▁Půjčovna	9
▁Usnesení	9
▁nastaven	9
▁soudních	9
maximálně	9
parametry	9
▁samozřej	9
Přihláška	9
▁vzdáleno	9
▁Parametr	9
Kategória	9
▁Politika	9
▁hodnocen	9
▁blízkost	9
▁stmívání	9
pojištění	9
velikosti	9
zákazníků	9
▁Překlady	9
především	9
▁rendszer	9
▁valamint	9
▁szolgált	9
▁eredmény	9
▁vélemény	9
▁termékek	9
▁segítség	9
▁alkalmaz	9
▁százalék	9
▁biztosít	9
▁egyszerű	9
▁megjelen	9
▁fejleszt	9
▁ingyenes	9
Szállítás	9
▁rendelés	9
▁tájékozt	9
▁érkezett	9
▁munkanap	9
▁jelenleg	9
▁megtalál	9
▁elérhető	9
▁december	9
▁feltétel	9
▁teljesen	9
▁egészség	9
▁november	9
▁regisztr	9
▁következ	9
szállítás	9
▁kategóri	9
▁fogyaszt	9
▁vonatkoz	9
▁ingatlan	9
élemények	9
▁amerikai	9
mérséklet	9
▁tevékeny	9
▁követően	9
▁helyszín	9
▁használt	9
▁weboldal	9
▁hirdetés	9
▁vasárnap	9
▁hatékony	9
▁alkalmas	9
▁jelentős	9
▁csökkent	9
▁milliárd	9
▁korábban	9
▁mindenki	9
▁legalább	9
▁készülék	9
▁minőségű	9
▁terméket	9
▁történet	9
▁sikerült	9
▁keresked	9
▁összesen	9
▁népszerű	9
▁egyetlen	9
▁eszközök	9
▁meghatár	9
▁harmadik	9
▁mérkőzés	9
▁figyelem	9
▁betegség	9
▁vásárlás	9
▁raktáron	9
▁jellemző	9
▁szempont	9
▁esetében	9
▁szerepel	9
▁történik	9
▁közleked	9
▁gyümölcs	9
▁alacsony	9
▁lehetővé	9
▁Egyesült	9
▁szereplő	9
▁látogató	9
▁engedély	9
Részletek	9
▁megállap	9
▁tartalom	9
▁egyaránt	9
▁érvényes	9
▁kezelése	9
▁szeretne	9
▁ajánlott	9
▁ellenére	9
Hozzászól	9
▁továbbra	9
szolgálat	9
▁kevesebb	9
▁amelynek	9
▁felvétel	9
▁legújabb	9
▁hatalmas	9
▁elmondta	9
▁előzetes	9
▁sebesség	9
▁megoldás	9
▁rengeteg	9
▁gyerekek	9
▁tartozik	9
▁fájdalom	9
▁igazgató	9
▁budapest	9
▁változat	9
▁létrehoz	9
▁folyamat	9
▁vállalat	9
▁minőségi	9
▁aktuális	9
▁gyönyörű	9
▁megismer	9
▁társaság	9
▁pontosan	9
▁Országos	9
▁miközben	9
▁bizonyos	9
▁kötelező	9
▁garancia	9
▁szerzett	9
▁hosszabb	9
▁lakosság	9
gazdasági	9
Értékelés	9
▁apartman	9
▁fejlődés	9
▁többször	9
▁magasabb	9
▁gazdaság	9
▁biztosan	9
▁rugalmas	9
▁pénzügyi	9
▁hangulat	9
▁Cikkszám	9
▁formában	9
▁megadott	9
▁értékelt	9
▁országos	9
▁tulajdon	9
▁szívesen	9
▁vezetője	9
▁külföldi	9
▁időjárás	9
▁munkaidõ	9
▁lehetnek	9
▁szüksége	9
▁befolyás	9
▁változás	9
▁kellemes	9
▁ráadásul	9
▁pályázat	9
▁kerékpár	9
▁pénteken	9
▁bemutató	9
▁tartalma	9
▁közösség	9
▁izgalmas	9
▁szállást	9
▁javaslat	9
▁probléma	9
▁szálloda	9
▁bármikor	9
▁forgalom	9
▁szeretné	9
▁lehetett	9
▁amelyben	9
▁együttes	9
▁foglalás	9
▁forintot	9
▁cikkszám	9
▁közönség	9
▁fizetési	9
▁egyelőre	9
▁érintett	9
▁szerepet	9
▁maradjon	9
szervezet	9
▁központi	9
▁árfolyam	9
▁készítés	9
Személyes	9
▁érdeklőd	9
▁karakter	9
▁keresünk	9
▁ellátott	9
▁helyiség	9
▁magasság	9
▁fertőzés	9
▁szerinti	9
▁szoftver	9
▁hatással	9
▁határidő	9
▁Ingyenes	9
▁megfelel	9
▁érzékeny	9
▁kérdések	9
▁adatokat	9
▁vendégek	9
▁szerelem	9
▁mennyire	9
▁Raktáron	9
▁állapota	9
▁forintos	9
▁kerülnek	9
▁hulladék	9
▁Veszprém	9
▁negyedik	9
▁ügyintéz	9
▁kristály	9
▁fiatalok	9
▁igényelt	9
▁szerszám	9
▁Egészség	9
▁származó	9
Kapcsolat	9
▁szeretet	9
▁Erzsébet	9
▁masszázs	9
▁intézked	9
▁folyadék	9
Általános	9
▁egyetemi	9
▁szavazat	9
▁könnyebb	9
▁megelőző	9
▁intenzív	9
▁szakértő	9
▁elegendő	9
▁kockázat	9
▁letöltés	9
▁szabadon	9
▁tudomány	9
▁kipróbál	9
▁térképen	9
▁rendelet	9
▁alaposan	9
▁szemüveg	9
▁anyagból	9
▁villamos	9
▁alapvető	9
▁Tudomány	9
▁azonnali	9
▁Ingatlan	9
Részletes	9
▁említett	9
▁Garancia	9
▁oktatási	9
▁legszebb	9
▁híreiről	9
▁korszerű	9
▁távolság	9
▁javasolt	9
▁Társaság	9
▁prosztat	9
▁kényszer	9
helyettes	9
▁megtakar	9
▁végleges	9
▁művészet	9
▁irodalom	9
▁jelenlét	9
▁hirtelen	9
▁globális	9
▁Akadémia	9
▁megtiszt	9
Szélesség	9
▁kerületi	9
▁személyi	9
▁jótékony	9
Természet	9
▁Jelenleg	9
▁válaszol	9
▁nyújtott	9
Napnyugta	9
▁költsége	9
▁Emellett	9
▁szilikon	9
▁evőkanál	9
▁olimpiai	9
csütörtök	9
▁megkönny	9
▁kattints	9
▁gépjármű	9
▁Keresked	9
▁országok	9
▁éjszakai	9
▁gondolat	9
▁Magasság	9
▁köszönöm	9
▁szokásos	9
▁szolgáló	9
▁csatorna	9
acsonyabb	9
▁Amerikai	9
választás	9
▁ügyfelek	9
▁képernyő	9
▁étkezési	9
▁növények	9
▁Apartman	9
▁kiválóan	9
▁közelebb	9
▁többféle	9
▁szobában	9
▁autóbusz	9
▁jelennek	9
▁házasság	9
▁védelmet	9
▁munkaerő	9
▁tervezés	9
▁jogosult	9
▁kézműves	9
▁különleg	9
▁Köszönöm	9
▁keresési	9
tudományi	9
▁szellemi	9
▁források	9
▁évfolyam	9
▁Hirdetés	9
▁önkéntes	9
▁normális	9
▁különböz	9
▁egységes	9
▁területi	9
▁általunk	9
biztonság	9
▁táblázat	9
lehetőség	9
▁állomány	9
▁hozzájár	9
▁segíthet	9
▁bővebben	9
Képviselő	9
▁Válaszok	9
▁szerelés	9
▁kényelem	9
Köszönjük	9
▁javítása	9
▁ismerete	9
személyes	9
▁részvény	9
▁fokozott	9
▁Bővebben	9
▁Regisztr	9
vizsgálat	9
▁Krisztus	9
▁próbálja	9
▁krónikus	9
▁fogalmaz	9
▁kezelési	9
▁jelentés	9
▁nélkülöz	9
alkatrész	9
▁Időjárás	9
csökkentő	9
▁komolyan	9
▁Központi	9
▁szerette	9
politikai	9
▁hálózati	9
▁parazita	9
▁szerinte	9
▁Csongrád	9
▁Fővárosi	9
▁kerülhet	9
▁szállító	9
▁hónappal	9
▁működési	9
gyulladás	9
kapcsolat	9
▁teljesít	9
mennyiség	9
▁kutatási	9
▁Weboldal	9
▁Gazdaság	9
▁Ifjúsági	9
▁kijelölt	9
▁ajánlani	9
▁ízületek	9
▁területe	9
▁böngésző	9
▁terjeszt	9
azonosító	9
▁valamely	9
▁valahogy	9
▁férőhely	9
▁minősége	9
▁Rendszer	9
▁Válassza	9
▁gyermeke	9
kategória	9
▁kapcsoló	9
történeti	9
▁felkeres	9
▁Mészáros	9
Budapesti	9
▁látnival	9
vállalkoz	9
▁oldalunk	9
▁Ajánlott	9
▁Letöltés	9
▁hatósági	9
részletek	9
▁vizuális	9
használat	9
▁hatályos	9
▁forgalmi	9
▁elméleti	9
▁Kellemes	9
▁hasonlít	9
▁írásbeli	9
▁Egyszerű	9
▁Használt	9
▁Tisztelt	9
▁irányuló	9
▁Összesen	9
▁életének	9
szabadság	9
bizottság	9
▁felvásár	9
▁klinikai	9
kiállítás	9
▁képvisel	9
Digitális	9
▁tervezet	9
▁bekezdés	9
veszélyes	9
csillagos	9
szerződés	9
értékelés	9
hozzászól	9
▁Foglalás	9
▁találhat	9
▁artrózis	9
Speciális	9
▁leszokni	9
▁Miskolci	9
▁Fizetési	9
rendszert	9
▁Egyetemi	9
▁Termékek	9
▁bírósági	9
intézmény	9
▁Szeretet	9
▁Érvényes	9
augusztus	9
foglalkoz	9
▁Művészet	9
▁kukorica	9
▁Figyelem	9
▁szöveges	9
▁veszélye	9
köszönjük	9
▁helyette	9
független	9
▁Egységár	9
▁releváns	9
▁Pénzügyi	9
▁évtizede	9
▁vendégei	9
▁Megjelen	9
▁Tartalom	9
programok	9
▁Kerékpár	9
▁elérheti	9
általános	9
▁Vélemény	9
felújítás	9
▁hatályba	9
▁hatáskör	9
Környezet	9
látogatás	9
természet	9
kártyával	9
különbség	9
Közösségi	9
különböző	9
gyakorlat	9
elkezésre	9
▁Megnézem	9
▁Közösség	9
felvételi	9
▁műholdas	9
képviselő	9
▁Hatékony	9
▁nevelési	9
tisztítás	9
▁tartalmi	9
▁Készpénz	9
környezet	9
▁tárgyaló	9
problémák	9
következő	9
▁mozgatás	9
▁Megtalál	9
▁foglalta	9
▁fájdalma	9
▁Elérhető	9
▁felesleg	9
▁Bejelent	9
▁Hírlevél	9
Önkormány	9
▁közelébe	9
katolikus	9
vállalati	9
▁Fogyaszt	9
csoportos	9
fontosabb	9
▁eseménye	9
Gyógyszer	9
gyógyszer	9
tanfolyam	9
▁mindazok	9
szabályok	9
▁befektet	9
település	9
városában	9
▁értékelő	9
rendszere	9
ismeretek	9
▁bútorlap	9
▁feltöltő	9
tanulmány	9
karácsony	9
feladatok	9
visszatér	9
általában	9
▁valószín	9
▁személye	9
▁részlete	9
▁városába	9
Széchenyi	9
▁fizethet	9
részletes	9
▁Inspiron	9
▁paradics	9
▁kényelme	9
optimaliz	9
udományos	9
vérnyomás	9
miniszter	9
területen	9
szombaton	9
▁Kavicsos	9
álasztott	9
határozat	9
önkormány	9
kényelmes	9
Egyesület	9
digitális	9
Független	9
▁kerülete	9
területek	9
beépített	9
megfelelő	9
Vendégház	9
▁készlete	9
másodperc	9
▁gyászoló	9
▁pikkelys	9
iszonylag	9
biztosító	9
▁előirány	9
▁meglehet	9
különösen	9
Hálószoba	9
szerintem	9
található	9
▁Kapcsoló	9
szociális	9
▁tudatjuk	9
alumínium	9
gyakoribb	9
trifluoro	9
pyrimidin	9
piperidin	9
▁dropwise	9
fluoranyl	9
chloranyl	9
▁precipit	9
piperazin	9
cyclopent	9
benzamide	9
trimethyl	9
isopropyl	9
carbamoyl	9
formamide	9
quinoline	9
acetamide	9
dimethoxy	9
carbamate	9
▁Solvents	9
methanone	9
imidazole	9
morpholin	9
phosphine	9
thiophene	9
benzyloxy	9
propanoyl	9
hexahydro	9
oxadiazol	9
▁refluxed	9
methylene	9
propanoic	9
▁techniqu	9
▁prescrib	9
pyridazin	9
ylmethoxy	9
acetamido	9
palladium	9
▁organics	9
oxymethyl	9
dihydroxy	9
propionic	9
▁degassed	9
ethanoate	9
carbazole	9
pentanoic	9
butanoate	9
cyclohexa	9
magnesium	9
isoindole	9
▁operandi	9
▁basified	9
triphenyl	9
petroleum	9
▁Stirring	9
▁dichloro	9
oxyphenyl	9
dissolved	9
▁triethyl	9
iperidine	9
ylpyridin	9
sulfonate	9
anhydrous	9
dichlorop	9
potassium	9
tillation	9
▁obavesti	9
▁nekoliko	9
▁Beogradu	9
▁Odgovora	9
▁Ministar	9
▁uklonili	9
▁autorska	9
▁preuzeta	9
▁ministar	9
▁Pregleda	9
▁stranici	9
▁policija	9
▁najbolji	9
▁trenutno	9
▁najbolje	9
▁Beograda	9
▁prilikom	9
▁mobilnim	9
▁trenutku	9
▁Vecernji	9
▁zadržava	9
▁uputstva	9
▁utakmice	9
▁zanimati	9
Izdvojeno	9
▁direktor	9
▁saopštio	9
▁potrebno	9
Poslednji	9
▁Hrvatske	9
▁dovoljno	9
▁potrebna	9
▁objavila	9
▁komentar	9
▁premijer	9
▁Pročitaj	9
▁Partizan	9
▁korisnik	9
▁rezultat	9
▁upoznati	9
▁najmanje	9
▁milijuna	9
▁agencija	9
▁njegovim	9
▁uglavnom	9
▁području	9
▁početkom	9
Pravilima	9
predsedni	9
▁izuzetno	9
▁Hrvatska	9
▁spoljnih	9
▁pokazuje	9
▁njegovog	9
▁saradnji	9
▁američki	9
▁zvanično	9
▁njegovom	9
▁pokazuju	9
Referrals	9
▁Policija	9
▁smatraju	9
▁sekretar	9
Losowanie	9
▁Telegraf	9
▁najvećih	9
▁američke	9
▁hrvatski	9
▁Premijer	9
Poslednja	9
▁pokušava	9
▁prilično	9
▁ozbiljno	9
▁njegovoj	9
▁njihovim	9
▁njihovom	9
▁značajno	9
▁Pogledaj	9
▁Večernje	9
▁Sportske	9
Pridružio	9
▁ljudskih	9
▁Pevačica	9
▁Slobodan	9
Predsedni	9
▁Američki	9
▁Trenutno	9
Pogledano	9
▁Komentar	9
Subtitles	9
▁Fudbaler	9
▁sadržaje	9
▁računaju	9
▁pogledaj	9
superslot	9
▁Inverter	9
▁Baccarat	9
▁Mobifone	9
▁Vinhomes	9
▁Vinpearl	9
ightarrow	9
▁KBVISION	9
▁Sunhouse	9
Vinaphone	9
Campuchia	9
▁Fujifilm	9
Chevrolet	9
▁tructiep	9
quanghang	9
Sheffield	9
▁Symantec	9
photocopy	9
Riverside	9
▁current	8
▁private	8
▁request	8
▁message	8
▁element	8
Question	8
▁Initial	8
ctionary	8
▁default	8
▁command	8
▁charact	8
lication	8
▁package	8
▁contain	8
filename	8
▁numbers	8
▁example	8
▁returns	8
▁program	8
▁provide	8
▁context	8
▁through	8
▁between	8
▁content	8
▁process	8
function	8
▁pattern	8
▁License	8
▁convert	8
Response	8
Property	8
▁initial	8
▁version	8
▁display	8
▁include	8
▁project	8
▁problem	8
▁because	8
Override	8
▁Iterate	8
template	8
▁integer	8
icrosoft	8
▁maximum	8
▁correct	8
▁results	8
▁library	8
▁product	8
▁modules	8
▁address	8
▁without	8
▁Convert	8
▁options	8
▁already	8
▁created	8
response	8
▁dataset	8
▁another	8
▁distrib	8
password	8
▁session	8
reponame	8
▁greater	8
▁perform	8
▁counter	8
▁connect	8
▁logging	8
▁android	8
▁objects	8
▁boolean	8
▁columns	8
▁success	8
Instance	8
position	8
instance	8
▁require	8
Provider	8
▁install	8
▁running	8
▁service	8
Resource	8
▁console	8
tributes	8
▁extends	8
▁strings	8
▁comment	8
▁account	8
▁support	8
register	8
document	8
username	8
▁working	8
▁Console	8
▁network	8
▁instead	8
▁methods	8
▁sklearn	8
irection	8
cription	8
▁changes	8
argument	8
▁replace	8
Position	8
▁matches	8
▁minimum	8
▁coordin	8
▁control	8
▁classes	8
Settings	8
▁seconds	8
▁whether	8
Listener	8
▁defined	8
▁feature	8
▁channel	8
▁reverse	8
igration	8
ToString	8
▁similar	8
▁Setting	8
▁writing	8
▁extract	8
location	8
▁Windows	8
▁related	8
▁details	8
▁virtual	8
▁regular	8
▁testing	8
▁Integer	8
▁Returns	8
settings	8
▁headers	8
DateTime	8
Function	8
Document	8
Argument	8
▁verbose	8
▁Extract	8
Template	8
Services	8
irectory	8
▁average	8
▁updated	8
Password	8
▁getting	8
atically	8
datetime	8
▁primary	8
▁Message	8
▁setting	8
▁creates	8
▁present	8
▁suggest	8
resource	8
property	8
▁specify	8
overflow	8
▁handler	8
Required	8
▁decimal	8
TestCase	8
Location	8
▁looking	8
▁browser	8
iostream	8
▁execute	8
▁However	8
category	8
▁indices	8
exchange	8
▁predict	8
▁express	8
▁reading	8
▁section	8
▁license	8
Category	8
▁Default	8
Serializ	8
▁foreach	8
Activity	8
▁missing	8
▁Version	8
▁certain	8
▁Display	8
▁written	8
▁subject	8
▁nothing	8
Database	8
▁develop	8
features	8
▁pointer	8
mplement	8
▁partial	8
▁machine	8
▁Getting	8
▁visited	8
▁complex	8
▁article	8
▁Request	8
▁student	8
▁Example	8
▁forward	8
▁Command	8
sequence	8
▁builder	8
▁someone	8
▁profile	8
▁website	8
database	8
expected	8
▁special	8
Variable	8
▁payload	8
▁weights	8
▁Product	8
typename	8
▁general	8
▁depends	8
toString	8
▁letters	8
▁contact	8
▁changed	8
▁respect	8
▁Process	8
▁answers	8
▁Execute	8
▁exactly	8
▁deleted	8
▁Connect	8
variable	8
▁warning	8
patterns	8
distance	8
▁invalid	8
required	8
▁company	8
Register	8
▁measure	8
▁Project	8
▁cluster	8
readline	8
▁allowed	8
▁padding	8
▁Service	8
▁release	8
▁storage	8
▁manager	8
▁compare	8
▁several	8
▁prevent	8
▁keyword	8
▁mention	8
▁records	8
▁disable	8
▁against	8
▁minutes	8
▁country	8
serializ	8
▁removed	8
▁printed	8
Callback	8
▁storing	8
▁Perform	8
▁compute	8
▁calling	8
▁actions	8
▁usually	8
▁various	8
▁Created	8
▁however	8
▁timeout	8
▁Program	8
Selector	8
contains	8
▁meaning	8
fficient	8
▁samples	8
Contract	8
Metadata	8
▁started	8
Contains	8
▁smaller	8
▁iterate	8
▁mapping	8
▁WITHOUT	8
▁balance	8
licenses	8
▁English	8
▁trigger	8
services	8
▁applied	8
Selected	8
▁implied	8
Identity	8
▁largest	8
▁unicode	8
▁formula	8
operator	8
▁history	8
▁entries	8
▁Reading	8
▁defines	8
▁desired	8
NotFound	8
▁capture	8
▁appears	8
internal	8
▁Content	8
children	8
▁Android	8
▁windows	8
download	8
security	8
callback	8
▁newline	8
complete	8
▁thought	8
question	8
Security	8
AreEqual	8
▁choices	8
language	8
▁enabled	8
▁continu	8
ferences	8
▁loading	8
Renderer	8
▁follows	8
▁Replace	8
▁Boolean	8
▁outputs	8
▁surface	8
generate	8
selected	8
▁segment	8
▁Calling	8
▁encoded	8
▁wrapper	8
▁dynamic	8
packages	8
▁advance	8
▁entered	8
▁threads	8
▁outside	8
▁Counter	8
▁happens	8
Entities	8
▁factory	8
FileName	8
Customer	8
sentence	8
Fragment	8
Distance	8
▁checked	8
▁receive	8
▁metrics	8
Sequence	8
▁collect	8
▁purpose	8
metadata	8
Language	8
▁filters	8
▁degrees	8
Abstract	8
▁longest	8
unittest	8
▁Account	8
▁members	8
continue	8
encoding	8
elements	8
Assembly	8
validate	8
commands	8
▁produce	8
▁finally	8
▁Context	8
▁perfect	8
Internal	8
material	8
Username	8
▁Current	8
▁picture	8
IsNullOr	8
▁appreci	8
Descript	8
Diagnost	8
products	8
▁coeffic	8
training	8
▁players	8
Controls	8
Interval	8
messages	8
▁believe	8
▁foreign	8
▁runtime	8
▁achieve	8
▁compile	8
▁vectors	8
▁onClick	8
▁further	8
▁located	8
▁Student	8
▁devices	8
Solution	8
▁finding	8
▁summary	8
Duration	8
ribution	8
▁parsing	8
▁freopen	8
▁Testing	8
▁Compute	8
▁systems	8
▁Invalid	8
▁Opening	8
iterator	8
▁sending	8
▁Network	8
▁General	8
solution	8
original	8
erialize	8
▁respons	8
customer	8
▁pressed	8
▁resolve	8
strftime	8
▁Session	8
▁obvious	8
▁publish	8
Progress	8
▁generic	8
▁factors	8
accuracy	8
▁Specify	8
▁Element	8
▁handles	8
▁Address	8
▁becomes	8
▁passing	8
contents	8
▁visible	8
platform	8
▁confirm	8
duration	8
▁highest	8
▁backend	8
▁consist	8
▁tkinter	8
▁leading	8
▁buttons	8
▁explain	8
interval	8
▁divided	8
▁LICENSE	8
▁opening	8
▁Contact	8
activity	8
Registry	8
▁improve	8
▁Comment	8
Analysis	8
▁utility	8
▁Profile	8
▁monitor	8
▁Loading	8
Graphics	8
▁Library	8
Nullable	8
Material	8
PASSWORD	8
▁Runtime	8
▁MongoDB	8
▁jsonify	8
Platform	8
Endpoint	8
Iterator	8
▁instant	8
pecially	8
▁Scanner	8
relation	8
ReadOnly	8
unsigned	8
▁payment	8
▁imports	8
channels	8
▁concept	8
▁HashMap	8
▁symbols	8
provider	8
▁ordered	8
Operator	8
abstract	8
▁closing	8
datasets	8
▁cancell	8
AddField	8
▁showing	8
GetValue	8
Redirect	8
deletion	8
Encoding	8
▁Instant	8
comments	8
Delegate	8
literals	8
▁quality	8
▁squares	8
Children	8
Optional	8
▁Control	8
Standard	8
▁attempt	8
▁println	8
linspace	8
ViewById	8
▁voltage	8
▁getchar	8
▁applies	8
▁subplot	8
▁sources	8
Complete	8
▁texture	8
▁lengths	8
itecture	8
dispatch	8
▁weather	8
▁ability	8
▁reached	8
Protocol	8
leetcode	8
▁natural	8
geometry	8
▁failure	8
specific	8
ikipedia	8
fileName	8
▁playing	8
ListView	8
examples	8
▁Creates	8
▁station	8
catenate	8
▁matched	8
requests	8
learning	8
▁Problem	8
▁Manager	8
▁numeric	8
▁binding	8
▁destroy	8
▁drawing	8
redirect	8
▁shuffle	8
▁reasons	8
▁targets	8
▁encrypt	8
▁divisor	8
TextView	8
graphics	8
articles	8
standard	8
pipeline	8
▁density	8
endpoint	8
▁Twitter	8
requires	8
▁Include	8
TreeNode	8
constant	8
▁restore	8
▁unknown	8
Generate	8
▁Package	8
▁inverse	8
assembly	8
▁circuit	8
identity	8
rotation	8
▁DEFAULT	8
Download	8
▁perhaps	8
▁cleaned	8
problems	8
variance	8
negative	8
▁closest	8
subplots	8
progress	8
▁trained	8
▁Article	8
▁friends	8
▁combine	8
Rotation	8
▁percent	8
Calendar	8
Validate	8
▁cookies	8
▁trouble	8
▁limited	8
previous	8
Expected	8
absolute	8
▁prepare	8
Pipeline	8
▁Finally	8
▁squared	8
▁shouldn	8
▁asyncio	8
quantity	8
▁quickly	8
▁pathlib	8
Geometry	8
▁polygon	8
Business	8
readable	8
describe	8
protocol	8
▁elapsed	8
Compiler	8
analysis	8
▁reflect	8
velocity	8
▁traffic	8
▁acceler	8
▁capital	8
▁uniform	8
▁neither	8
▁nearest	8
▁waiting	8
optional	8
endswith	8
Behavior	8
▁managed	8
entially	8
▁hashlib	8
priority	8
▁Complex	8
▁battery	8
▁Generic	8
▁getattr	8
▁Receive	8
▁Storage	8
Multiple	8
▁Finding	8
▁effects	8
▁helpful	8
▁noticed	8
▁Pattern	8
Accessor	8
▁vehicle	8
▁Dispose	8
▁ignored	8
▁Compare	8
▁Decimal	8
▁Alembic	8
▁popular	8
▁encoder	8
▁Support	8
software	8
formance	8
▁Unicode	8
▁welcome	8
▁inherit	8
MenuItem	8
makedirs	8
▁Promise	8
▁talking	8
▁discord	8
Exchange	8
▁inplace	8
Transfer	8
facebook	8
contract	8
▁outfile	8
▁Compile	8
▁authors	8
▁derived	8
uclidean	8
▁Prepare	8
Constant	8
capacity	8
Modified	8
▁Objects	8
▁somehow	8
▁handled	8
▁Texture	8
▁Whether	8
▁charset	8
vertices	8
cvtColor	8
▁Company	8
▁belongs	8
▁Feature	8
▁Combine	8
▁seaborn	8
▁scatter	8
▁Builder	8
▁algebra	8
▁optimal	8
▁environ	8
external	8
▁Because	8
▁Dataset	8
▁Attempt	8
DataType	8
Original	8
Software	8
timezone	8
▁declare	8
▁extreme	8
▁Instead	8
External	8
▁earlier	8
Relation	8
▁assumed	8
ulations	8
clusters	8
▁clearly	8
▁epsilon	8
▁angular	8
students	8
▁patient	8
▁putting	8
▁Maximum	8
▁PURPOSE	8
latitude	8
relative	8
▁chapter	8
Requests	8
▁theorem	8
ographic	8
▁Methods	8
▁stopped	8
modified	8
▁logical	8
▁signals	8
Positive	8
▁species	8
▁towards	8
strategy	8
perience	8
▁rounded	8
business	8
multiple	8
evaluate	8
▁Virtual	8
▁reports	8
creasing	8
▁causing	8
positive	8
▁Dynamic	8
▁FITNESS	8
▁Machine	8
Creating	8
▁Private	8
▁ILogger	8
Relative	8
▁scaling	8
▁sigmoid	8
▁proceed	8
Training	8
▁overall	8
defaults	8
▁Chinese	8
▁wrapped	8
▁valores	8
▁keeping	8
▁minimal	8
includes	8
▁suppose	8
▁reduced	8
▁locally	8
▁overlap	8
▁teacher	8
▁parents	8
checkbox	8
▁arrange	8
▁persons	8
▁precise	8
▁opinion	8
▁princip	8
Examples	8
markdown	8
Velocity	8
filtered	8
▁respond	8
▁digital	8
traction	8
▁central	8
▁strange	8
nullable	8
▁decided	8
▁Partial	8
multiply	8
▁hasattr	8
▁suspect	8
queryset	8
gradient	8
TypeName	8
▁regions	8
▁protect	8
triangle	8
Comments	8
strptime	8
▁entropy	8
▁reaches	8
▁benefit	8
warnings	8
sections	8
Vertical	8
▁hundred	8
▁anymore	8
▁shorter	8
ervation	8
▁amounts	8
▁indexed	8
▁pointed	8
transfer	8
▁heading	8
▁culture	8
equation	8
▁Publish	8
▁Section	8
ological	8
NumberOf	8
vertical	8
Consider	8
▁domains	8
▁imagine	8
▁contour	8
▁leaving	8
▁million	8
Defaults	8
▁dropout	8
selenium	8
▁compact	8
▁monthly	8
starting	8
▁subsets	8
▁Subject	8
existing	8
override	8
Absolute	8
▁trivial	8
▁Similar	8
▁diagram	8
▁Another	8
▁granted	8
▁implies	8
▁circles	8
▁simpler	8
▁modulus	8
▁remains	8
▁Regular	8
computer	8
▁radians	8
▁covered	8
▁holding	8
artifact	8
▁rotated	8
▁analyze	8
▁deliver	8
terminal	8
▁portion	8
▁typical	8
▁easiest	8
▁Minimum	8
▁preview	8
▁VARCHAR	8
retrieve	8
▁gravity	8
▁corners	8
▁pyspark	8
▁outcome	8
▁decoder	8
▁solving	8
▁quantum	8
Accuracy	8
▁Measure	8
interest	8
▁typedef	8
descript	8
▁dealing	8
▁Collect	8
possible	8
▁opacity	8
▁physics	8
▁assumes	8
keyboard	8
Gradient	8
finished	8
▁greatly	8
standing	8
▁YouTube	8
ShouldBe	8
TryParse	8
▁learned	8
▁treated	8
▁softmax	8
▁Browser	8
research	8
▁colored	8
▁whereas	8
▁meeting	8
▁spatial	8
▁PyTorch	8
Computer	8
▁INTEGER	8
Particle	8
▁Segment	8
▁animals	8
compiler	8
▁Arrange	8
received	8
Specific	8
parallel	8
▁Require	8
NSString	8
▁biggest	8
▁serious	8
ListNode	8
▁joining	8
▁knowing	8
numberOf	8
▁protein	8
fraction	8
▁careful	8
▁totally	8
▁rewrite	8
GridView	8
▁Average	8
building	8
▁curious	8
backward	8
Division	8
▁journal	8
▁dropped	8
▁turning	8
Previous	8
▁Angular	8
isposing	8
Learning	8
forecast	8
▁IMPLIED	8
▁concent	8
▁promise	8
ibraries	8
▁variety	8
▁recover	8
▁Results	8
▁science	8
feedback	8
creation	8
Assuming	8
Extended	8
▁figures	8
neighbor	8
▁winning	8
delegate	8
▁bitwise	8
▁LIMITED	8
▁satisfy	8
▁conduct	8
▁Details	8
rcParams	8
TimeSpan	8
▁History	8
▁Forward	8
▁Special	8
▁Summary	8
▁outline	8
▁figsize	8
paramref	8
▁sharing	8
▁Nothing	8
sampling	8
▁filling	8
Retrieve	8
▁rolling	8
Negative	8
ComboBox	8
▁realize	8
▁telling	8
▁pooling	8
▁figured	8
▁exposed	8
▁EXPRESS	8
▁enables	8
▁Authors	8
detector	8
together	8
▁opposed	8
▁neutral	8
▁partner	8
ivariate	8
▁edition	8
Parallel	8
▁serving	8
Decision	8
Debugger	8
▁metavar	8
CheckBox	8
matching	8
▁labeled	8
▁shifted	8
▁Science	8
Advanced	8
Gaussian	8
▁feeling	8
aaaaaaaa	8
Terminal	8
▁offline	8
▁routine	8
equality	8
▁clarify	8
optimize	8
▁Numbers	8
combined	8
▁himself	8
▁matters	8
▁concern	8
▁closure	8
▁Bitcoin	8
assuming	8
▁capable	8
subtract	8
▁roughly	8
▁descent	8
▁fitting	8
▁Fourier	8
boundary	8
▁Chapter	8
Although	8
smallest	8
▁mission	8
▁Primary	8
▁morning	8
▁delimit	8
friendly	8
directed	8
▁trading	8
Students	8
personal	8
creating	8
▁Marshal	8
▁forever	8
▁comfort	8
▁Express	8
▁discuss	8
▁scoring	8
▁observe	8
division	8
▁Perhaps	8
▁stretch	8
▁stories	8
▁willing	8
▁mounted	8
fontsize	8
distinct	8
▁explore	8
▁Without	8
▁bounded	8
readonly	8
▁classic	8
▁reactor	8
▁involve	8
balanced	8
▁equival	8
Facebook	8
▁divides	8
▁driving	8
favorite	8
increase	8
Personal	8
▁Pokemon	8
ordinary	8
▁Actions	8
▁categor	8
although	8
decision	8
▁fashion	8
▁Patient	8
practice	8
▁Digital	8
▁removal	8
internet	8
▁plastic	8
Exercise	8
▁enhance	8
▁ndarray	8
Checking	8
extended	8
▁quarter	8
▁Russian	8
▁escaped	8
weighted	8
▁emotion	8
particle	8
assigned	8
▁IPython	8
▁lattice	8
▁substit	8
▁weapons	8
▁ostream	8
▁January	8
pressure	8
▁Further	8
▁Updated	8
checking	8
▁placing	8
▁Physics	8
exercise	8
▁Keyword	8
▁despite	8
Physical	8
▁cooking	8
▁individ	8
critical	8
Compound	8
Boundary	8
▁Elastic	8
diagonal	8
▁strides	8
▁reduces	8
▁Suppose	8
▁sampled	8
▁graphic	8
▁landing	8
▁shallow	8
▁walking	8
▁century	8
Selenium	8
▁ellipse	8
electron	8
behavior	8
▁hitting	8
official	8
overline	8
onChange	8
▁reality	8
▁maximal	8
▁sliding	8
▁equally	8
Describe	8
▁Website	8
▁falling	8
▁TResult	8
▁pushing	8
Remember	8
olutions	8
mathfrak	8
▁brought	8
▁passage	8
strength	8
▁focused	8
▁ordinal	8
▁Calcula	8
▁ceiling	8
▁disease	8
▁Welcome	8
Changing	8
▁twisted	8
▁modular	8
printing	8
▁picking	8
Internet	8
▁college	8
▁sitting	8
▁medical	8
▁British	8
physical	8
▁cutting	8
▁Theorem	8
▁informa	8
▁Systems	8
accepted	8
FileType	8
▁Correct	8
▁Edition	8
Research	8
whatever	8
minimize	8
▁Working	8
▁Foreign	8
estimate	8
▁raising	8
▁Numeric	8
▁worried	8
▁cleared	8
▁regards	8
ilibrium	8
integers	8
▁insight	8
AAAAAAAA	8
▁growing	8
▁readers	8
▁fprintf	8
Designer	8
▁mixture	8
▁America	8
▁Surface	8
▁attract	8
▁privacy	8
argparse	8
ffffffff	8
▁offered	8
simulate	8
▁varying	8
▁chicken	8
uploaded	8
▁tangent	8
▁Journal	8
bounding	8
Keywords	8
▁behaves	8
▁charges	8
remember	8
▁Archive	8
▁denotes	8
▁besides	8
▁pulling	8
▁freedom	8
▁trusted	8
shortest	8
networks	8
▁passive	8
▁studies	8
▁conform	8
▁massive	8
▁parking	8
▁antenna	8
▁charged	8
▁calcula	8
Accepted	8
▁carrier	8
addition	8
Pressure	8
subseteq	8
▁alcohol	8
energies	8
probably	8
▁closely	8
provided	8
▁bitcoin	8
computed	8
▁lecture	8
▁letting	8
▁wanting	8
▁elastic	8
Multiply	8
▁horizon	8
▁electro	8
interact	8
▁heavily	8
spectrum	8
▁backing	8
▁clothes	8
▁killing	8
election	8
▁forcing	8
▁journey	8
▁helping	8
director	8
▁transit	8
▁Quantum	8
DataGrid	8
matrices	8
Director	8
ymmetric	8
▁defense	8
Topology	8
▁fingers	8
plotting	8
Electron	8
▁schemes	8
ogeneous	8
topology	8
▁October	8
▁Booking	8
handling	8
▁gesture	8
omorphic	8
universe	8
▁Michael	8
▁Related	8
▁reserve	8
▁orbital	8
reaction	8
▁watched	8
▁thermal	8
programs	8
▁residue	8
consider	8
▁Rewrite	8
residual	8
Recently	8
incoming	8
▁Poisson	8
▁Continu	8
decrease	8
integral	8
▁Monster	8
▁heating	8
▁genetic	8
oriented	8
▁kitchen	8
▁emitted	8
▁optical	8
maximize	8
▁Uniform	8
▁crystal	8
▁healthy	8
▁carried	8
▁nonzero	8
▁sistema	8
▁examine	8
▁univers	8
▁Central	8
▁Natural	8
possibly	8
logistic	8
notation	8
orphisms	8
▁differs	8
▁persona	8
Logistic	8
exponent	8
▁Trainer	8
▁brother	8
detected	8
▁absence	8
▁scanned	8
District	8
▁Spatial	8
Printing	8
▁denomin	8
▁constit	8
▁awkward	8
▁planned	8
▁bearing	8
▁ambient	8
compound	8
explicit	8
▁istream	8
▁moments	8
changing	8
▁facilit	8
▁functor	8
▁tension	8
▁ancient	8
▁paralle	8
homework	8
▁INVALID	8
Problems	8
▁Youtube	8
tainment	8
▁Riemann	8
▁dismiss	8
▁magical	8
floating	8
▁Inverse	8
▁billion	8
▁married	8
discrete	8
▁arrived	8
▁weekend	8
▁Formula	8
implicit	8
▁discret	8
▁touched	8
▁pricing	8
▁nominal	8
▁studied	8
▁Samsung	8
▁refused	8
▁wearing	8
momentum	8
Telegram	8
Equation	8
manifold	8
repeated	8
▁cooling	8
▁largely	8
Practice	8
▁amazing	8
relevant	8
▁kinetic	8
returned	8
▁Printer	8
▁Looking	8
▁abelian	8
▁vanilla	8
▁hearing	8
homology	8
▁Italian	8
setminus	8
▁Algebra	8
▁relates	8
▁spectra	8
answered	8
▁textual	8
counting	8
ditional	8
contrast	8
hospital	8
▁promote	8
▁silence	8
SOFTWARE	8
▁propose	8
Licensed	8
▁fiction	8
circular	8
▁feeding	8
useState	8
actually	8
▁infinit	8
▁claimed	8
▁polymer	8
▁Hilbert	8
▁neutron	8
▁Thunder	8
pairwise	8
rational	8
ordinate	8
▁Jackson	8
iliation	8
▁Visitor	8
▁burning	8
▁boiling	8
▁seeking	8
▁isolate	8
▁photons	8
ituation	8
▁seventh	8
released	8
periodic	8
▁Neither	8
▁Concept	8
included	8
▁perturb	8
shortcut	8
▁staying	8
▁forming	8
patients	8
▁squeeze	8
▁hanging	8
▁nowhere	8
centered	8
▁Density	8
Saturday	8
Integral	8
▁husband	8
infinity	8
breaking	8
▁nuclear	8
▁possess	8
electric	8
creative	8
▁Between	8
▁induced	8
▁Advance	8
▁Partner	8
Discrete	8
▁England	8
▁Percent	8
ications	8
▁ongoing	8
incident	8
▁trapped	8
anything	8
▁muscles	8
▁College	8
▁proving	8
▁inertia	8
▁focuses	8
FromArgb	8
▁Classic	8
▁suffice	8
▁evening	8
Infinite	8
American	8
greatest	8
▁confuse	8
▁impulse	8
▁invited	8
dynamics	8
Homework	8
▁crossed	8
▁crucial	8
▁efforts	8
singular	8
▁Answers	8
binomial	8
▁algorit	8
football	8
citation	8
adaptive	8
infinite	8
▁younger	8
▁rapidly	8
measures	8
▁climate	8
modeling	8
▁EXAMPLE	8
▁officer	8
separate	8
straight	8
▁Someone	8
▁musical	8
February	8
▁denoted	8
December	8
supports	8
simplify	8
▁analogy	8
removing	8
anaconda	8
▁Medical	8
▁radical	8
▁ranging	8
▁briefly	8
November	8
▁Tuesday	8
Rational	8
▁lifting	8
▁readily	8
▁yielded	8
▁Pearson	8
▁thereby	8
planning	8
▁unitary	8
designer	8
molecule	8
▁distant	8
▁Richard	8
comboBox	8
▁shadows	8
▁Privacy	8
chemical	8
▁diffuse	8
▁village	8
▁washing	8
National	8
▁Solving	8
▁Through	8
followed	8
Moreover	8
▁Respons	8
▁amongst	8
aturated	8
▁priorit	8
▁convers	8
Electric	8
prepared	8
national	8
accurate	8
Simplify	8
▁Cookies	8
▁Western	8
▁coupled	8
▁Develop	8
Whatever	8
▁replied	8
restrict	8
subclass	8
▁Graphic	8
▁organic	8
spectral	8
Official	8
recently	8
▁excited	8
concrete	8
▁soldier	8
▁Imaging	8
▁flowing	8
imported	8
▁uncheck	8
journals	8
▁healing	8
▁wavelet	8
▁damping	8
▁Palette	8
▁chamber	8
▁shortly	8
definite	8
redshift	8
▁diction	8
▁Reviews	8
emptyset	8
eqnarray	8
▁handful	8
cleaning	8
localize	8
▁Perfect	8
replaced	8
▁federal	8
checkBox	8
▁Besides	8
analytic	8
▁halfway	8
TabIndex	8
▁Matthew	8
▁dragged	8
▁whoever	8
▁Lecture	8
▁Crystal	8
▁Captain	8
▁herself	8
▁Speaker	8
ransform	8
▁beneath	8
▁pretend	8
▁nucleus	8
icularly	8
defining	8
▁tightly	8
▁leaders	8
numbered	8
▁Charles	8
▁regress	8
▁Premium	8
measured	8
▁thunder	8
▁Wolfram	8
enerated	8
mountain	8
▁Clearly	8
▁Academy	8
reported	8
▁exhibit	8
▁Macbook	8
Calories	8
▁Chicago	8
▁endless	8
▁Flutter	8
▁Laplace	8
▁William	8
oooooooo	8
cylinder	8
▁lateral	8
approach	8
concaten	8
▁stellar	8
peration	8
▁Lorentz	8
▁Applied	8
▁settled	8
thousand	8
▁Fitness	8
▁worship	8
produces	8
thinking	8
▁Modular	8
Relevant	8
▁Univers	8
affected	8
▁intense	8
▁derives	8
▁Protein	8
▁grabbed	8
normally	8
▁definit	8
quotient	8
▁genuine	8
▁Society	8
▁adjoint	8
▁Categor	8
▁imaging	8
disjoint	8
▁wedding	8
▁farther	8
▁Federal	8
▁resting	8
harmonic	8
▁cracked	8
▁hunting	8
Defining	8
▁pathway	8
▁captain	8
▁relativ	8
▁fourier	8
Everyone	8
outcomes	8
▁mineral	8
▁bedroom	8
▁constru	8
▁modeled	8
indrical	8
▁Several	8
▁voucher	8
▁outdoor	8
opposite	8
▁checkin	8
European	8
▁descend	8
▁vertice	8
▁Angeles	8
Modeling	8
▁Diamond	8
everyone	8
▁bending	8
▁Proceed	8
▁stomach	8
▁Pacific	8
▁Explain	8
▁Eastern	8
▁forgive	8
▁solvent	8
▁Fantasy	8
▁melting	8
▁western	8
▁statist	8
▁Faculty	8
▁evident	8
▁torsion	8
speaking	8
▁differe	8
▁compris	8
▁profess	8
ccording	8
▁describ	8
▁introdu	8
▁complet	8
▁Council	8
▁organiz	8
redients	8
▁fixedly	8
▁strateg	8
▁Florida	8
▁surpris	8
▁researc	8
▁enjoyed	8
▁Profess	8
▁African	8
▁council	8
▁wherein	8
▁complic	8
▁experim	8
▁conclud	8
ollowing	8
▁tonight	8
▁subsequ	8
▁Zealand	8
▁chopped	8
opyright	8
▁vaccine	8
▁diverse	8
▁fishing	8
▁Premier	8
▁Studies	8
▁Officer	8
anguages	8
▁pleased	8
▁Supreme	8
▁chronic	8
urrently	8
▁Despite	8
▁underst	8
▁Stephen	8
▁Philipp	8
▁Olympic	8
▁Patrick	8
▁Ukraine	8
▁nervous	8
▁Chelsea	8
resident	8
▁Sheriff	8
▁eastern	8
▁Brother	8
gression	8
▁coconut	8
▁beating	8
▁stepped	8
▁blessed	8
▁Antonio	8
▁emerged	8
▁Reuters	8
▁winding	8
▁singles	8
▁Arsenal	8
▁constra	8
▁metabol	8
▁vitamin	8
▁Vietnam	8
▁Charlie	8
▁inspire	8
▁violent	8
▁Israeli	8
▁reprodu	8
▁leather	8
▁lightly	8
▁spotted	8
perature	8
▁calcium	8
▁microsc	8
▁deserve	8
▁devoted	8
▁assured	8
▁silicon	8
▁Stanley	8
▁dressed	8
▁pharmac	8
▁skillet	8
▁reminds	8
▁knocked	8
▁sensing	8
▁undergo	8
attering	8
▁Jessica	8
appropri	8
▁massage	8
olecular	8
▁breathe	8
▁Chicken	8
▁anxious	8
▁Austria	8
velength	8
▁blanket	8
▁bonding	8
▁battles	8
requency	8
▁Theater	8
▁lowered	8
▁glimpse	8
▁climbed	8
▁roasted	8
reatment	8
▁thanked	8
▁Stephan	8
▁freshly	8
▁Restaur	8
▁lithium	8
▁Preheat	8
▁hormone	8
▁quietly	8
▁fifteen	8
▁eternal	8
daughter	8
▁contrad	8
▁smiling	8
▁Gabriel	8
▁slipped	8
ifferent	8
▁Fashion	8
▁Alexand	8
▁laughed	8
▁shaking	8
▁sounded	8
▁conserv	8
▁Million	8
▁abandon	8
ccessful	8
▁convinc	8
▁referen	8
▁Hungary	8
Citation	8
▁Shannon	8
▁Vitamin	8
▁crusher	8
▁Ancient	8
▁shining	8
▁whistle	8
▁practic	8
▁greeted	8
▁aqueous	8
▁employs	8
▁snapped	8
▁Scholar	8
odynamic	8
▁Ronaldo	8
▁Outside	8
▁concave	8
▁multipl	8
▁confess	8
▁dispers	8
▁gradual	8
▁ethanol	8
▁Nuclear	8
▁Various	8
▁staring	8
▁pressur	8
▁Outdoor	8
ependent	8
▁furnish	8
▁conical	8
▁Grandma	8
▁Tickets	8
▁utterly	8
▁Myanmar	8
▁chaotic	8
▁Protest	8
▁playful	8
▁Maxwell	8
▁reacted	8
▁Roberto	8
▁leaning	8
▁methane	8
▁ammonia	8
▁Colonel	8
▁slammed	8
asonable	8
▁Bangkok	8
▁envelop	8
▁adhered	8
rimental	8
▁Miranda	8
▁rubbing	8
Canadian	8
▁Hamburg	8
▁stirred	8
▁glowing	8
▁swallow	8
▁Nicolas	8
▁Vintage	8
aneously	8
▁Hyundai	8
▁telecom	8
▁trailed	8
▁sulfate	8
▁foolish	8
▁Reality	8
▁Tiffany	8
▁Andreas	8
produced	8
▁Fischer	8
▁Pension	8
▁Serving	8
▁polynom	8
▁Porsche	8
▁Revised	8
▁tighten	8
▁Seminar	8
▁roadmap	8
▁vampire	8
designed	8
laughter	8
▁acetate	8
▁degener	8
▁shouted	8
▁Electro	8
▁furious	8
Minister	8
Northern	8
▁Emerald	8
▁Mineral	8
▁brushed	8
▁induces	8
bringing	8
▁breasts	8
Southern	8
▁diluted	8
▁Laurent	8
▁Renault	8
▁stumble	8
arranged	8
aterials	8
▁Leipzig	8
ractions	8
informed	8
▁Optical	8
fighting	8
▁Admiral	8
stituted	8
intended	8
▁Schwarz	8
▁Christi	8
▁Thermal	8
▁hydroxy	8
▁widened	8
▁doorway	8
Hamilton	8
reaching	8
▁Doppler	8
▁kissing	8
▁Everest	8
pecified	8
Regional	8
▁Massage	8
ountains	8
▁conceal	8
watching	8
▁Figures	8
▁whisper	8
▁Deutsch	8
▁smelled	8
▁thereto	8
catching	8
▁Philips	8
▁hotline	8
▁Camping	8
▁Museums	8
▁slapped	8
covering	8
▁separat	8
▁drifted	8
▁Wilhelm	8
▁seeming	8
olecules	8
Chemical	8
▁provoke	8
▁chromat	8
▁protons	8
cellular	8
▁glacial	8
▁glaring	8
▁homogen	8
▁hurried	8
Graduate	8
▁Hygiene	8
▁flashed	8
▁Hermann	8
pressing	8
ificance	8
▁chemist	8
unctions	8
▁hydrate	8
▁dryness	8
▁conject	8
▁viscous	8
infrared	8
Catholic	8
magnetic	8
▁droplet	8
reducing	8
▁fucking	8
▁superst	8
▁Sputnik	8
▁karaoke	8
▁chuckle	8
▁monoton	8
carrying	8
acoustic	8
▁Neumann	8
▁convent	8
shoulder	8
▁governs	8
▁Olympus	8
▁benzene	8
▁gripped	8
teaching	8
▁politic	8
limiting	8
▁glanced	8
▁entitle	8
▁militar	8
families	8
yourself	8
▁epistem	8
dimethyl	8
▁Washing	8
▁Hosting	8
▁potenti	8
▁adheres	8
▁Rewards	8
metallic	8
crossing	8
▁epitome	8
▁Christm	8
Malaysia	8
▁Martina	8
compared	8
sounding	8
▁Manfred	8
angerous	8
▁Hotline	8
▁Joachim	8
▁Optimal	8
▁precond	8
▁acetone	8
▁Toshiba	8
Springer	8
teaspoon	8
▁valence	8
aldehyde	8
hydrogen	8
▁sensual	8
▁eyebrow	8
▁duality	8
Entering	8
emission	8
▁exclaim	8
iiiiiiii	8
▁propert	8
▁paramet	8
omething	8
finition	8
▁Statist	8
▁interse	8
oretical	8
entation	8
▁parabol	8
ineering	8
ifically	8
▁Propert	8
▁automat	8
stackrel	8
umerical	8
▁neutrin	8
irichlet	8
▁demonst	8
▁scenari	8
ondition	8
algebras	8
▁reconst	8
ountable	8
▁compres	8
underset	8
nolimits	8
calculus	8
▁Experim	8
robenius	8
Calculus	8
▁Sobolev	8
volution	8
▁Abelian	8
▁Coulomb	8
isenberg	8
▁Replies	8
▁Constra	8
▁Feynman	8
▁Introdu	8
symmetry	8
▁Lattice	8
▁diverge	8
nonumber	8
Einstein	8
Lagrange	8
subgroup	8
iecewise	8
▁extrema	8
▁Kinetic	8
formally	8
additive	8
▁quadrat	8
Institut	8
rization	8
ountably	8
Binomial	8
▁Faraday	8
nofollow	8
▁Weibull	8
ebastian	8
Magnetic	8
maginary	8
▁Spectra	8
▁Gerhard	8
▁homotop	8
strictly	8
otically	8
morphism	8
▁magneto	8
▁heteros	8
Bayesian	8
rotating	8
Szabolcs	8
surfaces	8
finitely	8
Analytic	8
coupling	8
Lebesgue	8
▁Discret	8
neutrino	8
Johannes	8
▁bromide	8
linearly	8
▁Stiefel	8
Wolfgang	8
orbitals	8
strongly	8
quations	8
friction	8
inertial	8
resonant	8
Appendix	8
obtained	8
Hydrogen	8
formulas	8
▁sequent	8
cccccccc	8
▁Physica	8
cardinal	8
preprint	8
symbolic	8
interior	8
dividing	8
whenever	8
▁hydride	8
marginal	8
▁Bibcode	8
▁Poincar	8
slightly	8
directly	8
Brownian	8
▁Paramet	8
Vladimir	8
pointing	8
▁Technol	8
▁topolog	8
▁equilib	8
stablish	8
ogarithm	8
▁semicon	8
Sciences	8
somewhat	8
subspace	8
suitable	8
▁toluene	8
applying	8
vestment	8
boldmath	8
theorems	8
Reynolds	8
▁capacit	8
improper	8
▁Automat	8
▁absorpt	8
monoidal	8
theories	8
▁surject	8
alladium	8
randomly	8
survival	8
allowing	8
improved	8
arameter	8
▁absolut	8
converge	8
Rayleigh	8
studying	8
Clifford	8
▁associa	8
confused	8
diagrams	8
unbiased	8
resistor	8
▁Artikel	8
▁Ausgabe	8
▁Adresse	8
Lyapunov	8
▁Alibaba	8
▁mohamed	8
WhatsApp	8
▁GeForce	8
urnished	8
▁einfach	8
▁bereits	8
▁anderen	8
▁möglich	8
▁schnell	8
▁sondern	8
atürlich	8
▁Prozent	8
stellung	8
▁unserer	8
▁weitere	8
gestellt	8
▁Möglich	8
▁letzten	8
arbeiten	8
▁wichtig	8
▁Produkt	8
▁Oktober	8
▁Minuten	8
▁gemacht	8
▁unseren	8
▁Arbeits	8
▁während	8
▁Komment	8
▁eigenen	8
▁unserem	8
▁richtig	8
▁Beitrag	8
einander	8
▁Polizei	8
▁Bereich	8
▁sollten	8
▁Februar	8
▁kleinen	8
▁Einsatz	8
▁Stunden	8
▁entwick	8
genommen	8
▁Veranst	8
▁Mitglie	8
▁Angebot	8
▁weniger	8
▁spielen	8
▁Projekt	8
▁bekannt	8
▁möchten	8
▁Familie	8
▁Sonntag	8
▁stellen	8
▁Energie	8
▁Auswahl	8
▁München	8
▁bleiben	8
▁Zukunft	8
▁Kontakt	8
▁Schüler	8
▁Freitag	8
▁meisten	8
▁Samstag	8
▁bringen	8
▁Betrieb	8
▁Verkehr	8
▁entfern	8
▁konnten	8
minister	8
▁Spieler	8
▁besteht	8
▁darüber	8
▁zweiten	8
▁schwarz	8
▁mehrere	8
▁Fußball	8
▁Wohnung	8
▁Versand	8
▁anderem	8
▁Immobil	8
▁Kategor	8
▁derzeit	8
icherung	8
▁handelt	8
▁hochwer	8
▁täglich	8
▁Straßen	8
▁deshalb	8
▁erklärt	8
▁Schweiz	8
▁Antwort	8
sprechen	8
▁Mädchen	8
▁Verkauf	8
▁aktuell	8
▁braucht	8
▁günstig	8
▁Kindern	8
▁Kranken	8
▁bekommt	8
▁gewesen	8
ließlich	8
▁Telefon	8
▁gegeben	8
▁einigen	8
▁mittler	8
verständ	8
▁welches	8
▁zuletzt	8
▁bestimm	8
▁perfekt	8
▁Monaten	8
▁jeweils	8
▁gesehen	8
▁Schritt	8
▁gehören	8
zwischen	8
▁Fenster	8
▁endlich	8
▁Politik	8
jährigen	8
▁Angaben	8
▁könnten	8
▁notwend	8
▁nächste	8
▁scheint	8
▁Meister	8
▁Stellen	8
▁treffen	8
▁schönen	8
▁verfügt	8
▁Technik	8
▁Gebäude	8
▁Vertrag	8
▁beginnt	8
▁Meinung	8
▁Weitere	8
▁nämlich	8
▁Entwick	8
programm	8
▁ansehen	8
▁Fahrrad	8
▁Während	8
▁Gruppen	8
▁schwier	8
▁Freunde	8
▁Nutzung	8
▁Zeitung	8
▁Spielen	8
▁größten	8
▁dadurch	8
▁welcher	8
▁Spezial	8
▁genutzt	8
▁erleben	8
▁Schnitt	8
▁dennoch	8
▁erfolgt	8
▁Prozess	8
▁wenigen	8
▁langsam	8
leistung	8
▁Schluss	8
▁Auftrag	8
▁Deshalb	8
▁gesamte	8
▁Zustand	8
▁anderes	8
▁gestern	8
▁gelesen	8
▁kleiner	8
▁beträgt	8
maschine	8
▁Einkauf	8
▁Zentrum	8
▁erreich	8
▁Führung	8
▁nachdem	8
▁Elektro	8
▁findest	8
▁starten	8
▁Nachbar	8
▁dagegen	8
▁unseres	8
▁Sprache	8
▁gefällt	8
▁Tochter	8
▁Aufgabe	8
▁Zeichen	8
▁Inhalte	8
▁Gesicht	8
▁nachhal	8
▁Schaden	8
▁Zubehör	8
▁enthält	8
▁Modelle	8
▁spricht	8
▁Ländern	8
▁geplant	8
▁Studien	8
▁Spitzen	8
▁dritten	8
▁Wechsel	8
▁Gewicht	8
▁trocken	8
▁gekauft	8
▁Taschen	8
▁anderer	8
▁Gelegen	8
▁Klassen	8
▁Kirchen	8
funktion	8
▁Ausland	8
▁Konzert	8
▁genauso	8
▁schauen	8
▁Vorteil	8
▁Konzept	8
▁Bahnhof	8
▁positiv	8
▁einzige	8
▁bislang	8
entliche	8
▁Wirkung	8
▁deutsch	8
▁überall	8
▁Bestand	8
▁Gericht	8
▁Vereins	8
▁kleines	8
sätzlich	8
istische	8
▁nochmal	8
▁Fleisch	8
▁Schrift	8
▁solchen	8
▁Schloss	8
▁Einfach	8
▁Komfort	8
▁Darüber	8
▁alleine	8
▁Bericht	8
▁Medizin	8
▁stellte	8
▁genannt	8
▁Grenzen	8
▁Chancen	8
▁Bildung	8
▁irgendw	8
▁Punkten	8
▁niemand	8
▁moderne	8
▁ständig	8
▁ähnlich	8
▁Sachsen	8
▁Schreib	8
▁einiges	8
▁verschw	8
▁gedacht	8
▁starken	8
▁Planung	8
▁Handels	8
▁registr	8
▁klicken	8
▁schrieb	8
▁Werbung	8
▁bewusst	8
▁welchen	8
▁Schmuck	8
▁Nachdem	8
bildungs	8
anzeigen	8
▁Teppich	8
▁Kleider	8
▁bessere	8
▁telefon	8
▁Strecke	8
▁Spiegel	8
▁Händler	8
▁erstmal	8
▁Frieden	8
ständige	8
▁Franken	8
▁unglaub	8
▁gefragt	8
▁Alkohol	8
▁gleiche	8
▁Schnell	8
▁schönes	8
▁eigenes	8
▁Verband	8
▁Eingang	8
▁Sternen	8
▁Anzeige	8
▁Turnier	8
▁schöner	8
▁größere	8
▁Dadurch	8
▁Prüfung	8
▁Gründen	8
▁bewegen	8
▁stärker	8
▁arbeite	8
gebracht	8
▁einiger	8
▁Hinweis	8
▁Spenden	8
▁offenen	8
▁Stimmen	8
▁Bereits	8
gemeinen	8
jähriger	8
▁Urlaubs	8
▁mittels	8
▁beliebt	8
▁glauben	8
mittlung	8
▁Bestell	8
▁bestens	8
▁welchem	8
▁Begriff	8
▁Staffel	8
▁Wichtig	8
▁Registr	8
▁leichte	8
▁Mindest	8
▁äußerst	8
▁Ausgang	8
▁Bezirks	8
▁Konzern	8
▁Montage	8
▁Galerie	8
▁Versuch	8
▁Pflicht	8
▁wünsche	8
▁Branche	8
▁reichen	8
▁Schwimm	8
▁rechten	8
▁Dennoch	8
▁Zentral	8
▁letzter	8
▁Autoren	8
▁Kartoff	8
▁eigener	8
ikations	8
▁abgesch	8
▁Fernseh	8
▁komplex	8
▁Flächen	8
▁soziale	8
▁Fliesen	8
▁Prinzip	8
▁schrift	8
▁höchste	8
▁passend	8
▁Gewerbe	8
▁Kräuter	8
▁genauer	8
▁übersch	8
Programm	8
▁Kloster	8
▁Sneaker	8
▁Zahlung	8
▁Ansicht	8
sächlich	8
▁schwere	8
▁Glauben	8
Geschäft	8
▁Verlust	8
▁niemals	8
▁Trocken	8
Funktion	8
▁Drucker	8
▁Plastik	8
▁brauche	8
▁bekomme	8
▁höheren	8
▁vierten	8
▁Telekom	8
▁Gründer	8
▁Zweifel	8
▁Kapital	8
▁Militär	8
▁Aktuell	8
▁Casinos	8
▁Gefühle	8
▁verkauf	8
▁Buchung	8
ontrolle	8
fassungs	8
lerweile	8
▁frische	8
▁Platten	8
▁Tabelle	8
▁Heizung	8
▁Schwein	8
▁ausgest	8
▁Gehäuse	8
▁direkte	8
▁Tomaten	8
▁gesunde	8
▁mobilen	8
▁manchen	8
Verfasst	8
▁normale	8
Angebote	8
▁Flasche	8
▁Kapitel	8
▁sichere	8
nWeitere	8
▁gewisse	8
▁Treppen	8
▁lokalen	8
ologisch	8
▁hundert	8
▁Erfolgs	8
▁Inhalts	8
▁solcher	8
▁Schrank	8
▁angesch	8
▁Kletter	8
▁grossen	8
▁älteren	8
▁Moderne	8
▁breiten	8
Leistung	8
gleichen	8
gefunden	8
▁längere	8
▁Notfall	8
▁unteren	8
▁wechsel	8
▁zentral	8
▁Hierbei	8
▁Klavier	8
▁Schmerz	8
▁Katalog	8
▁letztes	8
▁Aufrufe	8
Produkte	8
▁Pflanze	8
personen	8
▁Knochen	8
▁einzeln	8
▁Silikon	8
deutsche	8
einigung	8
▁arbeits	8
▁Fliegen	8
▁Amerika	8
▁falsche	8
bekommen	8
▁zurecht	8
verkehrs	8
▁Provinz	8
▁korrekt	8
▁Geburts	8
▁riesige	8
▁Alltags	8
▁aktiven	8
nBeitrag	8
▁konkret	8
gekommen	8
▁heutige	8
▁Günstig	8
▁tatsäch	8
lerdings	8
▁dokumen	8
▁frühere	8
▁Drachen	8
Mittwoch	8
ichtigen	8
▁konstru	8
▁verschl	8
▁Polster	8
▁negativ	8
▁übrigen	8
▁dunklen	8
▁Experte	8
▁inneren	8
gespielt	8
▁durchge	8
▁unterst	8
▁neueste	8
Dienstag	8
Mitglied	8
▁geringe	8
▁Brücken	8
▁Sekunde	8
▁Schließ	8
▁Zuletzt	8
befinden	8
▁Sanitär	8
▁solches	8
▁nötigen	8
▁erhöhte	8
▁Vertrau	8
▁genauen	8
▁eingest	8
▁Scheibe	8
▁Streich	8
Beiträge	8
▁tausend	8
▁Körpers	8
Stiftung	8
▁Lösungs	8
▁leckere	8
Außerdem	8
▁energie	8
▁Antrieb	8
▁Favorit	8
▁externe	8
▁Aktions	8
schützen	8
Anbieter	8
▁Bischof	8
stützung	8
▁überaus	8
▁Gedanke	8
▁Getränk	8
▁Schweiß	8
▁Rettung	8
▁lustige	8
Deutsche	8
▁alkohol	8
Familien	8
zusammen	8
▁Gesetze	8
Zusammen	8
▁Anfangs	8
Zwischen	8
▁Wissens	8
▁Begleit	8
▁Währung	8
▁schreib	8
▁interne	8
▁Mittags	8
▁Verschw	8
▁Rauchen	8
▁Anmelde	8
▁Dominik	8
▁folgend	8
▁jüngste	8
Netzwerk	8
▁Industr	8
▁Kantons	8
Erlebnis	8
▁kontakt	8
▁verschm	8
▁goldene	8
Menschen	8
▁Panoram	8
▁Schiffs	8
ünstigen	8
Besucher	8
▁Softwar	8
Vorstand	8
▁erwarte	8
▁Besuche	8
▁Ähnlich	8
▁spätere	8
Gemeinde	8
▁billige	8
▁Wassers	8
▁Schleif	8
Freizeit	8
beispiel	8
bezogene	8
gefallen	8
▁teppich	8
Geschenk	8
▁erhalte	8
▁übliche	8
▁respekt	8
Kalender	8
▁Täglich	8
Beratung	8
Bewegung	8
Fahrzeug	8
Günstige	8
Mercedes	8
▁Pressem	8
Probleme	8
▁kommend	8
▁Schleim	8
Dezember	8
▁versuch	8
▁Heilige	8
Webseite	8
Standort	8
▁Lexikon	8
▁schaffe	8
Hannover	8
▁komplet	8
mögliche	8
▁Mittels	8
Personen	8
▁Gehalts	8
▁spreche	8
Beispiel	8
▁genügen	8
erstellt	8
▁Karrier	8
bestimmt	8
▁Entfern	8
▁Gartens	8
bekannte	8
achricht	8
▁Schulte	8
weiteren	8
Berliner	8
Ergebnis	8
Wellness	8
▁beachte	8
▁ungesch	8
▁elektro	8
wirklich	8
dokument	8
weiligen	8
▁samsung	8
▁genieße	8
▁Scheide	8
gangenen	8
Batterie	8
geeignet	8
▁versteh	8
Umgebung	8
schnelle	8
Senioren	8
▁produkt	8
Betriebs	8
▁Sommers	8
▁durchzu	8
erhalten	8
▁Erwerbs	8
▁Alleine	8
Hochzeit	8
▁Nieders	8
Motorrad	8
fahrungs	8
▁witzige	8
normalen	8
Pflanzen	8
▁bedeute	8
▁technik	8
▁Flughaf	8
Direktor	8
lichsten	8
Verkehrs	8
euerwehr	8
▁fahrrad	8
▁Körpert	8
aßnahmen	8
schweren	8
richtige	8
aktuelle	8
Haushalt	8
▁Doppels	8
Aufnahme	8
Heinrich	8
▁Geschen	8
frischen	8
▁Pigment	8
Werkzeug	8
▁projekt	8
Komplett	8
Bildungs	8
Gebühren	8
ourismus	8
▁befinde	8
▁erkenne	8
Struktur	8
Terrasse	8
▁Trüffel	8
schwarze	8
Branchen	8
▁Busines	8
Gedanken	8
▁magazin	8
einsamen	8
Freundin	8
sicheren	8
▁Gigabit	8
Aufgaben	8
▁Pattaya	8
seinheit	8
Einkaufs	8
▁kapital	8
Vertrieb	8
▁Menstru	8
Rechnung	8
▁gewinne	8
Verkaufs	8
günstige	8
▁Centrum	8
▁Pentium	8
Schatten	8
eptember	8
Verbands	8
▁erfahre	8
individu	8
▁Interne	8
▁Einzels	8
Beitrags	8
▁Bugatti	8
Angebots	8
▁verfüge	8
▁gesetzl	8
Zahlungs	8
genannte	8
▁Kinderk	8
geworden	8
▁Archite	8
▁Netzwer	8
Spannung	8
▁všechny	8
▁objedná	8
stupnost	8
▁případě	8
▁zákazní	8
▁připrav	8
▁vlastní	8
▁najdete	8
▁jednodu	8
▁možnost	8
▁skladem	8
▁protože	8
▁dalších	8
▁oblasti	8
▁prostor	8
▁komentá	8
▁doporuč	8
▁použití	8
▁prostře	8
obrazení	8
▁několik	8
Poslední	8
▁nabídky	8
▁přístup	8
▁položce	8
▁nachází	8
▁stránky	8
▁výrobce	8
Materiál	8
▁opravdu	8
▁zkušeno	8
▁různých	8
visející	8
Zobrazit	8
▁zároveň	8
▁ideální	8
▁zejména	8
▁výrobku	8
▁kombina	8
▁nabídce	8
▁systému	8
obrazeno	8
▁ostatní	8
▁republi	8
▁problém	8
▁zahrani	8
inárodní	8
Detailní	8
▁rostlin	8
▁moderní	8
▁stažení	8
▁dopravy	8
▁baterie	8
▁pondělí	8
▁každého	8
▁obchodu	8
▁stránek	8
▁století	8
▁Skladem	8
▁používá	8
▁všechno	8
▁potřeby	8
▁vnitřní	8
▁nabídka	8
▁dokonce	8
▁podporu	8
▁elektri	8
▁nabídku	8
▁Ostrava	8
▁kvality	8
▁aktivní	8
▁provozu	8
▁čtvrtek	8
▁výrobky	8
▁Králové	8
▁kterých	8
▁jednoho	8
▁skupiny	8
Základní	8
▁přehled	8
▁základě	8
▁střední	8
▁stránce	8
Hmotnost	8
▁soutěže	8
▁získáte	8
▁hledáte	8
▁recenze	8
▁seznamu	8
▁potřeba	8
▁Výrobce	8
▁později	8
▁všichni	8
Doručení	8
▁některé	8
▁využití	8
▁náměstí	8
▁nakonec	8
▁přináší	8
▁českých	8
▁milionů	8
▁podobné	8
▁Rozměry	8
▁znamená	8
▁standar	8
▁příprav	8
▁hledání	8
▁pohodlí	8
prostřed	8
▁začátku	8
▁centrum	8
▁vysokou	8
levnější	8
▁rozměry	8
▁životní	8
▁ředitel	8
▁bohužel	8
▁výrobků	8
▁bydlení	8
▁Olomouc	8
▁situace	8
▁doprava	8
▁ochranu	8
▁nejvíce	8
▁průběhu	8
▁kvalitu	8
▁procent	8
▁Všechny	8
▁alespoň	8
▁souboru	8
Nabízíme	8
▁vozidla	8
▁výrobek	8
Aktuální	8
▁stránku	8
▁prodeji	8
▁stránka	8
▁kterého	8
▁investi	8
▁jednání	8
▁zdravot	8
Ušetříte	8
▁mobilní	8
▁obvykle	8
▁činnost	8
▁složení	8
▁kolekce	8
▁funkční	8
▁smlouvy	8
▁situaci	8
▁stanice	8
▁zajistí	8
▁teplota	8
▁všechna	8
▁položek	8
▁inzerát	8
▁objektu	8
▁vlastně	8
▁potřebu	8
▁spojení	8
▁hodnoty	8
▁teploty	8
▁prodeje	8
▁odpověď	8
▁správně	8
▁hudební	8
▁výrazně	8
▁dopravu	8
▁spoustu	8
▁celkové	8
▁čištění	8
▁původní	8
▁kvalita	8
▁skupina	8
▁setkání	8
▁českého	8
▁funguje	8
▁náklady	8
▁národní	8
Poznámka	8
▁správné	8
▁nejlépe	8
▁veškeré	8
▁dalšího	8
▁vkládat	8
▁hodnota	8
▁vrácení	8
▁abychom	8
▁dlouhou	8
▁vánoční	8
▁regionu	8
▁výběrem	8
▁dospělé	8
▁luxusní	8
▁Ostatní	8
▁soubory	8
▁pozemku	8
▁Novinky	8
▁Liberec	8
▁Národní	8
▁Doporuč	8
▁poměrně	8
▁využívá	8
▁člověka	8
▁displej	8
▁omezení	8
▁pouzdro	8
▁většina	8
▁vyroben	8
▁obchody	8
▁souladu	8
▁ročníku	8
▁ochrana	8
▁uvedené	8
▁ochrany	8
▁probíhá	8
▁průměru	8
▁letiště	8
▁hodinky	8
▁získání	8
▁povrchu	8
▁vedoucí	8
▁obývací	8
▁provádí	8
Dkujeme	8
▁druhého	8
▁letošní	8
▁světové	8
▁nebudou	8
▁podpora	8
▁Břeclav	8
▁nějakou	8
▁serveru	8
▁barevné	8
▁velkých	8
▁prvního	8
▁termínu	8
Pracovní	8
Nemůžete	8
▁diskuse	8
▁živnost	8
▁žádosti	8
Kvalitní	8
▁veřejné	8
▁Vyberte	8
▁hodnotě	8
▁jejichž	8
▁ochraně	8
▁skvělou	8
▁prvních	8
zobrazit	8
▁červené	8
▁dalšími	8
▁obsahem	8
▁odborné	8
▁konečně	8
▁pořádku	8
Východní	8
▁jakmile	8
▁seriálu	8
▁Doprava	8
▁vyberte	8
▁koncert	8
▁kterému	8
▁hlavním	8
▁dřevěné	8
▁Možnost	8
▁zvýšení	8
▁Zároveň	8
▁firemní	8
▁pochází	8
▁diskuze	8
▁bolesti	8
likování	8
▁vychází	8
▁širokou	8
▁podobně	8
▁kterými	8
▁vytváří	8
▁vysokým	8
Nejlepší	8
▁formátu	8
▁přičemž	8
▁pečlivě	8
▁kapacit	8
▁ohledně	8
▁zvyšuje	8
právnění	8
▁městské	8
▁redakci	8
▁vybrané	8
Aktuálně	8
▁milionu	8
Poštovné	8
▁snížení	8
▁ověření	8
▁úspěšně	8
▁Nabídka	8
▁rozhodl	8
▁každému	8
▁zjistit	8
▁výrobní	8
▁rozsahu	8
▁dochází	8
stoupení	8
▁většinu	8
▁Napište	8
▁rodinné	8
Výsledky	8
▁spousta	8
Dostupné	8
▁ukazuje	8
▁Střední	8
▁desítky	8
▁miliard	8
▁původně	8
▁vybaven	8
▁provede	8
▁Komentá	8
▁počátku	8
▁aktuali	8
▁uložení	8
▁znalost	8
▁Ideální	8
▁Zadejte	8
▁Českého	8
▁vhodnou	8
▁tabulky	8
▁nejméně	8
▁Celková	8
▁takovou	8
materiál	8
▁Protože	8
▁Hloubka	8
▁různými	8
▁vždycky	8
▁správce	8
▁subjekt	8
▁nedávno	8
▁výhodné	8
▁schopni	8
▁Vnitřní	8
▁pražské	8
▁středně	8
▁přidáme	8
▁Některé	8
velikost	8
▁spojené	8
▁rodinný	8
▁snižuje	8
▁porovná	8
▁správný	8
▁určitou	8
▁volných	8
▁velkého	8
▁užívání	8
▁časopis	8
▁součást	8
dostupné	8
▁Složení	8
Kapacita	8
▁Českých	8
▁odpověd	8
▁provést	8
▁některý	8
▁někteří	8
▁celková	8
Rychlost	8
▁Bohužel	8
Platnost	8
▁taneční	8
bankovní	8
▁většině	8
▁osobním	8
▁vstupní	8
▁Diskuse	8
mailovou	8
▁Původní	8
▁měsíční	8
▁mladých	8
▁domácím	8
Obchodní	8
▁přijetí	8
▁Hledáte	8
Náhradní	8
Pronájem	8
▁zařazen	8
▁souhlas	8
▁povinen	8
▁Moderní	8
▁tabulka	8
▁desítek	8
▁smlouva	8
Součástí	8
▁kontrol	8
▁Recenze	8
▁doprová	8
▁starých	8
▁zrušení	8
▁miliony	8
▁střešní	8
▁Většina	8
Odpovdi	8
▁stejnou	8
▁Všichni	8
Podmínky	8
▁nemohou	8
▁aktivně	8
▁Používá	8
▁Benešov	8
▁Pondělí	8
▁fyzické	8
▁povinné	8
▁Celkový	8
obsahuje	8
▁volného	8
▁Spojené	8
▁sportov	8
▁západní	8
Provozní	8
▁Severní	8
▁fakulta	8
▁dvaceti	8
▁způsobu	8
▁Vánoční	8
▁takovém	8
▁Použití	8
▁Stránka	8
▁Zasláno	8
▁celkový	8
▁pacient	8
▁zákonem	8
▁Všechna	8
▁severní	8
Přírodní	8
▁stejném	8
Obsahuje	8
▁oprávně	8
Největší	8
Vzhledem	8
▁schopen	8
▁Veškeré	8
hmotnost	8
▁Luxusní	8
▁Antonín	8
hraniční	8
▁Připrav	8
▁zastupi	8
▁umístěn	8
▁loňském	8
▁podpisu	8
▁odborná	8
▁natolik	8
▁Někteří	8
Jaroslav	8
▁uvedený	8
▁Ústecký	8
▁zvýšené	8
Využijte	8
▁Dřevěné	8
▁Ochrana	8
▁splnění	8
▁Vlastní	8
▁pevného	8
▁Přehled	8
▁Hlavním	8
▁Penzion	8
▁vysavač	8
pravidel	8
Komerční	8
Miroslav	8
▁Zlínský	8
Nejvyšší	8
Porovnat	8
▁pobočka	8
▁Předmět	8
▁stejným	8
▁takovým	8
▁slevový	8
▁Divadlo	8
▁Fakulta	8
▁kyselin	8
▁Městský	8
▁pohledá	8
▁Mobilní	8
▁školním	8
▁neudáno	8
▁předpis	8
▁letecky	8
▁politik	8
▁Krajský	8
▁pojiště	8
▁Odpověď	8
▁Městská	8
▁Oldřich	8
poslední	8
▁veřejný	8
▁Živnost	8
▁Vloženo	8
▁Podobné	8
viduální	8
Usnesení	8
▁lokalit	8
▁čtrnáct	8
▁smluvní	8
▁přidané	8
základní	8
▁Diskuze	8
▁opatřen	8
ovitosti	8
Kateřina	8
▁odborný	8
odpovídá	8
▁Detaily	8
▁objedna	8
dělávání	8
pracovní	8
objednat	8
▁předsed	8
dávající	8
▁nabízím	8
▁příspěv	8
▁vzducho	8
předseda	8
▁dispozi	8
▁chorvat	8
▁Nabízím	8
rychlost	8
▁oblačno	8
fication	8
▁ukončen	8
▁uzavřen	8
Rozbalit	8
dělávací	8
▁trávník	8
přírodní	8
▁speciál	8
▁Překlad	8
▁čerpací	8
normální	8
▁Celkové	8
▁členské	8
▁Spartak	8
▁kultuře	8
Plzeňský	8
případně	8
▁písemné	8
▁Ověřený	8
▁optický	8
▁zahájen	8
Michaela	8
▁odeslán	8
▁Externí	8
▁Klíčová	8
zařízení	8
pronájem	8
▁Okresní	8
▁klinika	8
produkty	8
▁výpověď	8
▁vteřiny	8
sociální	8
produktů	8
Události	8
▁Uvedené	8
▁postoje	8
▁vietnam	8
Vyhláška	8
obchodní	8
Zasílání	8
výsledky	8
▁zvětšit	8
součástí	8
▁doručen	8
provozní	8
▁jednota	8
nejlepší	8
knihovna	8
existuje	8
nejvyšší	8
▁parazit	8
▁turista	8
▁Krajská	8
příjemný	8
stavební	8
▁Odpověz	8
servisní	8
prodejní	8
▁trajekt	8
▁rychlos	8
▁Komplet	8
▁autenti	8
▁revizní	8
většinou	8
▁garanci	8
▁souvise	8
▁zakázán	8
bezpečné	8
Překlady	8
kliknte	8
▁Událost	8
evropské	8
▁nalezne	8
používat	8
právních	8
▁Versace	8
▁szerint	8
▁használ	8
▁kapcsol	8
▁választ	8
▁számára	8
▁terület	8
▁személy	8
▁mellett	8
▁illetve	8
▁szállás	8
▁legjobb	8
▁azonban	8
▁minőség	8
▁verseny	8
▁gyermek	8
▁kezelés	8
▁alapján	8
▁kereszt	8
▁kormány	8
▁részlet	8
▁készült	8
▁szeretn	8
▁megrend	8
▁állapot	8
Cikkszám	8
▁nagyobb	8
▁amelyek	8
▁további	8
▁ellátás	8
▁például	8
▁szükség	8
▁helyzet	8
▁második	8
▁szabály	8
▁csoport	8
▁ajánlat	8
▁október	8
▁viszont	8
▁esetben	8
▁március	8
Budapest	8
▁szervez	8
▁tökélet	8
▁készlet	8
szerelés	8
▁április	8
hetetlen	8
▁kiegész	8
▁kerület	8
▁kattint	8
▁érdemes	8
▁hasonló	8
▁esemény	8
▁időpont	8
▁érdeklő	8
▁alkalom	8
▁ugyanis	8
ennyiben	8
▁kedvenc	8
ontosabb	8
▁ajándék	8
▁azonnal	8
▁február	8
▁felület	8
▁időszak	8
▁egyszer	8
▁törvény	8
▁költség	8
▁hivatal	8
▁látható	8
▁legtöbb	8
▁helyett	8
▁oldalon	8
▁környék	8
▁sorozat	8
▁emberek	8
▁tartalm	8
▁felelős	8
▁csillag	8
▁központ	8
▁könnyen	8
▁végzett	8
▁játékos	8
▁osztály	8
▁kölcsön	8
▁szakmai	8
Raktáron	8
▁folytat	8
rendszer	8
▁eredeti	8
▁szemben	8
▁Nemzeti	8
▁családi	8
▁várható	8
▁amelyet	8
esztivál	8
▁gyorsan	8
▁történő	8
▁Egyetem	8
▁kellett	8
▁különös	8
▁európai	8
▁mindent	8
▁működés	8
▁figyelm	8
▁Európai	8
▁felnőtt	8
▁először	8
▁történt	8
▁játékok	8
▁vagyunk	8
▁szintén	8
▁korábbi	8
▁egyetem	8
▁átvétel	8
▁műanyag	8
▁származ	8
▁nélküli	8
▁visszat	8
▁közölte	8
▁közötti	8
Ingyenes	8
▁feladat	8
▁Ajánlat	8
ermészet	8
fejleszt	8
▁kutatás	8
▁támogat	8
▁egyedül	8
▁veszély	8
▁színész	8
▁hasznos	8
▁fizetés	8
▁Központ	8
▁Balaton	8
▁oktatás	8
▁nemcsak	8
▁módszer	8
▁francia	8
▁szakért	8
▁gyakran	8
▁funkció	8
▁fénykép	8
▁részére	8
hatatlan	8
▁mindenk	8
▁előadás	8
▁esetleg	8
▁naponta	8
▁jellegű	8
▁melynek	8
ltalános	8
▁vizsgál	8
▁egészen	8
elmiszer	8
▁szolgál	8
▁mintegy	8
▁bemutat	8
▁kiemelt	8
▁tartott	8
▁működik	8
▁látogat	8
▁pozitív	8
▁megszer	8
▁viszony	8
▁oldalán	8
▁ezelőtt	8
▁szombat	8
Hirdetés	8
▁látvány	8
▁tartozó	8
▁energia	8
▁jelenti	8
▁délután	8
almazott	8
▁ideális	8
▁férfiak	8
Regisztr	8
▁szakasz	8
▁anyagok	8
hirdetés	8
▁keresés	8
▁leírása	8
▁sikeres	8
▁forduló	8
▁években	8
▁valamit	8
▁lesznek	8
▁értékes	8
▁kérdése	8
▁annyira	8
▁munkaid	8
▁Színház	8
▁érdekes	8
▁templom	8
keresked	8
▁továbbá	8
▁kellene	8
▁szállod	8
▁műszaki	8
▁igénybe	8
▁találat	8
▁mutatja	8
magasabb	8
▁kapható	8
igazgató	8
▁feletti	8
▁kényelm	8
▁könnyed	8
▁valóban	8
▁tényleg	8
▁megoszt	8
▁állandó	8
▁étterem	8
▁eljárás	8
népszerű	8
▁visszav	8
▁töltött	8
▁évtized	8
▁hallgat	8
▁sérülés	8
▁kijelző	8
▁ízületi	8
▁átlagos	8
▁nappali	8
▁További	8
▁vezeték	8
▁szellem	8
▁böngész	8
foglalás	8
▁nemzeti	8
udományi	8
▁Hivatal	8
▁járvány	8
▁sokszor	8
▁kezdete	8
▁szinten	8
Bővebben	8
▁kedvező	8
▁akadály	8
▁szerdán	8
felvétel	8
▁mindkét	8
▁alapvet	8
▁feltölt	8
fogyaszt	8
▁hónapja	8
Garancia	8
▁baleset	8
▁csökken	8
▁komment	8
▁dolgozó	8
▁azoknak	8
▁egykori	8
▁Francia	8
▁nyilván	8
▁színben	8
▁életmód	8
▁bármely	8
▁kampány	8
▁részben	8
▁Államok	8
▁Intézet	8
▁éjszaka	8
▁Gyermek	8
▁feltünt	8
▁függően	8
Jelenleg	8
▁visszak	8
▁szándék	8
▁elegáns	8
▁nyitott	8
▁elkerül	8
▁reggeli	8
▁igazság	8
▁szépség	8
▁iskolai	8
▁kevésbé	8
▁spanyol	8
▁Miskolc	8
▁állatok	8
▁igényel	8
▁rendező	8
▁javítás	8
▁csatorn	8
imnázium	8
▁fizikai	8
▁külföld	8
▁Válassz	8
▁tablett	8
▁kivétel	8
▁parkoló	8
▁ezáltal	8
▁alakult	8
▁szerviz	8
▁hónapos	8
▁közösen	8
gazdaság	8
▁egymást	8
nevezett	8
ternatív	8
▁Kossuth	8
▁tavalyi	8
▁nyelven	8
▁bíróság	8
▁erekció	8
▁Gergely	8
▁negatív	8
▁képesek	8
rendelés	8
▁kiegyen	8
▁elenged	8
▁narancs	8
▁kreatív	8
▁lehetne	8
▁hálózat	8
▁prémium	8
▁visszér	8
Egységár	8
▁világos	8
▁akiknek	8
▁mielőtt	8
Magasság	8
▁Használ	8
készítés	8
▁lengyel	8
▁Horváth	8
Ingatlan	8
hatékony	8
▁adomány	8
▁stressz	8
▁szabott	8
▁hirdető	8
▁otthoni	8
▁kétszer	8
Figyelem	8
▁mostani	8
▁étkezés	8
▁benyújt	8
Megnézem	8
eredmény	8
▁szlovák	8
▁Kapcsol	8
▁kaszinó	8
▁sikerül	8
▁fegyver	8
▁csendes	8
▁kültéri	8
▁kérdést	8
▁csaknem	8
▁tavaszi	8
▁zöldség	8
▁Szlovák	8
▁hátrány	8
▁ismeret	8
▁kezdett	8
▁tünetek	8
▁katonai	8
▁konkrét	8
▁valóság	8
▁nyugdíj	8
▁majdnem	8
▁kutatók	8
▁jelenik	8
▁nehezen	8
▁bajnoki	8
▁közepes	8
▁szigorú	8
▁létszám	8
▁színház	8
társaság	8
▁határid	8
▁rendben	8
Ajánlott	8
▁későbbi	8
▁maradék	8
▁témában	8
vasárnap	8
▁futball	8
▁nyugati	8
▁villany	8
▁Azonban	8
▁tünetei	8
▁osztrák	8
▁gyakori	8
▁medence	8
▁meglévő	8
Napkelte	8
eszközök	8
szekrény	8
▁vacsora	8
▁oldalak	8
▁szállít	8
▁okozhat	8
▁stílusú	8
▁méteres	8
▁növényi	8
amerikai	8
▁Műanyag	8
irtuális	8
▁eredetű	8
▁példány	8
▁Székely	8
▁válogat	8
▁megkérd	8
▁vezetői	8
▁érkezés	8
▁Kormány	8
▁megalap	8
▁okozott	8
▁felirat	8
▁elhunyt	8
▁betegek	8
▁Szállás	8
▁szerepe	8
▁magában	8
irodalom	8
▁idősebb	8
▁megjegy	8
▁rejtett	8
Fizetési	8
▁ásványi	8
▁számolt	8
magasság	8
▁hatóság	8
▁küldött	8
▁harminc	8
▁holland	8
Köszönöm	8
▁beltéri	8
források	8
▁horgász	8
Összesen	8
▁élményt	8
▁Műszaki	8
helyiség	8
▁tudatos	8
Országos	8
▁szegény	8
▁örömmel	8
▁megelőz	8
▁kerámia	8
▁asztali	8
▁Szegedi	8
Tisztelt	8
▁rosszul	8
▁halálos	8
▁hiteles	8
▁Átlagos	8
▁olvassa	8
egészség	8
▁megment	8
▁kortárs	8
▁építési	8
amarosan	8
▁Személy	8
▁szilárd	8
oktatási	8
▁utazási	8
örnyezet	8
▁nevezet	8
▁Osztály	8
▁aktivál	8
▁frissen	8
▁egyenes	8
▁Kereszt	8
▁változó	8
▁igényes	8
betegség	8
▁Komárom	8
ökéletes	8
▁fejezet	8
▁literes	8
▁gyártás	8
tartalom	8
▁elolvas	8
▁Viszont	8
▁Verseny	8
▁védelmi	8
▁tényező	8
▁motoros	8
Egyszerű	8
▁Legjobb	8
▁méterre	8
▁indulás	8
▁büntető	8
egyszerű	8
vélemény	8
▁állások	8
▁legfőbb	8
▁tengeri	8
▁konyhai	8
▁Érdemes	8
▁Csatlak	8
▁Csillag	8
Egészség	8
▁Csoport	8
▁Készlet	8
▁összege	8
▁egyenlő	8
Weboldal	8
▁Családi	8
▁készség	8
▁hatalom	8
▁századi	8
▁nincsen	8
▁negyven	8
▁Rákóczi	8
▁életkor	8
▁Méretek	8
érzékeny	8
▁nyaraló	8
ltalában	8
▁szokott	8
▁kiszáll	8
▁megnyug	8
▁Energia	8
▁kemping	8
▁termelő	8
▁Először	8
▁fejlett	8
▁növekvő	8
▁vezérlő	8
▁tengely	8
▁Ajándék	8
▁foglalt	8
▁hónapok	8
▁nagyban	8
▁tisztán	8
frissebb	8
kezelési	8
▁védelme	8
Elérhető	8
▁fehérje	8
▁Eredeti	8
▁Április	8
vásárlás	8
▁Várható	8
▁Választ	8
▁Állapot	8
▁értékek	8
▁polgári	8
▁újonnan	8
forgalom	8
▁cikkben	8
▁helmint	8
kategóri	8
▁Törvény	8
▁képzési	8
▁számító	8
▁kérelem	8
▁feszült	8
▁döntése	8
fájdalom	8
fertőzés	8
▁gyönyör	8
▁Keresés	8
történet	8
▁aláírás	8
különböz	8
▁optikai	8
▁Felnőtt	8
▁szívvel	8
ingatlan	8
regisztr	8
▁szerelő	8
használt	8
változás	8
▁Hasonló	8
▁szervek	8
▁illeték	8
▁Baranya	8
▁régebbi	8
▁Kiemelt	8
▁keresse	8
▁hosszan	8
milliárd	8
közönség	8
▁szerves	8
▁vérnyom	8
▁Prémium	8
kerékpár	8
▁nevelés	8
csatorna	8
Termékek	8
▁bináris	8
▁sajátos	8
▁vizelet	8
▁rangsor	8
▁Egyszer	8
együttes	8
▁pénzügy	8
december	8
▁Fizetés	8
csökkent	8
Amerikai	8
▁Szakmai	8
Vélemény	8
▁szervíz	8
sebesség	8
amatosan	8
▁fertőző	8
▁válasza	8
kattints	8
▁megszűn	8
▁hatásos	8
▁Kedvenc	8
jelentés	8
▁valósul	8
Letöltés	8
▁értelme	8
bővebben	8
ingyenes	8
tudomány	8
rendelet	8
▁hónapon	8
alkalmaz	8
▁terméke	8
vállalat	8
Központi	8
szállító	8
▁többlet	8
vezetője	8
tartalma	8
▁miniszt	8
▁jelentő	8
▁olimpia	8
értékben	8
dohányzó	8
▁Memória	8
▁vendége	8
▁épülete	8
fizetési	8
▁köteles	8
garancia	8
érkezett	8
letöltés	8
apartman	8
november	8
Megjelen	8
▁Kosárba	8
Kerékpár	8
Rendszer	8
▁Nappali	8
távolság	8
▁fellebb	8
összesen	8
▁Hasznos	8
Csongrád	8
hulladék	8
▁ismerte	8
izgalmas	8
ohányzás	8
ékenység	8
▁csillár	8
▁kalória	8
hosszabb	8
cikkszám	8
szereplő	8
▁Főváros	8
▁szövege	8
változat	8
▁mandula	8
▁Ellenőr	8
▁Reggeli	8
▁Gellért	8
▁növelés	8
termékek	8
hatósági	8
▁híreink	8
gyümölcs	8
raktáron	8
▁Lakatos	8
állítási	8
árfolyam	8
probléma	8
építhető	8
▁Gyártói	8
készülék	8
▁Időpont	8
▁Vezeték	8
▁amennyi	8
▁járulék	8
kapcsoló	8
határozó	8
Emellett	8
kevesebb	8
pályázat	8
ügyintéz	8
szeretet	8
erületén	8
Egyesült	8
▁Nyilván	8
▁Szükség	8
▁fogalma	8
szoftver	8
előzetes	8
Előzmény	8
alacsony	8
▁konyhás	8
▁kijelöl	8
isztítás	8
százalék	8
▁szerződ	8
szerszám	8
jellemző	8
ezettség	8
működési	8
▁formába	8
közösség	8
ranszfer	8
jelenleg	8
adatokat	8
legalább	8
▁manipul	8
egyetemi	8
▁koronav	8
központi	8
▁egysége	8
▁Fénykép	8
▁havidíj	8
▁hatálya	8
Erzsébet	8
minőségű	8
▁Részlet	8
kutatási	8
▁hálótér	8
▁keresők	8
valamint	8
ízületek	8
találtam	8
álasztás	8
▁takarít	8
▁allergi	8
▁szobába	8
bizonyos	8
▁Gasztro	8
▁Költség	8
▁amelybe	8
▁Kőbánya	8
▁Vásárló	8
teljesen	8
folyadék	8
anulmány	8
▁gyereke	8
kristály	8
hálózati	8
▁tisztít	8
engedély	8
▁határoz	8
harmadik	8
▁vesztes	8
▁Szimpla	8
▁Pénzügy	8
korábban	8
terméket	8
azonnali	8
fogalmaz	8
▁Találat	8
Kapcsoló	8
▁hatalma	8
▁pikkely	8
▁Giardia	8
iállítás	8
Miskolci	8
minőségi	8
szerepet	8
pénteken	8
melegítő	8
▁szerett	8
közelebb	8
Egyetemi	8
▁Indulás	8
▁tapaszt	8
▁Felirat	8
rugalmas	8
Megtalál	8
köszönöm	8
formában	8
▁Kérdése	8
wellness	8
▁szerepl	8
jogosult	8
szerelem	8
megjelen	8
▁részvét	8
erületen	8
▁pszicho	8
aktuális	8
folyamat	8
weboldal	8
▁próbálj	8
▁biztosa	8
kezelése	8
kötelező	8
Társaság	8
villamos	8
▁elérhet	8
befolyás	8
▁művésze	8
hangulat	8
▁szociál	8
hatással	8
▁értékel	8
egyetlen	8
▁molecul	8
oxidanyl	8
carboxyl	8
carbonyl	8
▁SELFIES	8
pyridine	8
▁substan	8
onitrile	8
sulfonyl	8
agnesium	8
chloride	8
cyclohex	8
▁approac	8
sulfanyl	8
imidazol	8
ylmethyl	8
thiophen	8
otassium	8
dichloro	8
quinolin	8
▁diethyl	8
methanol	8
▁eluting	8
▁dissolv	8
ustomary	8
difluoro	8
▁Solvent	8
benzoate	8
diphenyl	8
naphthal	8
pyrazolo	8
bromanyl	8
▁hexanes	8
quinazol	8
pyrazole	8
ethanone	8
thiazole	8
▁progres	8
▁dioxane	8
phosphor	8
▁descrip	8
triazolo	8
biphenyl	8
propanol	8
butanoyl	8
isoindol	8
carbamic	8
ylphenyl	8
carbazol	8
azetidin	8
adiazole	8
phenanth	8
azaspiro	8
pyrazine	8
tetrazol	8
ethanoic	8
naphthyr	8
isoxazol	8
triazine	8
butanoic	8
odiimide	8
triazole	8
ammonium	8
dioxabor	8
▁elution	8
▁utopian	8
benzothi	8
▁carboxy	8
▁interac	8
thiazolo	8
butoxide	8
▁thionyl	8
bottomed	8
sulfonic	8
hexanoic	8
hydroxyp	8
▁pyridin	8
benzenes	8
orpholin	8
iperidin	8
phosphin	8
nitrogen	8
ylpropan	8
▁Corolla	8
▁preneta	8
▁sadržaj	8
▁saopšti	8
▁korisni	8
Telegraf	8
▁društve	8
▁Ukoliko	8
▁izjavio	8
▁komenti	8
▁miliona	8
▁portala	8
Napomena	8
▁netačne	8
▁premije	8
▁trebalo	8
▁prenosi	8
▁Republi	8
▁vremena	8
▁njegovo	8
▁pitanje	8
▁poslova	8
▁izgleda	8
▁očekuje	8
▁Beograd	8
▁koristi	8
▁postoji	8
▁zajedno	8
▁odnosno	8
▁pitanju	8
▁posebno	8
▁portalu	8
▁nedelje	8
▁novosti	8
▁građana	8
▁potpuno	8
godišnji	8
▁najviše	8
▁objavio	8
▁stranke	8
▁milijar	8
▁najveći	8
▁njegova	8
▁planira	8
▁nedavno	8
▁slučaju	8
▁kasnije	8
▁pitanja	8
▁povodom	8
▁poručio	8
▁nijedna	8
▁podršku	8
▁početka	8
▁Espreso	8
▁vrijeme	8
▁nedelju	8
▁trebati	8
▁periodu	8
▁zemalja	8
▁prijavi	8
▁pratite	8
▁ukoliko	8
▁priliku	8
▁njegove	8
▁građani	8
▁razloga	8
▁odbrane	8
Ministar	8
▁najavio	8
▁Đoković	8
▁počinje	8
▁napisao	8
▁navodno	8
▁odgovor	8
Proitaj	8
Trenutno	8
Nastavak	8
▁blizini	8
▁zapravo	8
▁početku	8
Povezane	8
▁članaka	8
▁osvojio	8
▁njihove	8
Sukladno	8
▁obvezan	8
▁teniser	8
▁zaštitu	8
▁početak	8
Pogledaj	8
▁srpskog	8
▁stepeni	8
▁hiljada	8
▁previše	8
▁opštine	8
▁potrebe	8
▁članova	8
▁konačno	8
▁velikog	8
▁njegovu	8
▁njihova	8
▁postala	8
▁sledeće	8
▁tijekom	8
▁dodatno	8
▁Brnabić	8
▁članovi	8
▁naredne	8
▁velikom	8
▁prošlog	8
▁direkto	8
▁pristup	8
▁prenose	8
▁velikim	8
▁stvarno	8
▁čitanja	8
▁Dragana	8
▁srpskih	8
▁državni	8
▁velikih	8
▁Narodne	8
▁ostalim	8
▁državne	8
▁njihovu	8
▁uspešno	8
▁njegovi	8
▁njihovo	8
▁desetak	8
▁minista	8
▁nikakve	8
▁glavnog	8
▁ljudska	8
▁njihovi	8
▁BEOGRAD	8
▁glavnom	8
▁Predrag	8
Odgovora	8
▁Faceboo	8
▁Komenta	8
Ulanjen	8
▁Dnevnik	8
Pregleda	8
Lokacija	8
▁provere	8
▁Železni	8
▁milijun	8
▁Pregled	8
Beogradu	8
▁proveri	8
▁Odgovor	8
autentik	8
▁Pratite	8
Thailand	8
▁Fanpage	8
baccarat	8
▁fanpage	8
▁Zenfone	8
▁Viettel	8
▁nghiêng	8
▁vietsub	8
▁Vietsub	8
iverside	8
Showroom	8
▁trường	8
▁viettel	8
▁nghiệp	8
▁VietSub	8
▁VinFast	8
▁HOTLINE	8
▁VietNam	8
▁chuyển	8
▁thường	8
▁Exciter	8
▁Nguyễn	8
▁Jetstar	8
Baccarat	8
Vinhomes	8
▁Masteri	8
▁hyundai	8
Atletico	8
vinhomes	8
▁Beeline	8
Mobifone	8
▁khuyến	8
▁VIETTEL	8
▁Vinhome	8
Collagen	8
showroom	8
Vinpearl	8
▁nguyent	8
▁backlit	8
▁Maccabi	8
Sporting	8
▁Vitoria	8
Sunshine	8
▁Vietcom	8
▁Ittihad	8
▁hàngĐổi	8
▁dongben	8
▁return	7
▁public	7
unction	7
▁import	7
▁string	7
▁number	7
▁System	7
▁result	7
▁object	7
ception	7
▁Import	7
▁method	7
▁module	7
▁static	7
summary	7
include	7
▁String	7
lection	7
▁create	7
▁Define	7
▁Create	7
osition	7
▁specif	7
▁output	7
▁direct	7
▁should	7
▁values	7
ference	7
▁Return	7
▁models	7
uration	7
Service	7
▁second	7
▁follow	7
▁config	7
▁column	7
nection	7
▁random	7
▁length	7
▁change	7
Context	7
▁script	7
▁necess	7
▁update	7
▁server	7
Message	7
ication	7
request	7
Request	7
tribute	7
▁format	7
▁target	7
▁assert	7
ression	7
▁django	7
▁vector	7
▁answer	7
▁client	7
Manager	7
assword	7
message	7
▁Python	7
olution	7
ategory	7
reating	7
ository	7
▁system	7
▁source	7
▁select	7
ization	7
▁render	7
▁search	7
anguage	7
Generic	7
▁Assert	7
▁called	7
▁except	7
▁double	7
▁fields	7
▁multip	7
Command	7
Handler	7
▁before	7
Element	7
▁matrix	7
current	7
▁Django	7
package	7
process	7
▁status	7
Builder	7
▁struct	7
content	7
private	7
▁comple	7
▁access	7
default	7
▁custom	7
▁height	7
▁option	7
ializer	7
▁window	7
▁parent	7
crement	7
▁action	7
▁handle	7
perties	7
▁Update	7
▁button	7
Content	7
context	7
▁calcul	7
version	7
Factory	7
▁player	7
▁remove	7
▁filter	7
ensions	7
gorithm	7
▁points	7
▁single	7
Integer	7
▁thread	7
command	7
▁weight	7
▁record	7
▁parser	7
element	7
▁sample	7
ailable	7
inition	7
plotlib	7
▁simple	7
▁binary	7
▁trying	7
▁sorted	7
replace	7
mission	7
Options	7
▁person	7
Default	7
▁unique	7
▁amount	7
▁either	7
▁exists	7
▁depend	7
▁within	7
▁probab	7
product	7
▁images	7
▁assign	7
▁delete	7
▁pandas	7
▁Object	7
returns	7
service	7
▁header	7
resents	7
▁socket	7
connect	7
ocument	7
▁logger	7
▁labels	7
println	7
typedef	7
▁global	7
project	7
objects	7
▁screen	7
▁author	7
▁device	7
ulation	7
▁insert	7
ination	7
▁checks	7
▁Config	7
▁common	7
▁normal	7
Control	7
▁cannot	7
example	7
▁prints	7
session	7
▁append	7
▁folder	7
▁Vector	7
▁really	7
▁actual	7
▁python	7
▁reason	7
▁always	7
▁Method	7
latform	7
Process	7
Address	7
Version	7
Product	7
Current	7
▁people	7
▁errors	7
▁better	7
ostream	7
address	7
▁stream	7
▁memory	7
options	7
display	7
▁Remove	7
pattern	7
ositive	7
▁associ	7
Windows	7
Session	7
▁inside	7
▁letter	7
▁retrie	7
Project	7
▁digits	7
▁around	7
▁allows	7
▁params	7
ispatch	7
▁stored	7
▁expect	7
section	7
▁combin	7
▁factor	7
▁throws	7
▁buffer	7
▁enumer	7
dataset	7
▁partic	7
execute	7
▁figure	7
▁adding	7
predict	7
comment	7
▁square	7
▁things	7
▁Append	7
▁switch	7
imation	7
Account	7
▁report	7
counter	7
results	7
▁Option	7
▁define	7
account	7
▁cursor	7
▁Output	7
ullable	7
▁tensor	7
Changed	7
ibility	7
▁remain	7
reshold	7
▁effect	7
▁entity	7
channel	7
ilities	7
▁Custom	7
▁domain	7
Display	7
▁Number	7
Example	7
▁schema	7
actions	7
▁course	7
▁needed	7
▁driver	7
agement	7
▁passed	7
▁lambda	7
▁ensure	7
▁having	7
▁accept	7
▁obtain	7
▁center	7
▁sender	7
▁prefix	7
▁itself	7
contrib	7
▁applic	7
▁coding	7
Storage	7
ameters	7
▁Google	7
aterial	7
▁reader	7
columns	7
duction	7
▁Server	7
▁starts	7
▁Select	7
initial	7
▁widget	7
▁enough	7
▁offset	7
▁simply	7
▁pygame	7
▁Render	7
▁printf	7
▁events	7
▁inputs	7
icensed	7
▁choice	7
▁plugin	7
library	7
classes	7
handler	7
profile	7
▁recurs	7
▁signal	7
▁modify	7
support	7
▁during	7
feature	7
Mapping	7
▁though	7
android	7
▁kernel	7
Profile	7
defined	7
▁Action	7
▁urllib	7
Adapter	7
▁Adding	7
▁useful	7
▁Calcul	7
▁termin	7
▁Result	7
▁Random	7
▁engine	7
▁active	7
control	7
correct	7
▁middle	7
▁arrays	7
created	7
Details	7
▁bottom	7
autiful	7
▁Client	7
▁writer	7
▁proper	7
▁linked	7
usiness	7
▁Apache	7
▁assume	7
article	7
▁camera	7
manager	7
▁symbol	7
▁Column	7
ability	7
ragment	7
▁choose	7
headers	7
▁series	7
▁rather	7
orizont	7
▁layout	7
▁linear	7
Runtime	7
▁anyone	7
▁happen	7
numbers	7
▁recomm	7
Program	7
▁making	7
▁divide	7
Channel	7
Invalid	7
▁entire	7
▁period	7
▁little	7
▁typing	7
▁pickle	7
Initial	7
▁Search	7
▁please	7
▁ignore	7
▁member	7
▁Delete	7
▁occurs	7
success	7
▁typeof	7
▁failed	7
▁loaded	7
seconds	7
▁compar	7
▁neighb	7
▁WARRAN	7
▁spaces	7
▁Player	7
logging	7
randint	7
ational	7
▁upload	7
License	7
▁turtle	7
ignment	7
▁counts	7
Console	7
▁design	7
▁likely	7
▁groups	7
▁pretty	7
▁Filter	7
▁reduce	7
network	7
▁descri	7
▁radius	7
Success	7
However	7
▁secret	7
reshape	7
▁Author	7
▁attack	7
▁colors	7
▁respon	7
▁submit	7
dirname	7
▁export	7
▁enable	7
▁rights	7
▁serial	7
NotNull	7
▁Simple	7
console	7
environ	7
compile	7
▁border	7
▁region	7
▁tables	7
▁Person	7
▁inline	7
▁Change	7
Network	7
▁Button	7
install	7
raction	7
▁commun	7
▁tokens	7
▁volume	7
▁origin	7
Wrapper	7
testing	7
factory	7
▁remote	7
▁appear	7
▁stores	7
convert	7
▁parsed	7
getchar	7
▁recent	7
▁longer	7
▁hidden	7
▁manage	7
▁scores	7
▁states	7
Boolean	7
▁Thread	7
Objects	7
▁commit	7
▁margin	7
Convert	7
samples	7
subplot	7
▁pytest	7
contact	7
ivalent	7
▁circle	7
▁future	7
▁stdout	7
endency	7
▁syntax	7
reverse	7
▁Public	7
▁transp	7
▁vertex	7
▁Logger	7
▁helper	7
▁Entity	7
▁layers	7
LICENSE	7
payload	7
Enabled	7
▁Stream	7
Connect	7
forward	7
details	7
▁closed	7
builder	7
modules	7
Counter	7
metrics	7
exports	7
Pattern	7
Package	7
▁dialog	7
▁visual	7
▁bucket	7
▁taking	7
storage	7
Results	7
history	7
Library	7
extract	7
▁pixels	7
▁verify	7
CASCADE	7
▁wonder	7
cluster	7
▁higher	7
Created	7
▁energy	7
▁adjust	7
▁kwargs	7
▁Format	7
require	7
Execute	7
▁others	7
Texture	7
▁places	7
▁Source	7
Contact	7
▁Status	7
▁across	7
release	7
▁issues	7
collect	7
▁sensor	7
Comment	7
student	7
diction	7
ordered	7
▁easily	7
▁lombok	7
▁Chrome	7
Timeout	7
▁google	7
▁Assign	7
▁matter	7
Section	7
▁rating	7
weights	7
▁Prompt	7
▁easier	7
▁shared	7
ography	7
▁Insert	7
Feature	7
aussian	7
program	7
▁router	7
company	7
▁detail	7
▁agreed	7
browser	7
▁review	7
▁moment	7
country	7
▁CONDIT	7
▁Unless	7
Binding	7
▁canvas	7
▁regard	7
▁friend	7
▁branch	7
▁editor	7
Decimal	7
▁permut	7
▁larger	7
Support	7
▁notice	7
▁logged	7
▁Ubuntu	7
incipal	7
▁moving	7
scatter	7
▁prefer	7
▁blocks	7
▁tuples	7
▁detect	7
▁listen	7
▁frames	7
▁damage	7
▁Tensor	7
▁nested	7
▁master	7
verbose	7
▁packet	7
▁Access	7
▁latest	7
Replace	7
subject	7
▁asking	7
▁Handle	7
▁affect	7
getName	7
▁comput	7
Returns	7
▁sealed	7
▁recogn	7
▁scrapy	7
▁online	7
▁declar	7
ynomial	7
▁Please	7
listdir	7
related	7
History	7
▁worked	7
balance	7
▁policy	7
artment	7
Warning	7
▁marker	7
▁faster	7
▁indent	7
▁decode	7
▁compat	7
▁sizeof	7
strings	7
Trigger	7
▁Newton	7
▁raised	7
boolean	7
partial	7
Dataset	7
▁scroll	7
▁cipher	7
▁prompt	7
loading	7
▁Multip	7
▁wanted	7
▁Visual	7
▁encode	7
Setting	7
foreach	7
▁unless	7
▁metric	7
primary	7
▁immedi	7
▁finish	7
▁almost	7
timeout	7
warning	7
Student	7
▁Binary	7
Collect	7
▁ground	7
▁Linear	7
▁Matrix	7
Loading	7
▁Normal	7
Headers	7
▁Should	7
▁strict	7
▁phrase	7
vention	7
Visible	7
Desktop	7
NonNull	7
indices	7
setText	7
▁degree	7
▁health	7
▁Double	7
▁primes	7
▁months	7
isdigit	7
▁sqlite	7
▁levels	7
Seconds	7
▁decide	7
▁Module	7
▁subset	7
▁approx	7
▁become	7
ToArray	7
invalid	7
▁worker	7
initely	7
▁Sample	7
problem	7
windows	7
angular	7
inherit	7
Pointer	7
abspath	7
archive	7
▁lookup	7
average	7
Subject	7
DEFAULT	7
▁numero	7
▁Taking	7
freopen	7
HashMap	7
▁Record	7
▁equals	7
▁bounds	7
ampling	7
▁jQuery	7
findall	7
▁rotate	7
forEach	7
Testing	7
▁cookie	7
backend	7
itional	7
▁Common	7
▁repeat	7
▁possib	7
integer	7
▁transl	7
▁Memory	7
variant	7
▁opened	7
▁native	7
Numbers	7
Helpers	7
remarks	7
▁mechan	7
▁animal	7
Machine	7
▁Single	7
enabled	7
▁shutil	7
matches	7
▁couple	7
▁chosen	7
Drawing	7
▁Target	7
logical	7
numeric	7
▁reward	7
compare	7
▁saying	7
▁Global	7
▁satisf	7
uniform	7
▁saving	7
▁charge	7
▁Window	7
Extract	7
servlet	7
▁Device	7
▁Script	7
▁strong	7
filters	7
▁wouldn	7
▁intent	7
▁SELECT	7
▁writes	7
▁median	7
savefig	7
▁Editor	7
checked	7
Release	7
▁filled	7
updated	7
mapping	7
▁slight	7
Cluster	7
▁employ	7
▁secure	7
▁family	7
Payment	7
▁mobile	7
▁SQLite	7
▁minute	7
▁reject	7
▁merged	7
Utility	7
▁epochs	7
jupyter	7
ndarray	7
▁xrange	7
Scanner	7
▁Studio	7
unicode	7
▁legend	7
▁expand	7
Segment	7
▁Thanks	7
weather	7
▁Commit	7
▁corner	7
GetType	7
Country	7
▁loader	7
▁pprint	7
▁theory	7
Another	7
generic	7
english	7
picture	7
resolve	7
Summary	7
Include	7
scripts	7
commons	7
Unknown	7
▁propag	7
▁sounds	7
▁behind	7
▁Report	7
Android	7
runtime	7
youtube	7
Article	7
Methods	7
Culture	7
trained	7
▁travel	7
publish	7
Problem	7
▁regist	7
▁colour	7
compute	7
▁copies	7
encoder	7
entries	7
▁concer	7
running	7
Widgets	7
▁logout	7
▁Engine	7
visible	7
figsize	7
▁cancel	7
▁spider	7
itation	7
▁flight	7
▁memset	7
▁Ensure	7
entropy	7
members	7
▁recipe	7
▁profit	7
fixture	7
▁escape	7
Columns	7
▁limits	7
Dispose	7
▁orders	7
▁myself	7
VERSION	7
letters	7
umption	7
earning	7
▁giving	7
▁placed	7
Compare	7
▁neural	7
disable	7
Primary	7
▁VALUES	7
▁school	7
mathcal	7
decimal	7
without	7
▁resist	7
riction	7
▁solved	7
virtual	7
▁styled	7
percent	7
▁nombre	7
Capture	7
▁splits	7
ocation	7
▁Length	7
visited	7
▁anyway	7
▁couldn	7
▁attach	7
▁Enable	7
▁Camera	7
records	7
▁market	7
▁Second	7
▁aspect	7
▁fourth	7
epsilon	7
Private	7
Browser	7
distrib	7
▁resize	7
▁Active	7
▁listed	7
catalog	7
mediate	7
outputs	7
encoded	7
▁invest	7
▁stderr	7
jupiter	7
▁extend	7
cleaned	7
Average	7
▁raises	7
▁chance	7
segment	7
ossible	7
▁altern	7
▁mostly	7
▁lowest	7
▁credit	7
▁scheme	7
payment	7
twitter	7
missing	7
Updated	7
▁coming	7
▁bundle	7
machine	7
▁stride	7
ickness	7
Dynamic	7
station	7
pointer	7
changed	7
similar	7
▁Domain	7
clusion	7
▁passes	7
▁Course	7
▁Intent	7
▁conver	7
▁Screen	7
▁finite	7
eclipse	7
▁speech	7
▁signed	7
setting	7
▁Dialog	7
▁Amazon	7
▁OpenCV	7
refresh	7
▁pieces	7
Checked	7
players	7
▁artist	7
Measure	7
ulative	7
complex	7
between	7
groupby	7
covered	7
▁modulo	7
measure	7
▁spread	7
dynamic	7
▁contra	7
▁smooth	7
▁looked	7
keyword	7
choices	7
▁exceed	7
Require	7
license	7
flatten	7
shuffle	7
Combine	7
▁Arrays	7
padding	7
Refresh	7
▁Member	7
▁pyplot	7
Missing	7
▁fairly	7
▁Accept	7
squared	7
▁causes	7
Matcher	7
Virtual	7
▁marked	7
▁inject	7
▁posted	7
▁broken	7
methods	7
▁refers	7
▁anchor	7
Correct	7
▁intern	7
▁season	7
▁Schema	7
TextBox	7
▁ranges	7
caption	7
▁Offset	7
▁turned	7
pective	7
▁conven	7
▁unable	7
Without	7
contain	7
▁solver	7
▁supply	7
▁bigger	7
▁indeed	7
jectory	7
vectors	7
special	7
▁mapped	7
▁IntPtr	7
Welcome	7
website	7
imately	7
▁motion	7
surface	7
▁Series	7
emplace	7
▁scalar	7
portion	7
▁planet	7
▁unders	7
▁docker	7
▁invert	7
maximum	7
▁seeing	7
▁Equals	7
▁photos	7
▁recall	7
▁javafx	7
▁integr	7
Regular	7
▁Static	7
▁Submit	7
▁forget	7
General	7
▁iPhone	7
arently	7
▁bullet	7
▁extern	7
present	7
▁leaves	7
minutes	7
▁Direct	7
▁played	7
▁Fields	7
texture	7
sources	7
answers	7
▁modern	7
unknown	7
▁Switch	7
elenium	7
threads	7
▁topics	7
▁sparse	7
chapter	7
▁angles	7
elihood	7
▁shapes	7
mozilla	7
▁yellow	7
▁weapon	7
icenses	7
▁Compar	7
▁Spring	7
regular	7
▁caused	7
builtin	7
Surface	7
utility	7
Buttons	7
▁Design	7
▁breaks	7
▁laptop	7
managed	7
written	7
▁wallet	7
▁Symbol	7
▁Verify	7
▁Bitmap	7
▁Unique	7
OrderBy	7
minimum	7
general	7
▁thrown	7
▁Docker	7
▁Oracle	7
▁belong	7
▁impact	7
▁plural	7
Special	7
Mozilla	7
▁inform	7
▁income	7
ometric	7
▁shadow	7
▁graphs	7
▁sphere	7
reflect	7
Forward	7
Partial	7
▁Syntax	7
▁beyond	7
▁social	7
Contain	7
istream	7
▁bubble	7
▁Answer	7
▁thanks	7
▁Remote	7
binding	7
softmax	7
▁stable	7
orphism	7
working	7
▁DELETE	7
Picture	7
▁Helper	7
▁edited	7
IndexOf	7
▁powers	7
▁Repeat	7
Maximum	7
▁Vertex	7
prevent	7
heading	7
▁Circle	7
▁unsafe	7
▁latter	7
▁cosine	7
parents	7
DataSet	7
▁effort	7
clicked	7
▁reload	7
schemas	7
▁Square	7
▁circum	7
allowed	7
domains	7
quality	7
longest	7
Minimum	7
▁highly	7
friends	7
▁magnet	7
▁código	7
Because	7
▁spring	7
Preview	7
Percent	7
ractice	7
express	7
▁scaled	7
viously	7
▁skills	7
▁manner	7
▁tagged	7
Complex	7
▁stroke	7
imators	7
Reading	7
▁permit	7
▁claims	7
reviews	7
capital	7
▁formed	7
▁Master	7
because	7
▁finger	7
▁meters	7
▁Serial	7
▁orange	7
Compute	7
▁yields	7
▁Choose	7
▁joined	7
symbols	7
another	7
▁Review	7
▁mirror	7
preview	7
▁bought	7
▁street	7
▁analog	7
▁office	7
reading	7
largest	7
ributed	7
▁Native	7
rolling	7
▁German	7
▁Mobile	7
writing	7
▁stated	7
▁differ	7
patient	7
▁Follow	7
asctime	7
jective	7
▁Center	7
▁temper	7
▁Commun	7
Marshal	7
▁nature	7
▁Region	7
getitem	7
▁poster	7
▁Signal	7
deleted	7
greater	7
▁Health	7
▁scient	7
▁avatar	7
factors	7
Finally	7
▁EXPECT	7
▁timing	7
▁UPDATE	7
inverse	7
▁medium	7
receive	7
Similar	7
started	7
▁French	7
▁gather	7
▁bridge	7
▁Bundle	7
▁Invoke	7
buttons	7
▁lights	7
▁formal	7
▁Weight	7
▁Christ	7
through	7
charset	7
rounded	7
▁closes	7
▁Crypto	7
▁LOGGER	7
English	7
Compile	7
Archive	7
▁extent	7
Literal	7
▁Expect	7
▁cycles	7
Pending	7
▁demand	7
▁Divide	7
Provide	7
Instead	7
▁pylint	7
▁thresh	7
Working	7
▁offers	7
▁locked	7
▁coffee	7
Keyword	7
perform	7
▁facing	7
▁Volume	7
Numeric	7
▁mother	7
uploads	7
consist	7
▁danger	7
dropout	7
▁expert	7
▁Secret	7
▁scaler	7
Suppose	7
lengths	7
central	7
Padding	7
Routing	7
▁closer	7
▁Effect	7
▁theore	7
utation	7
▁battle	7
▁father	7
Related	7
vehicle	7
Between	7
density	7
science	7
pressed	7
Getting	7
▁States	7
Uniform	7
▁slower	7
▁Europe	7
▁locate	7
species	7
▁pseudo	7
▁ctypes	7
▁forces	7
discord	7
▁papers	7
squares	7
amental	7
▁Retrie	7
▁Assume	7
▁agents	7
Unicode	7
▁INSERT	7
Promise	7
pending	7
▁Launch	7
▁PROVID	7
▁Detail	7
▁QtCore	7
▁orient	7
▁leader	7
failure	7
▁Pandas	7
▁Models	7
▁picked	7
▁imagin	7
lectric	7
teacher	7
▁Sensor	7
authors	7
▁Online	7
suggest	7
▁classe	7
▁living	7
▁former	7
▁CREATE	7
▁harder	7
▁survey	7
matched	7
▁safety	7
▁summar	7
radians	7
changes	7
▁portal	7
▁Cancel	7
finally	7
▁Before	7
spatial	7
INVALID	7
▁growth	7
cellent	7
▁forgot	7
Dropout	7
▁caught	7
systems	7
▁crypto	7
▁vision	7
▁forest	7
▁sticky	7
digital	7
▁bottle	7
▁stands	7
▁Office	7
graphql	7
▁buying	7
degrees	7
▁atomic	7
▁missed	7
▁behave	7
▁People	7
▁begins	7
istance	7
▁curves	7
concept	7
indexed	7
formula	7
nearest	7
▁liquid	7
polygon	7
▁hoping	7
▁nearly	7
▁tempor	7
Physics	7
physics	7
▁female	7
▁inches	7
▁scales	7
provide	7
▁butter	7
circuit	7
▁killed	7
▁covers	7
onClick	7
▁discus	7
▁mainly	7
getattr	7
▁frozen	7
Twitter	7
▁prepar	7
▁Figure	7
▁Ticket	7
desired	7
Nothing	7
▁stress	7
▁pushed	7
closest	7
groupId	7
upytext	7
inplace	7
▁triple	7
journal	7
▁School	7
partner	7
Chapter	7
Express	7
▁Factor	7
▁Neural	7
▁humans	7
aligned	7
▁fitted	7
stances	7
Website	7
▁doctor	7
▁plotly	7
lations	7
▁Rating	7
usually	7
depends	7
DOCTYPE	7
TResult	7
▁Market	7
▁studio	7
▁Points	7
combine	7
getting	7
▁attrib	7
▁became	7
regions	7
▁Expand	7
▁Period	7
▁hereby	7
▁narrow	7
pmatrix	7
▁sector	7
▁convex	7
removed	7
▁decent	7
Looking	7
▁plenty	7
Concept	7
▁sudden	7
Systems	7
limited	7
▁excess	7
▁utiliz	7
▁paddle	7
▁annual	7
▁serves	7
nothing	7
▁fabric	7
▁relate	7
instead	7
▁United	7
▁expose	7
▁seemed	7
▁forced	7
▁Atomic	7
▁popped	7
Perform	7
▁derive	7
▁island	7
▁served	7
▁losing	7
Inverse	7
▁Cookie	7
▁Notice	7
▁econom	7
▁bother	7
▁macros	7
▁carbon	7
located	7
effects	7
▁showed	7
▁eating	7
Digital	7
▁helped	7
▁spiral	7
▁lesson	7
amilton	7
Through	7
▁guitar	7
ociated	7
▁tunnel	7
▁centre	7
neutral	7
▁Social	7
inomial	7
natural	7
monthly	7
▁slowly	7
ipython	7
▁Regist	7
▁viewed	7
▁Street	7
▁bodies	7
waiting	7
aturday	7
▁flower	7
▁robust	7
▁Battle	7
ivation	7
respons	7
bmatrix	7
▁cheese	7
Answers	7
asyncio	7
Further	7
Declare	7
▁merely	7
▁Credit	7
▁conjug	7
▁versus	7
INTEGER	7
▁stupid	7
Angular	7
▁honest	7
ificial	7
▁bright	7
▁combat	7
▁parity	7
▁widely	7
algebra	7
▁Secure	7
Calling	7
▁parame	7
▁charts	7
inction	7
▁Actual	7
graphic	7
▁NOTICE	7
nonzero	7
▁Dragon	7
▁arrive	7
▁oxygen	7
rewrite	7
▁browse	7
▁strike	7
serving	7
Formula	7
foreign	7
highest	7
▁MATLAB	7
▁latent	7
▁rarely	7
Creates	7
▁denote	7
elastic	7
▁Origin	7
▁Energy	7
divisor	7
▁gotten	7
already	7
adratic	7
Perhaps	7
▁pulled	7
fitting	7
▁invite	7
▁Doctor	7
Trainer	7
parsing	7
▁rocket	7
offline	7
drawing	7
sklearn	7
▁unsure	7
traffic	7
▁Silver	7
▁paying	7
DataRow	7
▁diagon	7
Reviews	7
overlap	7
▁flying	7
voltage	7
instant	7
▁afraid	7
theorem	7
gravity	7
▁suffer	7
▁rolled	7
handles	7
▁precis	7
▁famous	7
Operand	7
Journal	7
▁Termin	7
tionary	7
▁affine	7
▁thinks	7
Spatial	7
respond	7
▁nobody	7
▁spoken	7
▁nearby	7
itative	7
meaning	7
▁batter	7
playing	7
develop	7
Density	7
▁notion	7
attempt	7
▁toward	7
Finding	7
▁brings	7
Central	7
▁oscill	7
finding	7
pytorch	7
▁purely	7
▁intend	7
▁Canada	7
▁scoped	7
newline	7
▁explan	7
▁namely	7
▁dragon	7
▁cyclic	7
▁acting	7
▁greedy	7
▁silent	7
▁summer	7
optimal	7
▁threat	7
opening	7
▁thrust	7
persons	7
popular	7
▁invent	7
▁ratios	7
▁remark	7
Attempt	7
scaling	7
leading	7
▁Bridge	7
▁Scalar	7
▁Theory	7
▁mixing	7
▁sketch	7
bitwise	7
▁fixing	7
▁driven	7
▁Family	7
▁Manage	7
▁preser	7
▁unlike	7
meeting	7
▁Middle	7
▁France	7
▁hiding	7
▁spirit	7
compact	7
▁nation	7
▁ModInt	7
Prepare	7
▁planes	7
▁Monday	7
outside	7
▁proved	7
▁patent	7
ReadInt	7
iterate	7
▁stairs	7
▁torque	7
protein	7
▁desire	7
▁thesis	7
▁Sunday	7
explore	7
Partner	7
▁Matlab	7
▁August	7
reduced	7
closing	7
figures	7
bounded	7
▁Pascal	7
▁belief	7
▁relies	7
▁earned	7
▁London	7
▁Modern	7
▁coupon	7
▁Having	7
▁reveal	7
▁varies	7
▁commut	7
▁galaxy	7
stories	7
Elastic	7
▁police	7
▁Starts	7
colored	7
MongoDB	7
▁vacuum	7
▁surely	7
▁Markov	7
Whether	7
▁silver	7
▁proven	7
thought	7
▁masses	7
▁winter	7
operand	7
▁Sparse	7
▁deeper	7
looking	7
▁indice	7
outcome	7
▁ggplot	7
etailed	7
▁During	7
Graphic	7
▁strain	7
perfect	7
smaller	7
▁clever	7
▁Shadow	7
▁accent	7
▁interp	7
▁breath	7
Capital	7
▁Coding	7
▁induct	7
haskell	7
closure	7
ativity	7
textBox	7
▁Galaxy	7
▁pounds	7
▁taught	7
implies	7
▁muscle	7
protect	7
Bitcoin	7
Authors	7
▁hybrid	7
▁subtle	7
▁afford	7
minimal	7
▁Descri	7
trivial	7
▁assist	7
▁photon	7
▁radial	7
▁Season	7
purpose	7
Natural	7
▁purple	7
phantom	7
classic	7
▁dinner	7
▁resort	7
▁stabil	7
▁phases	7
▁extens	7
Michael	7
▁Recent	7
▁Though	7
▁cancer	7
▁Israel	7
▁career	7
▁League	7
▁interf	7
▁Inform	7
▁candle	7
▁sports	7
▁backed	7
▁garden	7
ordinal	7
▁pragma	7
ificant	7
▁strand	7
▁convey	7
sharing	7
Fitness	7
▁tablet	7
▁clouds	7
▁Boston	7
▁Things	7
quarter	7
▁Lesson	7
▁Legend	7
hundred	7
▁critic	7
▁paused	7
▁Alipay	7
▁copper	7
▁Travel	7
diagram	7
setFont	7
▁victim	7
▁dashed	7
▁baking	7
▁Friday	7
instein	7
calling	7
▁Jewish	7
Chinese	7
▁contin	7
▁mutual	7
▁golden	7
MaxPool	7
▁guides	7
▁Coffee	7
Algebra	7
sitemap	7
categor	7
Overlap	7
cussion	7
▁experi	7
▁gained	7
▁Indeed	7
▁conten	7
uations	7
▁Invest	7
▁cooked	7
▁corpor	7
January	7
rotated	7
▁sliced	7
▁Median	7
▁Rather	7
▁Indian	7
▁relief	7
▁proofs	7
▁Daniel	7
overall	7
▁proton	7
▁werden	7
perhaps	7
lattice	7
▁Robert	7
NetCore	7
valores	7
▁twenty	7
Perfect	7
▁prison	7
taining	7
▁advers	7
▁mental	7
Science	7
circles	7
college	7
▁powder	7
healthy	7
▁Turing	7
▁Moment	7
Respons	7
▁absent	7
▁Arabic	7
▁attend	7
▁rescue	7
▁stereo	7
▁instal	7
medical	7
▁pocket	7
▁ration	7
▁sister	7
CodeDom	7
explain	7
inciple	7
▁recept	7
derived	7
▁Korean	7
focused	7
conduct	7
▁Closed	7
quantum	7
Edition	7
eration	7
winning	7
▁amazon	7
Tuesday	7
fashion	7
▁Martin	7
▁contro	7
fffffff	7
orthern	7
extends	7
▁triang	7
WITHOUT	7
▁hardly	7
acceler	7
subsets	7
persona	7
Quantum	7
Someone	7
▁Within	7
▁riding	7
▁assess	7
descent	7
▁rubber	7
▁fusion	7
America	7
▁Church	7
keeping	7
Speaker	7
entered	7
▁vessel	7
▁Little	7
licable	7
▁steady	7
▁Taylor	7
YouTube	7
assumed	7
▁arises	7
▁County	7
seaborn	7
▁iphone	7
whether	7
▁doubly	7
Jackson	7
Applied	7
▁Butter	7
▁Latest	7
▁Mirror	7
▁titled	7
▁pepper	7
jsonify	7
▁apolog	7
▁execut	7
carrier	7
▁church	7
▁Mechan	7
olecule	7
▁Strong	7
tkinter	7
▁severe	7
▁Russia	7
Youtube	7
shifted	7
irement	7
cooking	7
ilistic	7
▁Depart	7
horizon	7
▁Thomas	7
▁Unlike	7
Medical	7
▁PayPal	7
▁marble	7
▁expres	7
▁shower	7
atively	7
▁dotted	7
▁Topics	7
▁barely	7
Classic	7
comfort	7
however	7
outhern	7
someone	7
Neither	7
▁Except	7
▁Father	7
▁rising	7
▁refuse	7
▁senior	7
▁deduce	7
▁polite	7
▁fellow	7
printed	7
improve	7
▁glance	7
▁guards	7
▁insist	7
discuss	7
passing	7
▁settle	7
▁remind	7
applied	7
▁psycho	7
holding	7
amilies	7
▁succes	7
▁absorb	7
▁overly	7
▁harmon	7
▁normed	7
creates	7
October	7
▁congru	7
▁Orient	7
Besides	7
Categor	7
charges	7
rangian	7
▁weaker	7
▁kullan	7
▁murder	7
defense	7
▁Kalman	7
▁Intern	7
▁voices	7
stellar	7
▁observ	7
mathscr	7
▁heaven	7
Foreign	7
▁prayer	7
▁supers	7
▁Carbon	7
▁beside	7
▁breast	7
biggest	7
▁tomato	7
polymer	7
▁George	7
▁Andrew	7
versely	7
defines	7
▁handed	7
mounted	7
▁hazard	7
▁tissue	7
shields	7
▁talked	7
▁Recall	7
Optimal	7
▁immune	7
▁sexual	7
▁Africa	7
▁Spirit	7
▁beauty	7
heating	7
▁Joseph	7
▁Browse	7
ambient	7
▁Empire	7
specify	7
against	7
▁burned	7
▁deeply	7
▁Summer	7
undance	7
▁pontos	7
▁asleep	7
▁Brazil	7
▁estate	7
▁Oxford	7
▁Finite	7
▁Finger	7
Lecture	7
▁curved	7
Iterate	7
transit	7
▁tongue	7
▁covari	7
▁Higher	7
certain	7
▁anonym	7
▁extrap	7
▁coarse	7
lightly	7
▁Cauchy	7
▁bitter	7
iations	7
▁constr	7
walking	7
emplate	7
▁eighth	7
▁Galois	7
Suspend	7
▁planar	7
▁Winter	7
▁gaming	7
▁sooner	7
▁axioms	7
▁Pseudo	7
▁garlic	7
▁jumped	7
▁tender	7
Crystal	7
Theorem	7
insight	7
inertia	7
▁fallen	7
College	7
picking	7
▁Expert	7
regress	7
kitchen	7
▁horses	7
▁Bright	7
▁Victor	7
spectra	7
▁sodium	7
▁nights	7
charged	7
▁walked	7
Solving	7
▁maxima	7
▁desert	7
▁trigon	7
▁wooden	7
▁hearts	7
modular	7
modulus	7
▁radian	7
▁multis	7
pathlib	7
▁plasma	7
strides	7
hashlib	7
▁defend	7
▁dipole	7
showing	7
driving	7
morning	7
▁priest	7
▁potato	7
urement	7
▁Nature	7
▁minima	7
▁smiles	7
exactly	7
▁propos	7
thermal	7
▁Golden	7
million	7
▁kindly	7
▁Laptop	7
bearing	7
▁Fisher	7
▁SMILES	7
divided	7
▁twelve	7
▁govern	7
oupling	7
▁Sierra	7
venient	7
Explain	7
▁proces	7
▁instru	7
ropolis	7
Several	7
hasattr	7
respect	7
▁heated	7
▁Mother	7
alcohol	7
▁physic	7
▁surviv	7
▁Nvidia	7
▁stayed	7
▁saddle	7
▁Spaces	7
Premium	7
Diamond	7
perator	7
▁buried	7
Chicago	7
precise	7
▁regret	7
▁verbal	7
Fourier	7
▁potent	7
▁compos	7
▁metals	7
▁Jordan	7
extreme	7
▁warned	7
▁Summar	7
▁Beyond	7
▁landed	7
▁waited	7
▁indica	7
▁thirty	7
▁Euclid	7
valence	7
several	7
▁pursue	7
oftware	7
▁clinic	7
▁valida	7
fiction	7
▁disapp	7
ipeline	7
▁deform	7
filling	7
married	7
imezone	7
▁Julian	7
▁Dynamo	7
▁vanish	7
▁gentle	7
▁Sports	7
▁Videos	7
Samsung	7
follows	7
▁causal	7
▁Berlin	7
▁Zombie	7
▁predic	7
▁dating	7
▁Guitar	7
▁folded	7
▁hypers	7
Matthew	7
raining	7
▁Cheese	7
typical	7
▁divers	7
fourier	7
▁tapped	7
▁includ	7
▁provid	7
▁Americ	7
▁announ	7
▁determ	7
ospital	7
ruction	7
ovember	7
▁compan	7
ription	7
▁streng	7
aughter	7
▁compon	7
▁advant	7
▁histor	7
▁excell	7
▁Police	7
▁proced	7
▁apprec	7
▁incred	7
▁consid	7
▁Museum	7
▁cavity	7
▁atmosp	7
▁lovely	7
▁sleeve	7
▁headed	7
▁terror	7
▁Indust	7
▁reform	7
▁struck	7
▁Senior	7
▁loving	7
ogether	7
izabeth	7
▁sevent	7
▁Wilson	7
▁Donald	7
▁Comput	7
athered	7
▁Prince	7
▁Applic	7
▁guilty	7
▁Steven	7
▁Histor	7
Despite	7
▁Garden	7
▁sought	7
▁accord	7
▁Albert	7
▁analys	7
▁phosph	7
▁correl	7
▁cataly	7
▁drying	7
▁Contin	7
▁Morgan	7
▁Disney	7
▁Nation	7
▁transm	7
istical	7
▁Proper	7
▁cotton	7
▁dining	7
▁Annual	7
▁Junior	7
agnetic	7
▁rotary	7
▁desper	7
▁Michel	7
▁Madrid	7
▁Edward	7
▁symmet	7
▁fought	7
▁Justin	7
embered	7
▁cylind	7
▁excite	7
▁marine	7
western	7
ressing	7
▁hollow	7
attered	7
▁gently	7
▁Marine	7
atching	7
century	7
▁lifted	7
▁ginger	7
▁argued	7
▁guided	7
▁regime	7
▁Integr	7
▁simmer	7
induced	7
▁jacket	7
▁Rachel	7
▁scream	7
▁melted	7
▁kicked	7
▁Arthur	7
▁transf	7
▁honour	7
▁Ronald	7
▁scared	7
lements	7
▁rushed	7
William	7
▁Samuel	7
▁Philip	7
reement	7
▁Nathan	7
▁firmly	7
portant	7
▁metall	7
▁finely	7
▁Johnny	7
▁Oliver	7
▁washed	7
▁Walter	7
▁elabor	7
ighting	7
▁throat	7
▁crying	7
▁Wonder	7
▁refere	7
▁emerge	7
▁ounces	7
▁Impact	7
istence	7
▁perpet	7
▁cloves	7
▁warmth	7
▁attain	7
▁peanut	7
▁grated	7
▁Marcus	7
▁discon	7
▁clutch	7
ountain	7
▁Hannah	7
▁evapor	7
▁Toyota	7
▁casino	7
▁incons	7
▁Instit	7
▁cooled	7
▁sacred	7
▁intens	7
utenant	7
▁minced	7
▁collar	7
▁divine	7
▁fright	7
▁methyl	7
ounding	7
▁admire	7
▁fierce	7
▁poured	7
▁peeled	7
organic	7
▁wished	7
▁breeze	7
idering	7
▁extrem	7
▁Twenty	7
▁Adrian	7
▁pillow	7
▁Andrea	7
▁Sebast	7
▁flames	7
▁admits	7
ervices	7
herical	7
forming	7
▁Pierre	7
▁Angela	7
iciency	7
Richard	7
▁assure	7
▁resear	7
▁gravel	7
alities	7
▁destro	7
▁Sister	7
amiliar	7
▁waking	7
▁Resort	7
▁Olivia	7
▁Papers	7
▁porous	7
▁gastro	7
lifting	7
▁Tennis	7
▁induce	7
▁Sophie	7
▁expans	7
▁Determ	7
▁incomp	7
▁Dollar	7
▁Posted	7
▁Beauty	7
British	7
▁Europa	7
▁tossed	7
Preheat	7
olutely	7
▁sorrow	7
▁hydrox	7
▁betray	7
▁Maggie	7
▁Patent	7
▁silica	7
▁Reform	7
▁Bayern	7
▁Astron	7
feeding	7
growing	7
▁Stress	7
roduced	7
▁Nissan	7
Charles	7
▁bloody	7
▁Anders	7
▁Stefan	7
▁Casino	7
▁herein	7
▁smiled	7
▁utmost	7
▁Rafael	7
▁electr	7
▁bodily	7
▁Sympos	7
▁virgin	7
▁Behind	7
▁Flying	7
▁Calvin	7
▁multic	7
▁Divine	7
▁slurry	7
Council	7
▁tucked	7
▁Zimmer	7
▁attent	7
▁Marcel	7
▁superf	7
▁photoc	7
▁absurd	7
England	7
▁Kinder	7
▁perfor	7
▁asympt	7
Stephen	7
▁Chance	7
Univers	7
▁wicked	7
Western	7
▁warmed	7
▁capita	7
▁Sergio	7
▁funnel	7
▁Bundes	7
▁solids	7
▁rested	7
▁explor	7
itching	7
▁Ranger	7
▁invari	7
▁Terror	7
elected	7
▁Keller	7
▁Gaming	7
cutting	7
inished	7
▁Juliet	7
raising	7
reasing	7
▁sucked	7
▁Suzuki	7
▁sensit	7
▁Hammer	7
treated	7
▁Hotels	7
solving	7
▁cosmic	7
▁Gareth	7
▁nuclei	7
▁echoed	7
▁alkali	7
Patrick	7
▁reacts	7
▁graded	7
ranging	7
plastic	7
▁Priest	7
▁Corona	7
▁Schwar	7
▁ellipt	7
▁microm	7
▁corona	7
▁linger	7
Chelsea	7
▁interl	7
▁reflux	7
hydroxy	7
▁Stokes	7
ceiving	7
Captain	7
▁Academ	7
▁Lounge	7
uttered	7
▁Nguyen	7
requent	7
▁Propos	7
▁blonde	7
▁Baking	7
▁Conver	7
▁privat	7
ossibly	7
▁Theore	7
chastic	7
▁Huawei	7
▁Kaiser	7
▁conduc	7
▁improv	7
▁Malone	7
Arsenal	7
Vitamin	7
▁Horror	7
▁extrac	7
▁quench	7
bedroom	7
▁Kosovo	7
▁Dating	7
▁Werner	7
otation	7
▁chocol	7
▁shakes	7
Charlie	7
▁yelled	7
▁cheeks	7
▁geomet	7
▁solemn	7
▁Minute	7
▁Zucker	7
▁anisot	7
▁trivia	7
Philipp	7
▁Johann	7
▁Diesel	7
▁Wester	7
▁Jeanne	7
▁vortex	7
husband	7
plement	7
▁shaded	7
▁genera	7
▁rinsed	7
▁curled	7
uitable	7
▁Strand	7
▁stared	7
▁Yamaha	7
▁deline	7
▁Sodium	7
▁mortal	7
brother	7
ractive	7
▁softly	7
▁dishon	7
telling	7
▁Ludwig	7
Advisor	7
▁Italia	7
▁barric	7
Olympic	7
▁leaned	7
▁swords	7
▁rubbed	7
▁servic	7
▁transc	7
▁consec	7
▁Metall	7
▁Pharma	7
▁helium	7
▁sensed	7
accarat	7
▁Xiaomi	7
▁tilted	7
▁furthe	7
leaders	7
▁Accord	7
▁strang	7
▁overst	7
serious	7
▁Magnet	7
Brother	7
electro	7
▁nodded	7
pecific	7
▁Subaru	7
▁illust	7
▁aligns	7
▁Luxury	7
▁Hubble	7
▁reduct	7
▁hugged	7
▁Sexual	7
hitting	7
burning	7
▁Batter	7
▁Strick	7
▁techno	7
fishing	7
▁Sergei	7
▁microw	7
▁Markus	7
▁kissed	7
▁Clover	7
▁Nikola	7
▁martyr	7
▁Suites	7
planned	7
individ	7
▁dilute	7
ostatic	7
▁unknow	7
▁angled	7
▁Formal	7
falling	7
▁patter	7
▁Planck	7
cooling	7
▁Viktor	7
▁Hirsch	7
seeking	7
▁financ	7
▁Chiang	7
▁Emilia	7
▁Madame	7
▁Acknow	7
Supreme	7
wearing	7
▁splint	7
▁Dmitry	7
▁hyperb	7
▁Lenovo	7
causing	7
▁acetic	7
optical	7
▁shoved	7
▁damned	7
▁easter	7
▁Psycho	7
▁chiral	7
▁weakly	7
despite	7
▁Platte	7
▁Kepler	7
▁disemb	7
▁pissed	7
Premier	7
▁Adidas	7
▁gravit	7
▁precon	7
▁Sparta	7
▁Schiff	7
▁citric	7
▁Naruto	7
placing	7
Vietnam	7
redibly	7
▁immuno	7
freedom	7
chopped	7
benefit	7
▁Xperia	7
further	7
imagine	7
▁thermo	7
princip	7
▁Bamboo	7
▁Ulrich	7
hearing	7
leaning	7
▁convol	7
turning	7
talking	7
▁Michal	7
▁matric	7
▁Remark	7
▁Ritter	7
believe	7
Shannon	7
massive	7
pectral	7
veloped	7
▁giggle	7
▁kinder	7
ciences	7
▁photod	7
▁Temper	7
▁Verlag	7
killing	7
ethanol	7
▁confid	7
putting	7
Figures	7
pirical	7
▁primal	7
romised	7
coupled	7
helpful	7
roughly	7
hanging	7
ouching	7
▁Cantor	7
council	7
feeling	7
▁Handel	7
▁viagra	7
▁yester	7
nuclear	7
▁Afrika	7
▁Sabine	7
▁seduct	7
▁sighed	7
Fashion	7
▁Joined	7
▁proble	7
acebook	7
ividual	7
▁formul	7
▁repres	7
bstract	7
anation	7
pendent	7
onsider	7
▁collis	7
omework	7
radient	7
▁confus	7
▁embedd	7
▁Probab	7
▁establ	7
▁zbMATH	7
dsymbol	7
▁criter	7
▁Banach	7
▁strate	7
▁cardin	7
▁simult	7
▁behavi	7
▁decays	7
▁publis	7
widehat	7
ariance	7
▁Pythag	7
▁moduli	7
overset	7
onormal	7
▁disper	7
ownload	7
▁Graphs	7
mathnet	7
ponents	7
uparrow	7
enclose	7
adjoint	7
egative	7
▁Fermat	7
▁Bessel	7
abelian	7
▁Navier	7
▁Convex	7
Riemann	7
▁monoid	7
▁discre	7
▁Solved	7
▁circul	7
▁develo	7
▁Wiener	7
propert	7
SHOWING	7
▁Landau	7
hepdata	7
Schwarz	7
▁Calabi	7
Poisson	7
rystall	7
ections	7
Hilbert	7
varying	7
▁damped	7
▁Kindly	7
▁Pareto	7
locally	7
▁Diffie	7
Laplace	7
Seminar	7
Nuclear	7
functor	7
▁phonon	7
concave	7
racting	7
chloric	7
▁archiv	7
▁diffus	7
nthetic	7
tangent	7
maximal	7
efinite	7
suppose	7
orbital	7
creases	7
cations	7
schemes	7
positio	7
▁gratis	7
▁Differ	7
divides	7
Neumann	7
Andreas	7
duality	7
unitary	7
obvious	7
paramet	7
denoted	7
▁Abstra	7
proving	7
studied	7
Maxwell	7
hydrate	7
▁iodide	7
Thermal	7
▁mathrm	7
Sobolev	7
kinetic	7
Laurent	7
onstant	7
matical	7
vations	7
creased	7
▁Balmer	7
▁Physic	7
▁parall	7
▁explic	7
bonding	7
acetime	7
knowled	7
introdu	7
▁Geomet	7
▁hetero	7
Coulomb	7
variety	7
Fischer	7
Pearson	7
becomes	7
ingular	7
▁Triang	7
whereas	7
ccurate	7
Electro	7
▁curren	7
neutron	7
▁Hungar	7
Discret	7
▁Algebr	7
riangle	7
pointed	7
omplete	7
solvent	7
▁chloro	7
Feynman	7
Gerhard	7
Replies	7
▁zenith	7
clearly	7
Scholar	7
erminal	7
neither	7
Optical	7
▁Dieter	7
tension	7
▁implic	7
denotes	7
▁cesium	7
hydride	7
raphene	7
alactic	7
arallel	7
quation	7
▁Facult	7
bereich	7
▁Zürich	7
▁biject	7
▁adjoin	7
hydrous	7
▁chemot	7
photons	7
▁diamet	7
excited	7
totally	7
▁optima	7
statist	7
▁Mandel	7
▁pressu	7
fluence	7
towards	7
▁András	7
appears	7
implied	7
iagonal	7
Variety	7
simpler	7
impulse	7
▁Farkas	7
▁Fundam	7
easures	7
▁Revise	7
▁scatte	7
benzene	7
▁analyt	7
▁Nieder	7
▁Helmut	7
Doppler	7
▁Ration	7
protons	7
▁Thermo	7
▁Jürgen	7
equally	7
schrift	7
▁Freund	7
viscous	7
hatsApp	7
mohamed	7
riginal	7
▁können	7
▁weiter	7
▁wieder	7
▁dieser	7
ationen	7
wischen	7
▁finden	7
▁diesem	7
schland	7
▁selbst	7
▁Jahren	7
▁machen	7
stellen	7
▁kommen	7
▁ersten	7
▁lassen	7
entlich	7
▁wurden	7
▁unsere	7
▁sollte	7
▁dieses	7
unktion	7
▁zurück	7
▁müssen	7
reichen	7
▁andere	7
▁seiner	7
▁kosten	7
▁Wasser	7
▁gleich	7
▁Arbeit	7
▁besten	7
▁sicher	7
▁bietet	7
▁Kunden	7
▁einmal	7
▁diesen	7
▁seinen	7
▁Wochen	7
▁besser	7
▁jedoch	7
▁stehen	7
▁Bilder	7
möglich	7
▁wollen	7
▁kaufen	7
schluss	7
▁direkt	7
▁Lebens	7
▁möchte	7
▁Bewert	7
▁konnte	7
▁vielen	7
▁beiden	7
▁nichts	7
▁Frauen	7
▁einige	7
▁welche	7
▁Weiter	7
▁gerade	7
▁großen	7
▁seinem	7
▁könnte	7
▁Garten	7
▁Jugend	7
▁bieten	7
▁Sicher	7
▁Besuch	7
▁Sommer	7
▁Januar	7
steller	7
▁findet	7
▁Gemein	7
▁Erfahr	7
▁erklär	7
▁darauf	7
meister	7
▁Kosten	7
▁Fragen	7
▁kleine	7
▁schwer	7
▁kannst	7
schließ	7
▁hinter	7
▁Verfüg	7
▁hatten	7
▁Schwei	7
▁passen	7
▁wissen	7
▁folgen	7
▁Verein	7
richten	7
▁Jahres	7
▁Seiten	7
▁sollen	7
▁leicht	7
▁worden	7
▁erfolg	7
▁persön	7
▁Bürger	7
schnitt	7
▁heraus	7
▁Mittel	7
▁nehmen	7
▁bisher	7
▁Landes	7
▁Rahmen	7
▁sofort	7
▁Selbst	7
bildung	7
▁wunder	7
▁meiner	7
▁Ferien	7
▁zusätz	7
▁bleibt	7
▁irgend	7
▁keinen	7
▁später	7
▁helfen	7
▁gehört	7
▁zeigen	7
gesetzt	7
▁Wetter	7
▁Spiele	7
▁leider	7
▁Körper	7
▁Herren	7
▁suchen	7
▁Eltern	7
▁Saison	7
▁Kultur	7
▁Erfolg	7
▁nutzen	7
▁Urlaub	7
▁erhält	7
▁liegen	7
▁Gesund	7
▁kennen	7
▁Themen	7
▁stellt	7
▁Wissen	7
▁Anfang	7
▁meinen	7
▁Hinter	7
▁halten	7
▁Liefer	7
▁freuen	7
▁Sonnen	7
▁wollte	7
▁Schlaf	7
▁meinem	7
▁Straße	7
▁eigene	7
▁Finanz	7
▁Schutz	7
▁Aktion	7
▁hinaus	7
▁verfüg	7
▁hervor	7
▁Männer	7
▁länger	7
▁Medien	7
▁versch	7
▁Einzel	7
▁Farben	7
▁musste	7
ächlich	7
▁einzel	7
▁Montag	7
▁sowohl	7
▁Dienst	7
▁größer	7
ikation	7
bringen	7
▁führen	7
▁Pflege	7
▁bringt	7
▁belieb	7
▁Kommun	7
▁Gesprä	7
▁bereit	7
▁Preise	7
▁Modell	7
▁dürfen	7
▁jemand	7
ständig	7
▁schöne	7
▁Gesamt	7
▁Geburt	7
▁anders	7
▁Schule	7
jährige	7
▁würden	7
▁Punkte	7
▁früher	7
▁Dieser	7
▁Mutter	7
▁setzen	7
▁Steuer	7
▁Gruppe	7
ierungs	7
▁ganzen	7
▁prakti	7
▁laufen	7
▁Gewinn	7
zeichen	7
▁Umwelt	7
▁Dieses	7
▁Monate	7
▁Bücher	7
▁sorgen	7
hältnis	7
▁Rechts	7
▁Förder	7
▁vorher	7
▁häufig	7
▁lernen	7
▁sozial	7
▁dessen	7
▁Firmen	7
▁ebenso	7
▁Sozial	7
▁Schuhe	7
▁vorbei	7
▁Wunsch	7
▁Herbst	7
▁Karten	7
▁fahren	7
▁Doppel	7
verband	7
▁Stelle	7
schrank	7
▁Fehler	7
▁Lösung	7
▁letzte	7
frieden	7
verkehr	7
▁Wieder	7
▁spielt	7
▁Wander	7
▁selber	7
bedingt	7
▁finanz	7
▁Presse	7
▁Unsere	7
▁Privat	7
▁Heraus	7
Artikel	7
▁solche	7
▁Mensch	7
▁zweite	7
▁danach	7
▁Reisen	7
▁Beginn	7
▁tragen	7
▁ehemal	7
▁allein	7
▁Behand	7
schauen	7
▁wählen	7
klusive	7
▁erneut	7
▁Staats	7
▁Freude	7
▁Kredit	7
▁gesagt	7
Jährige	7
▁hätten	7
▁buchen	7
glichen	7
▁Sonder	7
▁Gefühl	7
▁Gleich	7
▁großer	7
▁Marken	7
▁selten	7
schafts	7
▁Kirche	7
▁Morgen	7
▁Anzahl	7
▁Schlag	7
▁ausgew	7
▁deinen	7
▁Unfall	7
▁sieben	7
▁Praxis	7
▁Gesetz	7
[...]
