▁implementations	16
▁straightforward	16
▁characteristics	16
▁representations	16
▁Representatives	16
▁transformations	16
▁implementation	15
springframework	15
includegraphics	15
▁representation	15
▁authentication	15
▁classification	15
▁transformation	15
▁characteristic	15
▁administration	15
▁initialization	15
▁administrative	15
▁representative	15
▁multiplication	15
▁simultaneously	15
▁configurations	15
▁responsibility	15
▁Classification	15
▁Administration	15
▁Authentication	15
▁recommendation	15
▁identification	15
▁International	14
▁configuration	14
▁international	14
▁corresponding	14
▁understanding	14
▁functionality	14
▁Unfortunately	14
▁communication	14
▁circumstances	14
▁approximately	14
▁Championships	14
▁unfortunately	14
eltemperaturen	14
▁Massachusetts	14
Authentication	14
▁approximation	14
▁significantly	14
▁Entertainment	14
disambiguation	14
▁distributions	14
▁consideration	14
▁Alternatively	14
▁distinguished	14
▁contributions	14
▁Configuration	14
adratkilometer	14
implementation	14
▁relationships	14
▁specification	14
▁investigation	14
Longrightarrow	14
authentication	14
▁contradiction	14
longrightarrow	14
▁possibilities	14
▁compatibility	14
▁Transfermarkt	14
▁collaboration	14
▁establishment	14
▁independently	14
▁organizations	14
▁notifications	14
▁decomposition	14
▁modifications	14
▁concentration	14
▁computational	14
▁administrator	14
▁authorization	14
▁environmental	14
▁neighbourhood	14
▁interpolation	14
stackoverflow	13
▁distribution	13
stackexchange	13
▁construction	13
▁respectively	13
▁applications	13
▁successfully	13
Configuration	13
▁Championship	13
▁relationship	13
▁dependencies	13
▁professional	13
▁particularly	13
▁specifically	13
▁installation	13
▁architecture	13
▁requirements	13
▁contribution	13
▁instructions	13
▁notification	13
documentation	13
▁organization	13
configuration	13
▁optimization	13
▁observations	13
▁conversation	13
▁considerable	13
▁representing	13
▁implementing	13
▁Pennsylvania	13
▁differential	13
▁constitution	13
▁calculations	13
▁subsequently	13
▁intersection	13
▁Distribution	13
▁experimental	13
▁combinations	13
▁Philadelphia	13
documentclass	13
▁neighborhood	13
▁sufficiently	13
▁introduction	13
▁informations	13
▁mathematical	13
▁intermediate	13
▁Additionally	13
▁Professional	13
▁Constitution	13
▁measurements	13
▁asynchronous	13
▁intelligence	13
▁institutions	13
▁performances	13
▁modification	13
▁independence	13
▁interactions	13
▁transactions	13
▁championship	13
▁registration	13
▁transmission	13
▁Publications	13
▁occasionally	13
▁environments	13
▁difficulties	13
▁substitution	13
subsubsection	13
▁conservation	13
▁presentation	13
▁accomplished	13
▁contemporary	13
▁restrictions	13
▁participated	13
Authorization	13
▁subscription	13
▁publications	13
▁significance	13
▁Specifically	13
▁headquarters	13
▁satisfaction	13
▁Commonwealth	13
▁capabilities	13
▁consequences	13
▁associations	13
▁alternatives	13
▁acceleration	13
▁Architecture	13
▁improvements	13
▁conventional	13
▁Notification	13
▁demonstrated	13
▁declarations	13
▁Metropolitan	13
▁repositories	13
▁protagonista	13
▁individually	13
▁proportional	13
▁application	12
▁information	12
▁performance	12
▁environment	12
▁development	12
▁description	12
▁probability	12
▁significant	12
▁immediately	12
▁independent	12
▁appreciated	12
▁established	12
▁Association	12
▁interesting	12
▁explanation	12
▁Application	12
▁alternative	12
▁programming	12
▁implemented	12
operatorname	12
▁represented	12
▁combination	12
▁Information	12
▁temperature	12
▁suggestions	12
▁transaction	12
▁dynamically	12
▁permissions	12
▁requirement	12
▁constraints	12
▁declaration	12
▁complicated	12
▁expressions	12
▁certificate	12
▁connections	12
▁destination	12
Illustration	12
▁differences	12
▁institution	12
▁Description	12
Notification	12
▁placeholder	12
▁distributed	12
▁constructed	12
▁possibility	12
▁integration	12
▁recommended	12
▁essentially	12
▁traditional	12
▁considering	12
▁competition	12
▁calculation	12
▁translation	12
▁responsible	12
plementation	12
▁Development	12
▁compilation	12
▁interaction	12
▁Corporation	12
▁conditional	12
▁opportunity	12
▁composition	12
▁instruction	12
▁association	12
▁observation	12
displaystyle	12
▁individuals	12
▁experiments	12
▁definitions	12
temperaturen	12
▁credentials	12
▁corresponds	12
▁accordingly	12
▁collections	12
▁computation	12
▁initialized	12
▁Environment	12
▁replacement	12
▁consequence	12
▁convergence	12
▁directories	12
▁effectively	12
▁differently	12
▁publication	12
▁encountered	12
▁transferred	12
▁perspective	12
▁surrounding	12
▁experienced	12
▁Christopher	12
▁consecutive	12
▁recognition	12
▁inhabitants	12
▁orientation	12
▁correlation	12
▁potentially	12
▁measurement	12
▁inheritance	12
▁improvement	12
▁assumptions	12
▁distinguish	12
▁authorities	12
▁accompanied	12
▁interpreted	12
▁distinction	12
▁engineering	12
▁appearances	12
▁destruction	12
▁dimensional	12
▁Proposition	12
▁demonstrate	12
▁Engineering	12
dependencies	12
▁investigate	12
▁populations	12
▁communicate	12
▁expectation	12
▁substantial	12
▁theoretical	12
▁communities	12
▁instruments	12
▁Shakespeare	12
▁Performance	12
▁simulations	12
▁mathematics	12
▁statistical	12
▁importantes	12
▁compression	12
▁disappeared	12
▁restriction	12
▁Netherlands	12
▁arrangement	12
▁polynomials	12
notification	12
▁Mississippi	12
▁equivalence	12
▁topological	12
▁instantiate	12
▁calculating	12
▁Independent	12
▁maintenance	12
architecture	12
▁annotations	12
▁comfortable	12
▁exponential	12
▁derivatives	12
▁uncertainty	12
Introduction	12
presentation	12
▁isomorphism	12
▁Philippines	12
▁approximate	12
▁equilibrium	12
▁proposition	12
▁illustrated	12
▁convolution	12
▁contributed	12
▁limitations	12
▁Connecticut	12
▁Renaissance	12
▁predictions	12
▁consumption	12
▁experiences	12
▁transformed	12
distribution	12
▁Hamiltonian	12
▁interrupted	12
▁imagination	12
▁Institution	12
▁downloading	12
▁appointment	12
▁approaching	12
▁generalized	12
▁Switzerland	12
▁interactive	12
▁educational	12
▁referencing	12
▁efficiently	12
▁frequencies	12
▁incorrectly	12
▁understand	11
▁University	11
▁particular	11
▁background	11
▁correspond	11
▁connection	11
▁noreferrer	11
▁everything	11
▁difference	11
▁collection	11
▁properties	11
▁expression	11
Application	11
▁characters	11
▁definition	11
▁individual	11
▁considered	11
▁additional	11
▁production	11
▁conditions	11
▁government	11
▁themselves	11
application	11
▁completely	11
▁operations	11
▁associated	11
▁containing	11
▁components	11
▁equivalent	11
▁especially	11
▁experience	11
▁constraint	11
fortunately	11
▁experiment	11
▁Washington	11
▁California	11
description	11
▁attributes	11
▁validation	11
▁interested	11
▁suggestion	11
▁processing	11
▁continuous	11
▁introduced	11
▁successful	11
▁previously	11
▁references	11
▁impossible	11
▁statements	11
▁transition	11
▁repository	11
Description	11
▁Australian	11
▁determined	11
▁appearance	11
▁resolution	11
▁throughout	11
▁polynomial	11
▁eventually	11
▁comparison	11
▁increasing	11
▁Department	11
▁originally	11
▁Foundation	11
▁dependency	11
▁management	11
▁discussion	11
▁implements	11
▁permission	11
▁discovered	11
▁understood	11
▁appreciate	11
▁conversion	11
▁navigation	11
▁instrument	11
▁Commission	11
▁television	11
▁represents	11
▁definitely	11
▁assumption	11
▁initialize	11
▁commercial	11
▁structures	11
▁afterwards	11
Transaction	11
dimensional	11
▁generation	11
▁accomplish	11
▁assignment	11
▁calculated	11
▁literature	11
▁commission	11
▁protection	11
▁Parliament	11
▁apparently	11
▁configured	11
▁completion	11
▁functional	11
▁absolutely	11
▁importance	11
▁approaches	11
▁complexity	11
▁frequently	11
▁techniques	11
▁consistent	11
▁relatively	11
▁statistics	11
▁algorithms	11
▁politician	11
▁activities	11
▁department	11
▁developing	11
▁Collection	11
multicolumn	11
▁underlying	11
▁inequality	11
▁Revolution	11
▁generating	11
▁difficulty	11
▁horizontal	11
▁workaround	11
▁tournament	11
▁recognized	11
▁Management	11
▁Connection	11
▁exceptions	11
▁subsequent	11
▁registered	11
▁installing	11
▁technology	11
▁accessible	11
▁reasonable	11
▁identified	11
▁attempting	11
▁unexpected	11
▁convention	11
▁Pennsylvan	11
▁historical	11
▁performing	11
▁compatible	11
▁identifier	11
▁conclusion	11
▁formatting	11
▁scientific	11
▁referenced	11
▁derivative	11
▁university	11
▁Conference	11
▁displaying	11
▁settlement	11
▁downloaded	11
▁Background	11
▁connecting	11
▁executable	11
▁separately	11
▁everywhere	11
tikzpicture	11
▁impression	11
▁annotation	11
▁screenshot	11
▁Everything	11
▁simulation	11
▁converting	11
▁differenti	11
▁resistance	11
▁possession	11
▁photograph	11
▁extensions	11
▁reflection	11
▁regression	11
▁Ressources	11
▁Technology	11
▁evaluation	11
ambiguation	11
▁respective	11
▁directions	11
▁deprecated	11
▁deployment	11
▁projection	11
scriptstyle	11
▁proportion	11
Environment	11
▁principles	11
▁developers	11
▁situations	11
▁assistance	11
▁ultimately	11
▁prediction	11
▁multimedia	11
▁footballer	11
▁Publishing	11
▁altogether	11
▁efficiency	11
Collections	11
▁revolution	11
▁interfaces	11
ondissement	11
▁complement	11
▁opposition	11
▁percentage	11
information	11
▁concerning	11
▁reputation	11
▁consisting	11
▁maintained	11
▁struggling	11
▁hypothesis	11
▁Identifier	11
asticsearch	11
▁basketball	11
▁Historical	11
Information	11
▁supporting	11
▁Federation	11
▁Lieutenant	11
▁translated	11
orientation	11
▁controlled	11
transaction	11
▁describing	11
▁simplified	11
environment	11
▁encryption	11
▁constantly	11
▁Republican	11
▁conference	11
▁Expression	11
▁Properties	11
▁candidates	11
▁remembered	11
▁variations	11
▁Basketball	11
▁Definition	11
▁concurrent	11
▁surrounded	11
▁restricted	11
▁filesystem	11
Preferences	11
▁philosophy	11
▁personally	11
▁Television	11
▁officially	11
▁elementary	11
▁guaranteed	11
▁acceptable	11
▁parliament	11
▁foundation	11
▁applicable	11
▁Navigation	11
▁artificial	11
▁simplicity	11
▁facilities	11
▁arithmetic	11
▁integrated	11
▁disappoint	11
▁documented	11
▁partitions	11
▁separation	11
▁typescript	11
▁substitute	11
destination	11
▁indicating	11
▁kilometres	11
▁satisfying	11
Wikispecies	11
▁allocation	11
▁explaining	11
▁boundaries	11
▁iterations	11
▁expedition	11
▁journalist	11
▁preference	11
▁Population	11
Interceptor	11
▁atmosphere	11
▁lieutenant	11
▁internally	11
▁Queensland	11
▁observable	11
Orientation	11
▁designated	11
development	11
▁Initialize	11
▁advantages	11
▁Portuguese	11
▁powershell	11
▁provincial	11
▁succession	11
▁leadership	11
▁conception	11
▁activation	11
▁suggesting	11
▁celebrated	11
▁Geographic	11
▁attachment	11
▁correction	11
▁visibility	11
▁millimeter	11
▁thoroughly	11
▁approached	11
▁Convention	11
▁surprising	11
▁occupation	11
▁households	11
▁quantities	11
placeholder	11
▁Statistics	11
▁restaurant	11
▁occurrence	11
▁publishing	11
Constraints	11
▁manuscript	11
▁conscience	11
▁electronic	11
integration	11
▁friendship	11
Credentials	11
▁privileges	11
▁networking	11
▁passengers	11
▁persistent	11
▁irrelevant	11
▁Generation	11
▁adaptation	11
persistence	11
▁mechanical	11
sourceforge	11
▁References	11
▁repeatedly	11
programming	11
▁illustrate	11
▁influenced	11
▁membership	11
▁procedures	11
trightarrow	11
▁incomplete	11
collections	11
▁infinitely	11
▁contribute	11
▁exhibition	11
▁frameworks	11
▁terminated	11
▁submission	11
▁attributed	11
▁Tournament	11
▁limitation	11
▁similarity	11
▁threatened	11
▁monitoring	11
▁discipline	11
▁different	10
blockquote	10
▁following	10
▁something	10
▁implement	10
▁represent	10
▁character	10
Controller	10
▁functions	10
▁statement	10
▁construct	10
▁reference	10
▁available	10
▁variables	10
▁exception	10
▁including	10
▁structure	10
▁September	10
▁directory	10
▁important	10
▁component	10
▁condition	10
▁according	10
▁interface	10
▁installed	10
▁correctly	10
▁questions	10
▁difficult	10
rightarrow	10
▁mentioned	10
▁currently	10
▁relations	10
▁direction	10
Connection	10
▁attribute	10
▁described	10
▁therefore	10
▁algorithm	10
▁generated	10
▁operation	10
▁principal	10
boldsymbol	10
entication	10
varepsilon	10
▁sometimes	10
▁extension	10
▁administr	10
▁protected	10
▁published	10
▁situation	10
▁otherwise	10
▁connected	10
▁president	10
▁beginning	10
▁solutions	10
▁framework	10
▁generally	10
▁recommend	10
▁architect	10
▁supported	10
▁potential	10
background	10
▁knowledge	10
▁President	10
Collection	10
subsection	10
▁continued	10
▁According	10
javascript	10
▁resources	10
▁suggested	10
▁returning	10
▁community	10
▁calculate	10
▁determine	10
▁execution	10
ifications	10
controller	10
▁Australia	10
▁performed	10
▁attention	10
▁political	10
▁transport	10
▁completed	10
▁depending	10
▁procedure	10
▁basically	10
▁partition	10
▁developed	10
▁Institute	10
▁certainly	10
▁Exception	10
▁Francisco	10
▁somewhere	10
usepackage	10
▁presented	10
▁selection	10
▁announced	10
▁beautiful	10
▁libraries	10
▁animation	10
▁education	10
▁resulting	10
▁wondering	10
▁remaining	10
▁dimension	10
▁influence	10
connection	10
▁establish	10
▁processes	10
▁incorrect	10
▁languages	10
▁existence	10
▁happening	10
▁behaviour	10
Background	10
▁advantage	10
▁appointed	10
▁equations	10
▁explained	10
dependency	10
collection	10
▁frequency	10
▁countries	10
Expression	10
▁technique	10
▁regarding	10
properties	10
▁Professor	10
▁tradition	10
Repository	10
Parameters	10
Dictionary	10
▁converted	10
▁increased	10
▁municipal	10
▁encounter	10
▁effective	10
Properties	10
▁positions	10
Multimedia	10
▁searching	10
▁objective	10
▁Reference	10
▁highlight	10
▁Following	10
▁typically	10
▁professor	10
▁formation	10
▁principle	10
▁Something	10
▁signature	10
▁operators	10
▁obviously	10
Identifier	10
▁initially	10
▁Committee	10
▁religious	10
▁separated	10
▁Elizabeth	10
▁providing	10
▁Education	10
▁expansion	10
▁temporary	10
▁mechanism	10
▁expressed	10
▁receiving	10
▁debugging	10
▁identical	10
stylesheet	10
▁operating	10
constraint	10
▁Basically	10
▁Argentina	10
▁buildings	10
▁requested	10
▁developer	10
▁executing	10
▁candidate	10
components	10
▁Wikipedia	10
▁addresses	10
▁authority	10
▁timestamp	10
▁locations	10
▁destroyed	10
▁classical	10
▁treatment	10
▁relatives	10
▁companies	10
▁evolution	10
▁confusion	10
Definition	10
▁succeeded	10
▁paragraph	10
▁introduce	10
▁concerned	10
▁rendering	10
▁excellent	10
▁replacing	10
▁detection	10
ynchronous	10
▁Currently	10
navigation	10
▁authentic	10
▁interview	10
▁sequences	10
Rightarrow	10
▁Billboard	10
▁discussed	10
attributes	10
▁Transport	10
▁satisfied	10
▁estimated	10
▁Component	10
googleapis	10
▁universal	10
▁confusing	10
permission	10
▁bootstrap	10
▁carefully	10
▁expecting	10
▁Represent	10
▁attempted	10
▁preferred	10
▁intention	10
▁increases	10
▁collected	10
definition	10
▁describes	10
▁gentleman	10
▁Framework	10
▁rectangle	10
▁secondary	10
▁confirmed	10
▁recursive	10
parameters	10
▁immediate	10
▁referring	10
▁recording	10
▁threshold	10
▁technical	10
▁dedicated	10
▁directive	10
▁Biography	10
▁particles	10
▁satisfies	10
▁thousands	10
▁agreement	10
▁accessing	10
▁comparing	10
developers	10
expression	10
▁precisely	10
▁neighbour	10
▁permanent	10
Serializer	10
▁Secretary	10
▁afternoon	10
abestanden	10
▁uncertain	10
▁surprised	10
▁conducted	10
validation	10
▁financial	10
▁continues	10
▁naturally	10
▁dangerous	10
▁september	10
annotation	10
▁symmetric	10
▁submitted	10
▁magnitude	10
▁Sometimes	10
▁reproduce	10
▁indicated	10
▁qualified	10
▁companion	10
▁intellect	10
▁recognize	10
▁challenge	10
▁guarantee	10
▁selecting	10
▁Directory	10
▁evaluated	10
repository	10
▁organized	10
Descriptor	10
processing	10
▁Hollywood	10
▁Community	10
▁mountains	10
▁variation	10
▁primitive	10
concurrent	10
▁committed	10
▁processed	10
▁expensive	10
▁elaborate	10
Validation	10
▁demselben	10
▁prominent	10
▁allocated	10
▁programme	10
▁newspaper	10
ographical	10
▁Frederick	10
▁triggered	10
▁conscious	10
▁listening	10
▁commented	10
▁alongside	10
▁delivered	10
▁Similarly	10
▁elections	10
Navigation	10
▁assistant	10
▁ourselves	10
▁customers	10
▁migration	10
▁reduction	10
▁aggregate	10
▁recursion	10
▁Operation	10
▁sensitive	10
transition	10
▁computing	10
▁extensive	10
▁classific	10
categories	10
▁wonderful	10
▁discovery	10
▁angularjs	10
▁standards	10
▁producing	10
▁composite	10
▁purchased	10
▁injection	10
▁responses	10
▁forgotten	10
▁formatted	10
▁Venezuela	10
▁spiritual	10
▁addressed	10
scriptsize	10
▁Minnesota	10
▁equipment	10
▁committee	10
▁remainder	10
▁filtering	10
▁switching	10
▁Municipal	10
▁processor	10
▁induction	10
▁scheduled	10
Constraint	10
▁algebraic	10
▁appearing	10
▁Universal	10
▁anonymous	10
▁preserved	10
▁involving	10
▁centuries	10
▁platforms	10
▁Wrestling	10
management	10
▁permitted	10
Annotation	10
▁gradually	10
▁Champions	10
▁partially	10
▁commander	10
▁prototype	10
▁household	10
▁promotion	10
▁collision	10
▁compiling	10
▁Wisconsin	10
▁yesterday	10
▁Tennessee	10
horizontal	10
▁entertain	10
▁happiness	10
▁executive	10
▁similarly	10
▁literally	10
▁affection	10
▁concluded	10
▁answering	10
▁employees	10
newcommand	10
▁prisoners	10
▁scrolling	10
noreferrer	10
▁suffering	10
▁abandoned	10
▁assigning	10
▁Jerusalem	10
▁encrypted	10
▁computers	10
Visibility	10
▁belonging	10
▁reporting	10
▁featuring	10
▁Kilometer	10
▁benchmark	10
▁graduated	10
▁embedding	10
Dispatcher	10
compatible	10
▁extending	10
▁inserting	10
▁modifying	10
▁kilometer	10
▁inherited	10
▁extracted	10
▁residents	10
▁acknowled	10
▁corrected	10
▁personnel	10
▁converges	10
▁populated	10
▁movements	10
▁districts	10
extensions	10
▁necessity	10
▁splitting	10
▁canonical	10
▁reasoning	10
▁Administr	10
production	10
▁Liverpool	10
▁consisted	10
▁recovered	10
▁streaming	10
▁proceeded	10
▁officials	10
initialize	10
Horizontal	10
▁Meanwhile	10
▁declaring	10
▁Political	10
▁provision	10
▁sentences	10
▁reflected	10
identifier	10
▁predicted	10
▁disappear	10
▁residence	10
Components	10
▁continent	10
▁evidently	10
▁convinced	10
▁departure	10
▁possessed	10
▁reception	10
▁Beautiful	10
▁regularly	10
▁Obviously	10
▁Bootstrap	10
▁Interface	10
▁seriously	10
▁stability	10
▁associate	10
▁divisions	10
▁identific	10
▁Singapore	10
▁accepting	10
▁breakfast	10
▁everybody	10
▁occasions	10
▁intensity	10
▁geometric	10
▁instantly	10
▁preceding	10
▁Originals	10
discussion	10
▁commanded	10
▁overwrite	10
occupation	10
▁Sebastian	10
▁shoulders	10
▁gentlemen	10
▁requiring	10
▁Character	10
Extensions	10
Management	10
dictionary	10
▁electrons	10
▁Challenge	10
▁Cleveland	10
▁inference	10
Permission	10
▁radiation	10
▁Commander	10
▁Geography	10
▁Ressource	10
▁retrieved	10
▁eliminate	10
▁ownership	10
Recognizer	10
▁hopefully	10
▁invisible	10
▁uninstall	10
Invocation	10
▁historian	10
▁curiosity	10
▁Battalion	10
perimental	10
Observable	10
▁Selection	10
▁irregular	10
▁Norwegian	10
▁provinces	10
Foundation	10
▁substring	10
cloudflare	10
▁secretary	10
▁Depending	10
▁assertion	10
▁finishing	10
▁amplitude	10
▁importing	10
▁integrity	10
▁Mountains	10
▁satellite	10
▁nominated	10
▁passenger	10
▁presently	10
▁inclusion	10
▁serialize	10
▁repeating	10
▁conflicts	10
visibility	10
▁Louisiana	10
▁sacrifice	10
▁Executive	10
▁redirects	10
▁backwards	10
Completion	10
▁registers	10
▁Athletics	10
▁Jefferson	10
▁criticism	10
tensorflow	10
▁Algorithm	10
▁converter	10
▁exclusive	10
▁daughters	10
▁elementos	10
▁combining	10
coordinate	10
▁champions	10
▁successor	10
▁Regarding	10
▁deviation	10
▁scattered	10
▁Question	9
▁question	9
▁solution	9
▁possible	9
▁consider	9
▁variable	9
▁original	9
ification	9
Exception	9
avascript	9
▁position	9
questions	9
▁specific	9
▁actually	9
▁response	9
▁approach	9
▁multiple	9
▁American	9
▁National	9
▁anything	9
▁probably	9
▁elements	9
▁previous	9
vironment	9
▁required	9
▁contains	9
oreferrer	9
▁expected	9
▁standard	9
▁November	9
▁External	9
▁interest	9
▁language	9
▁returned	9
▁directly	9
▁together	9
ictionary	9
▁children	9
▁location	9
framework	9
▁received	9
▁selected	9
▁Internet	9
▁national	9
▁problems	9
▁complete	9
▁provided	9
▁creating	9
▁signific	9
microsoft	9
▁included	9
▁download	9
▁building	9
▁Champion	9
Component	9
▁business	9
formation	9
▁distance	9
avigation	9
▁operator	9
▁released	9
▁followed	9
▁sequence	9
reference	9
▁features	9
▁override	9
▁football	9
▁services	9
lications	9
▁December	9
▁existing	9
▁research	9
▁although	9
wikipedia	9
▁behavior	9
▁register	9
▁settings	9
▁addition	9
▁relative	9
▁official	9
▁starting	9
▁equation	9
▁February	9
▁activity	9
▁positive	9
▁examples	9
▁remember	9
▁district	9
▁changing	9
▁resource	9
▁learning	9
▁compiler	9
▁discover	9
▁comments	9
▁computer	9
▁Function	9
▁redirect	9
▁training	9
developer	9
▁continue	9
▁transfer	9
▁requires	9
▁approxim	9
▁versions	9
▁callback	9
▁practice	9
▁security	9
▁external	9
▁software	9
endencies	9
▁communic	9
▁requests	9
▁thinking	9
ashington	9
▁personal	9
▁maintain	9
▁produced	9
▁investig	9
Reference	9
▁supposed	9
▁articles	9
▁District	9
▁internal	9
▁appeared	9
▁platform	9
▁manually	9
▁yourself	9
▁Californ	9
container	9
Wikimedia	9
▁category	9
▁Minister	9
▁answered	9
▁finished	9
▁includes	9
▁straight	9
▁European	9
Container	9
▁increase	9
▁Division	9
▁proposed	9
▁relevant	9
▁encoding	9
▁students	9
▁declared	9
▁Republic	9
▁champion	9
▁contents	9
▁provides	9
▁negative	9
▁relation	9
▁commands	9
▁election	9
▁executed	9
istration	9
▁distinct	9
▁absolute	9
▁describe	9
▁checking	9
▁Although	9
▁Festival	9
▁Original	9
▁division	9
▁replaced	9
▁designed	9
bootstrap	9
▁daughter	9
▁director	9
▁observed	9
▁Football	9
▁username	9
▁reported	9
▁demonstr	9
transform	9
▁modified	9
▁military	9
▁physical	9
▁intended	9
▁entirely	9
▁restrict	9
▁accepted	9
▁projects	9
▁products	9
▁strength	9
Parameter	9
▁compared	9
▁remained	9
centering	9
▁happened	9
▁confused	9
▁matching	9
component	9
▁involved	9
▁assigned	9
Directory	9
▁slightly	9
▁occasion	9
▁Consider	9
▁possibly	9
▁identity	9
▁Standard	9
▁distingu	9
▁integral	9
▁assuming	9
▁movement	9
▁repeated	9
▁recently	9
▁Japanese	9
▁thousand	9
▁manifest	9
▁filename	9
Interface	9
▁boundary	9
▁recorded	9
▁scenario	9
▁sentence	9
▁Research	9
▁retrieve	9
▁Official	9
▁somewhat	9
▁decision	9
▁experien	9
▁directed	9
widetilde	9
▁evidence	9
▁occurred	9
▁mathemat	9
Operation	9
▁whenever	9
▁attached	9
ustration	9
▁incorpor	9
▁minister	9
▁independ	9
▁removing	9
▁programs	9
▁creation	9
Microsoft	9
▁supports	9
▁vertical	9
▁handling	9
▁accident	9
construct	9
textwidth	9
▁Canadian	9
▁collabor	9
▁assembly	9
▁resolved	9
▁campaign	9
▁Congress	9
▁opposite	9
▁suddenly	9
abilities	9
▁consists	9
▁Williams	9
▁Virginia	9
▁circumst	9
exception	9
▁selector	9
asketball	9
▁customer	9
▁electron	9
▁overflow	9
▁purposes	9
▁manufact	9
▁Portugal	9
functions	9
▁critical	9
▁anywhere	9
▁keyboard	9
▁province	9
▁neighbor	9
directory	9
▁Hamilton	9
▁identify	9
▁Register	9
▁pointers	9
▁notation	9
▁electric	9
▁estimate	9
▁disabled	9
attribute	9
▁validate	9
▁numerous	9
▁unsigned	9
▁Actually	9
▁hardware	9
▁advanced	9
▁velocity	9
▁normally	9
▁Articles	9
▁pressure	9
▁referred	9
▁december	9
▁officers	9
▁believed	9
▁provider	9
▁compiled	9
▁thoughts	9
▁detailed	9
▁families	9
roduction	9
resources	9
▁prepared	9
interface	9
▁Assembly	9
▁updating	9
▁capacity	9
▁interior	9
▁Response	9
▁Facebook	9
▁pointing	9
Transform	9
▁Carolina	9
▁standing	9
▁Activity	9
▁religion	9
▁hospital	9
▁Mathemat	9
▁singular	9
generated	9
Animation	9
▁speaking	9
▁accuracy	9
▁majority	9
▁industry	9
▁strategy	9
▁marriage	9
▁composed	9
Resources	9
▁vertices	9
▁strongly	9
▁monument	9
▁produces	9
▁suitable	9
▁dispatch	9
▁sections	9
▁soldiers	9
▁powerful	9
▁printing	9
▁regional	9
omorphism	9
▁becoming	9
▁Victoria	9
▁Security	9
▁attended	9
▁producer	9
▁everyone	9
▁achieved	9
▁allowing	9
▁mountain	9
▁networks	9
▁duration	9
ategories	9
Statement	9
something	9
▁exchange	9
▁conflict	9
▁november	9
▁northern	9
Alignment	9
▁suggests	9
▁attempts	9
innerHTML	9
▁southern	9
▁magazine	9
▁clicking	9
▁concentr	9
▁pictures	9
▁featured	9
▁exercise	9
Selection	9
▁incident	9
▁affected	9
▁caracter	9
▁Scotland	9
▁accounts	9
▁measures	9
▁pleasure	9
▁applying	9
achusetts	9
▁Governor	9
▁captured	9
▁inserted	9
parameter	9
▁Services	9
▁protagon	9
▁commonly	9
▁magnetic	9
underline	9
▁embedded	9
▁computed	9
▁employed	9
▁NSString	9
▁Director	9
undefined	9
▁fraction	9
▁Hospital	9
▁festival	9
▁firebase	9
condition	9
▁concaten	9
▁defining	9
▁Regional	9
▁entities	9
▁accurate	9
▁defeated	9
▁endpoint	9
linewidth	9
▁geometry	9
prototype	9
▁stations	9
▁Olympics	9
▁cultural	9
▁realized	9
timestamp	9
▁occupied	9
▁pipeline	9
▁particle	9
operation	9
available	9
▁floating	9
▁criteria	9
Framework	9
▁surprise	9
▁breaking	9
▁acquired	9
▁feedback	9
partition	9
▁improved	9
Something	9
important	9
▁measured	9
▁Location	9
▁Illinois	9
▁Language	9
▁Assuming	9
▁frequent	9
▁Michigan	9
▁Philadel	9
▁Building	9
▁equality	9
▁triangle	9
▁Sciences	9
▁Province	9
▁searched	9
▁economic	9
▁throwing	9
▁animated	9
▁occident	9
ubernetes	9
extension	9
configure	9
▁suffered	9
Extension	9
itionally	9
▁conclude	9
ifference	9
▁calendar	9
▁fighting	9
▁Scottish	9
▁subjects	9
▁detected	9
▁thorough	9
▁revealed	9
▁regarded	9
▁Magazine	9
subfigure	9
▁rational	9
▁destruct	9
▁Transfer	9
▁Historic	9
▁Category	9
▁Regiment	9
▁agricult	9
▁peculiar	9
connected	9
▁entering	9
▁challeng	9
▁warnings	9
▁channels	9
▁Mountain	9
including	9
▁spectrum	9
▁debugger	9
▁citizens	9
▁Margaret	9
▁concrete	9
▁composer	9
▁symmetry	9
▁somebody	9
▁villages	9
▁accompan	9
Formatter	9
▁graphics	9
▁Software	9
Converter	9
▁explains	9
character	9
Processor	9
▁instruct	9
▁overhead	9
▁strictly	9
▁teaching	9
▁troubles	9
▁selenium	9
animation	9
dependent	9
▁planning	9
▁employee	9
▁supplied	9
▁smallest	9
▁Metropol	9
▁Missouri	9
▁Settings	9
▁circular	9
▁momentum	9
▁carrying	9
▁Township	9
▁populate	9
subscribe	9
▁Lawrence	9
▁entrance	9
▁operated	9
▁imported	9
▁Memorial	9
▁dynamics	9
▁friendly	9
▁misunder	9
▁reaction	9
▁universe	9
▁receiver	9
▁preserve	9
▁Atlantic	9
▁audience	9
▁Possible	9
▁Military	9
▁adjacent	9
Documents	9
▁priority	9
▁topology	9
▁admitted	9
▁resident	9
▁Benjamin	9
▁governor	9
matically	9
substring	9
▁uploaded	9
▁schedule	9
▁painting	9
Execution	9
▁substant	9
▁brackets	9
▁ordering	9
algorithm	9
▁receives	9
▁accessed	9
▁resulted	9
▁inspired	9
▁threaten	9
▁Position	9
▁guessing	9
Character	9
statement	9
▁involves	9
▁bringing	9
direction	9
▁reaching	9
variables	9
agnostics	9
templates	9
▁Computer	9
▁Children	9
▁hundreds	9
▁arranged	9
▁simplify	9
▁Colorado	9
▁contrary	9
▁deployed	9
▁sciences	9
▁promoted	9
▁Pakistan	9
▁watching	9
▁Specific	9
▁deleting	9
▁registry	9
▁pleasant	9
▁counting	9
▁ensemble	9
▁sessions	9
▁premiers	9
▁violence	9
▁Explorer	9
▁formerly	9
▁academic	9
▁baseball	9
Generator	9
Direction	9
▁Probably	9
translate	9
▁covering	9
▁reserved	9
▁shortcut	9
selection	9
▁feelings	9
▁confront	9
▁portrait	9
▁concerns	9
▁domestic	9
▁tropical	9
▁Customer	9
▁concepts	9
▁Selected	9
▁engineer	9
▁partners	9
▁Princess	9
stringify	9
▁competed	9
▁criminal	9
▁Salvador	9
▁Buffered	9
▁rejected	9
▁chemical	9
execution	9
▁Robinson	9
▁filtered	9
▁Thompson	9
▁Communic	9
scription	9
namespace	9
▁promised	9
▁Shakespe	9
▁Gaussian	9
▁doctrine	9
▁Maryland	9
cellation	9
▁attacked	9
▁transmit	9
▁politics	9
▁Remember	9
▁historic	9
▁multiply	9
▁literary	9
▁observer	9
▁alphabet	9
▁regiment	9
▁tracking	9
▁Baseball	9
▁certific	9
▁performs	9
▁incoming	9
▁episodes	9
▁reliable	9
▁Cultural	9
Namespace	9
▁studying	9
▁designer	9
▁informed	9
▁entitled	9
▁approved	9
▁sampling	9
▁shoulder	9
▁blocking	9
▁darkness	9
quisition	9
▁stronger	9
▁Monument	9
▁allocate	9
▁coupling	9
▁triggers	9
▁coverage	9
▁Starting	9
supported	9
▁decrease	9
community	9
▁carriage	9
structure	9
▁choosing	9
▁republic	9
▁creature	9
▁isolated	9
▁Exchange	9
▁Kentucky	9
▁situated	9
▁crossing	9
andenburg	9
▁executes	9
▁recovery	9
▁Nicholas	9
▁diameter	9
▁artifact	9
ordinates	9
▁calculus	9
▁judgment	9
▁commerce	9
▁Analysis	9
▁Solution	9
▁arrested	9
▁subgroup	9
▁facility	9
▁clusters	9
Generated	9
▁segments	9
▁Employee	9
protected	9
▁centered	9
▁pressing	9
▁accommod	9
▁assemble	9
▁proposal	9
▁trailing	9
▁unlikely	9
▁conquist	9
▁remarked	9
Condition	9
▁mistaken	9
▁lifetime	9
▁favorite	9
▁emission	9
▁stopping	9
installed	9
▁convirti	9
▁Download	9
▁firewall	9
▁Heritage	9
▁ceremony	9
▁overcome	9
arguments	9
anonymous	9
▁theories	9
▁manifold	9
▁contacts	9
Completed	9
▁churches	9
▁retained	9
▁Pictures	9
▁Squadron	9
▁Training	9
▁indexing	9
▁Creating	9
▁switched	9
▁sacrific	9
▁attitude	9
▁emulator	9
▁indirect	9
processor	9
▁stranger	9
▁instinct	9
▁revision	9
Constants	9
▁Infantry	9
▁medicine	9
▁beginner	9
▁Creative	9
▁mentions	9
▁Springer	9
▁Mitchell	9
▁wireless	9
▁Montreal	9
▁formulas	9
▁visitors	9
▁verified	9
▁Multiple	9
Arguments	9
▁Electric	9
paragraph	9
▁Caroline	9
▁offering	9
▁Agricult	9
▁faithful	9
▁Religion	9
▁apparten	9
▁compress	9
itzerland	9
authentic	9
▁grouping	9
sequently	9
▁prospect	9
▁prisoner	9
▁workflow	9
▁guidance	9
▁teachers	9
Transport	9
▁Akademie	9
▁releases	9
▁promises	9
Available	9
▁reducing	9
▁medieval	9
▁educated	9
▁phenomen	9
readsheet	9
▁Oklahoma	9
▁Vladimir	9
transport	9
▁shooting	9
Timestamp	9
generator	9
▁infinity	9
▁surfaces	9
▁websites	9
▁Independ	9
▁prevents	9
▁supplies	9
▁Platform	9
ightarrow	9
▁Investig	9
▁Electron	9
▁formally	9
▁presiden	9
▁delivery	9
▁Archives	9
▁listview	9
▁Optional	9
▁invasion	9
▁wrapping	9
▁refactor	9
▁opportun	9
▁grateful	9
▁Richmond	9
▁withdraw	9
▁profiles	9
▁Variable	9
▁administ	9
irmingham	9
▁exponent	9
▁belonged	9
▁chairman	9
▁mistakes	9
highlight	9
▁magnific	9
▁Terminal	9
▁striking	9
▁Graphics	9
▁Learning	9
▁Advanced	9
▁keywords	9
▁traverse	9
▁Guardian	9
▁converts	9
▁splendid	9
▁imprison	9
▁Muhammad	9
▁simulate	9
▁listened	9
▁Oriental	9
▁successo	9
▁sympathy	9
webdriver	9
▁problem	8
▁example	8
▁because	8
lication	8
▁element	8
▁between	8
▁through	8
▁without	8
▁another	8
▁program	8
▁current	8
▁version	8
▁process	8
▁command	8
▁correct	8
▁working	8
▁require	8
▁request	8
▁private	8
▁project	8
▁Univers	8
▁perform	8
▁present	8
function	8
overflow	8
▁support	8
▁However	8
▁general	8
▁success	8
equation	8
▁results	8
pression	8
▁service	8
▁develop	8
▁thought	8
▁running	8
▁against	8
▁control	8
▁similar	8
▁content	8
▁getting	8
▁created	8
▁initial	8
icrosoft	8
▁looking	8
▁nothing	8
▁however	8
▁include	8
▁several	8
▁address	8
ribution	8
document	8
▁product	8
position	8
▁complet	8
cription	8
▁library	8
▁methods	8
▁network	8
▁mention	8
▁objects	8
▁account	8
▁himself	8
▁numbers	8
▁provide	8
Activity	8
▁changed	8
Listener	8
▁written	8
▁section	8
volution	8
▁attempt	8
▁English	8
▁country	8
▁special	8
▁article	8
▁complex	8
▁further	8
▁individ	8
▁suggest	8
▁classes	8
▁setting	8
▁related	8
▁follows	8
▁connect	8
▁missing	8
▁General	8
Override	8
▁Austral	8
▁believe	8
▁William	8
▁feature	8
▁started	8
▁website	8
▁updated	8
Property	8
▁someone	8
▁session	8
▁pointer	8
▁details	8
▁British	8
▁perfect	8
▁machine	8
▁regular	8
▁univers	8
▁history	8
▁subject	8
Instance	8
▁company	8
▁writing	8
▁station	8
Response	8
▁members	8
▁various	8
▁reading	8
▁History	8
response	8
▁outside	8
▁England	8
▁calling	8
location	8
▁January	8
▁usually	8
▁October	8
▁respons	8
▁prevent	8
▁natural	8
password	8
▁measure	8
▁explain	8
▁appears	8
▁consist	8
▁village	8
▁Catalog	8
▁equival	8
▁Francis	8
▁happens	8
▁concern	8
lections	8
▁popular	8
▁located	8
ological	8
▁strings	8
▁perhaps	8
▁answers	8
▁achieve	8
▁removed	8
▁execute	8
▁minutes	8
Document	8
▁brought	8
▁collect	8
▁College	8
▁angular	8
graphics	8
▁purpose	8
▁showing	8
▁century	8
▁records	8
▁release	8
Location	8
exchange	8
▁advance	8
▁average	8
▁meaning	8
▁compile	8
Function	8
▁Service	8
▁testing	8
Template	8
▁systems	8
username	8
▁counter	8
property	8
▁passing	8
▁foreach	8
Resource	8
overline	8
template	8
operator	8
▁hundred	8
▁virtual	8
▁seconds	8
▁obvious	8
▁Company	8
▁contact	8
▁concept	8
Provider	8
pository	8
▁formula	8
▁matches	8
▁surface	8
▁towards	8
▁checked	8
▁trigger	8
▁finally	8
▁receive	8
▁Wayback	8
▁morning	8
▁compare	8
▁million	8
category	8
▁dynamic	8
▁becomes	8
▁desired	8
▁applied	8
▁reached	8
▁trouble	8
▁maximum	8
▁conduct	8
internal	8
▁primary	8
▁picture	8
▁partial	8
▁produce	8
▁suppose	8
▁Society	8
▁Message	8
▁entered	8
jsfiddle	8
▁Program	8
▁friends	8
▁smaller	8
▁Records	8
Position	8
▁Project	8
partment	8
▁brother	8
▁appoint	8
▁destroy	8
ensional	8
▁leading	8
▁channel	8
ulations	8
▁married	8
packages	8
▁loading	8
▁student	8
selected	8
▁helpful	8
▁manager	8
▁decided	8
▁strange	8
▁Network	8
Selected	8
▁illustr	8
▁Instead	8
▁organiz	8
irection	8
▁opening	8
▁profile	8
▁herself	8
anguages	8
▁Example	8
▁playing	8
▁managed	8
instance	8
artifact	8
▁resolve	8
▁actions	8
▁Council	8
complete	8
security	8
▁sources	8
▁conserv	8
▁carried	8
▁Archive	8
▁density	8
▁limited	8
▁quickly	8
Database	8
▁foreign	8
Abstract	8
▁finding	8
omething	8
▁warning	8
▁theorem	8
▁minimum	8
enschapp	8
▁devices	8
entation	8
▁remains	8
entially	8
▁culture	8
▁succeed	8
▁shouldn	8
▁Science	8
▁sending	8
▁queries	8
▁opinion	8
eqnarray	8
▁conflic	8
filename	8
▁Nothing	8
▁Library	8
▁effects	8
lacement	8
▁Germany	8
▁neither	8
register	8
Settings	8
▁reasons	8
▁declare	8
▁algebra	8
▁Current	8
▁musical	8
▁confirm	8
▁convers	8
expected	8
plements	8
▁threads	8
▁accompl	8
▁Section	8
▁Finally	8
▁recover	8
database	8
▁publish	8
▁unknown	8
▁buttons	8
▁cluster	8
services	8
▁highest	8
▁binding	8
▁talking	8
▁entries	8
▁Chinese	8
Password	8
▁respond	8
activity	8
▁runtime	8
▁Version	8
▁leaving	8
▁largest	8
▁percent	8
▁mistake	8
▁husband	8
▁Theorem	8
▁compute	8
resource	8
▁replied	8
▁ordered	8
Selector	8
download	8
▁mapping	8
▁somehow	8
▁Spanish	8
▁capture	8
▁science	8
▁implies	8
▁concent	8
▁Western	8
▁Command	8
▁waiting	8
▁Italian	8
▁noticed	8
▁Process	8
▁Content	8
▁putting	8
▁Russian	8
▁mission	8
ferences	8
▁covered	8
▁failure	8
▁serious	8
▁Develop	8
▁rewrite	8
Callback	8
▁Angeles	8
▁derived	8
▁Request	8
▁segment	8
▁players	8
▁causing	8
▁Captain	8
contents	8
Category	8
▁Product	8
▁learned	8
▁evening	8
settings	8
▁quality	8
▁compact	8
▁stopped	8
▁founded	8
▁deleted	8
▁feeling	8
standing	8
▁disable	8
▁circuit	8
ationale	8
▁elected	8
gression	8
▁clicked	8
Delegate	8
▁ability	8
contains	8
▁pointed	8
▁snippet	8
▁Angular	8
▁drawing	8
▁Problem	8
▁Rewrite	8
▁Perhaps	8
▁promise	8
language	8
▁African	8
▁Johnson	8
subseteq	8
▁voltage	8
▁meeting	8
▁abandon	8
▁parents	8
▁screens	8
▁Jackson	8
▁studies	8
▁portion	8
▁samples	8
variable	8
▁arrived	8
children	8
▁deliver	8
▁assumed	8
▁Station	8
▁vectors	8
▁scripts	8
▁quantum	8
servable	8
platform	8
ographic	8
▁Ireland	8
▁officer	8
▁Suppose	8
▁logging	8
▁edition	8
▁reduced	8
▁Private	8
▁ancient	8
▁suspect	8
checkbox	8
▁restaur	8
▁studied	8
required	8
▁persons	8
▁locally	8
▁society	8
▁schools	8
▁overall	8
▁traffic	8
question	8
Interval	8
▁keeping	8
▁offered	8
▁factory	8
▁trivial	8
▁quarter	8
▁Kingdom	8
▁Special	8
▁bounded	8
▁episode	8
▁college	8
▁curious	8
▁regions	8
▁welcome	8
▁builder	8
▁variety	8
▁Publish	8
▁statist	8
▁comfort	8
▁convent	8
▁inherit	8
drawable	8
▁concert	8
▁clients	8
Security	8
▁Website	8
▁adapter	8
▁travers	8
▁printed	8
Executor	8
dispatch	8
formance	8
▁digital	8
▁whereas	8
original	8
▁keyword	8
▁holding	8
▁evident	8
nonumber	8
▁reports	8
▁diagram	8
▁parsing	8
Services	8
▁knowing	8
▁Florida	8
equality	8
▁divided	8
▁parties	8
▁attract	8
▁figures	8
▁Similar	8
callback	8
▁Culture	8
▁observe	8
▁railway	8
ualmente	8
▁Premier	8
▁efforts	8
▁denomin	8
NSString	8
▁Pacific	8
▁momento	8
selector	8
▁closing	8
▁outputs	8
▁belongs	8
products	8
Progress	8
▁degrees	8
▁telling	8
putation	8
▁desktop	8
ometimes	8
American	8
▁turning	8
Dispatch	8
▁figured	8
▁scatter	8
▁Convert	8
itecture	8
▁Hamburg	8
▁totally	8
▁treated	8
▁Britain	8
Encoding	8
specific	8
▁upgrade	8
▁animals	8
▁awarded	8
Customer	8
▁anymore	8
▁compreh	8
Register	8
▁Conserv	8
▁captain	8
▁delight	8
▁victory	8
periment	8
setminus	8
▁pressed	8
material	8
unsigned	8
▁storing	8
Standard	8
▁Country	8
validate	8
▁Theatre	8
▁satisfy	8
customer	8
▁clarify	8
▁acceler	8
▁winning	8
ifferent	8
▁onclick	8
▁typical	8
▁growing	8
▁teacher	8
Argument	8
▁Student	8
essional	8
override	8
standard	8
▁western	8
▁summary	8
▁opposed	8
▁stories	8
▁assumes	8
analysis	8
istrzost	8
▁Digital	8
▁passion	8
minister	8
▁refused	8
▁careful	8
Accessor	8
▁applies	8
ordinate	8
▁medical	8
▁mainten	8
Variable	8
▁propose	8
▁sitting	8
▁witness	8
▁editing	8
▁realize	8
▁serving	8
▁adopted	8
▁anybody	8
▁chapter	8
projects	8
▁Session	8
▁laravel	8
▁handled	8
▁closely	8
▁Anthony	8
atherine	8
Internal	8
Question	8
▁folders	8
sequence	8
▁retired	8
▁Account	8
▁sorting	8
abstract	8
▁attacks	8
notation	8
▁logical	8
▁visited	8
▁posting	8
▁dealing	8
boldmath	8
▁Georgia	8
igration	8
▁Railway	8
▁reality	8
▁Colonel	8
▁granted	8
omorphic	8
▁Studies	8
▁battery	8
▁opacity	8
▁Through	8
izations	8
▁solving	8
Inflater	8
▁discipl	8
▁disease	8
▁Edition	8
▁settled	8
generate	8
▁workers	8
▁Results	8
▁Stadium	8
▁theoret	8
▁Initial	8
▁ignored	8
Graphics	8
▁Austria	8
▁Channel	8
firebase	8
Calendar	8
▁physics	8
▁habitat	8
▁failing	8
▁copying	8
iterator	8
▁defines	8
elements	8
noindent	8
▁willing	8
▁engaged	8
▁reconst	8
Controls	8
Protocol	8
▁Islands	8
catalina	8
redirect	8
▁artists	8
▁equally	8
▁listing	8
progress	8
▁Emperor	8
▁filters	8
▁partner	8
▁Airport	8
provider	8
▁volumes	8
▁weights	8
▁Nations	8
Relative	8
disabled	8
▁flowers	8
▁Finland	8
▁precise	8
▁Natural	8
Identity	8
▁closure	8
▁largely	8
▁Vietnam	8
▁texture	8
▁signals	8
▁arrival	8
ithmetic	8
▁drivers	8
articles	8
vertical	8
▁Support	8
▁anderem	8
▁eastern	8
▁spatial	8
▁Gabriel	8
▁notable	8
▁council	8
Elements	8
▁archive	8
▁Mission	8
Duration	8
▁prepare	8
examples	8
▁exclude	8
▁Besides	8
▁artific	8
▁nations	8
geometry	8
▁payment	8
▁Virtual	8
interval	8
▁matched	8
▁elegant	8
▁mounted	8
distance	8
quarters	8
dropdown	8
▁useless	8
▁rapidly	8
Children	8
Required	8
▁Foreign	8
▁sharing	8
▁license	8
Employee	8
▁moments	8
▁affairs	8
▁driving	8
▁Running	8
▁renamed	8
▁América	8
atically	8
▁comprom	8
Resolver	8
duration	8
▁fortune	8
▁utility	8
▁wounded	8
▁streets	8
▁Verwalt	8
continue	8
▁exposed	8
▁helping	8
▁choices	8
football	8
▁younger	8
▁seasons	8
▁payload	8
▁charged	8
▁termine	8
▁consent	8
Username	8
▁leaders	8
footnote	8
Iterator	8
▁flutter	8
▁comport	8
▁falling	8
▁massive	8
software	8
textarea	8
▁planned	8
protocol	8
▁nearest	8
▁shorter	8
ervation	8
Sequence	8
▁watched	8
▁Russell	8
▁kingdom	8
▁soldier	8
multiple	8
▁Medical	8
▁Profile	8
▁overrid	8
▁unclear	8
▁streams	8
▁roughly	8
▁gravity	8
▁induced	8
▁actress	8
Contents	8
comments	8
ispecies	8
▁charges	8
▁neutral	8
▁conclus	8
▁Looking	8
Language	8
delegate	8
Contract	8
htaccess	8
▁focused	8
▁scholar	8
▁Raymond	8
▁Success	8
▁routing	8
Contains	8
▁closest	8
▁Reading	8
iseconds	8
athedral	8
▁accepts	8
▁Promise	8
▁diction	8
▁metrics	8
▁registr	8
▁Setting	8
▁Stanley	8
▁scaling	8
▁Between	8
▁crossed	8
▁Ontario	8
▁shortly	8
▁Article	8
agnostic	8
▁typedef	8
compiler	8
▁reviews	8
▁Indiana	8
▁Evangel	8
Platform	8
learning	8
▁Swedish	8
Snapshot	8
▁outcome	8
▁crashes	8
▁operate	8
▁classic	8
▁walking	8
▁Singles	8
Receiver	8
▁Highway	8
▁println	8
features	8
▁singles	8
▁Replace	8
negative	8
▁equilib	8
▁DEFAULT	8
▁Laravel	8
▁pleased	8
encoding	8
▁invoked	8
▁financi	8
identity	8
▁Contact	8
Assembly	8
▁caching	8
▁hearing	8
▁targets	8
commerce	8
ifecycle	8
▁circles	8
▁Supreme	8
Registry	8
▁possess	8
Footnote	8
quantity	8
▁scratch	8
▁perturb	8
mathchar	8
▁existed	8
▁compens	8
relative	8
Download	8
▁joining	8
▁casting	8
▁printer	8
▁Chapter	8
▁touched	8
▁evangel	8
ttemberg	8
▁painted	8
▁Kennedy	8
external	8
▁painter	8
▁Studios	8
▁mongodb	8
▁expects	8
▁briefly	8
constant	8
▁hosting	8
calendar	8
▁killing	8
▁surname	8
▁adapted	8
▁entrepr	8
relation	8
parallel	8
argument	8
▁writers	8
absolute	8
▁invited	8
▁singing	8
▁stating	8
▁Popular	8
▁Release	8
▁Arizona	8
ogeneous	8
▁dialect	8
egyzetek	8
Overflow	8
▁Fischer	8
iostream	8
laration	8
▁Brigade	8
▁packets	8
▁fingers	8
▁Ukraine	8
▁Systems	8
▁reserve	8
▁engines	8
▁Century	8
ensemble	8
▁ranking	8
Material	8
▁varying	8
▁triumph	8
▁fiction	8
▁Getting	8
▁excited	8
▁Working	8
itations	8
▁islands	8
minipage	8
jections	8
▁violent	8
▁Classic	8
ordinary	8
▁blocked	8
▁persist	8
▁Warning	8
▁placing	8
▁billion	8
▁females	8
▁obliged	8
▁vessels	8
▁webpage	8
▁wanting	8
▁theatre	8
includes	8
▁devoted	8
▁bearing	8
▁cleared	8
▁modific	8
▁Turkish	8
▁Village	8
Redirect	8
▁Mexican	8
▁imports	8
▁radical	8
requests	8
▁biggest	8
▁Notable	8
Defaults	8
▁Collect	8
▁anxious	8
previous	8
iversity	8
pecially	8
▁fifteen	8
ignation	8
Projects	8
▁involve	8
▁Options	8
▁offices	8
▁linking	8
building	8
▁reconna	8
optional	8
▁squares	8
▁preview	8
▁landing	8
▁founder	8
Compiler	8
▁weapons	8
▁removes	8
▁forming	8
▁overlap	8
▁conject	8
▁insight	8
▁grounds	8
Messages	8
▁Formula	8
▁designs	8
avigator	8
▁burning	8
▁Details	8
Endpoint	8
▁speaker	8
▁profess	8
▁Updated	8
▁seeking	8
▁commits	8
▁Detroit	8
Products	8
▁Binding	8
▁omitted	8
▁prosper	8
External	8
listener	8
▁examine	8
▁quietly	8
▁animate	8
Original	8
currency	8
romagnet	8
versions	8
▁looping	8
▁aligned	8
▁secured	8
employee	8
emptyset	8
▁signing	8
ibration	8
controls	8
▁worship	8
leveland	8
Internet	8
commands	8
▁defense	8
▁Atlanta	8
Operator	8
although	8
training	8
Workbook	8
▁economy	8
▁routine	8
▁firefox	8
modifier	8
▁scoring	8
triangle	8
▁gestion	8
▁descent	8
▁protein	8
▁reduces	8
▁ratings	8
Strategy	8
▁Leonard	8
▁justify	8
assembly	8
Drawable	8
▁Usually	8
▁amounts	8
▁prolong	8
▁optical	8
sections	8
▁dressed	8
▁longest	8
▁housing	8
▁denoted	8
▁illegal	8
▁Perform	8
National	8
possible	8
▁penalty	8
selenium	8
ortheast	8
▁promote	8
▁compose	8
▁backing	8
Distance	8
▁lengths	8
▁Fourier	8
uclidean	8
▁filling	8
▁pushing	8
▁Factory	8
▁Senator	8
Optional	8
▁subsets	8
▁doubles	8
▁visitor	8
▁Seattle	8
▁letting	8
▁Dynamic	8
collapse	8
▁rolling	8
▁selects	8
▁Reserve	8
communic	8
▁enjoyed	8
▁outline	8
ancement	8
▁thereby	8
▁colours	8
Observer	8
▁Illustr	8
Behavior	8
▁electro	8
▁forcing	8
▁Majesty	8
▁borders	8
▁horizon	8
▁fitting	8
▁pending	8
▁Primary	8
▁webpack	8
▁Officer	8
▁avoided	8
▁defence	8
▁pulling	8
▁critics	8
▁dispute	8
stelling	8
▁Correct	8
▁readily	8
▁reconoc	8
▁Musical	8
multirow	8
▁Kenneth	8
▁injured	8
▁combatt	8
▁Writing	8
▁colored	8
▁assured	8
▁removal	8
▁amateur	8
intellij	8
▁Limited	8
▁accused	8
▁Picture	8
▁cabinet	8
▁cutting	8
hostname	8
▁stepped	8
▁MongoDB	8
▁compart	8
▁Gregory	8
▁dispers	8
▁counted	8
▁hurried	8
manifest	8
▁assault	8
▁kitchen	8
▁lecture	8
▁Uruguay	8
▁spacing	8
▁raising	8
Vertical	8
▁Wikiped	8
ducation	8
▁immense	8
▁hitting	8
▁highway	8
▁disturb	8
▁Gazette	8
▁awesome	8
▁Phoenix	8
endpoint	8
▁PRIMARY	8
▁delayed	8
▁polygon	8
Received	8
▁hunting	8
▁Physics	8
▁toolbar	8
unction	7
▁should	7
▁public	7
▁follow	7
▁result	7
▁method	7
▁differ	7
▁object	7
▁answer	7
ational	7
▁number	7
ception	7
lection	7
▁second	7
▁direct	7
▁comple	7
ference	7
▁String	7
▁change	7
▁system	7
▁trying	7
▁select	7
▁partic	7
mathcal	7
▁called	7
▁person	7
plement	7
section	7
▁access	7
ization	7
▁expect	7
▁includ	7
▁System	7
▁little	7
▁better	7
▁struct	7
▁really	7
▁static	7
estions	7
▁people	7
▁single	7
▁always	7
▁record	7
▁though	7
▁script	7
▁having	7
▁cannot	7
▁within	7
uration	7
Element	7
▁during	7
▁things	7
▁search	7
▁update	7
▁inside	7
▁reason	7
▁effect	7
ulation	7
▁around	7
▁button	7
▁either	7
include	7
▁design	7
▁custom	7
▁comput	7
▁compon	7
▁option	7
anguage	7
content	7
Request	7
ability	7
ailable	7
▁August	7
▁please	7
▁client	7
▁action	7
Service	7
▁height	7
atabase	7
▁thread	7
itional	7
▁moment	7
version	7
Manager	7
▁rather	7
ptember	7
▁points	7
▁United	7
▁enough	7
▁length	7
ategory	7
▁memory	7
ination	7
▁France	7
▁report	7
inition	7
▁Please	7
▁accept	7
nection	7
▁assign	7
▁histor	7
▁common	7
respond	7
▁target	7
▁series	7
Message	7
▁school	7
▁double	7
current	7
▁period	7
aterial	7
▁worked	7
▁happen	7
▁commun	7
request	7
partial	7
▁became	7
▁States	7
▁making	7
Content	7
▁remain	7
▁family	7
▁thanks	7
▁origin	7
▁others	7
▁associ	7
ruction	7
▁Europe	7
ibility	7
▁folder	7
▁author	7
▁entire	7
▁filter	7
▁fields	7
▁season	7
ragment	7
▁needed	7
▁screen	7
▁almost	7
▁figure	7
default	7
▁adding	7
ocument	7
osition	7
▁passed	7
▁member	7
▁School	7
▁define	7
▁strong	7
▁images	7
▁sample	7
Default	7
Handler	7
▁switch	7
▁vector	7
▁matrix	7
▁former	7
▁status	7
▁Object	7
product	7
▁Histor	7
▁models	7
▁device	7
example	7
▁father	7
Control	7
▁center	7
▁across	7
project	7
▁stream	7
▁player	7
develop	7
message	7
▁become	7
▁events	7
▁assert	7
display	7
▁wonder	7
process	7
▁anyone	7
ributes	7
element	7
agement	7
▁pretty	7
▁recomm	7
▁compet	7
package	7
▁satisf	7
▁friend	7
Factory	7
▁County	7
▁wanted	7
▁looked	7
▁League	7
▁except	7
▁French	7
endency	7
▁delete	7
▁failed	7
▁nation	7
▁Public	7
println	7
▁assume	7
▁amount	7
library	7
ography	7
▁played	7
▁German	7
▁attack	7
▁domain	7
▁useful	7
▁future	7
▁branch	7
epsilon	7
▁nature	7
▁conver	7
▁letter	7
service	7
▁likely	7
▁longer	7
▁compos	7
ensions	7
▁taking	7
▁issues	7
Builder	7
▁mother	7
▁employ	7
▁compar	7
▁closed	7
▁immedi	7
▁jquery	7
▁observ	7
▁prefer	7
▁symbol	7
Options	7
▁energy	7
▁layout	7
▁states	7
support	7
▁saying	7
▁recogn	7
▁ground	7
perties	7
▁engine	7
utorial	7
▁turned	7
▁higher	7
▁active	7
▁seemed	7
▁myself	7
Adapter	7
install	7
Command	7
▁Church	7
present	7
▁scroll	7
▁theory	7
▁career	7
▁coming	7
▁Second	7
▁upload	7
▁proced	7
control	7
▁possib	7
▁groups	7
▁opened	7
replace	7
command	7
othèque	7
▁church	7
Version	7
▁affect	7
▁modify	7
caption	7
▁multip	7
atively	7
▁execut	7
▁spring	7
▁asking	7
mission	7
▁choose	7
▁served	7
options	7
istrict	7
▁giving	7
angular	7
▁launch	7
▁Museum	7
issions	7
▁belong	7
▁square	7
connect	7
▁editor	7
jection	7
▁Joseph	7
▁assist	7
itation	7
Process	7
▁secret	7
Address	7
▁Colleg	7
▁Street	7
▁candid	7
▁During	7
▁driver	7
▁placed	7
▁signal	7
▁larger	7
▁Spring	7
▁mechan	7
▁effort	7
▁deploy	7
▁slight	7
▁shared	7
▁techni	7
vention	7
Session	7
address	7
▁choice	7
▁months	7
actions	7
▁online	7
▁Canada	7
▁degree	7
▁Studio	7
▁announ	7
▁solved	7
▁native	7
ributed	7
bernate	7
Product	7
▁printf	7
modules	7
▁binary	7
Current	7
Changed	7
▁places	7
▁Select	7
▁intent	7
Project	7
▁wouldn	7
▁artist	7
▁declar	7
Windows	7
▁weight	7
imation	7
summary	7
▁orient	7
▁recent	7
Integer	7
▁Center	7
▁commer	7
▁Result	7
fficial	7
article	7
session	7
▁dialog	7
▁hidden	7
▁volume	7
execute	7
ificate	7
▁throws	7
▁office	7
▁posted	7
▁Method	7
▁compan	7
▁forces	7
▁recurs	7
▁charge	7
▁sudden	7
▁finish	7
▁moving	7
▁formed	7
▁Daniel	7
▁centre	7
braries	7
▁kernel	7
▁living	7
▁faster	7
▁couldn	7
▁caused	7
ilation	7
▁studio	7
success	7
▁Custom	7
▁stated	7
▁beyond	7
▁anyway	7
▁joined	7
▁edited	7
▁seeing	7
▁signed	7
▁disapp	7
▁Direct	7
▁suffer	7
program	7
▁nearly	7
▁policy	7
▁linked	7
private	7
▁commit	7
▁review	7
▁Action	7
licated	7
▁offset	7
▁helped	7
▁Awards	7
ynomial	7
▁writer	7
▁resist	7
Binding	7
Program	7
▁nested	7
Display	7
ponents	7
comment	7
▁broken	7
▁preced	7
▁strict	7
entials	7
▁killed	7
tabular	7
▁detail	7
ynchron	7
▁tested	7
lopedia	7
▁forget	7
▁scient	7
▁forgot	7
▁Number	7
▁symmet	7
▁danger	7
liament	7
▁submit	7
ilities	7
▁append	7
▁advice	7
▁travel	7
▁sister	7
results	7
▁listed	7
▁socket	7
issance	7
▁conven	7
▁market	7
▁occurs	7
▁reduce	7
atholic	7
▁twenty	7
▁sounds	7
clusion	7
account	7
profile	7
▁batter	7
ignment	7
▁strugg	7
▁prepar	7
▁accomp	7
▁Social	7
▁poster	7
ictures	7
▁elimin	7
▁fellow	7
▁filled	7
▁raised	7
▁mobile	7
▁rights	7
Storage	7
▁Series	7
windows	7
▁canvas	7
chester	7
▁battle	7
▁Africa	7
▁Should	7
▁smooth	7
Account	7
Details	7
ocation	7
▁attach	7
▁camera	7
▁cursor	7
▁highly	7
▁Change	7
▁Active	7
Servlet	7
▁powers	7
▁Option	7
Timeout	7
Enabled	7
▁Engine	7
archive	7
▁impact	7
urrency	7
▁motion	7
▁marked	7
▁blocks	7
essions	7
▁police	7
▁repres	7
▁minute	7
▁Button	7
▁Access	7
pattern	7
console	7
▁Region	7
▁labels	7
▁decide	7
▁Little	7
▁mostly	7
▁Intent	7
▁levels	7
▁toward	7
▁guitar	7
initial	7
checked	7
▁orders	7
▁subset	7
▁leaves	7
▁Centre	7
forward	7
▁island	7
▁Office	7
▁aggreg	7
▁opport	7
istence	7
▁supply	7
onymous	7
▁Figure	7
▁Arthur	7
▁verify	7
▁retain	7
Univers	7
▁fourth	7
▁secure	7
▁Double	7
created	7
network	7
▁doctor	7
▁listen	7
▁People	7
▁inject	7
criptor	7
ologies	7
allenge	7
▁bright	7
▁Comput	7
▁summer	7
counter	7
▁invent	7
▁forced	7
▁proved	7
▁quotes	7
▁radius	7
etailed	7
rollers	7
▁street	7
▁colors	7
▁thrown	7
▁speech	7
▁Design	7
▁routes	7
picture	7
▁Boston	7
defined	7
servlet	7
Results	7
compile	7
▁manual	7
iration	7
widehat	7
▁Winter	7
reshold	7
require	7
Library	7
Execute	7
▁repeat	7
contact	7
▁colour	7
orithms	7
oration	7
ounding	7
▁narrow	7
▁Client	7
▁Audiod	7
▁Taylor	7
▁reject	7
▁excell	7
▁Mexico	7
pmatrix	7
▁cancel	7
▁caught	7
pective	7
objects	7
ircraft	7
▁Victor	7
▁sorted	7
▁Russia	7
channel	7
Objects	7
▁Corpor	7
▁pieces	7
▁Battle	7
padding	7
plugins	7
related	7
▁intens	7
manager	7
visible	7
▁router	7
Visible	7
storage	7
▁female	7
▁bridge	7
▁houses	7
ogether	7
▁animal	7
mozilla	7
▁limits	7
columns	7
▁Common	7
pressed	7
foreach	7
reflect	7
classes	7
▁league	7
▁troops	7
loading	7
▁invest	7
▁silver	7
▁Summer	7
▁legisl	7
▁Author	7
▁murder	7
▁afraid	7
testing	7
Section	7
convert	7
Contact	7
▁bounds	7
▁exceed	7
elenium	7
▁diplom	7
country	7
▁Online	7
▁forest	7
▁merely	7
Channel	7
eclipse	7
headers	7
aligned	7
Network	7
▁missed	7
▁Stream	7
▁elabor	7
handler	7
▁sizeof	7
▁logged	7
▁famous	7
mediate	7
stronom	7
raction	7
Profile	7
Invalid	7
▁occurr	7
▁Valley	7
▁Review	7
▁Report	7
▁lambda	7
Example	7
without	7
Support	7
ometric	7
release	7
obierno	7
Constra	7
▁coding	7
details	7
Unknown	7
▁popula	7
Success	7
▁slowly	7
▁saving	7
▁permit	7
ryption	7
Columns	7
▁growth	7
bmatrix	7
▁attend	7
▁mainly	7
▁cities	7
feature	7
factory	7
▁Script	7
▁stores	7
Package	7
▁Jersey	7
Pointer	7
▁passes	7
company	7
univers	7
napshot	7
▁Player	7
▁refers	7
steller	7
viation	7
theorem	7
▁Family	7
▁prints	7
▁sports	7
▁europe	7
between	7
RELEASE	7
▁Though	7
▁facing	7
nsylvan	7
▁accord	7
▁stands	7
changed	7
ientras	7
▁papers	7
▁locale	7
imately	7
▁terror	7
▁Remove	7
▁county	7
▁Castle	7
▁arrang	7
Mutable	7
regular	7
▁august	7
▁Colomb	7
General	7
▁Soviet	7
▁cookie	7
▁safety	7
▁layers	7
sterdam	7
▁favour	7
▁beauty	7
▁edific	7
▁Doctor	7
▁struck	7
▁combat	7
▁agreed	7
Initial	7
chestra	7
▁scored	7
▁applic	7
timeout	7
runtime	7
▁singer	7
▁worker	7
Wrapper	7
▁analog	7
correct	7
algebra	7
▁equals	7
▁Cannot	7
Generic	7
licates	7
▁Career	7
▁writes	7
▁Junior	7
collect	7
▁Having	7
browser	7
subject	7
▁begann	7
integer	7
▁Import	7
▁Status	7
primary	7
▁Brazil	7
▁Golden	7
▁consid	7
▁taught	7
▁Sydney	7
▁backup	7
▁credit	7
▁Bridge	7
REQUEST	7
▁tracks	7
▁academ	7
▁lookup	7
▁flight	7
▁Sebast	7
Drawing	7
▁senior	7
VERSION	7
▁Future	7
builder	7
▁begins	7
▁census	7
▁garden	7
▁divide	7
▁Silver	7
writing	7
theless	7
▁bigger	7
viously	7
▁issued	7
dynamic	7
▁acting	7
▁offers	7
ternoon	7
▁breaks	7
scripts	7
▁Jewish	7
▁rotate	7
▁Single	7
▁sevent	7
inction	7
▁helper	7
▁Bishop	7
▁UPDATE	7
▁Volume	7
▁conten	7
▁Gordon	7
▁pixels	7
▁sculpt	7
omsnitt	7
▁thirty	7
express	7
▁walked	7
▁recher	7
▁ending	7
Pattern	7
▁Target	7
problem	7
pointer	7
▁hoping	7
However	7
▁corpor	7
cussion	7
plotlib	7
▁Howard	7
general	7
SESSION	7
▁yields	7
▁gained	7
▁temple	7
▁annual	7
Desktop	7
▁advent	7
written	7
▁widely	7
▁closer	7
▁Nature	7
wrapper	7
▁titles	7
Counter	7
▁hosted	7
▁dinner	7
Checked	7
▁notion	7
resolve	7
▁income	7
▁bodies	7
Connect	7
▁expert	7
▁convin	7
parator	7
▁metres	7
▁vocals	7
▁Temple	7
▁bought	7
ulating	7
because	7
▁Anyway	7
ostream	7
eground	7
▁counts	7
▁acknow	7
Boolean	7
Headers	7
▁desert	7
▁packet	7
▁driven	7
▁patron	7
▁listop	7
returns	7
▁sexual	7
compare	7
ishment	7
▁arrive	7
▁medium	7
▁sought	7
▁Failed	7
▁colleg	7
history	7
▁graphs	7
▁bronze	7
▁namely	7
Convert	7
▁covers	7
erdings	7
▁buried	7
▁vision	7
▁plants	7
▁convex	7
initely	7
▁damage	7
▁picked	7
virtual	7
special	7
▁pushed	7
▁priest	7
▁Adding	7
▁advert	7
▁Avenue	7
▁Dialog	7
▁surely	7
▁hockey	7
▁Serial	7
▁Poland	7
prevent	7
▁Police	7
student	7
ruption	7
▁whites	7
▁Legisl	7
▁survey	7
▁losing	7
▁Native	7
▁honour	7
prepare	7
Feature	7
▁museum	7
▁summar	7
▁excess	7
▁spoken	7
▁Format	7
▁median	7
generic	7
irement	7
▁typing	7
▁Square	7
▁proble	7
▁compag	7
variant	7
▁parish	7
▁devant	7
▁doesnt	7
▁merged	7
▁scores	7
compose	7
▁hatten	7
▁resize	7
▁Member	7
▁rename	7
▁Walker	7
▁ancest	7
▁welche	7
▁demsel	7
station	7
▁mirror	7
cluster	7
▁valley	7
strings	7
binding	7
complex	7
▁neural	7
▁videos	7
reading	7
Release	7
▁Oliver	7
antages	7
▁stroke	7
perform	7
▁advers	7
riction	7
▁Garden	7
ologist	7
▁Filter	7
▁finger	7
▁Polish	7
▁waters	7
▁estate	7
Console	7
▁wished	7
▁Kansas	7
▁pulled	7
boolean	7
Replace	7
▁typeof	7
▁assass	7
itories	7
▁Census	7
flutter	7
animate	7
▁Johnny	7
iveness	7
Trigger	7
▁unfold	7
▁ranges	7
▁stupid	7
▁slower	7
matches	7
numbers	7
▁upgrad	7
▁Either	7
Created	7
▁scenes	7
disable	7
▁Commun	7
tatywna	7
▁rising	7
destroy	7
History	7
▁earned	7
▁photos	7
▁albums	7
continu	7
Subject	7
▁defeat	7
through	7
mapping	7
▁Friend	7
▁fought	7
▁sphere	7
Country	7
Student	7
▁nearby	7
▁Border	7
desktop	7
uetooth	7
parison	7
invalid	7
▁bucket	7
▁inclus	7
trigger	7
logging	7
running	7
extract	7
umbnail	7
▁parsed	7
▁Shared	7
▁vessel	7
▁sketch	7
▁Delete	7
▁strike	7
Virtual	7
DOCTYPE	7
implies	7
▁derive	7
updated	7
Company	7
adapter	7
▁deport	7
Changes	7
Browser	7
▁Singap	7
istance	7
▁Mobile	7
▁assets	7
endance	7
▁Observ	7
ordered	7
▁rating	7
earance	7
unnable	7
▁fusion	7
▁afford	7
riority	7
▁glance	7
▁Puerto	7
▁decode	7
Texture	7
Develop	7
riteria	7
▁naming	7
▁neighb	7
▁Origin	7
▁cached	7
rolling	7
borough	7
▁duties	7
▁severe	7
▁ladies	7
▁poetry	7
▁undert	7
▁dynast	7
elihood	7
cluding	7
refresh	7
commons	7
▁regime	7
▁Define	7
▁thinks	7
▁incons	7
▁Korean	7
▁Matrix	7
usement	7
▁Nether	7
Austral	7
▁tennis	7
▁Racing	7
▁splend	7
▁harder	7
▁Straße	7
olation	7
Warning	7
▁fright	7
western	7
▁flying	7
▁induct	7
▁Inside	7
loyment	7
Station	7
▁locked	7
▁golden	7
emetery	7
working	7
▁Nation	7
▁Height	7
▁Wright	7
▁advise	7
website	7
▁stages	7
▁Heaven	7
▁Knight	7
▁Linear	7
▁horror	7
▁masses	7
seconds	7
▁Hitler	7
▁quoted	7
rewrite	7
▁nobody	7
uttavia	7
looking	7
mongodb	7
Install	7
▁builds	7
another	7
ividual	7
itative	7
▁ticket	7
▁labour	7
estellt	7
DEFAULT	7
▁unders	7
gravity	7
Loading	7
▁defect	7
iennent	7
methods	7
▁brings	7
machine	7
inburgh	7
▁budget	7
▁marine	7
▁angles	7
publish	7
▁rarely	7
▁affili	7
▁Scient	7
▁Julius	7
▁versus	7
▁Luxemb	7
payload	7
▁topics	7
ipeline	7
▁Symbol	7
ression	7
ventory	7
▁slider	7
▁liquid	7
▁oldest	7
illiant	7
mutable	7
▁Ernest	7
Dynamic	7
▁intend	7
Michael	7
species	7
▁injury	7
Pressed	7
Gesture	7
Receive	7
▁Theory	7
Failure	7
▁campus	7
▁footer	7
reverse	7
▁Senior	7
▁pounds	7
▁longue	7
▁solves	7
▁assemb	7
▁enters	7
▁expose	7
▁Trying	7
▁awards	7
▁Compos	7
▁Sweden	7
▁Warren	7
▁Austin	7
▁pocket	7
▁emails	7
▁cinema	7
▁Compet	7
allowed	7
English	7
▁defend	7
▁polity	7
atience	7
▁Stuart	7
▁worthy	7
▁propor	7
atorial	7
▁viewed	7
Special	7
▁Season	7
▁assess	7
clojure	7
▁Santos	7
▁Energy	7
▁orange	7
itivity	7
▁talked	7
▁statue	7
▁ceased	7
▁mixing	7
▁legacy	7
▁lawyer	7
▁kindly	7
natural	7
closure	7
▁skills	7
▁Comics	7
▁drives	7
physics	7
achment	7
▁substr	7
▁smiled	7
central	7
▁Oregon	7
Private	7
illaume	7
▁Policy	7
managed	7
inental	7
▁titled	7
▁Vienna	7
preview	7
▁resort	7
leading	7
▁manten	7
percent	7
▁Harold	7
iformes	7
▁appart	7
▁hiding	7
▁appeal	7
▁unlike	7
▁Greece	7
▁suffix	7
▁slaves	7
▁belang	7
▁rapide	7
▁Rafael	7
jective	7
▁Hunter	7
▁precip	7
dirname	7
▁perpet	7
▁Albums	7
▁gelang	7
▁cycles	7
▁portal	7
▁Moscow	7
▁deeper	7
▁fitted	7
▁UIView	7
▁firing	7
▁basket	7
▁lassen	7
changes	7
▁waited	7
ensoort	7
compute	7
▁repair	7
▁Orange	7
▁notify	7
idenote	7
▁lights	7
▁tunnel	7
▁prices	7
Methods	7
▁Living	7
▁affair	7
UIImage	7
▁bishop	7
▁comedy	7
▁lifted	7
Summary	7
▁solemn	7
▁Driver	7
▁Anyone	7
▁Justin	7
▁rescue	7
▁Turkey	7
exports	7
▁refuse	7
inflate	7
Nothing	7
Actions	7
Managed	7
Strings	7
entries	7
Problem	7
▁ranked	7
measure	7
Primary	7
respons	7
unknown	7
▁locate	7
filters	7
incipal	7
encoded	7
▁sheets	7
▁Deport	7
setting	7
keyword	7
Subview	7
▁tongue	7
urrence	7
▁Rights	7
confirm	7
▁achiev	7
uminate	7
▁clouds	7
▁tandis	7
Digital	7
Refresh	7
interno	7
▁Julian	7
▁negoti	7
missing	7
▁wooden	7
▁Cinema	7
webpack	7
legraph	7
chapter	7
▁steady	7
century	7
warning	7
Classes	7
Express	7
▁Mechan	7
ivalent	7
▁throne	7
phantom	7
▁cattle	7
▁rivers	7
▁dashed	7
Seconds	7
versary	7
urchase	7
▁Quebec	7
▁meteor	7
elivery	7
▁stayed	7
stellen	7
predict	7
▁guilty	7
samples	7
Foreign	7
▁convey	7
groupby	7
Running	7
▁Taiwan	7
payment	7
▁fixing	7
▁debate	7
backend	7
▁Sultan	7
▁meters	7
▁poison	7
Culture	7
Percent	7
▁virtue	7
▁borrow	7
▁conced	7
▁Dennis	7
▁mighty	7
pection	7
▁Wonder	7
catalog	7
▁infant	7
umption	7
members	7
▁eleven	7
▁nicely	7
▁flower	7
ativity	7
▁Switch	7
segment	7
opacity	7
Picture	7
▁Watson	7
iedenis	7
nothing	7
▁paused	7
▁threat	7
intendo	7
▁losses	7
ulative	7
ICATION	7
▁sorrow	7
▁hinaus	7
▁Linked	7
▁athlet	7
orphism	7
▁Compar	7
▁wishes	7
UNCTION	7
▁argued	7
▁Things	7
▁tricky	7
▁gradle	7
▁timing	7
assador	7
▁shield	7
▁Struct	7
▁Market	7
located	7
Theorem	7
▁voices	7
▁geomet	7
▁guests	7
▁runner	7
▁regret	7
Collect	7
▁Edmund	7
▁voting	7
▁prowad	7
▁racing	7
▁victim	7
threads	7
▁absolv	7
istiche	7
▁Tennis	7
Setting	7
limited	7
America	7
Machine	7
▁rolled	7
▁Socket	7
▁gering	7
▁tribes	7
registr	7
Updated	7
▁Guinea	7
▁Bright	7
getting	7
bounded	7
▁Agency	7
▁Butler	7
▁Ukrain	7
Include	7
▁Labour	7
arrison	7
diction	7
Numbers	7
▁Period	7
▁revert	7
▁sooner	7
quality	7
▁auxili	7
uniform	7
▁bisher	7
▁Orient	7
engelsk	7
▁thrust	7
▁actors	7
similar	7
▁postal	7
laravel	7
▁incred	7
▁JQuery	7
▁Accept	7
<0x0C>	6
<0x0E>	6
<0x2D>	6
<0x98>	6
<0xBA>	6
<0xCC>	6
▁which	6
▁would	6
▁there	6
▁class	6
▁using	6
ations	6
▁other	6
▁first	6
lement	6
▁value	6
▁their	6
▁could	6
▁about	6
▁under	6
strong	6
▁after	6
ession	6
String	6
urrent	6
▁point	6
▁think	6
▁start	6
ething	6
▁every	6
▁these	6
essage	6
▁again	6
▁found	6
▁right	6
▁while	6
▁print	6
▁still	6
▁being	6
▁There	6
ischen	6
ically	6
rivate	6
▁works	6
▁event	6
▁field	6
▁might	6
▁order	6
string	6
roller	6
▁conne	6
▁famil	6
▁doesn	6
▁chang	6
ternal	6
▁tried	6
▁model	6
▁those	6
ograph	6
▁since	6
ctions	6
▁image	6
ptions	6
▁match	6
mathbb	6
▁https	6
▁build	6
indows	6
ground	6
▁place	6
Object	6
▁state	6
▁appro	6
script	6
▁given	6
▁final	6
itions	6
▁three	6
▁issue	6
ackage	6
▁child	6
▁count	6
▁group	6
▁small	6
ission	6
▁query	6
▁never	6
▁below	6
▁super	6
▁write	6
▁years	6
▁seems	6
return	6
iction	6
action	6
▁multi	6
ention	6
ending	6
ential	6
▁doing	6
select	6
▁thing	6
ribute	6
ension	6
▁going	6
▁later	6
layout	6
▁added	6
▁based	6
▁refer	6
▁wrong	6
▁until	6
mathbf	6
▁sever	6
▁means	6
length	6
▁break	6
lambda	6
▁ident	6
▁organ	6
▁exper	6
▁block	6
▁space	6
result	6
config	6
▁large	6
achine	6
server	6
▁names	6
▁links	6
▁known	6
▁total	6
▁times	6
▁power	6
button	6
▁style	6
Button	6
mathrm	6
change	6
▁throw	6
ischer	6
▁bound	6
psilon	6
▁level	6
▁short	6
ording	6
ponent	6
object	6
▁offic	6
▁Thank	6
▁begin	6
option	6
imedia	6
▁apply	6
▁along	6
▁looks	6
Layout	6
▁lines	6
▁range	6
height	6
▁elect	6
Select	6
▁light	6
Result	6
though	6
public	6
google	6
▁title	6
▁house	6
lished	6
▁makes	6
ferrer	6
▁quite	6
▁album	6
▁resol	6
▁April	6
▁store	6
▁close	6
actory	6
Stream	6
▁assum	6
▁enter	6
endent	6
quence	6
▁Count	6
System	6
atalog	6
▁graph	6
Config	6
▁Since	6
inding	6
▁remov	6
Client	6
▁limit	6
▁often	6
lichen	6
Method	6
▁empty	6
▁types	6
▁gives	6
Script	6
▁water	6
▁month	6
▁Saint	6
▁admin	6
▁young	6
▁Class	6
▁users	6
▁indic	6
▁needs	6
▁built	6
▁among	6
▁cases	6
▁named	6
Action	6
spring	6
apache	6
▁dynam	6
▁State	6
▁contr	6
▁shown	6
▁fixed	6
▁catch	6
Create	6
append	6
Column	6
▁asked	6
Source	6
stract	6
search	6
▁solve	6
ername	6
▁round	6
figure	6
textbf	6
number	6
orithm	6
Number	6
▁front	6
filter	6
atform	6
▁taken	6
leased	6
▁cover	6
client	6
▁night	6
ipedia	6
▁third	6
▁major	6
ournal	6
curity	6
adding	6
▁began	6
python	6
▁music	6
▁David	6
▁debug	6
▁avoid	6
▁March	6
icture	6
▁white	6
▁Error	6
format	6
▁video	6
▁email	6
status	6
▁force	6
▁death	6
▁takes	6
Thread	6
output	6
column	6
vision	6
active	6
▁Frank	6
struct	6
source	6
▁quick	6
▁James	6
atives	6
center	6
Filter	6
idence	6
▁indep	6
target	6
▁equal	6
system	6
selves	6
▁lower	6
▁Using	6
▁invol	6
▁comes	6
ounter	6
matrix	6
▁obser	6
itting	6
module	6
▁wrote	6
ologie	6
stream	6
update	6
▁maybe	6
▁Japan	6
cially	6
efined	6
▁House	6
▁parts	6
iginal	6
▁paper	6
ecause	6
method	6
arning	6
Status	6
▁becom	6
comple	6
▁media	6
▁mount	6
▁route	6
▁While	6
Format	6
rangle	6
▁women	6
jquery	6
▁somet	6
▁Louis	6
▁logic	6
▁Other	6
Window	6
licate	6
access	6
▁offer	6
quired	6
▁subst	6
▁leave	6
values	6
remove	6
Server	6
▁prime	6
pected	6
othing	6
▁sound	6
▁heard	6
▁woman	6
▁Music	6
▁moved	6
▁evalu	6
▁River	6
imento	6
▁hours	6
master	6
▁speed	6
▁split	6
▁setup	6
▁entry	6
▁bytes	6
ensive	6
▁scale	6
custom	6
ibrary	6
▁effic	6
▁occur	6
SELECT	6
Update	6
▁inner	6
▁stuff	6
▁thank	6
undred	6
Output	6
fortun	6
subset	6
▁visit	6
▁watch	6
Length	6
▁Could	6
▁study	6
▁beaut	6
▁steps	6
levant	6
fiddle	6
Access	6
▁north	6
▁alert	6
header	6
▁Stand	6
Entity	6
▁fetch	6
istics	6
rapper	6
varphi	6
▁meant	6
▁teach	6
▁rules	6
▁scope	6
▁helps	6
▁occup	6
elijke	6
▁bring	6
▁arriv	6
Reader	6
langle	6
▁basic	6
Height	6
▁south	6
▁Image	6
▁worth	6
thread	6
▁appar	6
▁neigh	6
▁radio	6
▁saved	6
window	6
▁forms	6
▁Maybe	6
▁compr	6
skiego	6
domain	6
ounded	6
▁await	6
▁impos	6
Change	6
Custom	6
▁voice	6
Module	6
▁haven	6
▁defin	6
▁stage	6
▁sorry	6
signed	6
Person	6
ensure	6
second	6
▁India	6
▁Award	6
params	6
▁prior	6
▁treat	6
▁China	6
ionale	6
▁upper	6
▁nodes	6
▁board	6
▁civil	6
undert	6
Dialog	6
holder	6
Buffer	6
▁daugh	6
▁yield	6
▁speak	6
▁adapt	6
textit	6
▁deriv	6
▁miles	6
elling	6
ometry	6
▁inher	6
Header	6
insert	6
iments	6
omorph	6
submit	6
▁drive	6
▁accur	6
weight	6
define	6
▁green	6
▁train	6
static	6
ulated	6
Search	6
▁plant	6
widget	6
▁White	6
▁Mount	6
▁fully	6
▁games	6
▁crash	6
vector	6
printf	6
delete	6
▁score	6
▁Order	6
random	6
▁recon	6
itable	6
▁infin	6
▁books	6
▁embed	6
ometer	6
images	6
Option	6
▁views	6
isches	6
▁basis	6
handle	6
▁piece	6
▁Which	6
▁fails	6
▁tools	6
antage	6
▁Carol	6
▁focus	6
▁march	6
▁river	6
plugin	6
▁fight	6
▁holds	6
▁plain	6
▁agree	6
▁price	6
Target	6
▁sleep	6
clipse	6
ynamic	6
▁usage	6
▁truth	6
ubuntu	6
rowser	6
Widget	6
▁dedic	6
▁lists	6
illing	6
double	6
Comple	6
author	6
normal	6
bottom	6
▁court	6
▁Field	6
upload	6
buffer	6
▁delay	6
Player	6
▁chief	6
▁scene	6
Lambda	6
▁mayor	6
player	6
Serial	6
▁charg	6
Record	6
ulator	6
licher	6
▁Radio	6
▁Power	6
▁oppos	6
ifying	6
▁Court	6
cation	6
margin	6
assert	6
▁trust	6
▁adopt	6
should	6
otimes	6
amples	6
common	6
anning	6
▁panel	6
ansion	6
▁minor	6
driver	6
rivial	6
▁eight	6
render	6
▁mouse	6
▁debut	6
Bundle	6
▁aware	6
▁novel	6
cademy	6
▁cloud	6
▁tasks	6
fields	6
Params	6
▁older	6
istent	6
ountry	6
▁annot	6
aching	6
ection	6
points	6
invoke	6
anging	6
Parent	6
styles	6
models	6
▁happy	6
▁Brown	6
▁today	6
▁batch	6
▁award	6
▁sheet	6
▁seven	6
plates	6
agraph	6
▁knows	6
exists	6
▁Local	6
Active	6
ologia	6
▁squad	6
Loader	6
entity	6
device	6
▁Women	6
▁areas	6
▁labor	6
▁Album	6
▁Admin	6
▁Times	6
Intent	6
offset	6
Offset	6
▁units	6
▁audio	6
▁merge	6
▁exhib	6
▁spent	6
totype	6
▁blood	6
▁Right	6
▁Young	6
Scroll	6
Writer	6
scroll	6
▁Child	6
screen	6
person	6
ewrite	6
▁laugh	6
▁gradu	6
engine	6
▁lived	6
▁excel	6
▁conce	6
▁paint	6
▁plane	6
▁angle	6
▁trees	6
Render	6
Helper	6
▁wants	6
▁stuck	6
▁peace	6
▁depth	6
▁agent	6
▁ideal	6
▁Would	6
hidden	6
▁paths	6
ashion	6
▁teams	6
▁Jones	6
▁theme	6
global	6
▁rapid	6
equals	6
▁Jacob	6
▁resid	6
▁Major	6
Native	6
before	6
▁sight	6
ectors	6
▁coach	6
▁sides	6
reland	6
▁Given	6
sample	6
▁topic	6
▁hyper	6
manual	6
▁trade	6
around	6
▁actor	6
oracle	6
Screen	6
Socket	6
▁Index	6
▁exerc	6
▁Excel	6
▁Musik	6
▁weeks	6
▁cycle	6
▁outer	6
Holder	6
▁Again	6
▁noise	6
border	6
▁surpr	6
▁brief	6
▁forth	6
native	6
Device	6
coming	6
socket	6
astern	6
▁Night	6
Return	6
record	6
agnost	6
▁noted	6
iation	6
▁legal	6
includ	6
Parser	6
▁chair	6
▁posts	6
irtual	6
▁quiet	6
▁sites	6
Double	6
direct	6
Second	6
▁Lemma	6
▁floor	6
▁piano	6
family	6
▁capit	6
▁ratio	6
Python	6
▁leads	6
▁thick	6
▁clock	6
answer	6
▁Route	6
▁birth	6
▁drawn	6
studio	6
undial	6
▁lives	6
folder	6
comput	6
▁loops	6
isions	6
ustral	6
▁Range	6
Please	6
▁rough	6
issues	6
▁coast	6
iverse	6
ITable	6
orient	6
▁owner	6
report	6
▁films	6
▁Greek	6
shared	6
Driver	6
Engine	6
ucture	6
▁Games	6
Delete	6
encode	6
limits	6
▁songs	6
errors	6
▁dream	6
▁stone	6
origin	6
▁Board	6
annels	6
loader	6
Linear	6
▁Later	6
▁spoke	6
▁ought	6
▁Italy	6
▁Files	6
Global	6
Schema	6
▁Light	6
▁europ	6
region	6
▁medal	6
▁mixed	6
simple	6
indent	6
temper	6
Vector	6
▁Egypt	6
ulture	6
pisode	6
▁glass	6
Folder	6
xspace	6
▁modal	6
Report	6
▁typed	6
liance	6
scribe	6
▁Robin	6
groups	6
▁compl	6
gradle	6
▁Guard	6
writer	6
▁opens	6
▁patch	6
toggle	6
cluded	6
▁enjoy	6
Member	6
Center	6
embers	6
▁Chile	6
radius	6
prefix	6
verter	6
Handle	6
cement	6
▁plays	6
▁medic	6
ongodb	6
events	6
textrm	6
oreign	6
▁Spain	6
▁reads	6
Events	6
▁Query	6
▁inclu	6
▁Wales	6
Author	6
▁Books	6
▁Story	6
▁drink	6
series	6
decode	6
▁Jesus	6
ientes	6
stable	6
▁Below	6
arters	6
angers	6
ningen	6
▁Wikip	6
design	6
▁Short	6
▁plans	6
izable	6
▁Print	6
picker	6
▁staff	6
Picker	6
▁ships	6
Effect	6
called	6
▁joint	6
intent	6
▁finds	6
▁movie	6
webkit	6
ftware	6
django	6
▁inhab	6
theory	6
achsen	6
hspace	6
intern	6
Google	6
rupted	6
▁daily	6
member	6
Fields	6
ceptor	6
▁Cloud	6
▁tries	6
repeat	6
single	6
ferred	6
ishing	6
▁goals	6
▁broke	6
UPDATE	6
▁Store	6
▁opera	6
▁citiz	6
amount	6
▁Match	6
▁Chief	6
▁therm	6
▁newsp	6
ctrine	6
Matrix	6
online	6
ighter	6
▁publi	6
docker	6
Assert	6
▁synth	6
plorer	6
ambigu	6
Symbol	6
▁damit	6
rypted	6
inline	6
▁gover	6
▁repre	6
imeter	6
Equals	6
▁Indep	6
memory	6
approx	6
▁Dutch	6
▁keeps	6
▁Begin	6
ifiers	6
attach	6
ientos	6
eduler	6
▁Multi	6
▁Sound	6
solute	6
▁quote	6
eduled	6
vspace	6
▁Lewis	6
▁Hello	6
commit	6
▁inaug	6
switch	6
router	6
▁Rails	6
▁derni	6
editor	6
▁owned	6
▁Davis	6
canvas	6
▁grave	6
cience	6
Editor	6
▁deren	6
▁exped	6
Bottom	6
launch	6
▁Staff	6
ARCHAR	6
▁photo	6
ieving	6
usetts	6
isting	6
Simple	6
sender	6
rument	6
▁Prime	6
▁pixel	6
▁Creek	6
closed	6
formed	6
Policy	6
Europe	6
▁Block	6
letter	6
▁magic	6
berger	6
Single	6
▁fruit	6
course	6
▁sizes	6
▁Label	6
calcul	6
▁allen	6
export	6
▁heads	6
dialog	6
▁pitch	6
outube	6
▁circa	6
Remove	6
encies	6
▁Ernst	6
▁worry	6
effect	6
▁Baron	6
urname	6
Memory	6
accept	6
alleng	6
ietnam	6
France	6
ischof	6
▁Allen	6
▁genus	6
Worker	6
▁roles	6
histor	6
Visual	6
Submit	6
▁moves	6
lywood	6
tembre	6
texttt	6
Plugin	6
havior	6
icular	6
Logger	6
metric	6
detail	6
enkins	6
javase	6
deploy	6
▁sales	6
▁Based	6
Detail	6
▁arrow	6
chmark	6
assets	6
assign	6
idense	6
remote	6
Syntax	6
parser	6
▁comma	6
inners	6
▁Labor	6
bundle	6
idents	6
encing	6
▁polar	6
mobile	6
▁appel	6
Runner	6
▁prost	6
▁Dream	6
▁alleg	6
▁judge	6
vanced	6
▁Diego	6
Thanks	6
reader	6
choice	6
▁orbit	6
▁clust	6
riften	6
licity	6
Border	6
▁Track	6
▁conna	6
Static	6
▁rival	6
▁urban	6
▁april	6
atable	6
aining	6
▁faces	6
amazon	6
▁crime	6
ignore	6
▁fired	6
▁brain	6
▁Among	6
▁Angel	6
ipping	6
▁brown	6
iously	6
Direct	6
phabet	6
atrice	6
bourne	6
ecycle	6
▁yards	6
kernel	6
reduce	6
Insert	6
shadow	6
▁Costa	6
Import	6
branch	6
▁hydro	6
Upload	6
▁repos	6
Intern	6
square	6
Launch	6
▁clubs	6
middle	6
concat	6
▁kinds	6
▁rural	6
Sample	6
Failed	6
▁inten	6
leases	6
expect	6
▁dabei	6
Random	6
sizeof	6
utions	6
▁dance	6
▁birds	6
abling	6
useppe	6
▁Third	6
▁loved	6
multip	6
▁Plant	6
typeof	6
Amount	6
▁rails	6
symbol	6
chrome	6
▁apost	6
cursor	6
▁morph	6
inking	6
▁energ	6
▁draft	6
ondere	6
amarin	6
Append	6
▁Small	6
▁Mongo	6
▁maven	6
▁threw	6
friend	6
charts	6
lation	6
▁Medal	6
bridge	6
onders	6
Region	6
porter	6
Bounds	6
▁Title	6
usalem	6
urance	6
▁Moore	6
SERVER	6
▁drama	6
▁veget	6
▁confl	6
▁compt	6
Before	6
▁alive	6
termin	6
▁manus	6
expand	6
bullet	6
▁wheel	6
Common	6
▁enorm	6
▁signs	6
lossen	6
finite	6
owania	6
▁decid	6
▁votes	6
textsc	6
▁hosts	6
secret	6
issent	6
Normal	6
lingen	6
▁Korea	6
period	6
lassen	6
vendor	6
Master	6
Series	6
▁efect	6
▁lying	6
ematic	6
▁fancy	6
▁Sarah	6
kwargs	6
sheets	6
▁tower	6
Cancel	6
LENGTH	6
INSERT	6
athers	6
▁grade	6
▁delta	6
▁mongo	6
illery	6
except	6
issant	6
▁slave	6
angles	6
binary	6
Struct	6
▁rooms	6
▁Beaut	6
▁forte	6
Spring	6
▁attra	6
imiter	6
emberg	6
verage	6
attice	6
ultats	6
▁runat	6
▁depos	6
▁truly	6
factor	6
teenth	6
▁pilot	6
Public	6
▁waste	6
▁Looks	6
Cursor	6
▁skill	6
▁tight	6
frames	6
ancing	6
▁admit	6
▁waves	6
indust	6
liches	6
▁faced	6
▁unity	6
visual	6
Future	6
tensor	6
Images	6
office	6
Remote	6
▁towns	6
▁Bened	6
▁Aleks	6
arding	6
apping	6
Points	6
▁Offic	6
▁slide	6
▁Tokyo	6
lookup	6
loster	6
ategor	6
▁revel	6
▁marry	6
orders	6
Radius	6
archar	6
▁zones	6
antine	6
▁Prize	6
Comput	6
▁dense	6
▁Today	6
listen	6
ermann	6
Enable	6
cancel	6
Camera	6
Invoke	6
▁INNER	6
▁effet	6
▁rugby	6
STRING	6
ritten	6
▁crown	6
▁Unity	6
▁burst	6
helper	6
▁reign	6
▁forty	6
▁thats	6
ounced	6
staden	6
▁Norte	6
enders	6
dagger	6
▁lingu	6
urable	6
consin	6
labels	6
▁repet	6
▁Mitch	6
perate	6
rizona	6
associ	6
akespe	6
likely	6
dotnet	6
velope	6
▁Santo	6
bucket	6
▁innoc	6
endorf	6
▁Films	6
resize	6
▁Czech	6
cookie	6
▁Round	6
ushing	6
▁deven	6
burger	6
▁alcan	6
▁grown	6
▁solar	6
atomic	6
kommen	6
▁Kings	6
acters	6
logger	6
engers	6
footer	6
Shared	6
owanie	6
▁Helen	6
▁Audio	6
choose	6
▁steam	6
extend	6
enberg	6
ionali	6
ruguay	6
navbar	6
askell	6
inject	6
always	6
▁spons	6
Canvas	6
ningar	6
ollary	6
iframe	6
▁Capit	6
rained	6
hadoop	6
▁seats	6
▁Prior	6
istant	6
▁uncle	6
▁hello	6
▁secre	6
▁Mayor	6
policy	6
imenti	6
father	6
▁Belle	6
▁Medic	6
▁studi	6
ateful	6
enburg	6
Setter	6
▁fleet	6
compos	6
Errors	6
▁Apost	6
▁Liver	6
Vertex	6
▁goods	6
▁advoc	6
Answer	6
▁fluid	6
antics	6
Martin	6
▁saint	6
▁Rugby	6
▁Seems	6
▁stats	6
manuel	6
Weight	6
▁gross	6
ninger	6
itated	6
▁slice	6
sqlite	6
▁Songs	6
▁Drive	6
spaces	6
▁gauge	6
▁disag	6
▁steel	6
marker	6
follow	6
cribed	6
Prefix	6
▁videa	6
reason	6
slider	6
Origin	6
NUMBER	6
itchen	6
▁Flora	6
▁liked	6
orious	6
locale	6
▁porta	6
rotate	6
allery	6
charge	6
lapsed	6
▁tired	6
ogonal	6
▁Blues	6
prowad	6
▁Month	6
▁sorts	6
▁Teams	6
aneous	6
▁Tower	6
optera	6
bounds	6
arring	6
Brainz	6
mysqli	6
iemann	6
lessly	6
▁Metro	6
Ignore	6
▁loose	6
quency	6
▁Users	6
▁feels	6
▁armed	6
keeper	6
▁Admir	6
▁papel	6
▁recip	6
Accept	6
Router	6
atting	6
▁oppon	6
Groups	6
abeled	6
Fiddle	6
tables	6
▁doors	6
▁Nancy	6
▁Chair	6
elines	6
secure	6
Exists	6
▁dozen	6
▁innov	6
▁fires	6
▁Watch	6
▁asset	6
caught	6
ifting	6
▁regul	6
▁virus	6
wealth	6
Anchor	6
tomcat	6
rolled	6
▁swing	6
istica	6
creens	6
marine	6
sorted	6
worker	6
▁wrest	6
Marker	6
volume	6
▁fixes	6
▁Quart	6
Volume	6
boards	6
ACTION	6
▁faint	6
▁wings	6
former	6
▁Speed	6
▁voted	6
▁Stage	6
social	6
Cookie	6
Tables	6
lahoma	6
Switch	6
▁woods	6
▁solem	6
▁divor	6
▁Think	6
▁grows	6
portal	6
Zygote	6
Hidden	6
▁Blood	6
notify	6
rifice	6
Binary	6
▁stamp	6
imming	6
▁divid	6
▁advis	6
▁shook	6
▁popol	6
▁Crown	6
apolis	6
▁funkc	6
museum	6
ulsion	6
stdout	6
ursive	6
Middle	6
asures	6
signal	6
umbled	6
▁boats	6
▁anten	6
ARNING	6
season	6
people	6
▁wider	6
onomie	6
▁Boliv	6
▁tempt	6
ocracy	6
▁veter	6
stroke	6
CONFIG	6
▁sixth	6
▁Olimp	6
consum	6
▁Mouse	6
▁Dabei	6
failed	6
camera	6
▁Hyper	6
gender	6
inside	6
morrow	6
altern	6
▁Maine	6
aggreg	6
August	6
▁joins	6
▁angry	6
unwrap	6
▁Issue	6
remark	6
▁costa	6
uclide	6
Export	6
▁Maven	6
▁sugar	6
▁texts	6
alette	6
▁Magic	6
ailand	6
thesis	6
▁concl	6
▁brave	6
cedure	6
ivatal	6
▁dirty	6
▁Fight	6
▁dtype	6
▁Deput	6
UIView	6
andbox	6
observ	6
dating	6
▁Judge	6
▁prize	6
Should	6
▁spher	6
filled	6
▁memor	6
▁elder	6
▁engag	6
▁Singh	6
mathop	6
iennes	6
school	6
CREATE	6
STATUS	6
Calcul	6
▁Atlas	6
Family	6
▁stays	6
▁dying	6
▁Pitts	6
castle	6
Toggle	6
▁Andre	6
▁mobil	6
Office	6
▁acted	6
▁anger	6
aterra	6
starts	6
unning	6
▁reson	6
▁saves	6
nested	6
▁abort	6
▁Appar	6
▁Shang	6
runner	6
Drawer	6
energy	6
▁Tools	6
ponder	6
prilis	6
attend	6
▁semif	6
▁minds	6
▁icons	6
colors	6
cludes	6
▁Lower	6
ppings	6
▁miser	6
substr	6
irable	6
review	6
alling	6
▁recom	6
medium	6
routes	6
verify	6
ittest	6
ystycz	6
▁Types	6
▁Craig	6
Donald	6
▁repro	6
▁meets	6
reload	6
▁Regin	6
▁fewer	6
▁propi	6
▁Isaac	6
▁Train	6
▁Buddh	6
▁Being	6
usztus	6
▁Break	6
▁stead	6
Inject	6
▁Perry	6
▁Units	6
setopt	6
pshire	6
▁atoms	6
pragma	6
stelle	6
Secret	6
istema	6
market	6
▁Happy	6
▁sched	6
states	6
bishop	6
▁cheap	6
▁rings	6
▁Alert	6
Studio	6
ractor	6
▁awful	6
▁didnt	6
unless	6
ifolia	6
▁drums	6
making	6
▁Ellen	6
▁mines	6
Cannot	6
locked	6
yellow	6
Loaded	6
kotlin	6
SError	6
▁spawn	6
▁funds	6
Associ	6
layers	6
Mobile	6
▁Study	6
hanced	6
street	6
▁Montr	6
recogn	6
xelles	6
viders	6
▁Forum	6
▁ruled	6
▁relev	6
erving	6
inture	6
syntax	6
▁tribe	6
agrant	6
Sender	6
westen	6
ughing	6
brains	6
▁Congo	6
▁sheep	6
rating	6
▁devil	6
Expand	6
▁flask	6
▁dated	6
▁sorte	6
vement	6
Period	6
▁relay	6
Daniel	6
ation	5
▁that	5
▁with	5
ction	5
▁this	5
begin	5
▁have	5
▁from	5
ition	5
▁work	5
▁will	5
ption	5
▁comp	5
▁part	5
▁like	5
▁code	5
▁some	5
ublic	5
▁need	5
▁comm	5
▁want	5
▁only	5
▁also	5
▁were	5
▁they	5
▁more	5
tring	5
▁This	5
ution	5
cript	5
▁just	5
▁file	5
▁does	5
ethod	5
▁them	5
▁into	5
ystem	5
▁over	5
ample	5
https	5
▁stat	5
▁same	5
▁name	5
▁list	5
▁been	5
▁know	5
ember	5
▁look	5
quest	5
▁type	5
▁than	5
▁cons	5
▁case	5
▁make	5
▁pass	5
ating	5
other	5
ative	5
▁here	5
▁back	5
right	5
block	5
▁find	5
▁used	5
▁such	5
▁help	5
quote	5
▁post	5
▁user	5
▁very	5
▁text	5
stack	5
▁supp	5
ually	5
ength	5
▁said	5
lease	5
▁well	5
ayout	5
ivers	5
quire	5
▁most	5
▁much	5
ender	5
▁self	5
▁even	5
▁down	5
ather	5
▁year	5
inter	5
label	5
ython	5
▁main	5
bject	5
ccess	5
sible	5
ident	5
▁play	5
ponse	5
▁both	5
▁open	5
▁http	5
abase	5
▁word	5
▁oper	5
▁made	5
value	5
ought	5
▁view	5
▁many	5
ility	5
ustom	5
▁sing	5
▁page	5
▁must	5
velop	5
▁term	5
ional	5
ables	5
utton	5
▁sure	5
▁real	5
▁Comm	5
▁high	5
▁best	5
aster	5
ities	5
thing	5
query	5
ether	5
class	5
ittle	5
ische	5
ready	5
▁writ	5
▁repr	5
indow	5
ivity	5
▁prob	5
iment	5
ouble	5
input	5
arget	5
order	5
▁mean	5
width	5
ither	5
▁take	5
▁Cons	5
print	5
▁size	5
enden	5
ified	5
▁able	5
index	5
▁happ	5
▁John	5
▁Here	5
ambda	5
▁done	5
alpha	5
clude	5
pring	5
plate	5
▁head	5
ograf	5
vious	5
▁give	5
table	5
array	5
IMAGE	5
Class	5
▁List	5
Error	5
▁sugg	5
▁loop	5
utsch	5
▁next	5
brary	5
ision	5
ately	5
▁upon	5
align	5
angle	5
frame	5
▁care	5
Array	5
▁coun	5
atter	5
Event	5
▁side	5
iddle	5
▁tell	5
▁sort	5
field	5
andom	5
▁They	5
▁fine	5
ilder	5
error	5
ently	5
▁film	5
▁once	5
ormal	5
ended	5
color	5
ugust	5
ymbol	5
▁mark	5
State	5
count	5
perty	5
umber	5
ining	5
▁seem	5
▁life	5
earch	5
ested	5
ality	5
▁echo	5
▁diff	5
▁kind	5
oment	5
wards	5
arrow	5
Image	5
▁node	5
ollow	5
start	5
▁idea	5
group	5
▁near	5
ithub	5
▁full	5
▁came	5
local	5
ology	5
Query	5
▁keep	5
reate	5
pport	5
ector	5
▁four	5
viron	5
image	5
▁cell	5
▁miss	5
where	5
Field	5
const	5
valid	5
▁York	5
▁less	5
▁Also	5
point	5
lobal	5
older	5
Model	5
check	5
param	5
urope	5
Index	5
▁Brit	5
ering	5
title	5
pping	5
▁home	5
▁lead	5
ished	5
▁didn	5
trans	5
style	5
Color	5
apter	5
imgur	5
itive	5
▁Aust	5
iness	5
thers	5
▁serv	5
board	5
infty	5
▁task	5
theta	5
▁cost	5
▁away	5
▁circ	5
▁Part	5
▁html	5
space	5
▁host	5
erman	5
▁copy	5
river	5
▁went	5
write	5
Table	5
igger	5
▁seen	5
ively	5
abled	5
▁took	5
▁foot	5
gress	5
oding	5
idget	5
event	5
times	5
ifier	5
▁band	5
fully	5
▁Paul	5
asure	5
orith	5
sigma	5
▁anim	5
ached	5
click	5
▁memb	5
▁plan	5
▁team	5
inary	5
ander	5
▁Some	5
ories	5
state	5
▁edit	5
uring	5
ename	5
▁root	5
range	5
ounds	5
verse	5
▁uses	5
▁ever	5
argin	5
usion	5
▁fire	5
Count	5
inner	5
ainer	5
ports	5
ranch	5
licit	5
icles	5
▁area	5
Inter	5
▁save	5
▁says	5
▁King	5
ators	5
first	5
teger	5
olean	5
annel	5
▁comb	5
Click	5
entic	5
delta	5
▁cult	5
ordin	5
▁half	5
alled	5
idden	5
▁draw	5
yntax	5
▁Main	5
arter	5
graph	5
▁city	5
build	5
gamma	5
ingen	5
Input	5
model	5
Trans	5
Frame	5
aries	5
▁step	5
▁move	5
match	5
iving	5
aring	5
light	5
▁club	5
▁City	5
▁fail	5
itted	5
▁note	5
▁feel	5
ieder	5
itect	5
▁View	5
eller	5
false	5
liche	5
conom	5
anger	5
▁Thom	5
rench	5
anged	5
▁clos	5
istic	5
▁Date	5
which	5
quare	5
▁soon	5
▁week	5
▁town	5
undle	5
Param	5
gener	5
using	5
posed	5
Start	5
Label	5
▁easy	5
Group	5
omega	5
iding	5
▁song	5
▁gave	5
▁User	5
▁Post	5
▁held	5
links	5
inder	5
useum	5
▁stop	5
patch	5
▁Jose	5
itory	5
▁High	5
under	5
thern	5
aking	5
▁pair	5
child	5
▁desc	5
▁fort	5
itter	5
▁fast	5
▁talk	5
known	5
▁fund	5
Point	5
iento	5
▁sold	5
lands	5
Delta	5
email	5
raint	5
izing	5
▁June	5
attle	5
▁five	5
entes	5
close	5
▁deal	5
andid	5
riter	5
uster	5
▁told	5
allen	5
▁tree	5
split	5
▁July	5
ledge	5
vider	5
iller	5
produ	5
parse	5
▁Does	5
aving	5
iform	5
outer	5
level	5
▁repe	5
Style	5
eline	5
▁larg	5
creen	5
Check	5
ience	5
Gener	5
▁temp	5
strap	5
▁lost	5
▁room	5
▁live	5
▁rule	5
acter	5
▁tool	5
embly	5
ously	5
▁star	5
asing	5
lipse	5
ernel	5
ights	5
▁meet	5
▁card	5
lying	5
tilde	5
enter	5
chron	5
bolds	5
ising	5
▁appe	5
Child	5
acity	5
swers	5
Users	5
ursor	5
▁Club	5
Omega	5
ulate	5
▁join	5
▁priv	5
▁Cong	5
istry	5
orage	5
▁whom	5
buntu	5
laces	5
▁runs	5
▁Dies	5
Token	5
Range	5
ensor	5
scope	5
Datos	5
▁Prem	5
▁Sing	5
Width	5
Write	5
▁menu	5
▁sets	5
overn	5
▁Mary	5
stell	5
▁Coun	5
▁Long	5
tober	5
arily	5
astic	5
▁role	5
empty	5
ensis	5
essor	5
▁born	5
athol	5
eries	5
▁lang	5
organ	5
eless	5
▁wish	5
ieved	5
admin	5
▁Best	5
▁loss	5
▁died	5
▁poor	5
utter	5
aught	5
▁deep	5
endar	5
imate	5
▁plot	5
▁dark	5
iling	5
▁wife	5
▁fair	5
icker	5
▁grow	5
allel	5
▁rate	5
iforn	5
▁Hall	5
▁keys	5
▁cred	5
Gamma	5
▁Dist	5
place	5
based	5
phone	5
First	5
annot	5
▁ones	5
▁rout	5
aging	5
▁pain	5
▁grid	5
▁vict	5
Items	5
anges	5
elijk	5
emble	5
▁Have	5
▁king	5
unity	5
asion	5
ifest	5
Title	5
names	5
asons	5
after	5
scale	5
ifact	5
items	5
ienne	5
▁felt	5
ained	5
▁rank	5
▁dead	5
▁core	5
ffect	5
actor	5
users	5
undes	5
Valid	5
adata	5
▁hour	5
anden	5
Stack	5
▁Germ	5
apply	5
▁goal	5
anner	5
illet	5
Right	5
ommun	5
▁mond	5
views	5
▁Line	5
float	5
Block	5
Panel	5
login	5
Order	5
▁meas	5
▁clar	5
illes	5
▁nice	5
▁conv	5
atory	5
omial	5
Ident	5
▁gold	5
▁rect	5
urity	5
▁lock	5
antic	5
Local	5
prise	5
▁ship	5
hline	5
▁cart	5
ldots	5
▁Stan	5
total	5
▁Star	5
▁Most	5
▁sist	5
▁bind	5
arden	5
asket	5
▁mine	5
mysql	5
▁Span	5
▁stay	5
ideos	5
▁Cult	5
while	5
proof	5
▁Next	5
ATION	5
arten	5
▁wood	5
Async	5
▁kept	5
cache	5
▁race	5
otion	5
▁pull	5
grade	5
inese	5
isten	5
oring	5
entry	5
famil	5
autor	5
▁grav	5
ening	5
▁succ	5
iffer	5
anced	5
▁fell	5
debug	5
ugins	5
final	5
ittel	5
▁Plan	5
onder	5
▁Town	5
react	5
There	5
iring	5
tools	5
nabla	5
black	5
icket	5
▁dram	5
clear	5
▁agre	5
▁Team	5
ridge	5
atten	5
▁sequ	5
▁Mill	5
ocker	5
break	5
house	5
faces	5
types	5
skiej	5
cious	5
False	5
iance	5
ensus	5
front	5
▁susp	5
Build	5
store	5
Empty	5
inent	5
▁batt	5
ategy	5
azine	5
▁wasn	5
lines	5
orial	5
endre	5
Store	5
riage	5
crete	5
phere	5
uture	5
super	5
fetch	5
price	5
▁Supp	5
▁Rome	5
▁Last	5
andon	5
enced	5
▁ring	5
istes	5
▁hous	5
▁Many	5
cloud	5
small	5
words	5
ittee	5
▁Task	5
stood	5
ellig	5
▁Song	5
▁wide	5
▁suff	5
ading	5
icago	5
ennes	5
linux	5
acing	5
abeth	5
istas	5
equiv	5
▁anti	5
▁dear	5
▁fish	5
cadem	5
▁aren	5
▁Lake	5
angel	5
asser	5
forms	5
ennis	5
Graph	5
allow	5
refix	5
cdots	5
icate	5
Entry	5
▁Serv	5
video	5
Match	5
▁axis	5
Found	5
anted	5
dated	5
ultur	5
ckets	5
ocket	5
▁verb	5
istan	5
resol	5
unden	5
media	5
▁poet	5
Email	5
▁hist	5
ishop	5
CTION	5
erved	5
Equal	5
sheet	5
berto	5
Phone	5
kappa	5
multi	5
rails	5
bound	5
agger	5
uming	5
▁Down	5
ommen	5
venue	5
▁entr	5
appro	5
▁bits	5
ships	5
contr	5
citep	5
inden	5
ients	5
prime	5
Level	5
force	5
ockey	5
Sigma	5
loyee	5
▁arms	5
innen	5
anten	5
gence	5
▁Core	5
retch	5
pling	5
album	5
udent	5
▁Arab	5
Enter	5
Cache	5
aters	5
▁pens	5
▁Jane	5
owych	5
▁Lang	5
Files	5
Types	5
Media	5
rough	5
widet	5
poses	5
▁eleg	5
Queue	5
▁zone	5
Sheet	5
andra	5
▁wave	5
▁soul	5
ropol	5
dfrac	5
▁Live	5
▁pros	5
racle	5
antly	5
month	5
shift	5
Repos	5
white	5
Press	5
▁glad	5
▁Find	5
Hello	5
▁conn	5
aylor	5
props	5
Float	5
Stand	5
▁curl	5
ifies	5
utive	5
▁mask	5
REATE	5
rance	5
▁bill	5
Close	5
▁Auto	5
▁pent	5
night	5
terne	5
▁intr	5
atori	5
▁bird	5
▁cold	5
activ	5
assen	5
enses	5
ienst	5
edule	5
leton	5
▁vice	5
vised	5
track	5
anned	5
▁hair	5
▁Kore	5
iders	5
ielle	5
athan	5
▁Arts	5
iting	5
▁enjo	5
oting	5
ERROR	5
cases	5
▁apps	5
aming	5
▁pron	5
essed	5
world	5
Total	5
apple	5
▁pool	5
utely	5
▁gain	5
Trace	5
▁Anal	5
aland	5
reens	5
▁Euro	5
acher	5
rices	5
▁subs	5
gende	5
beans	5
rible	5
owski	5
equal	5
shire	5
nings	5
▁Term	5
Print	5
owany	5
▁elev	5
Debug	5
▁exem	5
cover	5
Where	5
found	5
occer	5
conne	5
anton	5
qquad	5
legal	5
▁Kong	5
archy	5
▁risk	5
reset	5
Const	5
Route	5
joint	5
raine	5
▁huge	5
Utils	5
shape	5
endor	5
▁lies	5
hello	5
grund	5
minus	5
istrz	5
▁disp	5
▁atom	5
▁Harr	5
watch	5
iante	5
Resol	5
▁prev	5
▁gate	5
maven	5
▁hook	5
▁thre	5
istra	5
▁jump	5
catch	5
▁paid	5
worth	5
falls	5
▁driv	5
spark	5
Forms	5
▁blog	5
angen	5
▁semi	5
ederb	5
isted	5
async	5
icana	5
green	5
there	5
▁hall	5
about	5
onato	5
books	5
stone	5
Admin	5
short	5
▁bass	5
▁adds	5
illon	5
▁Hong	5
icher	5
aling	5
icode	5
▁heat	5
alert	5
Parse	5
plays	5
▁seat	5
▁vess	5
igned	5
ienen	5
▁boat	5
topic	5
Price	5
antin	5
presa	5
▁LCCN	5
clock	5
guide	5
regex	5
union	5
kadem	5
▁syst	5
aines	5
issen	5
works	5
route	5
▁glob	5
asant	5
bytes	5
hover	5
▁mole	5
▁Doug	5
▁Unit	5
icano	5
▁sout	5
▁Kent	5
FAULT	5
ogram	5
ansas	5
owego	5
iency	5
radio	5
limit	5
water	5
ureau	5
Cells	5
ylvan	5
opher	5
▁demo	5
suite	5
SSION	5
itzer	5
power	5
After	5
▁bomb	5
inity	5
lower	5
▁sang	5
score	5
▁grew	5
peror	5
share	5
chsel	5
ental	5
alter	5
zenia	5
▁Fair	5
brace	5
ibles	5
nosti	5
burgh	5
lapse	5
Month	5
arian	5
▁hang	5
otlin	5
mande	5
Proxy	5
entre	5
World	5
LEASE	5
eling	5
oured	5
▁Batt	5
posts	5
tagon	5
uther	5
isons	5
QUEST	5
ubern	5
athed	5
aceae	5
chain	5
▁nine	5
▁Hung	5
ordon	5
▁male	5
akter	5
▁Bang	5
Mouse	5
elled	5
ctors	5
liver	5
▁skip	5
Layer	5
agram	5
▁medi	5
round	5
ichen	5
racht	5
aches	5
lasse	5
datas	5
osing	5
▁lots	5
▁dual	5
▁Ford	5
anter	5
merge	5
setup	5
prote	5
Chain	5
proxy	5
gency	5
▁suit	5
Chart	5
▁acts	5
Timer	5
agent	5
ensen	5
legen	5
lacht	5
sterd	5
bably	5
uries	5
▁sail	5
andro	5
voice	5
▁dere	5
ented	5
Space	5
floor	5
clean	5
train	5
▁obst	5
ienia	5
trace	5
erade	5
ifica	5
otted	5
▁sust	5
rival	5
enger	5
▁crim	5
issue	5
panel	5
eting	5
Using	5
▁Ener	5
Video	5
▁puts	5
endif	5
atial	5
aused	5
Scope	5
ynast	5
▁Tony	5
esses	5
antry	5
Multi	5
opsis	5
tbody	5
ushed	5
cknow	5
chart	5
elect	5
entin	5
▁narr	5
erner	5
▁Week	5
cible	5
▁mysq	5
xture	5
▁rein	5
iewer	5
modal	5
merce	5
▁drug	5
▁ange	5
antom	5
flags	5
mouse	5
Final	5
scala	5
▁Ruby	5
Touch	5
heast	5
allas	5
ycler	5
shell	5
Allow	5
Shell	5
onden	5
since	5
itten	5
Other	5
basic	5
esser	5
built	5
▁audi	5
inand	5
unnel	5
batch	5
paste	5
textt	5
stats	5
ipped	5
▁curr	5
isset	5
anson	5
sites	5
▁ease	5
berry	5
WRITE	5
catal	5
brand	5
mount	5
▁seek	5
clone	5
ogene	5
▁guid	5
Basic	5
cular	5
acent	5
Alert	5
icans	5
touch	5
▁Come	5
occup	5
▁thin	5
ieval	5
▁ling	5
rical	5
▁tick	5
ocrat	5
▁Save	5
▁impr	5
inton	5
notes	5
large	5
inate	5
ishes	5
iendo	5
strip	5
▁rund	5
sleep	5
uting	5
boost	5
Bound	5
Audio	5
citet	5
▁valu	5
slant	5
▁coal	5
▁Earl	5
ieves	5
Scale	5
ernal	5
oking	5
bourg	5
▁rain	5
iture	5
itors	5
apped	5
fried	5
craft	5
▁togg	5
colon	5
saved	5
onces	5
▁lazy	5
isson	5
Theta	5
oslav	5
aglia	5
bibli	5
berga	5
named	5
lesia	5
proto	5
three	5
owane	5
rence	5
▁jobs	5
azure	5
Theme	5
going	5
itled	5
stock	5
▁Ring	5
▁Holy	5
▁Bird	5
ousin	5
extra	5
oport	5
icked	5
▁Dave	5
wedge	5
▁farm	5
izard	5
actic	5
rypto	5
Track	5
Begin	5
antal	5
embed	5
▁Minn	5
every	5
nodes	5
swing	5
▁sons	5
focus	5
conda	5
orted	5
rable	5
Extra	5
loads	5
codes	5
agers	5
icted	5
theme	5
▁Lock	5
xmlns	5
▁shop	5
agner	5
▁Area	5
jamin	5
slice	5
itori	5
okrat	5
junit	5
audio	5
DEBUG	5
▁gene	5
▁sees	5
▁pose	5
▁UEFA	5
zenie	5
▁mens	5
▁asse	5
Black	5
▁Pitt	5
COUNT	5
▁hung	5
Clear	5
achen	5
Split	5
▁exha	5
alone	5
▁guns	5
▁tang	5
delay	5
▁forg	5
rooms	5
ighth	5
izada	5
frica	5
lings	5
esian	5
orgen	5
oteca	5
inals	5
etter	5
anska	5
thead	5
▁rely	5
erten	5
Super	5
attro	5
cross	5
VALUE	5
istro	5
▁Keep	5
visor	5
stage	5
▁peak	5
logic	5
rules	5
slide	5
ebook	5
▁stub	5
▁skin	5
speed	5
Lower	5
iegel	5
▁flux	5
▁wise	5
▁rice	5
gment	5
izers	5
anych	5
blank	5
uling	5
depth	5
David	5
▁asks	5
iesen	5
▁wear	5
maste	5
decor	5
arius	5
▁hits	5
Angle	5
▁folk	5
affen	5
lista	5
Agent	5
▁Kath	5
atted	5
learn	5
rache	5
STATE	5
▁obsc	5
Modal	5
▁vitt	5
paper	5
▁Oliv	5
indre	5
niejs	5
enten	5
cling	5
appen	5
▁Left	5
berta	5
opter	5
alias	5
Union	5
CTYPE	5
▁emit	5
polit	5
Score	5
erves	5
oltre	5
▁logo	5
lette	5
arias	5
fixed	5
alion	5
Lines	5
refer	5
Nodes	5
zetek	5
forge	5
▁actu	5
ardon	5
owner	5
timer	5
▁Okay	5
rollo	5
Cloud	5
▁leaf	5
▁tomb	5
atoes	5
Props	5
▁typo	5
alous	5
throw	5
onaut	5
ilian	5
Focus	5
ellij	5
▁Pope	5
optim	5
itsch	5
orous	5
▁wont	5
tasks	5
await	5
▁gang	5
▁Drop	5
▁alap	5
▁okay	5
Light	5
▁Beng	5
eties	5
liter	5
parts	5
▁Cape	5
Fetch	5
▁thro	5
Conne	5
mania	5
TABLE	5
assoc	5
mouth	5
▁flav	5
ituto	5
upper	5
akers	5
oving	5
▁Temp	5
usage	5
eared	5
ensed	5
tests	5
▁legs	5
▁poll	5
▁Finn	5
edish	5
ruits	5
eding	5
Music	5
▁elem	5
penas	5
ousel	5
Short	5
cules	5
illas	5
lined	5
major	5
▁punk	5
▁Vice	5
aping	5
bling	5
ahren	5
angol	5
Power	5
ardin	5
icken	5
spect	5
lists	5
ounce	5
colog	5
drive	5
photo	5
▁atte	5
▁wing	5
▁wins	5
ouwen	5
phase	5
zburg	5
techn	5
▁calm	5
adesh	5
▁Poly	5
▁beta	5
▁Deep	5
Activ	5
Radio	5
White	5
▁tong	5
elter	5
▁Ward	5
▁yeah	5
onomy	5
▁Mong	5
gmail	5
itime	5
▁viss	5
▁expr	5
ytics	5
sharp	5
raham	5
Brain	5
▁Lyon	5
plane	5
ITION	5
Place	5
isher	5
opens	5
Pager	5
Named	5
overy	5
Saint	5
phony	5
frika	5
▁mest	5
reten	5
▁Help	5
addle	5
ORDER	5
▁dioc	5
annes	5
orrow	5
agnet	5
rages	5
ppers	5
paces	5
▁soil	5
▁risp	5
subst	5
below	5
tfrac	5
▁loud	5
▁pill	5
WIDTH	5
third	5
▁orch	5
regon	5
party	5
iteit	5
ccion	5
raise	5
ipage	5
istre	5
leted	5
Maybe	5
strij	5
jboss	5
▁summ	5
arium	5
marks	5
▁Five	5
▁synd	5
▁gilt	5
Excel	5
▁Fitz	5
opera	5
▁Jess	5
Since	5
▁reun	5
heart	5
sters	5
cycle	5
Batch	5
holds	5
atype	5
▁geom	5
ubble	5
apper	5
icole	5
▁quit	5
Could	5
intro	5
forum	5
javax	5
astro	5
berts	5
acles	5
limat	5
annon	5
resse	5
Scene	5
hosts	5
Autow	5
▁peer	5
▁nerv	5
arina	5
tuple	5
attan	5
music	5
▁PATH	5
▁Race	5
actly	5
xpath	5
itore	5
Produ	5
ouses	5
Peter	5
▁Kate	5
numpy	5
▁blob	5
abama	5
ownik	5
▁Mall	5
Views	5
arith	5
INTER	5
▁Wang	5
▁tons	5
▁hath	5
▁bore	5
ienie	5
andis	5
ragma	5
added	5
▁clue	5
▁fits	5
▁bias	5
schap	5
oslov	5
achim	5
rides	5
uchar	5
Linux	5
story	5
▁drum	5
Shape	5
asset	5
domin	5
Tools	5
analy	5
emark	5
evalu	5
▁cave	5
andal	5
atile	5
IABot	5
▁coat	5
▁Bomb	5
Tests	5
plant	5
abord	5
Limit	5
illed	5
virti	5
▁exer	5
IMARY	5
FILES	5
▁cycl	5
CLARE	5
steps	5
▁Mitt	5
▁ping	5
adors	5
▁amor	5
demic	5
▁scra	5
quick	5
aders	5
plain	5
▁Cred	5
Green	5
elsen	5
excel	5
scene	5
▁Toul	5
Watch	5
onnes	5
ornal	5
emann	5
paths	5
▁catt	5
▁loan	5
urent	5
▁kick	5
uropa	5
▁Lomb	5
▁fans	5
hyper	5
enska	5
Delay	5
atuur	5
urban	5
▁mang	5
owano	5
separ	5
Stats	5
enson	5
onial	5
athon	5
leans	5
Louis	5
landa	5
ocity	5
xtart	5
orney	5
macro	5
Thank	5
▁surg	5
woord	5
talet	5
▁Iowa	5
▁elif	5
charg	5
tered	5
ighed	5
endra	5
defin	5
▁Peru	5
▁Give	5
▁moth	5
essel	5
enser	5
incie	5
arded	5
hardt	5
anzen	5
folio	5
staat	5
igare	5
igent	5
latex	5
heits	5
FALSE	5
rayed	5
atern	5
blogs	5
uerdo	5
hagen	5
onian	5
START	5
lijke	5
owana	5
▁tile	5
ashed	5
▁begg	5
▁Exit	5
Photo	5
▁nick	5
verte	5
maybe	5
human	5
imper	5
▁Volk	5
onica	5
▁caps	5
urger	5
ggreg	5
oused	5
Upper	5
Tasks	5
Fixed	5
ospel	5
▁hate	5
GROUP	5
orton	5
beeld	5
Asset	5
▁fuel	5
▁Rico	5
ected	5
oline	5
Every	5
▁Gang	5
riers	5
Speed	5
▁aged	5
▁poem	5
omini	5
ionic	5
▁holy	5
▁Verb	5
icane	5
▁Elli	5
could	5
owned	5
VALID	5
▁spre	5
▁Fact	5
plots	5
swift	5
▁fict	5
inson	5
comes	5
ollar	5
eping	5
blica	5
▁Sang	5
▁fung	5
Setup	5
engen	5
herit	5
icons	5
▁NAME	5
letin	5
Reset	5
elian	5
▁Bowl	5
▁Male	5
above	5
▁hadn	5
▁alco	5
loped	5
▁milk	5
Stage	5
keley	5
▁Rule	5
▁Soul	5
mense	5
Organ	5
ignes	5
movie	5
posta	5
raste	5
▁Tang	5
▁gods	5
amour	5
ppets	5
ivari	5
chrom	5
▁doub	5
inned	5
▁dawn	5
relax	5
▁fled	5
kunft	5
ipart	5
ieben	5
Pages	5
arial	5
maxim	5
▁elet	5
ublik	5
unker	5
Usage	5
▁Yang	5
Mount	5
ivent	5
▁meat	5
▁Sans	5
Brush	5
atisf	5
urale	5
Atlas	5
today	5
▁Wing	5
▁axes	5
court	5
ligen	5
grand	5
▁euro	5
reven	5
agyar	5
▁osob	5
▁pitt	5
uning	5
ABASE	5
INDEX	5
metro	5
thick	5
unted	5
▁jack	5
itats	5
flash	5
iella	5
maker	5
iende	5
Proof	5
icale	5
cards	5
apsed	5
About	5
urbed	5
Ready	5
▁ries	5
Owner	5
insen	5
Deleg	5
ictwo	5
▁cler	5
oning	5
aware	5
lande	5
▁usar	5
omena	5
cedes	5
xhtml	5
Board	5
▁Dioc	5
Azure	5
Autom	5
▁shed	5
▁Sony	5
asted	5
▁tact	5
kafka	5
lando	5
▁leng	5
Three	5
vidia	5
fonts	5
insic	5
xygen	5
Alpha	5
erton	5
▁Flag	5
▁cube	5
babel	5
trees	5
riors	5
▁Sept	5
icola	5
oming	5
ifice	5
▁hect	5
▁Lucy	5
rolle	5
▁pity	5
werke	5
▁addr	5
▁Zero	5
Paint	5
acker	5
duino	5
exist	5
▁elim	5
glass	5
cdnjs	5
▁Manh	5
▁Fail	5
Times	5
Under	5
Smith	5
▁ther	5
odore	5
▁Mang	5
tritt	5
isses	5
atica	5
until	5
▁eigh	5
Front	5
Story	5
▁Vitt	5
aties	5
meter	5
lices	5
ansen	5
▁yard	5
isser	5
▁golf	5
Sound	5
James	5
Throw	5
datab	5
gable	5
heten	5
▁soap	5
utors	5
cribe	5
ignon	5
ucker	5
Pixel	5
Shift	5
endum	5
NSURL	5
▁Orig	5
sound	5
▁eggs	5
chunk	5
▁chip	5
notin	5
▁the	4
▁and	4
▁for	4
code	4
▁The	4
egin	4
▁was	4
ould	4
▁can	4
able	4
ight	4
▁are	4
▁but	4
swer	4
lass	4
ound	4
ject	4
▁app	4
ated	4
ally	4
port	4
item	4
▁his	4
▁use	4
▁get	4
turn	4
form	4
▁one	4
▁out	4
ther	4
tern	4
text	4
▁set	4
▁any	4
▁had	4
math	4
▁has	4
irst	4
isch	4
ount	4
vent	4
ough	4
▁her	4
atch	4
fter	4
lock	4
▁pos	4
ange	4
ific	4
ical	4
read	4
over	4
▁dif	4
▁its	4
ield	4
name	4
inal	4
cess	4
ient	4
ater	4
▁don	4
▁try	4
▁two	4
View	4
▁act	4
land	4
▁run	4
ular	4
▁see	4
▁him	4
ning	4
ates	4
fore	4
ions	4
▁Mar	4
vice	4
pect	4
abel	4
cond	4
▁may	4
http	4
▁And	4
▁How	4
raph	4
▁htt	4
frac	4
▁rec	4
▁bec	4
ages	4
▁she	4
olog	4
very	4
line	4
▁let	4
ents	4
ince	4
ider	4
roll	4
ress	4
ried	4
▁did	4
ting	4
lace	4
data	4
arch	4
ames	4
▁off	4
cont	4
work	4
List	4
ever	4
self	4
ined	4
idth	4
Cont	4
ward	4
anks	4
imes	4
load	4
this	4
rite	4
edia	4
gram	4
lick	4
html	4
file	4
ween	4
cial	4
play	4
ract	4
ased	4
▁thr	4
Data	4
lich	4
ines	4
▁log	4
view	4
▁giv	4
iter	4
Type	4
cept	4
▁car	4
left	4
ited	4
ices	4
▁equ	4
part	4
▁dec	4
orld	4
rect	4
Text	4
back	4
ream	4
▁org	4
java	4
ason	4
ader	4
lish	4
ower	4
test	4
ouse	4
▁iss	4
flow	4
itle	4
word	4
ando	4
ving	4
▁our	4
▁men	4
list	4
vert	4
user	4
▁eff	4
▁beg	4
▁key	4
ible	4
▁say	4
ache	4
ateg	4
ling	4
type	4
ager	4
ogle	4
ized	4
▁own	4
ille	4
▁put	4
ativ	4
ants	4
sert	4
lear	4
ense	4
▁row	4
ared	4
esch	4
ures	4
ends	4
ople	4
ways	4
Item	4
ente	4
rist	4
▁old	4
cite	4
comm	4
atal	4
ista	4
path	4
igen	4
itor	4
▁won	4
ross	4
ases	4
istr	4
ball	4
serv	4
iver	4
bert	4
ters	4
sole	4
ican	4
ably	4
duct	4
▁Eng	4
▁lar	4
▁far	4
less	4
lose	4
time	4
ails	4
▁ask	4
ides	4
ison	4
Port	4
▁She	4
▁beh	4
size	4
link	4
ilar	4
itch	4
init	4
ived	4
▁mov	4
▁got	4
icro	4
ores	4
lack	4
aint	4
▁pat	4
angu	4
comp	4
tain	4
ffic	4
ieve	4
▁nov	4
ride	4
outh	4
avas	4
atic	4
urch	4
oint	4
ster	4
cies	4
oman	4
Time	4
iste	4
post	4
pper	4
Form	4
icle	4
ware	4
unic	4
Date	4
ules	4
with	4
mail	4
berg	4
▁deb	4
elta	4
ival	4
aten	4
▁bit	4
body	4
bers	4
Path	4
▁May	4
inst	4
ided	4
docs	4
▁red	4
ires	4
User	4
osed	4
oute	4
ibli	4
soft	4
ples	4
ains	4
ries	4
chen	4
reen	4
ious	4
▁Jul	4
▁aff	4
endo	4
omen	4
hing	4
amed	4
ctor	4
lete	4
head	4
pond	4
plit	4
soci	4
▁few	4
ired	4
▁Nov	4
else	4
ones	4
ists	4
udio	4
find	4
▁dev	4
book	4
▁map	4
illa	4
ynam	4
igma	4
ties	4
cted	4
ured	4
lied	4
side	4
sing	4
pped	4
▁etc	4
ideo	4
true	4
▁Art	4
▁via	4
▁eng	4
imal	4
With	4
Test	4
▁adv	4
host	4
loat	4
ades	4
char	4
json	4
rame	4
ilon	4
▁Any	4
ives	4
open	4
ards	4
from	4
node	4
hand	4
▁Act	4
base	4
pril	4
cons	4
down	4
ebru	4
core	4
ouch	4
vern	4
most	4
ites	4
▁fur	4
cing	4
LECT	4
▁lot	4
▁sat	4
omet	4
aces	4
unch	4
iano	4
olds	4
pass	4
ised	4
oper	4
Inst	4
main	4
Code	4
Info	4
▁lat	4
utor	4
quad	4
egen	4
▁yet	4
empt	4
Hand	4
etch	4
page	4
mark	4
Size	4
▁isn	4
sten	4
rodu	4
cket	4
ship	4
iene	4
pace	4
iten	4
wise	4
Line	4
Over	4
beta	4
▁bus	4
▁His	4
iden	4
ural	4
ivid	4
anti	4
orem	4
sqrt	4
lies	4
ioni	4
▁emp	4
abor	4
avig	4
cell	4
resh	4
▁lie	4
orry	4
ency	4
cdot	4
▁Dec	4
ugin	4
▁ben	4
iana	4
uted	4
anel	4
elij	4
used	4
info	4
orge	4
lang	4
idae	4
fort	4
adas	4
skie	4
▁arr	4
izer	4
ford	4
draw	4
This	4
rich	4
ming	4
pack	4
aged	4
iche	4
iger	4
oria	4
urop	4
▁kon	4
icon	4
rict	4
here	4
stra	4
raft	4
heet	4
ands	4
ande	4
amer	4
▁lik	4
imer	4
este	4
each	4
medi	4
pose	4
last	4
owie	4
Node	4
haps	4
sers	4
exec	4
alls	4
show	4
alth	4
cope	4
ords	4
aste	4
cast	4
valu	4
ored	4
rive	4
mann	4
oups	4
ismo	4
lege	4
▁saw	4
▁Out	4
oken	4
▁low	4
▁ill	4
▁sal	4
elen	4
atos	4
reet	4
ango	4
sign	4
like	4
aria	4
pres	4
eren	4
emat	4
enne	4
From	4
Cell	4
next	4
ustr	4
cher	4
root	4
rypt	4
▁kil	4
▁jun	4
rown	4
mult	4
blic	4
onym	4
otes	4
boot	4
nect	4
▁air	4
▁big	4
▁Use	4
call	4
ania	4
▁six	4
cret	4
ysis	4
aden	4
rote	4
icos	4
rome	4
▁yes	4
case	4
igne	4
onom	4
cker	4
born	4
ober	4
lymp	4
band	4
▁job	4
iner	4
oney	4
HERE	4
aron	4
▁age	4
rest	4
icas	4
Page	4
chan	4
args	4
grad	4
ares	4
isto	4
just	4
▁pay	4
auth	4
Base	4
home	4
▁imm	4
mary	4
Comm	4
▁alt	4
vare	4
icol	4
plot	4
▁led	4
esse	4
ivil	4
bind	4
anto	4
gent	4
some	4
Exec	4
itte	4
ring	4
Task	4
▁win	4
ying	4
ocus	4
long	4
asta	4
iven	4
leep	4
POST	4
unit	4
Head	4
▁jan	4
Http	4
more	4
idge	4
conf	4
▁inc	4
Work	4
attr	4
inct	4
True	4
yles	4
isse	4
fill	4
Call	4
What	4
▁dam	4
edit	4
font	4
make	4
orph	4
▁pet	4
▁cut	4
arts	4
alis	4
oted	4
dist	4
rows	4
cape	4
nder	4
gers	4
voke	4
that	4
Grid	4
▁jul	4
clud	4
aker	4
asse	4
NAME	4
what	4
omin	4
ians	4
Back	4
acht	4
well	4
agne	4
bern	4
Load	4
lice	4
nych	4
push	4
Char	4
vari	4
west	4
▁Loc	4
▁css	4
circ	4
rain	4
atre	4
anie	4
ills	4
▁ful	4
then	4
Edit	4
stat	4
wood	4
ABLE	4
only	4
undo	4
area	4
▁fit	4
DATE	4
▁Mrs	4
wrap	4
▁vie	4
cert	4
Main	4
cade	4
augh	4
▁ran	4
ogen	4
Read	4
year	4
real	4
park	4
enta	4
heim	4
rian	4
uses	4
onia	4
▁Rob	4
ened	4
eden	4
acle	4
Auth	4
▁tom	4
enty	4
ardo	4
menu	4
bour	4
ajax	4
oles	4
spec	4
▁lay	4
▁sun	4
▁jud	4
nost	4
▁pen	4
Open	4
Link	4
sort	4
ches	4
hood	4
rage	4
▁cat	4
Init	4
esis	4
▁feb	4
foot	4
wick	4
rupt	4
inte	4
send	4
bach	4
Post	4
loss	4
Down	4
pers	4
esso	4
hard	4
note	4
Mode	4
Menu	4
sequ	4
iful	4
▁tip	4
ktop	4
Serv	4
ancy	4
look	4
auto	4
akes	4
anta	4
ooth	4
clus	4
HTML	4
inen	4
anal	4
That	4
izes	4
Oper	4
airs	4
join	4
▁hit	4
Pass	4
erve	4
ktet	4
ilde	4
onal	4
erni	4
gres	4
sets	4
igin	4
JSON	4
Util	4
reek	4
onne	4
blog	4
▁Map	4
Null	4
▁god	4
ston	4
icks	4
Rect	4
itat	4
eler	4
itet	4
temp	4
ypes	4
ului	4
Part	4
▁Did	4
ongo	4
tons	4
itel	4
lide	4
▁dra	4
edic	4
rule	4
irth	4
card	4
▁rat	4
iced	4
astr	4
save	4
▁inn	4
greg	4
task	4
anno	4
Fran	4
▁spr	4
grid	4
FILE	4
prop	4
ribu	4
rent	4
dots	4
ppen	4
▁net	4
▁lic	4
cles	4
atro	4
▁sit	4
dest	4
Args	4
loop	4
▁Ham	4
argo	4
owej	4
aled	4
ppet	4
arse	4
▁Bob	4
enso	4
zone	4
gang	4
echo	4
your	4
Left	4
pher	4
uent	4
Json	4
keys	4
wide	4
full	4
ensk	4
udes	4
Long	4
Bean	4
inos	4
▁bul	4
writ	4
oved	4
when	4
mbox	4
mond	4
msdn	4
Unit	4
aren	4
acji	4
imin	4
tree	4
room	4
▁Jun	4
enda	4
ners	4
Java	4
▁Ill	4
▁Far	4
chor	4
Body	4
buch	4
help	4
term	4
ding	4
star	4
mode	4
Host	4
None	4
Draw	4
copy	4
usqu	4
hash	4
uler	4
emas	4
ders	4
atom	4
fire	4
amar	4
eria	4
fold	4
ools	4
sect	4
▁tax	4
plom	4
drop	4
▁sir	4
▁Win	4
Last	4
nica	4
cken	4
unda	4
onic	4
bold	4
▁ped	4
into	4
hold	4
shot	4
Show	4
iour	4
dict	4
axis	4
▁bin	4
plan	4
free	4
▁riv	4
rael	4
illo	4
enth	4
amin	4
Vert	4
rick	4
unde	4
skim	4
iele	4
bank	4
zero	4
Next	4
Core	4
ruit	4
ento	4
cala	4
live	4
king	4
rito	4
ielt	4
lers	4
redu	4
rial	4
▁Ern	4
▁lem	4
vere	4
iego	4
orer	4
illy	4
helm	4
aken	4
alet	4
ints	4
▁vic	4
atie	4
rand	4
▁btn	4
Stat	4
Some	4
blue	4
kten	4
onte	4
onie	4
late	4
ifer	4
Tree	4
span	4
film	4
anth	4
heid	4
umin	4
thur	4
▁san	4
ruby	4
Each	4
phen	4
Mark	4
high	4
oven	4
Amer	4
Font	4
▁sni	4
Note	4
stop	4
vens	4
emon	4
aine	4
werk	4
func	4
miss	4
nitt	4
sett	4
SERT	4
urer	4
irls	4
road	4
Make	4
uela	4
rank	4
addr	4
blob	4
alen	4
racy	4
NULL	4
loor	4
pool	4
tera	4
lica	4
azon	4
Sign	4
PATH	4
vest	4
tool	4
inet	4
ocia	4
inas	4
ugen	4
rach	4
libs	4
onto	4
eerd	4
reme	4
▁dri	4
Spec	4
Root	4
wart	4
nego	4
othe	4
maps	4
ikon	4
lets	4
byte	4
When	4
ktor	4
Hash	4
Vari	4
ovan	4
aret	4
▁gas	4
rate	4
HTTP	4
Ital	4
utch	4
bing	4
heel	4
step	4
stru	4
Here	4
oval	4
feld	4
▁Fab	4
prod	4
once	4
idel	4
Rows	4
pert	4
plex	4
uren	4
Rule	4
etes	4
rane	4
rics	4
▁rob	4
▁veh	4
ruck	4
Your	4
Sing	4
▁sys	4
iams	4
aban	4
Html	4
cole	4
uras	4
roke	4
colo	4
Book	4
▁eye	4
Cond	4
erna	4
rees	4
skip	4
tikz	4
inda	4
bury	4
onel	4
TYPE	4
▁Joe	4
arod	4
igan	4
adel	4
unci	4
safe	4
Home	4
stal	4
bool	4
uber	4
iesz	4
oral	4
fast	4
itud	4
aram	4
anne	4
ydro	4
CHAR	4
Well	4
clos	4
▁pok	4
▁aug	4
Math	4
▁eth	4
zeta	4
kins	4
tags	4
tech	4
dart	4
apis	4
eper	4
wall	4
Save	4
erer	4
ROUP	4
eman	4
Pool	4
arna	4
hide	4
uvud	4
esti	4
tegr	4
iffe	4
atti	4
anim	4
onna	4
edom	4
uset	4
move	4
John	4
peat	4
rice	4
iens	4
INFO	4
nier	4
iani	4
idea	4
Only	4
▁lif	4
▁vac	4
Then	4
ummy	4
erde	4
erne	4
▁csv	4
game	4
ilia	4
pson	4
Copy	4
even	4
USER	4
hang	4
gems	4
arte	4
ixed	4
aded	4
cred	4
fall	4
cean	4
pred	4
walt	4
▁adj	4
oret	4
cler	4
ritt	4
igue	4
role	4
ansk	4
ALSE	4
obil	4
Tool	4
iest	4
raid	4
aris	4
Auto	4
norm	4
iber	4
anse	4
zech	4
tere	4
kens	4
sson	4
EDIT	4
omer	4
cion	4
ilor	4
abei	4
icus	4
Icon	4
oked	4
niej	4
pton	4
aked	4
imum	4
Find	4
limp	4
bell	4
▁bow	4
Send	4
rons	4
▁gaz	4
href	4
mean	4
orig	4
anga	4
city	4
ugby	4
avia	4
kazy	4
tion	4
diff	4
inds	4
rano	4
elor	4
illi	4
agon	4
▁sle	4
edge	4
itos	4
hein	4
Year	4
isms	4
icul	4
Will	4
▁wen	4
▁aud	4
many	4
furt	4
bash	4
iesa	4
conn	4
imit	4
rios	4
cout	4
rett	4
irty	4
bere	4
mask	4
abet	4
Arch	4
Card	4
does	4
enze	4
opol	4
ivel	4
mina	4
mers	4
ycle	4
best	4
exit	4
gart	4
cipl	4
dern	4
expr	4
embl	4
apps	4
holm	4
SION	4
Dist	4
inus	4
Tube	4
Foot	4
infl	4
Play	4
Iter	4
uint	4
rior	4
irat	4
chat	4
Pres	4
nika	4
aman	4
eral	4
iges	4
otic	4
hren	4
lett	4
Full	4
Pane	4
Sort	4
Cons	4
nten	4
MENT	4
onds	4
Area	4
ieux	4
cart	4
emes	4
bara	4
elve	4
▁txt	4
▁thy	4
chod	4
andy	4
▁ssh	4
iken	4
phys	4
prom	4
▁nat	4
will	4
lean	4
amos	4
fail	4
pend	4
Just	4
indi	4
aton	4
laps	4
mont	4
inue	4
ulpt	4
itul	4
isti	4
Game	4
borg	4
SIZE	4
nbsp	4
quip	4
desc	4
czas	4
onda	4
▁Spr	4
team	4
▁zip	4
Term	4
kind	4
ucky	4
Func	4
stan	4
▁ali	4
ropy	4
hape	4
Step	4
Word	4
bean	4
werp	4
scar	4
eval	4
cito	4
ensa	4
ewn	4
wend	4
ered	4
such	4
logo	4
DATA	4
▁zam	4
hips	4
okal	4
rout	4
▁sad	4
xxxx	4
onio	4
▁shr	4
staw	4
simp	4
ifik	4
anny	4
ATCH	4
wind	4
Many	4
uper	4
hire	4
atel	4
bits	4
entr	4
appy	4
atar	4
ilio	4
ohen	4
Mich	4
atol	4
Look	4
chem	4
atta	4
ibly	4
irit	4
erem	4
▁ski	4
indo	4
rell	4
Drop	4
dump	4
inta	4
Rest	4
zten	4
PORT	4
done	4
amps	4
ulle	4
owym	4
cook	4
atte	4
Pers	4
bben	4
fish	4
ulas	4
▁Bah	4
also	4
fony	4
acja	4
laus	4
mund	4
orsz	4
TIME	4
▁joy	4
izar	4
izia	4
qual	4
virt	4
Infl	4
proc	4
trim	4
ears	4
rade	4
tele	4
Span	4
Keys	4
Cred	4
cola	4
ften	4
flag	4
They	4
Temp	4
▁buy	4
▁ged	4
psum	4
jdbc	4
ping	4
▁Nob	4
Bind	4
ixel	4
agna	4
clam	4
iast	4
Perm	4
Cast	4
news	4
isis	4
otos	4
ffen	4
bose	4
pole	4
Mart	4
imat	4
rias	4
bras	4
zerw	4
bone	4
ilib	4
ugno	4
rijk	4
ptop	4
iona	4
elde	4
flex	4
Axis	4
cord	4
avid	4
cius	4
bres	4
prov	4
West	4
phas	4
uest	4
aska	4
scan	4
Star	4
anst	4
atto	4
ginx	4
Fail	4
phia	4
bund	4
prev	4
empl	4
READ	4
Stop	4
issa	4
▁sep	4
dorf	4
oten	4
Conf	4
orno	4
High	4
anas	4
wich	4
iedz	4
▁wsp	4
jure	4
sted	4
inha	4
enie	4
CODE	4
nice	4
Lock	4
clar	4
atra	4
deck	4
orus	4
▁Sky	4
coln	4
sync	4
azzo	4
Move	4
Pack	4
arsi	4
weet	4
iane	4
days	4
phan	4
Role	4
inea	4
anje	4
good	4
ieck	4
▁apo	4
fran	4
ampf	4
Enum	4
City	4
vars	4
onso	4
vard	4
wing	4
TEXT	4
arta	4
WORD	4
▁rif	4
fact	4
vity	4
gate	4
oter	4
avor	4
ygon	4
▁pad	4
urus	4
ffff	4
▁Job	4
inae	4
iros	4
▁oil	4
▁clo	4
umps	4
phal	4
olid	4
imir	4
orum	4
akte	4
Join	4
arel	4
uous	4
anes	4
utto	4
odox	4
ikus	4
Also	4
HOME	4
▁sho	4
gens	4
Alex	4
ikai	4
alom	4
▁fla	4
door	4
▁Rat	4
keep	4
demo	4
spot	4
unal	4
imet	4
have	4
atem	4
wers	4
▁eat	4
stad	4
wort	4
odor	4
phon	4
▁ath	4
rost	4
bigg	4
JECT	4
mock	4
same	4
spre	4
znam	4
outs	4
ifts	4
comb	4
pipe	4
▁bio	4
bage	4
ienn	4
rose	4
STAT	4
four	4
perm	4
arks	4
stmt	4
ablo	4
▁Raf	4
capt	4
ziel	4
osof	4
Flow	4
oker	4
erta	4
EGIN	4
acco	4
usch	4
folk	4
odge	4
prec	4
▁UTC	4
olia	4
▁cup	4
▁dok	4
ardi	4
care	4
lijk	4
rinn	4
▁wyn	4
unct	4
ligt	4
Ctrl	4
elsk	4
kiem	4
omon	4
Prim	4
icky	4
inar	4
cowo	4
ritz	4
verb	4
rugu	4
cost	4
▁nut	4
▁Ont	4
TEST	4
Paul	4
oust	4
olis	4
uder	4
ashi	4
anka	4
mitt	4
▁UTF	4
bare	4
dzie	4
olly	4
wald	4
adem	4
Loop	4
Good	4
fred	4
week	4
eras	4
LETE	4
Zone	4
okat	4
endl	4
bird	4
ichi	4
Miss	4
elia	4
Prom	4
ltre	4
ondo	4
iami	4
cych	4
sent	4
wand	4
ocal	4
Fire	4
Mock	4
chos	4
hour	4
alty	4
▁tap	4
lost	4
▁nod	4
pair	4
rola	4
atis	4
zych	4
feed	4
unks	4
hung	4
lias	4
yyyy	4
omas	4
iors	4
agan	4
curl	4
loyd	4
olen	4
nete	4
▁kir	4
zysk	4
shop	4
Mess	4
VICE	4
FORM	4
onen	4
umph	4
Cook	4
Mill	4
gior	4
enig	4
male	4
argv	4
eded	4
nick	4
osis	4
life	4
mysq	4
LENG	4
supp	4
unft	4
Meta	4
▁seq	4
geme	4
▁TCP	4
arie	4
abol	4
Team	4
asts	4
iske	4
zony	4
brid	4
raum	4
▁orb	4
scal	4
uits	4
they	4
zing	4
chio	4
Desc	4
alia	4
engu	4
izen	4
beck	4
lius	4
iral	4
▁egg	4
alph	4
midt	4
take	4
ulos	4
arde	4
bero	4
aszt	4
pret	4
Mask	4
yard	4
arqu	4
uchs	4
Rate	4
indu	4
imen	4
mill	4
ulse	4
ctic	4
amba	4
ampa	4
pler	4
ywna	4
gets	4
repo	4
iras	4
abad	4
Supp	4
imar	4
ntil	4
cios	4
udem	4
both	4
acia	4
Plan	4
othy	4
gren	4
stav	4
MODE	4
▁cyl	4
Prop	4
itto	4
Cert	4
elem	4
Free	4
▁flu	4
urre	4
chia	4
drag	4
Pair	4
rama	4
conv	4
ordo	4
flat	4
▁sli	4
eton	4
Fact	4
logs	4
More	4
nett	4
ermo	4
afka	4
five	4
atio	4
rock	4
HOST	4
hook	4
mpeg	4
agle	4
utos	4
proj	4
Plot	4
Fill	4
▁obs	4
Fern	4
anya	4
walk	4
owed	4
disk	4
Boot	4
rike	4
gray	4
cong	4
egos	4
nake	4
zeti	4
emet	4
zett	4
Anal	4
Sync	4
Capt	4
rica	4
acre	4
tabs	4
Expr	4
atin	4
herr	4
ROOT	4
inho	4
Blue	4
LOCK	4
uben	4
hbox	4
nown	4
ktiv	4
▁VBA	4
apan	4
▁Dob	4
jack	4
song	4
acyj	4
FROM	4
▁epo	4
COMP	4
▁NBA	4
voor	4
iety	4
mans	4
isan	4
nius	4
Anim	4
fade	4
wach	4
away	4
Real	4
ifiz	4
▁apr	4
scop	4
ulla	4
sock	4
wehr	4
rant	4
arga	4
yman	4
iese	4
nant	4
curr	4
must	4
emit	4
Flag	4
soap	4
tery	4
coll	4
perl	4
FFFF	4
▁tie	4
olph	4
iech	4
arto	4
kern	4
engo	4
rack	4
fram	4
▁Aug	4
▁Tob	4
oned	4
grep	4
▁gev	4
CONT	4
ippi	4
arlo	4
pios	4
offs	4
▁mob	4
inch	4
priv	4
Gest	4
cers	4
▁wis	4
emed	4
▁jet	4
lika	4
Week	4
lach	4
inth	4
anze	4
Land	4
irus	4
cols	4
kret	4
▁pit	4
igny	4
prob	4
pent	4
posa	4
bian	4
obar	4
olin	4
Russ	4
wner	4
▁lap	4
harm	4
east	4
aran	4
▁bay	4
ethe	4
uese	4
ceae	4
usto	4
ovat	4
quot	4
Pred	4
▁lon	4
▁tub	4
arda	4
AAAA	4
okes	4
ANCE	4
prof	4
edly	4
HEAD	4
shal	4
kund	4
dale	4
ilis	4
edor	4
eszt	4
cera	4
Face	4
Cent	4
arca	4
lade	4
idor	4
atan	4
▁tea	4
Demo	4
▁nep	4
itis	4
CASE	4
Circ	4
obox	4
anja	4
rust	4
ikal	4
illé	4
uszt	4
xter	4
meck	4
clou	4
elif	4
glob	4
brow	4
brie	4
ugel	4
▁MAR	4
▁gay	4
lesh	4
Live	4
Edge	4
Side	4
pick	4
eree	4
mind	4
fern	4
cipe	4
clip	4
iben	4
irie	4
owan	4
quin	4
tero	4
ilty	4
Zero	4
ctrl	4
icha	4
▁ssl	4
Rout	4
RIPT	4
ISTS	4
Self	4
ANGE	4
chin	4
erca	4
LIST	4
Exit	4
Qual	4
stag	4
icut	4
ront	4
elin	4
isie	4
half	4
leid	4
anus	4
expl	4
deep	4
unix	4
aset	4
orde	4
assa	4
itza	4
perp	4
rror	4
Mont	4
tick	4
mine	4
skog	4
Bool	4
ongs	4
camp	4
erno	4
skap	4
stwa	4
cock	4
erte	4
▁Cob	4
cref	4
horn	4
mate	4
atri	4
enst	4
asis	4
udni	4
uuid	4
Does	4
angs	4
weak	4
ghan	4
▁Sob	4
emer	4
yaml	4
ovis	4
inde	4
Cart	4
erea	4
imas	4
werb	4
iony	4
▁Hob	4
geon	4
▁sid	4
orch	4
Best	4
mass	4
asma	4
rams	4
BASE	4
omic	4
warn	4
erva	4
odot	4
ljen	4
dawn	4
race	4
fers	4
yter	4
Have	4
Grad	4
Rich	4
Done	4
addy	4
tiny	4
opts	4
witz	4
PASS	4
Cost	4
zyst	4
znik	4
coli	4
lane	4
arab	4
Phys	4
dent	4
iman	4
lera	4
lder	4
ilda	4
stwo	4
alin	4
Days	4
cano	4
INIT	4
Diff	4
airo	4
dark	4
thes	4
urls	4
guez	4
iono	4
bine	4
aget	4
PART	4
ilog	4
reno	4
allo	4
need	4
apor	4
achi	4
pine	4
Once	4
hart	4
asia	4
ulen	4
urst	4
swap	4
RECT	4
hnen	4
etal	4
baut	4
▁Feb	4
made	4
▁enh	4
▁kid	4
iszt	4
uing	4
oshi	4
▁Zob	4
endi	4
arus	4
opus	4
Jose	4
olta	4
acks	4
FLAG	4
▁Áng	4
adic	4
brit	4
opro	4
jpeg	4
cija	4
uria	4
ucha	4
trat	4
ltal	4
Lond	4
agas	4
csol	4
pull	4
Life	4
mile	4
rass	4
Take	4
atge	4
seed	4
ahoo	4
RESS	4
hens	4
chus	4
TRAN	4
asha	4
oemd	4
guer	4
rado	4
ouwd	4
esar	4
icki	4
skih	4
ched	4
sero	4
baar	4
rott	4
migr	4
vole	4
Jack	4
arct	4
lyph	4
Push	4
irks	4
omed	4
▁pak	4
hall	4
uals	4
goto	4
kter	4
aaaa	4
arin	4
chas	4
fund	4
rikt	4
andr	4
etry	4
bled	4
uate	4
▁hyd	4
rita	4
etra	4
adal	4
olit	4
alog	4
ixen	4
uden	4
Else	4
Turn	4
zyma	4
nats	4
rets	4
larg	4
lant	4
jets	4
owel	4
hely	4
Like	4
than	4
egov	4
akov	4
ceil	4
kiej	4
town	4
▁Lob	4
wave	4
▁tin	4
decl	4
Come	4
kele	4
onas	4
SOUR	4
lint	4
ioso	4
inek	4
Proc	4
IONS	4
ynie	4
▁IBM	4
cego	4
▁Kob	4
Hint	4
LEFT	4
seen	4
ueil	4
buff	4
lime	4
weig	4
Tags	4
eken	4
epen	4
goal	4
iels	4
eggi	4
merk	4
adin	4
vera	4
acje	4
iffs	4
quit	4
Coll	4
cije	4
know	4
iskt	4
bars	4
ymen	4
BOOL	4
cian	4
odon	4
FFER	4
near	4
slow	4
rene	4
oped	4
agar	4
esia	4
azar	4
arth	4
alus	4
clic	4
atia	4
uche	4
rend	4
ixon	4
gypt	4
isko	4
ijst	4
poss	4
cita	4
ifie	4
hmen	4
INCT	4
audi	4
pmod	4
owa	4
emor	4
stor	4
▁Ung	4
iada	4
MAIN	4
appe	4
club	4
Scan	4
▁NEW	4
prog	4
ksam	4
hill	4
Hold	4
ryty	4
rund	4
lict	4
nitz	4
bove	4
oben	4
stab	4
ythm	4
▁ced	4
hoff	4
News	4
iate	4
oris	4
rong	4
ikes	4
icum	4
zien	4
pply	4
LOAD	4
aser	4
RENT	4
ipes	4
leaf	4
xaml	4
slug	4
etro	4
itie	4
Plus	4
trad	4
baum	4
ishi	4
jest	4
Scal	4
▁Sep	4
yrus	4
Help	4
pont	4
suit	4
usta	4
▁CNN	4
idia	4
hole	4
zott	4
▁ibn	4
Feed	4
▁sug	4
emia	4
▁ted	4
neum	4
hlen	4
iczn	4
Butt	4
chev	4
ikor	4
ion	3
ing	3
ent	3
▁in	3
▁is	3
end	3
▁on	3
ith	3
and	3
ate	3
ess	3
ere	3
▁as	3
ame	3
ant	3
ort	3
art	3
out	3
ill	3
rom	3
ine	3
ass	3
▁at	3
our	3
ain	3
age	3
▁by	3
ath	3
ber	3
ach	3
all	3
ust	3
lic	3
ind	3
ell	3
ect	3
int	3
ata	3
ire	3
ord	3
ity	3
ard	3
▁he	3
▁pr	3
ure	3
ack	3
ork	3
ong	3
ple	3
orm	3
wer	3
ase	3
ite	3
ble	3
fer	3
ive	3
ang	3
ens	3
ast	3
ies	3
urn	3
are	3
ime	3
ome	3
eth	3
ice	3
act	3
ser	3
iew	3
ign	3
put	3
one	3
ary	3
get	3
ran	3
ype	3
ize	3
low	3
ide	3
ous	3
res	3
htt	3
oug	3
cri	3
ory	3
ery	3
iel	3
str	3
ian	3
oth	3
ish	3
ror	3
ale	3
elf	3
ray	3
rit	3
own	3
ild	3
iss	3
val	3
row	3
ear	3
ank	3
ags	3
ann	3
ert	3
ace	3
ien	3
ern	3
erm	3
led	3
set	3
ven	3
yst	3
ick	3
ote	3
ely	3
ond	3
ull	3
ger	3
ict	3
ree	3
app	3
ark	3
▁He	3
ors	3
rac	3
ual	3
vel	3
ica	3
itt	3
uch	3
org	3
ove	3
eng	3
ied	3
fig	3
old	3
let	3
ays	3
cre	3
urr	3
ues	3
mer	3
cal	3
col	3
ext	3
pos	3
ner	3
ina	3
pon	3
amb	3
red	3
att	3
oup	3
ced	3
igh	3
riv	3
ude	3
amp	3
ash	3
its	3
Pro	3
eta	3
log	3
arg	3
ics	3
net	3
umn	3
ows	3
ren	3
ask	3
urs	3
ake	3
ule	3
aut	3
ari	3
oun	3
ful	3
not	3
rop	3
als	3
til	3
els	3
any	3
dex	3
orn	3
Val	3
ats	3
for	3
pre	3
air	3
new	3
ody	3
ved	3
sub	3
ars	3
ool	3
yle	3
use	3
cia	3
doc	3
men	3
yth	3
mod	3
the	3
uss	3
ems	3
The	3
way	3
emb	3
ify	3
ife	3
ism	3
raw	3
ior	3
ron	3
Col	3
www	3
bar	3
ana	3
ste	3
ane	3
Res	3
equ	3
ets	3
ock	3
ral	3
var	3
ken	3
reg	3
vis	3
rem	3
Ser	3
def	3
ais	3
ole	3
fil	3
ben	3
ino	3
ett	3
cul	3
ird	3
ots	3
ush	3
ros	3
box	3
lin	3
raf	3
ade	3
map	3
ves	3
php	3
ium	3
lib	3
key	3
alt	3
ura	3
vec	3
eme	3
urg	3
hor	3
erd	3
pha	3
ift	3
loc	3
iet	3
ito	3
aft	3
App	3
irc	3
sum	3
ood	3
bol	3
bin	3
Mod	3
rix	3
lob	3
elt	3
apt	3
med	3
uro	3
ric	3
try	3
idd	3
oss	3
ati	3
ige	3
ams	3
alk	3
pen	3
cel	3
zen	3
IMA	3
cer	3
ret	3
opy	3
url	3
her	3
ope	3
▁wr	3
ios	3
loy	3
rap	3
bum	3
vir	3
lem	3
ego	3
rid	3
uel	3
img	3
eld	3
ula	3
lex	3
Man	3
ara	3
met	3
Add	3
rie	3
aps	3
ook	3
Key	3
inn	3
Ind	3
ban	3
ram	3
ski	3
ief	3
lim	3
Get	3
bed	3
ony	3
iff	3
ema	3
ali	3
lev	3
bra	3
ili	3
▁By	3
xim	3
iod	3
rel	3
off	3
Set	3
uck	3
dep	3
ync	3
ION	3
irt	3
png	3
oud	3
ald	3
arr	3
arn	3
api	3
cur	3
ilt	3
itz	3
nie	3
uth	3
arm	3
iam	3
For	3
sel	3
cle	3
ria	3
sql	3
wik	3
uer	3
And	3
ury	3
Act	3
tml	3
rer	3
phi	3
och	3
ala	3
mat	3
Int	3
unk	3
bit	3
aug	3
omm	3
oll	3
mar	3
ATE	3
ira	3
uto	3
can	3
SON	3
lag	3
uit	3
err	3
dom	3
alf	3
xml	3
pec	3
oot	3
hen	3
ias	3
ged	3
lie	3
Def	3
▁Mr	3
day	3
ijn	3
ani	3
zer	3
ULL	3
ama	3
ety	3
fty	3
Box	3
top	3
pis	3
iro	3
dev	3
ych	3
Map	3
run	3
ham	3
oid	3
Log	3
onn	3
ras	3
omb	3
ump	3
▁ok	3
Fil	3
rep	3
emp	3
lip	3
aff	3
sec	3
lig	3
cis	3
ROM	3
You	3
Loc	3
how	3
olo	3
ops	3
irm	3
yes	3
adt	3
All	3
sim	3
rat	3
Web	3
osa	3
Not	3
rad	3
opt	3
van	3
now	3
ady	3
OST	3
pol	3
inc	3
Out	3
oto	3
big	3
rec	3
iem	3
ols	3
ris	3
leq	3
ney	3
uen	3
vin	3
isk	3
gra	3
ynt	3
uni	3
zie	3
nia	3
ENT	3
cio	3
cos	3
txt	3
hel	3
rew	3
nof	3
ube	3
ttp	3
aar	3
jet	3
hip	3
Sub	3
tag	3
hal	3
bor	3
anz	3
atz	3
ika	3
kre	3
ril	3
cat	3
oma	3
dat	3
acy	3
jen	3
see	3
Att	3
ori	3
std	3
SQL	3
but	3
rab	3
Dis	3
agn	3
ING	3
urt	3
ila	3
iva	3
icy	3
tot	3
css	3
ael	3
ova	3
car	3
Bar	3
Row	3
abe	3
iga	3
tty	3
src	3
olf	3
New	3
rak	3
iar	3
HER	3
lia	3
uby	3
igr	3
isf	3
Sch	3
ips	3
nes	3
lad	3
fol	3
exp	3
nen	3
Reg	3
yal	3
ako	3
lac	3
ska	3
ibr	3
rho	3
owe	3
unc	3
enz	3
lar	3
cks	3
asp	3
tau	3
roy	3
udi	3
lop	3
jar	3
utt	3
tex	3
Rec	3
ppe	3
det	3
iti	3
enu	3
ids	3
usr	3
egr	3
orf	3
sen	3
iny	3
rij	3
▁Dr	3
TER	3
zet	3
Str	3
▁wy	3
cap	3
pat	3
eli	3
End	3
oul	3
lat	3
oli	3
win	3
lik	3
gex	3
▁cy	3
lor	3
irl	3
icz	3
cup	3
oni	3
III	3
lam	3
Ent	3
cie	3
avy	3
ech	3
uct	3
How	3
udo	3
uri	3
gio	3
VER	3
has	3
rik	3
gin	3
aba	3
rio	3
hol	3
gar	3
han	3
obj	3
uid	3
ahn	3
foo	3
rot	3
pub	3
bal	3
igt	3
igu	3
pes	3
nik	3
lov	3
owa	3
ahr	3
Rep	3
Ref	3
rea	3
Ext	3
Wik	3
arc	3
kar	3
rav	3
uge	3
acc	3
eds	3
mys	3
rei	3
cha	3
enk	3
rum	3
akt	3
ieg	3
fix	3
Per	3
pid	3
▁cs	3
unn	3
rod	3
spe	3
igo	3
Url	3
vet	3
lio	3
NET	3
CON	3
Can	3
via	3
Vis	3
ugh	3
psi	3
Aut	3
mut	3
oon	3
asc	3
bug	3
Dec	3
uda	3
nej	3
dim	3
gle	3
But	3
gan	3
erc	3
geq	3
you	3
SER	3
dot	3
Det	3
oca	3
lan	3
agy	3
jax	3
▁pp	3
bas	3
ohn	3
Run	3
mid	3
Pre	3
imp	3
bel	3
etz	3
iza	3
zon	3
nav	3
aur	3
One	3
imm	3
ued	3
nek	3
ums	3
emy	3
Net	3
irk	3
ifi	3
arp	3
asi	3
jer	3
bet	3
Off	3
ovi	3
abs	3
czy	3
ogy	3
oke	3
mem	3
ycz	3
YPE	3
▁js	3
Big	3
erv	3
lap	3
OIN	3
kow	3
alo	3
Top	3
ajo	3
etc	3
elo	3
Mar	3
got	3
dec	3
ouw	3
gru	3
iat	3
ded	3
nab	3
Mon	3
▁vs	3
inf	3
GET	3
ulo	3
kom	3
ije	3
lij	3
uls	3
btn	3
Rem	3
pop	3
tor	3
kit	3
ptr	3
utz	3
▁np	3
bot	3
riz	3
dig	3
Acc	3
azz	3
ATH	3
ROR	3
zip	3
cut	3
edy	3
eqn	3
csv	3
Hel	3
mos	3
Pol	3
sey	3
aga	3
Ste	3
ilo	3
nic	3
pal	3
xsl	3
Cal	3
weg	3
ket	3
▁fn	3
adr	3
bst	3
Sec	3
ads	3
fri	3
req	3
Max	3
gre	3
uje	3
hem	3
Num	3
Ret	3
DER	3
ija	3
isa	3
kon	3
exe	3
Eng	3
Uni	3
ASE	3
Min	3
atr	3
eno	3
osi	3
Tag	3
Car	3
lab	3
har	3
cpp	3
Yes	3
aka	3
ATA	3
bus	3
owy	3
lot	3
pad	3
ART	3
pan	3
mus	3
ipp	3
lay	3
bur	3
ocr	3
▁CG	3
ORT	3
sed	3
esk	3
Dep	3
yar	3
Arg	3
Enc	3
iej	3
vid	3
mac	3
kaz	3
bul	3
ULT	3
cus	3
inu	3
TAC	3
eda	3
hot	3
nah	3
wed	3
API	3
ijd	3
cyc	3
aml	3
kbd	3
idi	3
zte	3
nil	3
uts	3
abb	3
aro	3
Tab	3
IME	3
INE	3
zig	3
nat	3
jan	3
VAL	3
Sim	3
fox	3
eps	3
rig	3
nap	3
asy	3
reh	3
cmd	3
aya	3
Var	3
Red	3
vat	3
IST	3
job	3
oso	3
kin	3
ITE	3
xes	3
rog	3
neh	3
Pos	3
wid	3
XML	3
Dir	3
don	3
het	3
wig	3
fit	3
▁ul	3
Did	3
ike	3
tim	3
opp	3
utf	3
ted	3
AND	3
Phi	3
jav	3
Bas	3
raz	3
ikz	3
Exp	3
alg	3
ned	3
nym	3
owo	3
Rel	3
sys	3
Cat	3
cop	3
rif	3
buf	3
eft	3
kov	3
moz	3
Mat	3
ped	3
ALL	3
Cre	3
ims	3
Rad	3
aja	3
Ang	3
Obj	3
aki	3
bbe	3
Art	3
ctr	3
Ill	3
awa	3
kol	3
neg	3
cke	3
acz	3
yan	3
Met	3
adi	3
rov	3
two	3
INT	3
roc	3
bat	3
imi	3
jes	3
Deb	3
kel	3
ifs	3
Don	3
agr	3
aks	3
ohl	3
iko	3
UNT	3
iev	3
sko	3
ikt	3
odb	3
▁Cu	3
Now	3
AGE	3
aws	3
pay	3
zem	3
ogo	3
SET	3
Emp	3
UTF	3
Sql	3
zel	3
osh	3
Spe	3
law	3
raj	3
isc	3
iso	3
abc	3
neq	3
fre	3
Any	3
hou	3
▁Us	3
ieb	3
kes	3
aby	3
STR	3
KEY	3
eto	3
zes	3
usz	3
pet	3
Why	3
kan	3
Xml	3
Dom	3
was	3
cam	3
rug	3
egy	3
arz	3
Sum	3
dbc	3
QUE	3
▁ll	3
UID	3
dob	3
hin	3
fah	3
asa	3
cli	3
kal	3
usa	3
zej	3
fen	3
she	3
ACK	3
Use	3
wan	3
Mem	3
sun	3
Pat	3
phy	3
uba	3
neo	3
xis	3
URE	3
ois	3
ACE	3
inv	3
BUG	3
MDb	3
trz	3
asm	3
Chr	3
Lin	3
WOR	3
Api	3
iek	3
trl	3
seq	3
yen	3
▁ft	3
END	3
orb	3
uly	3
lez	3
▁UP	3
zek	3
isp	3
ITY	3
Job	3
sym	3
aca	3
OUT	3
Let	3
ymn	3
gie	3
ORM	3
Ptr	3
ogs	3
ICE	3
oks	3
lus	3
Inv	3
chs	3
EXT	3
pow	3
NOT	3
mor	3
Pop	3
bad	3
uan	3
ocs	3
PUT	3
eff	3
xxx	3
dll	3
rir	3
jal	3
aph	3
abl	3
Cor	3
Div	3
eed	3
asz	3
won	3
tip	3
tar	3
MAX	3
pin	3
jem	3
May	3
ees	3
iri	3
Day	3
thm	3
opo	3
mel	3
Fin	3
CCN	3
irs	3
mvc	3
ktr	3
▁oc	3
lon	3
fan	3
ugg	3
UES	3
gue	3
may	3
VID	3
ITH	3
Vol	3
ctx	3
mic	3
Fig	3
pip	3
pel	3
Kit	3
kor	3
idx	3
Del	3
osz	3
zil	3
PER	3
iji	3
▁MB	3
eca	3
fel	3
Sol	3
cep	3
isy	3
htm	3
pus	3
oux	3
See	3
nih	3
SSN	3
owi	3
Ant	3
adu	3
She	3
rev	3
lyn	3
gov	3
mov	3
ijk	3
iac	3
ANT	3
pag	3
azu	3
fas	3
BER	3
hew	3
rar	3
▁Ka	3
cdn	3
uur	3
nan	3
Tim	3
nov	3
rob	3
wor	3
vex	3
wad	3
ECT	3
NER	3
CLA	3
NUM	3
pla	3
Two	3
Lat	3
nex	3
nea	3
zym	3
blo	3
vod	3
OPT	3
hus	3
Psi	3
kir	3
sex	3
emi	3
olt	3
ups	3
Cam	3
LOG	3
uet	3
▁xs	3
Has	3
Doc	3
eks	3
uli	3
why	3
wal	3
bbi	3
inx	3
Uri	3
jos	3
gry	3
mot	3
Lib	3
upp	3
iom	3
pgf	3
Mus	3
npm	3
Dig	3
aly	3
uve	3
COL	3
aud	3
erg	3
PRE	3
spr	3
yll	3
svg	3
clo	3
tom	3
Bbb	3
oko	3
ARN	3
ssh	3
eny	3
oti	3
jel	3
tei	3
dia	3
ulp	3
bez	3
oba	3
pod	3
nem	3
sdk	3
tha	3
nor	3
Gen	3
Pay	3
ugo	3
pur	3
umi	3
wen	3
anu	3
far	3
obi	3
hos	3
hui	3
occ	3
ipe	3
Mac	3
rez	3
Esp	3
emo	3
opf	3
Mer	3
bud	3
edi	3
pkg	3
Try	3
ovy	3
Cho	3
bia	3
who	3
Ori	3
RES	3
Hub	3
hum	3
zas	3
omy	3
mul	3
aal	3
iry	3
nim	3
esz	3
Dim	3
▁Bü	3
agg	3
MIN	3
ssl	3
ulf	3
PAR	3
cin	3
Dat	3
cla	3
isz	3
Arr	3
JAX	3
elm	3
pic	3
tto	3
rok	3
deb	3
fab	3
nez	3
Dev	3
TeX	3
LOC	3
ECK	3
bru	3
apk	3
dar	3
uld	3
kil	3
gly	3
acs	3
dam	3
cfg	3
TAG	3
Bus	3
ugs	3
▁Ky	3
obe	3
oor	3
ctl	3
maz	3
roz	3
ARD	3
rai	3
oka	3
sha	3
rin	3
vik	3
GER	3
god	3
LES	3
Ber	3
alm	3
PHP	3
hed	3
gro	3
USE	3
lee	3
vil	3
Hor	3
adv	3
Ign	3
IGN	3
UST	3
awt	3
avi	3
usk	3
▁sb	3
fac	3
Are	3
voj	3
bla	3
nio	3
ffe	3
cji	3
cca	3
ply	3
nos	3
fly	3
Seg	3
jud	3
tid	3
mbH	3
ked	3
nde	3
bow	3
Win	3
ADD	3
aso	3
pot	3
rup	3
liv	3
mee	3
ACT	3
zec	3
▁ss	3
aru	3
awn	3
bil	3
wij	3
REG	3
lak	3
sku	3
Pal	3
tta	3
▁eb	3
urd	3
fal	3
iku	3
Aus	3
oly	3
did	3
CLC	3
ysz	3
cue	3
uca	3
rys	3
aqu	3
IVE	3
yna	3
bib	3
Dan	3
cze	3
jus	3
SSL	3
Her	3
ymi	3
gif	3
FIG	3
ibe	3
aci	3
oby	3
gnu	3
fff	3
UND	3
LAY	3
sig	3
oty	3
FLA	3
azi	3
cii	3
jev	3
▁fs	3
ORY	3
CCE	3
cir	3
Mag	3
xsd	3
Err	3
uki	3
syn	3
▁Kü	3
▁ie	3
cod	3
WID	3
AMP	3
Med	3
cem	3
aju	3
bij	3
hoz	3
NaN	3
bec	3
RED	3
ocz	3
lit	3
boy	3
ANG	3
kie	3
sep	3
DEX	3
sal	3
nog	3
fik	3
gcc	3
ABC	3
ppi	3
COM	3
dra	3
rah	3
ixa	3
aza	3
ARY	3
imb	3
leb	3
Hol	3
cgi	3
awk	3
cnt	3
Bre	3
uru	3
fli	3
ERT	3
odu	3
▁nj	3
Cla	3
xyz	3
oit	3
xls	3
▁Bh	3
yci	3
Pad	3
Sal	3
wel	3
clk	3
jou	3
Lou	3
LED	3
APP	3
cow	3
ytu	3
axi	3
Opt	3
SUB	3
AUT	3
zik	3
tax	3
cit	3
lea	3
▁gg	3
nth	3
uil	3
Btn	3
nal	3
say	3
obb	3
Ben	3
kim	3
dup	3
euw	3
fra	3
hex	3
zyk	3
omi	3
▁ah	3
laz	3
yml	3
cmp	3
iah	3
uwe	3
Pub	3
uky	3
Bel	3
YES	3
kou	3
thy	3
iec	3
gor	3
lax	3
tac	3
upt	3
iop	3
ipt	3
Rot	3
nut	3
had	3
jsp	3
qua	3
agt	3
kap	3
eus	3
Len	3
ulu	3
ajn	3
Bit	3
Tom	3
dbo	3
Old	3
REE	3
ERR	3
agh	3
Env	3
▁cc	3
gef	3
Rob	3
Mad	3
kem	3
oem	3
Ids	3
cpu	3
Har	3
IDE	3
Bal	3
Occ	3
SEE	3
Bad	3
FOR	3
acu	3
sty	3
bey	3
Nav	3
Who	3
Raw	3
DOM	3
rek	3
nig	3
eor	3
CRE	3
IND	3
kih	3
▁mp	3
alu	3
Age	3
odn	3
CUR	3
amd	3
chr	3
ocy	3
San	3
dor	3
fur	3
uvo	3
BIT	3
CAA	3
som	3
cki	3
RIG	3
RAY	3
oru	3
igg	3
DBC	3
odd	3
MON	3
his	3
nou	3
Put	3
hez	3
ASS	3
kup	3
ipo	3
Sam	3
koz	3
OUR	3
uka	3
Leg	3
olg	3
dst	3
Mal	3
ctu	3
gal	3
gow	3
ftp	3
kee	3
cpy	3
bag	3
edo	3
lej	3
hov	3
Ord	3
onk	3
zin	3
igs	3
iae	3
jub	3
lis	3
fmt	3
SHA	3
vos	3
Bag	3
gui	3
enf	3
spl	3
lou	3
pit	3
Cmd	3
Pan	3
DIS	3
ppy	3
Seq	3
IAB	3
chy	3
rut	3
umm	3
MAP	3
kur	3
AXI	3
bid	3
Cur	3
Fre	3
erb	3
ubs	3
AML	3
CAT	3
rgb	3
tcp	3
hod	3
URN	3
egu	3
Hen	3
iak	3
INF	3
pto	3
ILL	3
cro	3
tte	3
Lar	3
Kar	3
etu	3
▁Lü	3
ORS	3
nar	3
dag	3
Imp	3
cej	3
jdk	3
Hom	3
Jac	3
DEF	3
iot	3
ERY	3
emu	3
Zyg	3
ulk	3
LAB	3
dri	3
Dra	3
Alt	3
uce	3
mun	3
din	3
phr	3
GEN	3
azy	3
zed	3
jak	3
POS	3
bio	3
reu	3
zan	3
ASH	3
tol	3
flu	3
RAM	3
Gre	3
kop	3
WIN	3
ROW	3
Nov	3
Oct	3
Fun	3
yme	3
Inf	3
gas	3
Img	3
Sym	3
łów	3
sil	3
ORD	3
iii	3
aha	3
giv	3
FIX	3
IAL	3
AME	3
Uns	3
DAT	3
ENV	3
heb	3
Lng	3
lau	3
REF	3
lef	3
ikk	3
▁Ya	3
orr	3
cyk	3
IOS	3
cls	3
amy	3
vie	3
Vec	3
UTE	3
ske	3
ifa	3
oci	3
ege	3
nit	3
dog	3
dru	3
cot	3
Zip	3
obs	3
vic	3
▁Gü	3
MIT	3
nja	3
dro	3
orp	3
EAR	3
cco	3
iez	3
kaf	3
wei	3
AVA	3
Jan	3
lbl	3
zar	3
Sil	3
vim	3
oop	3
axy	3
cra	3
ccc	3
adj	3
EMA	3
VAR	3
zef	3
Tex	3
ciu	3
SDK	3
UTC	3
bye	3
roe	3
him	3
USA	3
Fri	3
gom	3
vee	3
CLI	3
ERE	3
jih	3
ELD	3
een	3
hon	3
wod	3
hit	3
Pod	3
pse	3
xic	3
Arm	3
ñas	3
rvm	3
bay	3
iei	3
Jul	3
svn	3
rou	3
apy	3
Mvc	3
cko	3
MAN	3
OFF	3
bos	3
ecz	3
Nil	3
Aff	3
ebb	3
LIC	3
sak	3
baz	3
jna	3
LOW	3
fir	3
beg	3
mix	3
yed	3
Men	3
Bra	3
RGB	3
oin	3
isu	3
six	3
aze	3
THE	3
pta	3
olk	3
san	3
ikh	3
fif	3
tel	3
lek	3
Sem	3
gon	3
zeg	3
NEW	3
Mor	3
ASC	3
sef	3
VIS	3
aes	3
Lab	3
DAY	3
DOC	3
usb	3
Gui	3
Git	3
bah	3
jin	3
gun	3
gat	3
cza	3
Wel	3
rze	3
tis	3
LOB	3
Hot	3
boa	3
ján	3
fog	3
zor	3
ahu	3
Sdk	3
ouc	3
IES	3
dfs	3
ISO	3
zak	3
veg	3
UMN	3
sdl	3
zew	3
iks	3
arf	3
xty	3
Den	3
Mil	3
Bob	3
ROP	3
lua	3
pom	3
Tri	3
Wil	3
hpp	3
urk	3
iao	3
oom	3
ibm	3
aho	3
zos	3
Bro	3
lub	3
er	2
in	2
on	2
at	2
or	2
an	2
is	2
re	2
it	2
ar	2
ed	2
om	2
ic	2
as	2
nd	2
st	2
ch	2
ro	2
ct	2
am	2
▁T	2
ol	2
ot	2
ut	2
ur	2
id	2
ig	2
ra	2
ow	2
ce	2
ie	2
ag	2
ul	2
he	2
▁D	2
if	2
ly	2
ab	2
te	2
ri	2
us	2
ir	2
▁E	2
ck	2
th	2
eg	2
ay	2
od	2
ht	2
▁N	2
pp	2
pe	2
pt	2
lo	2
ia	2
ld	2
ub	2
la	2
ue	2
iv	2
ke	2
op	2
iz	2
og	2
ge	2
ap	2
ne	2
av	2
xt	2
li	2
▁U	2
tr	2
to	2
oc	2
ok	2
ak	2
pr	2
ph	2
ac	2
ps	2
pl	2
so	2
nt	2
ff	2
io	2
ft	2
cc	2
gr	2
ik	2
ll	2
ma	2
ip	2
ec	2
ug	2
cl	2
tt	2
we	2
ry	2
ib	2
eb	2
up	2
In	2
ah	2
sk	2
wo	2
ml	2
bo	2
az	2
sh	2
St	2
ix	2
ng	2
ss	2
ze	2
be	2
ta	2
yn	2
ys	2
ym	2
of	2
ER	2
me	2
ty	2
ep	2
sp	2
ey	2
na	2
hr	2
co	2
ca	2
Re	2
po	2
uf	2
oh	2
ON	2
ax	2
IN	2
fo	2
br	2
kt	2
Id	2
no	2
wn	2
ni	2
Ex	2
ST	2
cy	2
AT	2
LE	2
ux	2
js	2
bb	2
wh	2
ka	2
fr	2
Th	2
my	2
za	2
vo	2
ID	2
ts	2
vi	2
ek	2
EN	2
Ar	2
aw	2
Ch	2
ny	2
yp	2
ui	2
go	2
gg	2
ms	2
ql	2
RE	2
mp	2
MA	2
zy	2
sc	2
va	2
fl	2
td	2
by	2
ww	2
pi	2
bf	2
SE	2
RO	2
uc	2
GE	2
AR	2
fe	2
SB	2
px	2
rm	2
To	2
ja	2
CT	2
SS	2
IT	2
eq	2
do	2
lt	2
gy	2
OR	2
AL	2
ns	2
ki	2
ML	2
ti	2
ks	2
By	2
zt	2
cz	2
rl	2
oz	2
ku	2
af	2
Qu	2
AN	2
bl	2
rc	2
PI	2
ii	2
QL	2
RL	2
ox	2
cd	2
py	2
rt	2
ba	2
ME	2
Tr	2
ha	2
cs	2
ji	2
mi	2
AC	2
Al	2
zo	2
zi	2
sl	2
gu	2
db	2
mu	2
uk	2
II	2
UT	2
Sh	2
An	2
wa	2
De	2
sw	2
Of	2
ND	2
Or	2
AB	2
As	2
ES	2
OT	2
ko	2
yl	2
hi	2
yd	2
On	2
AD	2
sq	2
It	2
bt	2
UI	2
hn	2
ls	2
gi	2
gs	2
CH	2
CO	2
IS	2
Pl	2
ga	2
Ad	2
OS	2
pa	2
AS	2
AP	2
US	2
Gr	2
ED	2
ua	2
pm	2
uz	2
Up	2
My	2
nu	2
ky	2
md	2
NA	2
TP	2
MP	2
xy	2
sz	2
Is	2
Be	2
oo	2
yt	2
ín	2
If	2
ae	2
FI	2
pu	2
zn	2
ya	2
No	2
gl	2
sm	2
oj	2
Ed	2
He	2
UN	2
ee	2
HT	2
LO	2
HP	2
kn	2
DO	2
DF	2
Pr	2
DB	2
pg	2
uv	2
ye	2
PE	2
CC	2
At	2
FF	2
vs	2
yr	2
mm	2
TE	2
MS	2
mo	2
wi	2
LA	2
mt	2
hl	2
xx	2
Sc	2
UE	2
sv	2
dy	2
FA	2
DI	2
UR	2
OP	2
sf	2
TH	2
RA	2
CE	2
yg	2
We	2
Ph	2
ih	2
UP	2
ju	2
cm	2
Ab	2
sd	2
sa	2
cu	2
TO	2
UM	2
Su	2
AF	2
gn	2
AM	2
dn	2
LI	2
sg	2
bi	2
BC	2
xi	2
SI	2
CA	2
rd	2
SP	2
Sp	2
dz	2
OL	2
zz	2
ws	2
TR	2
La	2
IV	2
Om	2
BA	2
IP	2
yw	2
EX	2
ev	2
MD	2
FO	2
hy	2
bs	2
bm	2
fs	2
LT	2
iu	2
IO	2
dt	2
Ob	2
TA	2
rb	2
KE	2
lu	2
ez	2
dp	2
Do	2
CL	2
SO	2
XX	2
IG	2
CP	2
tn	2
So	2
kl	2
AA	2
IX	2
bd	2
OM	2
CD	2
IF	2
AX	2
NO	2
EL	2
MO	2
pc	2
Me	2
Am	2
cf	2
kk	2
hu	2
vm	2
PS	2
PU	2
SH	2
vc	2
CK	2
Te	2
hm	2
SC	2
GB	2
PA	2
SD	2
GL	2
fi	2
uw	2
cr	2
oe	2
aa	2
PL	2
MM	2
tx	2
tw	2
AV	2
SV	2
zw	2
DA	2
dr	2
zk	2
oi	2
pf	2
WS	2
FT	2
IM	2
BU	2
DD	2
Co	2
PT	2
Ge	2
uj	2
TV	2
yy	2
Go	2
SA	2
Ne	2
dk	2
NE	2
HO	2
IR	2
dx	2
VC	2
Fe	2
mb	2
DR	2
CI	2
Bo	2
DS	2
BO	2
LS	2
FC	2
IE	2
JS	2
Fl	2
GC	2
Wh	2
km	2
WE	2
OK	2
TF	2
IB	2
PC	2
yo	2
Oh	2
fn	2
CF	2
VM	2
CS	2
np	2
TS	2
tp	2
kg	2
iw	2
TC	2
Gu	2
MB	2
hs	2
Ro	2
Ke	2
rf	2
HE	2
ña	2
OF	2
OW	2
Po	2
BS	2
WR	2
FS	2
AG	2
ei	2
Db	2
LD	2
NN	2
ej	2
xs	2
Bl	2
RC	2
MI	2
FL	2
PR	2
Ac	2
VD	2
cb	2
ZE	2
GS	2
IA	2
Sw	2
Jo	2
rg	2
kw	2
cv	2
yc	2
fx	2
CG	2
tk	2
DP	2
bn	2
EC	2
ea	2
mk	2
CR	2
MT	2
fd	2
NU	2
dl	2
Op	2
EG	2
Pa	2
wp	2
VE	2
yk	2
Di	2
LC	2
XT	2
kc	2
Pi	2
bc	2
yz	2
tv	2
Br	2
gh	2
RS	2
MC	2
Sm	2
Hz	2
EM	2
DC	2
GA	2
kr	2
SL	2
BI	2
Av	2
wy	2
NI	2
nl	2
DT	2
WA	2
RT	2
PO	2
RY	2
LP	2
tf	2
EY	2
vy	2
UL	2
QU	2
BL	2
PM	2
OD	2
PF	2
Na	2
CN	2
fc	2
dc	2
rw	2
zm	2
lj	2
mc	2
SR	2
Fa	2
tc	2
GR	2
BB	2
Fr	2
wt	2
SU	2
TL	2
Ag	2
SY	2
OB	2
DU	2
HS	2
fb	2
YY	2
BR	2
tl	2
rv	2
kh	2
BE	2
EP	2
xl	2
TY	2
CV	2
Pe	2
PN	2
HA	2
UD	2
Sk	2
FR	2
wr	2
NC	2
Us	2
pd	2
SK	2
AE	2
WN	2
cé	2
TW	2
bg	2
FE	2
fg	2
hd	2
NR	2
sn	2
Az	2
jb	2
LY	2
mx	2
PG	2
Sl	2
SM	2
GO	2
xe	2
Qt	2
DK	2
xa	2
Ap	2
yj	2
KS	2
tz	2
Ah	2
nc	2
Sa	2
HI	2
rx	2
WT	2
MY	2
EE	2
qt	2
PP	2
cn	2
fp	2
VI	2
FB	2
XY	2
VP	2
vn	2
Hi	2
Eq	2
Fi	2
gz	2
cx	2
dm	2
rh	2
rp	2
SN	2
DL	2
PH	2
Py	2
dj	2
oa	2
iy	2
GP	2
lg	2
UK	2
TT	2
PY	2
OC	2
NT	2
SF	2
Mr	2
Ok	2
VA	2
Bi	2
pk	2
Cr	2
dg	2
GN	2
sb	2
vl	2
HR	2
MR	2
kb	2
jm	2
Ty	2
lm	2
rr	2
YS	2
GM	2
CB	2
PK	2
xc	2
VS	2
Ma	2
vt	2
sr	2
WI	2
FM	2
nr	2
AK	2
NF	2
tb	2
Mo	2
BY	2
jt	2
lp	2
nm	2
GV	2
SW	2
TM	2
UC	2
OH	2
NB	2
wx	2
IK	2
UG	2
Li	2
mn	2
DM	2
GT	2
nx	2
AI	2
Lu	2
VB	2
TI	2
pb	2
CM	2
TD	2
Ze	2
xf	2
vb	2
WD	2
Ha	2
fm	2
vu	2
TB	2
VO	2
PD	2
WH	2
fw	2
NL	2
zA	2
bp	2
MW	2
hh	2
jk	2
Js	2
NP	2
MQ	2
Si	2
qa	2
Dr	2
yi	2
EB	2
AU	2
jd	2
SG	2
KB	2
Gi	2
HD	2
Ca	2
gb	2
Hy	2
xp	2
FP	2
LM	2
WP	2
FD	2
qi	2
IZ	2
WM	2
FX	2
GG	2
hw	2
kv	2
OU	2
Mc	2
gc	2
Tw	2
vd	2
rn	2
lö	2
HH	2
lb	2
Da	2
dw	2
BF	2
RU	2
DN	2
XV	2
lv	2
mq	2
Ig	2
TX	2
jq	2
l	2
EQ	2
hp	2
BD	2
Fn	2
lr	2
mv	2
AW	2
LR	2
jl	2
EF	2
JB	2
WF	2
Cy	2
i	1
e	1
t	1
a	1
n	1
o	1
r	1
s	1
l	1
d	1
h	1
c	1
u	1
m	1
p	1
g	1
f	1
b	1
w	1
v	1
k	1
I	1
S	1
C	1
A	1
T	1
x	1
z	1
E	1
M	1
P	1
j	1
D	1
L	1
B	1
R	1
q	1
N	1
F	1
H	1
G	1
W	1
V	1
U	1
J	1
K	1
Q	1
X	1
Z	1
