▁characteristics	16
▁recommendations	16
▁representations	16
▁straightforward	16
▁representatives	16
▁transformations	16
▁electromagnetic	16
▁internationally	16
▁implementations	16
▁Representatives	16
▁superconducting	16
▁renormalization	16
Acknowledgements	16
▁accomplishments	16
▁interpretations	16
▁environmentally	16
▁vulnerabilities	16
▁differentiation	16
▁computationally	16
▁synchronization	16
▁professionalism	16
▁experimentation	16
▁entrepreneurial	16
▁confidentiality	16
acknowledgements	16
▁Congratulations	16
▁troubleshooting	16
▁competitiveness	16
▁congratulations	16
▁extraordinarily	16
<|startoftext|>	15
<issue_comment>	15
<commit_before>	15
includegraphics	15
▁representation	15
▁administration	15
▁responsibility	15
▁implementation	15
▁transformation	15
▁classification	15
▁infrastructure	15
▁representative	15
▁communications	15
▁characteristic	15
▁transportation	15
▁simultaneously	15
▁Administration	15
▁configurations	15
▁identification	15
▁reconstruction	15
▁recommendation	15
▁discrimination	15
▁administrative	15
▁generalization	15
▁investigations	15
▁correspondence	15
▁constitutional	15
▁considerations	15
▁Communications	15
▁specifications	15
springframework	15
▁authentication	15
▁aforementioned	15
▁sustainability	15
▁regularization	15
▁Transportation	15
▁concentrations	15
▁experimentally	15
▁disappointment	15
▁pharmaceutical	15
▁administrators	15
▁accountability	15
▁multiplication	15
▁advertisements	15
▁approximations	15
▁professionally	15
▁organizational	15
▁demonstrations	15
▁cryptocurrency	15
▁understandable	15
▁qualifications	15
▁Representative	15
▁systematically	15
▁susceptibility	15
▁rehabilitation	15
▁asymptotically	15
acknowledgments	15
▁initialization	15
Acknowledgments	15
▁accomplishment	15
▁accommodations	15
▁establishments	15
▁reconciliation	15
▁dimensionality	15
▁Infrastructure	15
▁Constitutional	15
▁differentiable	15
▁groundbreaking	15
▁overwhelmingly	15
▁electronically	15
▁collaborations	15
▁municipalities	15
businessinsider	15
▁distinguishing	15
▁supersymmetric	15
▁unconventional	15
textsuperscript	15
▁Superintendent	15
▁Classification	15
▁discretization	15
▁multiplicative	15
▁thermodynamics	15
▁quantitatively	15
▁interferometer	15
▁interconnected	15
▁scientifically	15
▁superintendent	15
▁Implementation	15
▁simplification	15
▁Pharmaceutical	15
▁characterizing	15
▁Administrative	15
▁archaeological	15
<issue_closed>	14
<jupyter_text>	14
<jupyter_code>	14
<empty_output>	14
<commit_after>	14
▁corresponding	14
▁international	14
▁understanding	14
▁International	14
▁communication	14
▁significantly	14
▁opportunities	14
▁configuration	14
▁organizations	14
▁approximately	14
▁relationships	14
▁investigation	14
▁environmental	14
▁contributions	14
▁approximation	14
▁professionals	14
▁distributions	14
▁circumstances	14
▁entertainment	14
▁comprehensive	14
▁Unfortunately	14
▁consideration	14
▁manufacturing	14
▁functionality	14
▁collaboration	14
▁concentration	14
▁computational	14
▁possibilities	14
▁conversations	14
▁manufacturers	14
▁determination	14
▁characterized	14
▁participating	14
▁effectiveness	14
▁gravitational	14
▁independently	14
▁unfortunately	14
▁uncertainties	14
▁Massachusetts	14
▁sophisticated	14
▁controversial	14
▁decomposition	14
▁psychological	14
▁establishment	14
▁uncomfortable	14
▁substantially	14
▁consciousness	14
▁probabilities	14
▁investigating	14
▁accommodation	14
▁normalization	14
▁organisations	14
▁Environmental	14
▁certification	14
▁Entertainment	14
▁technological	14
▁modifications	14
▁perturbations	14
▁inappropriate	14
▁demonstration	14
▁contradiction	14
longrightarrow	14
▁neighborhoods	14
▁collaborative	14
▁presentations	14
▁institutional	14
▁specification	14
▁unprecedented	14
▁notifications	14
▁convolutional	14
▁traditionally	14
▁investigators	14
▁appropriately	14
▁architectures	14
▁distinguished	14
▁compatibility	14
▁disappointing	14
▁administrator	14
▁perpendicular	14
▁exponentially	14
▁semiconductor	14
▁revolutionary	14
▁observational	14
▁knowledgeable	14
▁complications	14
▁reconstructed	14
▁conservatives	14
▁magnetization	14
▁neighbourhood	14
▁statistically	14
▁practitioners	14
▁undergraduate	14
▁contamination	14
▁architectural	14
▁complementary	14
▁demonstrating	14
▁vulnerability	14
▁incorporating	14
▁photographers	14
▁intentionally	14
▁communicating	14
▁encouragement	14
▁visualization	14
representation	14
▁interpolation	14
▁Communication	14
▁congressional	14
▁personalities	14
▁thermodynamic	14
▁theoretically	14
▁fundamentally	14
▁philosophical	14
▁Congressional	14
▁complimentary	14
▁illustrations	14
▁Alternatively	14
▁interventions	14
▁justification	14
▁advertisement	14
communications	14
▁Championships	14
▁accessibility	14
▁exceptionally	14
▁Interestingly	14
▁Configuration	14
▁grandchildren	14
▁predominantly	14
▁strengthening	14
ncorresponding	14
▁announcements	14
▁authorization	14
leftrightarrow	14
▁installations	14
▁informational	14
▁differentiate	14
▁dimensionless	14
▁spectroscopic	14
▁reinforcement	14
▁singularities	14
tabularnewline	14
▁championships	14
▁Understanding	14
▁qualitatively	14
▁fragmentation	14
▁qualification	14
▁homosexuality	14
▁instantaneous	14
▁inspirational	14
▁parliamentary	14
▁Administrator	14
▁experimenting	14
▁developmental	14
▁transcription	14
▁factorization	14
▁heterogeneous	14
▁unforgettable	14
▁correspondent	14
▁confrontation	14
▁compassionate	14
▁supplementary	14
▁consolidation	14
classification	14
▁assassination	14
overrightarrow	14
▁disappearance	14
▁jurisdictions	14
▁customization	14
▁profitability	14
▁clarification	14
▁inconvenience	14
▁proliferation	14
▁superposition	14
▁physiological	14
▁progressively	14
▁disadvantages	14
▁investigative	14
▁breastfeeding	14
▁Investigation	14
▁comprehension	14
▁Manufacturing	14
▁manifestation	14
▁ferromagnetic	14
▁acknowledging	14
▁amplification	14
▁instructional	14
▁precipitation	14
▁stabilization	14
▁righteousness	14
Authentication	14
▁subscriptions	14
▁irresponsible	14
▁extrapolation	14
▁constructions	14
▁insignificant	14
▁Conservatives	14
▁supersymmetry	14
▁strategically	14
▁restructuring	14
▁intersections	14
▁prescriptions	14
▁misunderstood	14
▁commissioners	14
▁underestimate	14
▁astrophysical	14
▁recombination	14
▁spontaneously	14
▁methodologies	14
▁comparatively	14
▁electrostatic	14
▁accommodating	14
▁alternatively	14
▁concentrating	14
▁applicability	14
▁beneficiaries	14
▁Certification	14
▁inhomogeneous	14
▁contemplating	14
▁discrepancies	14
Implementation	14
▁inadvertently	14
▁Documentation	14
▁interceptions	14
▁authoritative	14
▁unconditional	14
▁cybersecurity	14
▁Revolutionary	14
▁reimbursement	14
▁realistically	14
▁collaborating	14
▁transmissions	14
▁Collaboration	14
▁monotonically	14
▁deterioration	14
▁Professionals	14
▁documentaries	14
▁instabilities	14
▁headquartered	14
▁magnification	14
▁inexperienced	14
▁multinational	14
<|endoftext|>	13
<issue_start>	13
▁relationship	13
▁distribution	13
▁professional	13
stackexchange	13
▁respectively	13
▁applications	13
▁particularly	13
▁organization	13
▁construction	13
▁requirements	13
▁observations	13
▁conversation	13
▁contribution	13
▁specifically	13
▁experimental	13
▁measurements	13
▁neighborhood	13
▁interactions	13
▁architecture	13
▁successfully	13
▁instructions	13
▁technologies	13
▁calculations	13
▁installation	13
▁temperatures	13
▁intelligence	13
▁transmission	13
▁expectations	13
▁optimization	13
▁presentation	13
▁increasingly	13
▁institutions	13
▁consequences	13
▁conventional	13
▁conservative	13
▁introduction	13
▁improvements	13
▁demonstrated	13
▁registration	13
subsubsection	13
▁representing	13
▁differential	13
▁capabilities	13
▁environments	13
▁contemporary	13
▁consistently	13
▁availability	13
▁Additionally	13
▁Championship	13
▁championship	13
▁performances	13
▁presidential	13
▁announcement	13
▁investigated	13
▁manufacturer	13
▁restrictions	13
▁fluctuations	13
▁sufficiently	13
▁intermediate	13
▁compensation	13
▁transactions	13
▁polarization	13
▁occasionally	13
▁disappointed	13
▁Constitution	13
▁conservation	13
▁significance	13
▁overwhelming	13
▁considerable	13
▁Pennsylvania	13
▁subscription	13
▁correlations	13
▁Philadelphia	13
Configuration	13
▁experiencing	13
▁satisfaction	13
▁implications	13
▁independence	13
▁proportional	13
▁accomplished	13
▁perturbation	13
▁intervention	13
▁developments	13
▁intersection	13
▁universities	13
▁combinations	13
▁interference	13
▁difficulties	13
▁prescription	13
▁productivity	13
▁entertaining	13
▁segmentation	13
▁alternatives	13
▁corporations	13
▁contributing	13
▁demonstrates	13
▁unemployment	13
▁photographer	13
▁implementing	13
▁surprisingly	13
▁dramatically	13
▁acceleration	13
▁subsequently	13
▁continuously	13
▁incorporated	13
▁mathematical	13
▁entrepreneur	13
▁considerably	13
▁confirmation	13
▁Professional	13
▁modification	13
▁publications	13
▁negotiations	13
▁arrangements	13
▁cosmological	13
▁Christianity	13
▁Specifically	13
▁descriptions	13
▁individually	13
▁dependencies	13
▁connectivity	13
▁notification	13
▁acknowledged	13
▁participated	13
▁entanglement	13
▁agricultural	13
▁conditioning	13
▁headquarters	13
▁constitution	13
▁establishing	13
▁manufactured	13
▁Organization	13
▁superconduct	13
▁verification	13
▁appreciation	13
▁Thanksgiving	13
▁jurisdiction	13
▁quantitative	13
▁transparency	13
▁Intelligence	13
▁personalized	13
configuration	13
▁illustration	13
▁Commissioner	13
▁evolutionary	13
▁oscillations	13
▁Consequently	13
▁localization	13
▁counterparts	13
▁confidential	13
▁concentrated	13
▁additionally	13
▁accidentally	13
▁achievements	13
▁explanations	13
▁relativistic	13
▁perspectives	13
▁associations	13
▁manipulation	13
▁destinations	13
▁cancellation	13
▁surroundings	13
▁displacement	13
▁disabilities	13
▁stakeholders	13
▁Construction	13
▁historically	13
▁deliberately	13
▁contributors	13
▁coordination	13
▁similarities	13
▁Technologies	13
▁characterize	13
▁accompanying	13
▁consequently	13
▁acknowledges	13
▁civilization	13
▁partnerships	13
▁constructing	13
▁highlighting	13
▁inflammation	13
▁inconsistent	13
▁conductivity	13
▁recreational	13
▁shareholders	13
▁certificates	13
▁appointments	13
▁breakthrough	13
▁hierarchical	13
▁inequalities	13
▁completeness	13
▁simultaneous	13
▁spokesperson	13
▁conveniently	13
▁Applications	13
▁Conservative	13
▁preservation	13
▁reproduction	13
▁refrigerator	13
▁questionable	13
▁administered	13
▁approximated	13
▁competitions	13
▁Registration	13
▁constructive	13
▁Architecture	13
▁embarrassing	13
▁storytelling	13
▁continuation	13
▁transforming	13
▁computations	13
▁Commonwealth	13
▁collectively	13
nrespectively	13
▁reservations	13
▁periodically	13
▁augmentation	13
▁annihilation	13
▁accumulation	13
▁perturbative	13
▁anticipation	13
▁commissioned	13
▁incorporates	13
▁substitution	13
▁disadvantage	13
▁Independence	13
▁translations	13
▁unacceptable	13
▁satisfactory	13
▁quantization	13
▁transferring	13
▁economically	13
▁unsupervised	13
ndistribution	13
▁compositions	13
▁Metropolitan	13
▁standardized	13
▁disconnected	13
▁commissioner	13
▁spectroscopy	13
▁multiplicity	13
▁celebrations	13
▁Conservation	13
▁unbelievable	13
▁supernatural	13
▁constituents	13
▁Distribution	13
▁congregation	13
▁preparations	13
▁reproductive	13
EventListener	13
▁geographical	13
▁analytically	13
▁Presidential	13
communication	13
▁breathtaking	13
▁practitioner	13
▁illumination	13
▁contaminated	13
▁dissertation	13
▁unsuccessful	13
▁commercially	13
▁equivalently	13
▁broadcasting	13
▁disagreement	13
▁Installation	13
▁Requirements	13
▁firefighters	13
▁circumstance	13
▁scholarships	13
▁aggressively	13
▁authenticity	13
▁unreasonable	13
▁investigator	13
▁unexpectedly	13
▁ridiculously	13
▁metropolitan	13
▁minimization	13
▁psychologist	13
▁photographed	13
▁catastrophic	13
▁Participants	13
▁governmental	13
▁incompatible	13
▁enhancements	13
▁hypothetical	13
▁specializing	13
▁distributing	13
▁photographic	13
▁imprisonment	13
▁volunteering	13
▁Jacksonville	13
▁efficiencies	13
▁communicated	13
▁neighbouring	13
▁accelerating	13
▁kindergarten	13
▁recommending	13
▁advantageous	13
▁condensation	13
▁transmitting	13
▁expenditures	13
▁strengthened	13
▁interviewing	13
▁homomorphism	13
▁indefinitely	13
▁intimidating	13
▁repositories	13
▁acquisitions	13
▁permutations	13
▁partitioning	13
▁resurrection	13
International	13
▁irrespective	13
▁chemotherapy	13
▁Optimization	13
▁hydrodynamic	13
▁realizations	13
▁substituting	13
▁shortcomings	13
▁illustrating	13
▁supplemental	13
▁tremendously	13
▁synchronized	13
▁Contemporary	13
▁facilitating	13
▁fluorescence	13
▁distributors	13
▁demographics	13
▁eccentricity	13
▁replacements	13
▁spirituality	13
documentation	13
▁Universities	13
▁commentators	13
▁coordinating	13
▁eigenvectors	13
▁distractions	13
▁strawberries	13
▁complexities	13
▁discontinued	13
▁disappearing	13
▁orientations	13
▁luminosities	13
▁laboratories	13
▁automorphism	13
▁artificially	13
▁effortlessly	13
▁horizontally	13
▁manipulating	13
▁transporting	13
▁prostitution	13
▁multivariate	13
▁compromising	13
▁unparalleled	13
▁regeneration	13
▁Agricultural	13
▁Neighborhood	13
▁consolidated	13
▁Experimental	13
▁sequentially	13
▁disciplinary	13
textsubscript	13
▁Particularly	13
▁examinations	13
Unfortunately	13
▁transitional	13
▁formulations	13
▁deficiencies	13
▁Notification	13
▁psychiatrist	13
▁astronomical	13
▁neurological	13
▁electrically	13
▁undocumented	13
ustainability	13
▁distillation	13
▁deformations	13
▁redistribute	13
▁interception	13
▁hypertension	13
▁Relationship	13
corresponding	13
▁renormalized	13
▁wavefunction	13
▁quarterbacks	13
▁downloadable	13
▁advancements	13
▁nonlinearity	13
▁predecessors	13
▁philosophers	13
▁supermarkets	13
▁illustrative	13
▁legalization	13
▁fermentation	13
▁collaborated	13
▁information	12
▁performance	12
▁significant	12
▁development	12
▁environment	12
▁temperature	12
▁interesting	12
▁application	12
▁opportunity	12
▁independent	12
▁immediately	12
▁individuals	12
▁probability	12
▁traditional	12
▁responsible	12
▁interaction	12
▁description	12
▁combination	12
▁established	12
▁comfortable	12
▁considering	12
▁alternative	12
▁experienced	12
▁experiments	12
▁competition	12
▁experiences	12
▁communities	12
▁Association	12
▁differences	12
▁perspective	12
▁manufacture	12
▁possibility	12
▁distributed	12
▁correlation	12
▁Information	12
▁effectively	12
▁simulations	12
▁advertising	12
▁improvement	12
▁measurement	12
▁recommended	12
▁represented	12
▁Development	12
▁researchers	12
▁implemented	12
▁corresponds	12
▁challenging	12
▁essentially	12
▁competitive	12
▁potentially	12
▁constraints	12
▁integration	12
▁surrounding	12
Introduction	12
▁maintenance	12
▁programming	12
▁observation	12
▁engineering	12
▁uncertainty	12
▁authorities	12
▁complicated	12
▁demonstrate	12
▁participate	12
▁investigate	12
▁educational	12
▁theoretical	12
▁suggestions	12
▁replacement	12
▁calculation	12
▁discussions	12
▁connections	12
▁legislation	12
▁recognition	12
▁Hamiltonian	12
▁explanation	12
▁partnership	12
▁Republicans	12
operatorname	12
▁consumption	12
▁restaurants	12
▁constructed	12
▁destination	12
▁requirement	12
▁predictions	12
▁statistical	12
▁regulations	12
▁inspiration	12
▁personality	12
▁computation	12
▁composition	12
▁transaction	12
▁publication	12
▁translation	12
▁association	12
▁substantial	12
▁electricity	12
▁outstanding	12
▁communicate	12
▁governments	12
▁sensitivity	12
▁convergence	12
▁consequence	12
▁limitations	12
▁preparation	12
displaystyle	12
▁orientation	12
▁equilibrium	12
▁maintaining	12
▁Environment	12
▁acknowledge	12
▁importantly	12
▁assumptions	12
▁frequencies	12
▁politicians	12
▁differently	12
▁appreciated	12
▁immigration	12
▁instruction	12
▁expressions	12
▁photography	12
▁appointment	12
▁sustainable	12
▁Description	12
▁anniversary	12
▁transitions	12
▁populations	12
▁corrections	12
▁Corporation	12
▁illustrated	12
▁residential	12
▁generations	12
▁flexibility	12
▁dimensional	12
▁interactive	12
▁expectation	12
▁institution	12
▁efficiently	12
▁generalized	12
▁approximate	12
▁certificate	12
▁exploration	12
▁consistency	12
▁counterpart	12
▁convolution	12
▁destruction	12
▁celebration	12
▁determining	12
▁contributed	12
▁consecutive	12
▁instruments	12
▁exceptional	12
▁Engineering	12
▁conclusions	12
▁Proposition	12
▁acquisition	12
▁photographs	12
▁investments	12
▁encouraging	12
▁transferred	12
▁identifying	12
▁introducing	12
▁exclusively	12
▁involvement	12
▁distinguish	12
▁fascinating	12
▁quarterback	12
▁definitions	12
▁reconstruct	12
▁topological	12
▁cooperation	12
nfortunately	12
▁arrangement	12
▁accessories	12
▁Application	12
▁transformed	12
▁incorporate	12
▁documentary	12
▁exponential	12
▁preferences	12
▁examination	12
▁spectacular	12
▁progressive	12
▁compression	12
▁controlling	12
▁imagination	12
▁operational	12
▁accompanied	12
▁collections	12
▁formulation	12
▁competitors	12
▁interpreted	12
▁encountered	12
▁accommodate	12
▁practically	12
▁reliability	12
▁propagation	12
▁achievement	12
▁initiatives	12
▁journalists	12
▁permissions	12
▁derivatives	12
▁departments	12
▁underground	12
▁Performance	12
▁allegations	12
▁restriction	12
▁anticipated	12
▁approaching	12
▁accordingly	12
▁specialized	12
▁homogeneous	12
▁interacting	12
▁distinction	12
▁electronics	12
▁beautifully	12
▁preliminary	12
▁conditional	12
footnotesize	12
▁enhancement	12
▁transmitted	12
▁frustrating	12
▁appearances	12
▁backgrounds	12
▁celebrating	12
▁frustration	12
▁medications	12
▁Mississippi	12
▁methodology	12
▁threatening	12
▁lightweight	12
▁instability	12
▁informative	12
▁thermodynam	12
▁calibration	12
▁technically	12
▁marketplace	12
▁polynomials	12
▁controversy	12
▁legislative	12
bibliography	12
▁understands	12
▁agriculture	12
▁concentrate	12
▁conjunction	12
▁participant	12
▁realization	12
▁scholarship	12
▁illustrates	12
▁Philippines	12
▁Connecticut	12
▁disappeared	12
▁functioning	12
▁assignments	12
▁subscribers	12
▁continually	12
▁emotionally	12
▁adversarial	12
▁corporation	12
▁Independent	12
▁comparisons	12
plementation	12
▁variability	12
▁Netherlands	12
▁proposition	12
▁unfortunate	12
▁interviewed	12
▁supplements	12
▁influential	12
▁extensively	12
▁Christopher	12
▁complaining	12
▁politically	12
▁permanently	12
▁numerically	12
▁temporarily	12
▁neighboring	12
▁credentials	12
▁calculating	12
▁distinctive	12
▁restoration	12
▁equivalence	12
▁obligations	12
▁contributes	12
▁supervision	12
▁prospective	12
▁speculation	12
▁atmospheric	12
▁projections	12
▁downloading	12
▁financially	12
▁specialists	12
▁progression	12
▁integrating	12
▁grandfather	12
▁Switzerland	12
▁devastating	12
▁conferences	12
▁promotional	12
▁resolutions	12
▁accountable	12
subequations	12
▁attractions	12
▁deformation	12
▁qualitative	12
▁submissions	12
▁questioning	12
▁mathematics	12
▁credibility	12
▁desperately	12
▁singularity	12
▁Fortunately	12
▁irreducible	12
▁isomorphism	12
▁respondents	12
▁declaration	12
▁eliminating	12
▁metallicity	12
▁circulation	12
▁reservation	12
▁dysfunction	12
▁nonetheless	12
▁proprietary	12
▁prosecution	12
▁recruitment	12
▁inexpensive	12
▁hospitality	12
▁undoubtedly	12
▁discovering	12
▁magnificent	12
▁demographic	12
▁researching	12
▁spontaneous	12
▁willingness	12
▁observables	12
▁positioning	12
▁celebrities	12
▁prestigious	12
▁coincidence	12
▁constitutes	12
▁citizenship	12
▁contributor	12
▁enterprises	12
▁accelerated	12
▁drastically	12
▁fundraising	12
▁oscillation	12
▁permutation	12
▁variational	12
▁destructive	12
▁Considering	12
▁transported	12
▁logarithmic	12
▁assessments	12
▁innovations	12
▁Shakespeare	12
▁cooperative	12
▁Agriculture	12
▁comfortably	12
▁outperforms	12
▁accumulated	12
▁forthcoming	12
▁nutritional	12
▁degradation	12
▁compilation	12
▁discrepancy	12
construction	12
▁foundations	12
▁legislature	12
▁dynamically	12
▁commitments	12
▁PlayStation	12
▁prosecutors	12
▁wavelengths	12
ninformation	12
▁photometric	12
▁elimination	12
▁conventions	12
renewcommand	12
distribution	12
▁recognizing	12
▁disciplines	12
▁susceptible	12
▁trafficking	12
▁multiplayer	12
▁excitations	12
▁territories	12
▁TripAdvisor	12
▁termination	12
▁remembering	12
▁advertisers	12
▁directories	12
▁tournaments	12
▁compromised	12
▁fluctuation	12
▁penetration	12
Notification	12
▁inhabitants	12
▁placeholder	12
▁accusations	12
▁overlapping	12
ntemperature	12
▁aggregation	12
▁specializes	12
▁eligibility	12
▁Certificate	12
▁dissipation	12
▁unconscious	12
▁evaluations	12
▁annotations	12
▁countryside	12
▁transformer	12
▁embarrassed	12
▁supermarket	12
▁spokeswoman	12
▁forgiveness	12
▁antibiotics	12
▁consultants	12
▁utilization	12
▁alternating	12
▁terminology	12
▁Legislature	12
▁discoveries	12
▁initialized	12
▁predecessor	12
▁collaborate	12
▁coordinated	12
▁Observatory	12
▁Photography	12
▁protections	12
▁interchange	12
▁persistence	12
▁conditioned	12
▁legislators	12
▁rectangular	12
▁interrupted	12
▁Competition	12
▁reflections	12
▁intentional	12
▁wonderfully	12
▁impressions	12
▁Accordingly	12
▁advancement	12
▁stimulation	12
▁attachments	12
▁Minneapolis	12
▁proportions	12
▁protagonist	12
▁conductance	12
▁overlooking	12
▁technicians	12
▁commercials	12
▁compartment	12
▁negotiating	12
▁meaningless	12
▁contraction	12
▁resignation	12
▁sponsorship	12
▁incorrectly	12
▁distraction	12
▁productions	12
▁Nonetheless	12
▁denominator	12
▁businessman	12
▁ideological	12
▁perceptions	12
Experimental	12
▁astonishing	12
▁registering	12
▁compensated	12
▁fingerprint	12
▁undertaking	12
▁decorations	12
▁pornography	12
▁implication	12
organization	12
▁Partnership	12
▁expenditure	12
▁frightening	12
▁Enforcement	12
▁correctness	12
disciplinary	12
▁diffraction	12
▁ineffective	12
▁Electronics	12
▁battlefield	12
▁cylindrical	12
▁commutative	12
introduction	12
▁sympathetic	12
▁classifiers	12
▁commissions	12
▁descriptive	12
relativistic	12
▁friendships	12
▁Interactive	12
▁eigenstates	12
notification	12
▁negotiation	12
▁settlements	12
▁stereotypes	12
▁designation	12
mcitedefault	12
▁restrictive	12
▁trustworthy	12
▁Programming	12
▁Immigration	12
▁possessions	12
▁centralized	12
▁inheritance	12
▁comparative	12
▁nominations	12
▁Transformer	12
▁Traditional	12
perturbative	12
▁Declaration	12
▁manipulated	12
▁Anniversary	12
▁establishes	12
▁conflicting	12
▁stimulating	12
▁contracting	12
▁genetically	12
▁screenshots	12
▁masterpiece	12
▁commodities	12
▁unrealistic	12
▁conversions	12
▁restricting	12
▁intensities	12
▁feasibility	12
▁entertained	12
▁Westminster	12
▁aspirations	12
▁embodiments	12
withstanding	12
▁originating	12
▁Renaissance	12
▁substituted	12
▁Springfield	12
professional	12
▁distributor	12
▁indications	12
▁fabrication	12
▁unsubscribe	12
▁forecasting	12
▁Mathematics	12
▁convictions	12
▁geometrical	12
▁Educational	12
▁fashionable	12
▁psychiatric	12
▁exhibitions	12
▁adventurous	12
▁continental	12
▁versatility	12
▁replication	12
▁Alternative	12
▁pedestrians	12
▁Advertising	12
▁propagating	12
▁affiliation	12
▁subtraction	12
▁philosopher	12
▁disturbance	12
▁universally	12
▁ventilation	12
▁spreadsheet	12
ndescription	12
▁nonnegative	12
▁Preferences	12
▁superiority	12
▁constituent	12
▁holomorphic	12
▁Translation	12
▁Maintenance	12
▁discouraged	12
▁voluntarily	12
▁Coordinator	12
▁Temperature	12
▁procurement	12
▁Integration	12
▁empirically	12
architecture	12
▁encompasses	12
▁vaccination	12
▁circulating	12
dependencies	12
▁coronavirus	12
▁persecution	12
▁tablespoons	12
Registration	12
▁motivations	12
▁theological	12
▁Communities	12
▁Researchers	12
▁abstraction	12
▁Underground	12
▁Productions	12
▁insensitive	12
▁Progressive	12
▁shareholder	12
▁attenuation	12
▁prohibition	12
▁directional	12
▁synthesized	12
▁consciously	12
▁Opportunity	12
▁adolescents	12
▁motherboard	12
▁Scholarship	12
▁inspections	12
▁cardinality	12
▁Continental	12
▁outsourcing	12
▁holographic	12
▁Sustainable	12
▁percentages	12
▁entitlement	12
▁scalability	12
▁Interesting	12
▁multiplying	12
▁undesirable	12
relationship	12
▁influencing	12
▁documenting	12
▁campaigning	12
▁obstruction	12
▁Australians	12
▁electroweak	12
▁Congressman	12
▁landscaping	12
▁precautions	12
ographically	12
▁facilitated	12
▁exaggerated	12
▁ultraviolet	12
▁occurrences	12
▁accelerator	12
▁unsupported	12
▁INFORMATION	12
▁sensational	12
▁translating	12
▁festivities	12
▁householder	12
▁Essentially	12
▁emergencies	12
▁revelations	12
▁illuminated	12
▁alterations	12
▁resistivity	12
▁sacrificing	12
▁selectively	12
particularly	12
▁unanimously	12
▁identically	12
▁bestselling	12
Distribution	12
Availability	12
▁familiarity	12
▁provocative	12
▁foreclosure	12
▁furnishings	12
▁distortions	12
▁butterflies	12
▁desperation	12
▁speculative	12
▁contrasting	12
▁renovations	12
Applications	12
▁imaginative	12
▁volunteered	12
▁Improvement	12
OutputStream	12
▁referencing	12
▁concessions	12
▁disciplined	12
▁liabilities	12
▁confidently	12
▁Collections	12
▁invitations	12
▁fascination	12
▁Regulations	12
▁Transaction	12
▁supervisors	12
ninteraction	12
▁professions	12
registration	12
▁bureaucracy	12
▁diagnostics	12
▁existential	12
reliminaries	12
EventHandler	12
▁cultivation	12
▁distracting	12
▁progressing	12
▁brilliantly	12
▁Recognition	12
▁motorcycles	12
▁spiritually	12
▁constituted	12
▁Institution	12
▁retaliation	12
▁Statistical	12
JsonProperty	12
▁substantive	12
▁blockbuster	12
▁transcripts	12
▁fluorescent	12
▁seriousness	12
nprobability	12
▁incompetent	12
▁manuscripts	12
▁Individuals	12
▁heavyweight	12
▁girlfriends	12
▁streamlined	12
respectively	12
▁diminishing	12
▁interfering	12
▁earthquakes	12
▁prominently	12
▁Corinthians	12
▁Marketplace	12
▁consultancy	12
▁emphasizing	12
▁affirmative	12
▁criticizing	12
▁contentious	12
▁Celebration	12
▁periodicity	12
▁enlightened	12
▁empowerment	12
▁Southampton	12
▁commentator	12
▁commemorate	12
▁evangelical	12
▁activations	12
▁understand	11
▁experience	11
▁particular	11
▁government	11
▁individual	11
▁everything	11
▁University	11
▁correspond	11
▁especially	11
▁conditions	11
▁considered	11
▁difference	11
▁technology	11
▁additional	11
▁themselves	11
▁completely	11
▁production	11
▁experiment	11
▁associated	11
▁management	11
▁background	11
▁throughout	11
▁properties	11
▁increasing	11
▁interested	11
▁definitely	11
▁collection	11
▁characters	11
▁activities	11
▁Department	11
▁successful	11
▁connection	11
▁components	11
▁Washington	11
▁California	11
▁transition	11
▁discussion	11
▁determined	11
▁generation	11
▁introduced	11
▁previously	11
▁commercial	11
▁investment	11
▁definition	11
▁businesses	11
▁expression	11
▁eventually	11
▁comparison	11
▁resolution	11
▁absolutely	11
▁operations	11
▁techniques	11
▁consistent	11
▁relatively	11
▁conference	11
▁represents	11
multicolumn	11
▁protection	11
▁equivalent	11
▁processing	11
dimensional	11
▁calculated	11
▁developing	11
▁identified	11
▁importance	11
▁Commission	11
▁discovered	11
▁approaches	11
▁department	11
▁structures	11
▁Foundation	11
▁efficiency	11
▁impossible	11
▁reasonable	11
▁leadership	11
▁restaurant	11
▁appearance	11
▁Republican	11
▁candidates	11
▁television	11
▁continuous	11
▁appreciate	11
▁electronic	11
▁containing	11
▁simulation	11
▁disappoint	11
▁scientific	11
rastructure	11
▁facilities	11
▁Management	11
▁literature	11
▁functional	11
▁university	11
▁situations	11
▁supporting	11
▁apparently	11
▁personally	11
▁registered	11
▁prediction	11
▁constantly	11
▁comprehens	11
▁originally	11
▁frequently	11
▁historical	11
▁assistance	11
▁polynomial	11
▁commission	11
▁evaluation	11
▁surprising	11
▁algorithms	11
▁integrated	11
▁statistics	11
▁percentage	11
▁contribute	11
▁understood	11
▁developers	11
▁statements	11
▁assumption	11
▁conclusion	11
▁ultimately	11
▁incredible	11
description	11
▁controlled	11
▁performing	11
▁everywhere	11
▁commitment	11
▁scattering	11
▁resistance	11
▁atmosphere	11
▁instrument	11
▁Australian	11
▁permission	11
▁complexity	11
▁impressive	11
▁photograph	11
▁recognized	11
▁underlying	11
▁Technology	11
▁scientists	11
▁directions	11
▁incredibly	11
▁continuing	11
▁accessible	11
▁procedures	11
▁Conference	11
▁principles	11
▁employment	11
▁attractive	11
▁applicable	11
▁respective	11
▁opposition	11
▁foundation	11
▁affordable	11
▁revolution	11
▁monitoring	11
▁references	11
▁inequality	11
▁assessment	11
▁innovative	11
▁tournament	11
▁reputation	11
▁subsequent	11
▁supplement	11
▁derivative	11
▁difficulty	11
▁basketball	11
▁guidelines	11
▁membership	11
▁innovation	11
▁compatible	11
▁constraint	11
▁variations	11
▁separation	11
▁correction	11
▁conversion	11
▁concerning	11
▁girlfriend	11
▁physically	11
▁generating	11
columnwidth	11
▁entreprene	11
▁electrical	11
▁unexpected	11
▁struggling	11
▁satisfying	11
▁quantities	11
▁accomplish	11
▁colleagues	11
▁depression	11
▁compliance	11
▁philosophy	11
▁projection	11
▁navigation	11
▁complement	11
▁boundaries	11
▁guaranteed	11
▁officially	11
▁maintained	11
▁retirement	11
▁encouraged	11
▁collective	11
▁mechanical	11
▁reflection	11
▁engagement	11
▁comparable	11
▁attributes	11
▁meaningful	11
▁interviews	11
▁advantages	11
▁impression	11
▁connecting	11
resentation	11
▁wavelength	11
▁restricted	11
▁hypothesis	11
▁supporters	11
▁completion	11
▁enterprise	11
▁phenomenon	11
▁acceptable	11
▁mechanisms	11
▁absorption	11
▁highlights	11
▁likelihood	11
▁aggressive	11
▁initiative	11
▁industries	11
▁validation	11
▁describing	11
▁purchasing	11
▁assignment	11
▁Everything	11
▁structural	11
▁indicating	11
Description	11
▁horizontal	11
▁separately	11
▁accordance	11
▁suggesting	11
▁attempting	11
▁luminosity	11
▁motivation	11
pecifically	11
▁treatments	11
▁beneficial	11
▁regulation	11
▁capability	11
▁convention	11
▁artificial	11
▁volunteers	11
▁regression	11
▁mainstream	11
▁vegetables	11
▁discussing	11
▁installing	11
▁surrounded	11
▁normalized	11
▁publishing	11
▁households	11
▁classified	11
▁possession	11
▁proportion	11
▁repeatedly	11
▁similarity	11
▁simplicity	11
▁consisting	11
▁systematic	11
▁JavaScript	11
▁activation	11
▁popularity	11
▁accurately	11
▁passionate	11
▁accounting	11
▁medication	11
▁Collection	11
▁protecting	11
▁complaints	11
▁biological	11
▁suggestion	11
▁acceptance	11
▁networking	11
▁dispersion	11
▁corruption	11
Application	11
▁regulatory	11
▁delivering	11
▁creativity	11
▁productive	11
▁exhibition	11
▁objectives	11
▁explaining	11
▁thoroughly	11
▁settlement	11
▁specialist	11
▁perception	11
▁downloaded	11
▁Parliament	11
▁relaxation	11
▁elementary	11
▁collecting	11
▁preference	11
▁influenced	11
▁Protection	11
▁threatened	11
▁passengers	11
▁decreasing	11
▁analytical	11
appropriate	11
▁celebrated	11
proposition	11
▁repository	11
▁extensions	11
▁immigrants	11
▁tremendous	11
▁illustrate	11
application	11
▁remembered	11
▁parliament	11
▁determines	11
▁reasonably	11
▁substitute	11
▁Revolution	11
▁submission	11
▁provisions	11
▁friendship	11
▁outperform	11
▁compelling	11
▁compassion	11
▁inspection	11
▁journalist	11
▁approached	11
▁adaptation	11
▁discipline	11
▁configured	11
▁laboratory	11
▁collisions	11
▁suspension	11
▁designated	11
▁extraction	11
▁structured	11
▁occasional	11
▁correlated	11
▁widespread	11
▁addressing	11
▁Especially	11
▁preventing	11
▁indication	11
▁stationary	11
▁punishment	11
▁Experience	11
▁implements	11
▁curriculum	11
▁compromise	11
▁mysterious	11
▁deployment	11
▁completing	11
▁excitation	11
▁commentary	11
▁clustering	11
▁attributed	11
▁afterwards	11
▁frustrated	11
▁attraction	11
▁presenting	11
▁dependency	11
▁classifier	11
▁authorized	11
▁disability	11
▁adventures	11
▁strengthen	11
▁Convention	11
▁manuscript	11
▁inevitable	11
▁brightness	11
▁prevention	11
▁translated	11
▁newspapers	11
▁iterations	11
▁travelling	11
▁underneath	11
▁agreements	11
▁challenged	11
▁Pittsburgh	11
▁introduces	11
▁amplitudes	11
▁violations	11
▁conspiracy	11
▁guarantees	11
▁occupation	11
▁comprising	11
▁attendance	11
▁exceptions	11
▁traditions	11
▁embeddings	11
▁meditation	11
▁terrorists	11
▁consultant	11
▁velocities	11
▁influences	11
▁executives	11
▁priorities	11
▁limitation	11
▁documented	11
▁altogether	11
▁Enterprise	11
▁disclosure	11
▁embodiment	11
▁visibility	11
▁consulting	11
performance	11
▁conducting	11
▁supportive	11
▁eliminated	11
▁obligation	11
▁irrelevant	11
▁protective	11
▁infections	11
▁responding	11
▁psychology	11
▁constitute	11
▁evaluating	11
▁Lagrangian	11
▁potentials	11
▁invitation	11
▁nationwide	11
▁submitting	11
▁persistent	11
▁signatures	11
▁interfaces	11
▁journalism	11
▁Apparently	11
▁practicing	11
▁distribute	11
▁politician	11
▁prescribed	11
▁simplified	11
▁attachment	11
▁allocation	11
▁questioned	11
▁supposedly	11
▁profitable	11
▁prohibited	11
▁affiliated	11
▁discretion	11
▁recordings	11
▁Federation	11
▁partitions	11
▁intentions	11
▁extinction	11
▁blockchain	11
▁positioned	11
▁conviction	11
▁convincing	11
information	11
▁customized	11
▁applicants	11
Collections	11
▁pronounced	11
▁refreshing	11
▁excellence	11
▁occurrence	11
▁publishers	11
independent	11
▁recruiting	11
▁supervised	11
▁suppressed	11
▁suspicious	11
▁apartments	11
▁dedication	11
▁intriguing	11
▁graduation	11
▁responsive	11
▁nomination	11
▁transcript	11
▁automation	11
▁covariance	11
▁observable	11
▁organizing	11
▁summarized	11
▁expressing	11
▁divergence	11
▁Associated	11
▁governance	11
▁physicians	11
▁distortion	11
▁Additional	11
▁securities	11
▁propaganda	11
▁reflecting	11
▁scheduling	11
▁identities	11
▁presumably	11
hentication	11
▁rotational	11
▁subjective	11
▁researcher	11
▁withdrawal	11
▁incentives	11
Transaction	11
▁motorcycle	11
▁Eventually	11
▁encounters	11
▁encryption	11
▁disturbing	11
▁positively	11
▁preserving	11
▁conjecture	11
▁incomplete	11
scriptstyle	11
▁thoughtful	11
temperature	11
▁continuity	11
Conclusions	11
▁destroying	11
▁perfection	11
▁vocabulary	11
▁formulated	11
▁inevitably	11
▁headphones	11
▁appliances	11
▁modulation	11
▁displaying	11
▁substances	11
▁predicting	11
▁fractional	11
▁commenting	11
▁Investment	11
▁compressed	11
▁soundtrack	11
▁automotive	11
▁worthwhile	11
▁preferably	11
▁stretching	11
▁downstream	11
▁Laboratory	11
▁recovering	11
▁deviations	11
▁recommends	11
▁Operations	11
▁nationally	11
▁counseling	11
development	11
▁complained	11
▁behavioral	11
▁Generation	11
tikzpicture	11
▁Leadership	11
▁predictive	11
▁mentioning	11
▁cumulative	11
▁autonomous	11
▁litigation	11
▁converting	11
▁minimizing	11
▁promotions	11
▁turbulence	11
▁Cincinnati	11
▁misleading	11
▁earthquake	11
▁WARRANTIES	11
▁qualifying	11
▁Properties	11
▁identifies	11
▁derivation	11
▁referendum	11
▁critically	11
▁Statistics	11
▁identifier	11
▁Individual	11
▁Elementary	11
▁processors	11
▁criticized	11
▁greenhouse	11
▁sequential	11
▁Commercial	11
▁companions	11
▁accelerate	11
▁diplomatic	11
▁saturation	11
▁Definition	11
▁conceptual	11
usercontent	11
▁overlooked	11
▁subsection	11
▁discomfort	11
▁Associates	11
▁transforms	11
▁Conditions	11
▁translates	11
▁Scientific	11
▁infinitely	11
▁Innovation	11
ratulations	11
▁homeowners	11
▁selections	11
▁referenced	11
▁foreground	11
▁annotation	11
▁reproduced	11
▁contacting	11
▁Tournament	11
▁capitalism	11
▁respectful	11
▁Birmingham	11
▁homosexual	11
▁performers	11
▁generality	11
▁recognised	11
environment	11
▁Restaurant	11
▁isomorphic	11
▁projective	11
▁announcing	11
▁Connection	11
▁enrollment	11
▁competitor	11
▁remarkably	11
▁weaknesses	11
▁touchdowns	11
▁vegetarian	11
▁recipients	11
Environment	11
▁frameworks	11
▁professors	11
▁Initiative	11
▁pedestrian	11
▁anticipate	11
▁internally	11
▁presidency	11
▁initialize	11
▁supervisor	11
▁originated	11
▁proceeding	11
▁Throughout	11
▁asymmetric	11
▁successive	11
▁measurable	11
▁durability	11
▁revelation	11
▁recognizes	11
▁playground	11
▁regulators	11
▁symmetries	11
▁delightful	11
▁neighbours	11
▁privileges	11
▁committing	11
▁inherently	11
▁associates	11
▁undertaken	11
Information	11
▁separating	11
▁transplant	11
▁confronted	11
▁fulfilling	11
displaymath	11
▁emphasized	11
▁requesting	11
▁negatively	11
correlation	11
▁magnitudes	11
▁conscience	11
▁provincial	11
▁adequately	11
▁metabolism	11
▁underwater	11
▁advertised	11
▁Historical	11
▁resonances	11
▁affiliates	11
▁Prevention	11
▁Publishing	11
▁prosperity	11
probability	11
▁disconnect	11
▁satellites	11
▁unemployed	11
algorithmic	11
▁Personally	11
▁contextual	11
▁distracted	11
▁imperative	11
▁Supplement	11
▁prosecutor	11
▁defendants	11
▁organizers	11
▁minorities	11
▁instructed	11
▁prevalence	11
▁generalize	11
▁definitive	11
▁disruption	11
▁Electronic	11
▁screenshot	11
▁Portuguese	11
conditional	11
▁recreation	11
▁undergoing	11
▁Television	11
▁throughput	11
▁Bangladesh	11
▁Discussion	11
▁attracting	11
▁comprehend	11
▁volatility	11
▁concurrent	11
▁Sacramento	11
▁terrifying	11
▁thereafter	11
Backgrounds	11
transaction	11
▁ambassador	11
▁discounted	11
▁reductions	11
▁formatting	11
▁peripheral	11
▁hyperbolic	11
▁renovation	11
▁exercising	11
▁benchmarks	11
▁graduating	11
▁confirming	11
▁indirectly	11
▁engineered	11
▁standpoint	11
▁charitable	11
▁inaccurate	11
▁unpleasant	11
▁currencies	11
▁generative	11
▁pertaining	11
▁triangular	11
▁subscriber	11
▁geographic	11
▁Montgomery	11
▁kilometers	11
▁dealership	11
responsible	11
▁subsidiary	11
▁CONDITIONS	11
▁Securities	11
▁aggression	11
▁committees	11
▁optimizing	11
▁solidarity	11
▁disgusting	11
▁amendments	11
▁irrational	11
▁photometry	11
▁dielectric	11
▁infectious	11
▁Processing	11
▁overweight	11
translation	11
▁insulation	11
▁Depression	11
▁insightful	11
▁reflective	11
▁thresholds	11
▁Assessment	11
▁forgetting	11
▁congestion	11
▁economists	11
▁pretending	11
▁yourselves	11
▁linebacker	11
▁paragraphs	11
▁privileged	11
Proposition	11
▁disappears	11
▁classrooms	11
▁deposition	11
▁Louisville	11
▁decorating	11
▁researched	11
▁contention	11
▁Industries	11
▁architects	11
▁extracting	11
▁Background	11
▁Ambassador	11
▁ecological	11
▁morphology	11
▁Evaluation	11
▁exploiting	11
▁relativity	11
▁dominating	11
▁Queensland	11
▁contracted	11
▁Psychology	11
▁administer	11
▁ammunition	11
▁collectors	11
▁specialize	11
▁multiplied	11
InputStream	11
▁arithmetic	11
▁conduction	11
▁sandwiches	11
combination	11
▁decorative	11
▁Illuminate	11
▁Excellence	11
▁internship	11
▁Definitely	11
▁fellowship	11
▁wheelchair	11
▁terminated	11
▁foreigners	11
▁conception	11
▁indicative	11
Performance	11
▁Basketball	11
▁multimedia	11
▁Ultimately	11
▁delegation	11
▁degeneracy	11
▁propagator	11
▁Thankfully	11
▁isinstance	11
▁animations	11
▁linguistic	11
▁repetitive	11
▁phenomenal	11
▁eliminates	11
otechnology	11
▁repetition	11
▁deficiency	11
▁admissions	11
▁succession	11
▁maximizing	11
▁Fellowship	11
▁midfielder	11
▁executable	11
▁technician	11
▁presidents	11
nparameters	11
▁achievable	11
▁Vietnamese	11
established	11
▁assortment	11
▁postseason	11
▁rebuilding	11
▁Absolutely	11
▁economical	11
▁vertically	11
▁historians	11
▁programmed	11
▁negotiated	11
▁disastrous	11
▁fascinated	11
▁calibrated	11
▁accumulate	11
▁filmmakers	11
▁calculator	11
▁Employment	11
▁Resolution	11
▁accredited	11
▁domination	11
▁reinforced	11
▁redemption	11
▁accidental	11
▁advocating	11
▁endangered	11
▁Literature	11
composition	11
equilibrium	11
▁leveraging	11
▁resilience	11
▁Specialist	11
▁electrodes	11
▁temptation	11
▁diminished	11
▁descending	11
▁ubiquitous	11
▁expedition	11
▁Adventures	11
▁plaintiffs	11
▁sunglasses	11
integration	11
▁Originally	11
▁casualties	11
▁regularity	11
▁combustion	11
▁staggering	11
▁ultrasound	11
▁vegetation	11
▁filesystem	11
▁deliveries	11
▁capacities	11
▁bargaining	11
▁moderately	11
▁expansions	11
destination	11
▁articulate	11
▁dishwasher	11
▁depressing	11
▁triggering	11
▁travellers	11
▁objections	11
▁broadening	11
▁noteworthy	11
▁fundraiser	11
▁generosity	11
▁cohomology	11
▁favourites	11
▁sacrifices	11
▁devastated	11
▁Guidelines	11
▁progressed	11
▁convection	11
▁censorship	11
▁Chancellor	11
▁Navigation	11
▁detections	11
Controllers	11
ancellation	11
▁decoration	11
▁emphasizes	11
ncorrespond	11
▁fabricated	11
▁navigating	11
▁recurrence	11
▁moderation	11
▁Activities	11
nWASHINGTON	11
▁compressor	11
▁mitigation	11
▁Experiment	11
▁sentencing	11
▁theatrical	11
▁multiplier	11
▁symplectic	11
▁misconduct	11
▁progresses	11
▁comforting	11
▁Consulting	11
▁filtration	11
▁Comparison	11
placeholder	11
▁Population	11
▁aggregated	11
▁permitting	11
▁tendencies	11
▁homeschool	11
▁narratives	11
▁aesthetics	11
▁insulating	11
▁explosions	11
▁redundancy	11
▁assistants	11
▁Accounting	11
▁competence	11
▁kinematics	11
▁connectors	11
▁Regulation	11
represented	11
▁relentless	11
▁Membership	11
▁Philosophy	11
▁prevailing	11
annotations	11
▁beginnings	11
▁concluding	11
outheastern	11
▁Conversely	11
▁regulating	11
▁kilometres	11
▁constructs	11
▁Recreation	11
▁liberation	11
▁relational	11
▁usefulness	11
▁irrigation	11
▁imprisoned	11
Constraints	11
Experiments	11
▁contingent	11
▁empowering	11
▁thankfully	11
▁harvesting	11
▁Scientists	11
▁reconsider	11
▁turnaround	11
▁summarizes	11
▁pioneering	11
▁belongings	11
▁culturally	11
▁disordered	11
▁negligence	11
▁exhibiting	11
▁transistor	11
▁correcting	11
▁modalities	11
▁pesticides	11
▁Registered	11
▁unreliable	11
▁disruptive	11
▁Previously	11
▁showcasing	11
▁livelihood	11
commutative	11
▁unresolved	11
experienced	11
▁Integrated	11
▁translator	11
▁Electrical	11
▁exhaustive	11
▁tightening	11
distributed	11
▁Interstate	11
experiments	11
▁frightened	11
▁protesting	11
▁Expression	11
▁confession	11
▁enrichment	11
▁reciprocal	11
▁ecosystems	11
▁deprecated	11
▁positivity	11
▁fingertips	11
▁positional	11
engineering	11
▁scratching	11
▁heightened	11
▁expiration	11
threatening	11
▁vibrations	11
▁decomposed	11
▁possessing	11
nparticular	11
▁randomness	11
▁checkpoint	11
▁workaround	11
▁impairment	11
▁missionary	11
interacting	11
superscript	11
▁simplifies	11
▁partnering	11
▁witnessing	11
▁prioritize	11
▁elliptical	11
▁geometries	11
traditional	11
▁expressive	11
▁legitimacy	11
▁profoundly	11
▁behaviours	11
▁relocation	11
▁projecting	11
▁Providence	11
▁originates	11
▁procedural	11
▁mathematic	11
▁predefined	11
nconditions	11
▁hesitation	11
▁unofficial	11
▁pleasantly	11
▁gatherings	11
▁overcoming	11
▁Philippine	11
▁antibodies	11
▁injections	11
▁veterinary	11
▁skepticism	11
▁calculates	11
▁prototypes	11
▁sequencing	11
▁Monitoring	11
▁remodeling	11
▁hemisphere	11
▁subtracted	11
▁contenders	11
nproperties	11
▁collapsing	11
▁unfinished	11
▁marginally	11
▁envisioned	11
▁electorate	11
▁Initialize	11
▁Georgetown	11
▁criticisms	11
orientation	11
▁Resistance	11
▁explosives	11
▁initiation	11
▁Wellington	11
▁negativity	11
▁goalkeeper	11
▁Lieutenant	11
▁sacrificed	11
▁lifestyles	11
nassociated	11
▁sculptures	11
▁dispatched	11
▁Developers	11
conditioned	11
▁neutrality	11
convolution	11
▁irritation	11
▁continents	11
▁covariates	11
▁viewpoints	11
▁apologized	11
constraints	11
▁exchanging	11
▁therapists	11
interaction	11
connections	11
▁Fitzgerald	11
▁respecting	11
▁astounding	11
▁substrates	11
▁demolition	11
▁extremists	11
▁quantified	11
▁refractive	11
▁franchises	11
▁waterfront	11
▁prosecuted	11
▁kidnapping	11
▁courageous	11
▁truncation	11
nbackground	11
▁assertions	11
Preferences	11
▁stabilized	11
▁admiration	11
▁capitalize	11
▁compulsory	11
▁externally	11
▁prominence	11
▁neglecting	11
▁exhausting	11
▁motivating	11
▁adolescent	11
▁exhaustion	11
▁unaffected	11
▁invariably	11
▁Geographic	11
collections	11
consciously	11
▁subscribed	11
▁caregivers	11
▁Highlights	11
persistence	11
▁noticeably	11
▁stereotype	11
▁convective	11
▁horsepower	11
▁impurities	11
▁resentment	11
▁synonymous	11
▁peacefully	11
▁Increasing	11
▁scrambling	11
▁Consultant	11
calculation	11
▁preventive	11
ntransition	11
▁Simulation	11
▁Performing	11
▁warranties	11
atisfaction	11
▁irritating	11
▁resembling	11
▁cultivated	11
▁nutritious	11
▁brainstorm	11
▁forwarding	11
▁Validation	11
▁accountant	11
▁undercover	11
▁credential	11
VERTISEMENT	11
▁Correspond	11
▁Principles	11
▁screenplay	11
▁smoothness	11
nconsidered	11
▁atrocities	11
▁formations	11
▁prosperous	11
▁superfluid	11
▁retrospect	11
▁cartridges	11
▁Disclosure	11
▁playwright	11
▁distressed	11
▁Collective	11
▁Understand	11
▁paranormal	11
▁detectives	11
▁succeeding	11
▁Journalism	11
▁generously	11
▁simulating	11
▁nightmares	11
▁commanding	11
▁evacuation	11
▁Artificial	11
▁cumbersome	11
▁Mechanical	11
▁clinically	11
▁Huffington	11
▁windshield	11
▁streamline	11
▁powerhouse	11
▁manifested	11
▁replicated	11
▁PowerShell	11
▁cornerback	11
▁chromosome	11
<filename>	10
▁different	10
▁something	10
▁following	10
▁important	10
▁including	10
▁available	10
▁represent	10
▁character	10
▁community	10
▁relations	10
▁potential	10
▁according	10
▁difficult	10
subsection	10
▁questions	10
▁structure	10
▁companies	10
▁condition	10
▁implement	10
▁knowledge	10
▁political	10
▁currently	10
▁effective	10
▁attention	10
▁President	10
rightarrow	10
▁situation	10
▁functions	10
▁beautiful	10
▁described	10
▁financial	10
▁sometimes	10
▁customers	10
▁recommend	10
▁president	10
▁education	10
▁direction	10
▁countries	10
▁treatment	10
▁therefore	10
▁contribut	10
▁solutions	10
varepsilon	10
▁distribut	10
▁published	10
▁certainly	10
▁developed	10
▁statement	10
▁presented	10
▁resources	10
▁beginning	10
▁September	10
▁algorithm	10
boldsymbol	10
▁mentioned	10
▁increased	10
▁generally	10
▁providing	10
▁construct	10
▁reference	10
▁insurance	10
▁connected	10
▁challenge	10
▁announced	10
▁marketing	10
▁selection	10
▁determine	10
▁generated	10
▁otherwise	10
ortunately	10
▁component	10
▁interview	10
▁performed	10
▁evolution	10
▁advantage	10
▁transport	10
▁excellent	10
▁frequency	10
▁supported	10
▁architect	10
▁wonderful	10
▁operation	10
▁employees	10
▁Wednesday	10
▁agreement	10
▁regarding	10
▁officials	10
▁discussed	10
▁equipment	10
▁continued	10
▁increases	10
▁processes	10
▁installed	10
▁thousands	10
▁interface	10
▁influence	10
▁entertain	10
▁uncertain	10
▁resulting	10
▁variables	10
▁procedure	10
▁expensive	10
▁equations	10
▁completed	10
▁continues	10
▁exception	10
▁framework	10
▁typically	10
▁dimension	10
▁Australia	10
▁estimated	10
▁decisions	10
▁technical	10
▁standards	10
▁explained	10
▁depending	10
▁remaining	10
▁positions	10
ifications	10
▁religious	10
▁operating	10
▁candidate	10
▁expansion	10
▁yesterday	10
▁particles	10
▁According	10
▁concerned	10
▁establish	10
▁existence	10
▁suggested	10
▁ourselves	10
▁expressed	10
▁residents	10
▁basically	10
▁detection	10
▁dedicated	10
▁Institute	10
▁technique	10
▁highlight	10
▁obviously	10
▁happening	10
▁extension	10
▁locations	10
▁introduce	10
ampionship	10
▁seriously	10
▁formation	10
▁somewhere	10
▁mechanism	10
▁committed	10
▁operators	10
▁afternoon	10
▁surprised	10
▁reduction	10
▁Committee	10
▁dangerous	10
▁classical	10
▁confirmed	10
▁corporate	10
▁Education	10
▁executive	10
▁partition	10
▁receiving	10
▁emotional	10
▁directory	10
▁Community	10
▁authority	10
▁objective	10
▁conducted	10
▁delivered	10
▁apartment	10
▁purchased	10
▁sensitive	10
▁threshold	10
▁protected	10
pplication	10
▁collected	10
▁listening	10
▁buildings	10
▁guarantee	10
▁calculate	10
▁organized	10
▁stability	10
▁correctly	10
▁principle	10
▁emergency	10
▁wondering	10
▁describes	10
▁magnitude	10
▁intensity	10
▁predicted	10
▁recognize	10
▁administr	10
▁carefully	10
▁investors	10
▁scheduled	10
▁behaviour	10
▁regularly	10
▁radiation	10
▁naturally	10
▁reporting	10
▁committee	10
▁literally	10
▁immediate	10
▁copyright	10
▁initially	10
▁involving	10
▁extensive	10
ailability	10
▁breakfast	10
▁Sometimes	10
▁Francisco	10
▁recording	10
▁indicated	10
▁variation	10
▁suffering	10
▁everybody	10
▁satisfied	10
Controller	10
▁worldwide	10
▁household	10
▁searching	10
▁offensive	10
▁exclusive	10
▁invention	10
▁delicious	10
▁improving	10
▁languages	10
▁adventure	10
▁secondary	10
▁providers	10
▁amplitude	10
▁awareness	10
▁producing	10
▁responses	10
▁preferred	10
▁spiritual	10
▁computing	10
▁computers	10
▁professor	10
▁lifestyle	10
▁newspaper	10
▁identical	10
▁featuring	10
▁permanent	10
javascript	10
▁addresses	10
▁developer	10
▁signature	10
▁platforms	10
▁expertise	10
▁photograp	10
▁returning	10
vironments	10
▁defensive	10
▁favourite	10
▁tradition	10
▁submitted	10
▁intention	10
▁Secretary	10
background	10
▁hopefully	10
▁symmetric	10
▁acknowled	10
▁realistic	10
▁universal	10
▁conscious	10
▁execution	10
▁Hollywood	10
▁precisely	10
▁elections	10
▁inflation	10
▁intellect	10
definition	10
▁addressed	10
▁neighbors	10
▁evaluated	10
▁satisfies	10
▁discovery	10
▁qualified	10
▁alongside	10
▁principal	10
▁requested	10
▁traveling	10
▁furniture	10
▁diversity	10
nnamespace	10
▁sequences	10
▁destroyed	10
▁temporary	10
▁separated	10
▁responded	10
▁encounter	10
▁benchmark	10
▁strategic	10
▁embedding	10
▁electrons	10
▁childhood	10
newcommand	10
▁molecular	10
▁assistant	10
romagnetic	10
▁abilities	10
▁comparing	10
▁preparing	10
▁infection	10
structured	10
▁programme	10
parameters	10
▁violation	10
▁Executive	10
▁ownership	10
▁Minnesota	10
▁attempted	10
▁impressed	10
▁personnel	10
▁partially	10
▁dominated	10
▁decreases	10
▁boyfriend	10
▁pregnancy	10
▁extracted	10
▁eliminate	10
▁Professor	10
▁Financial	10
▁Copyright	10
▁attribute	10
▁expanding	10
▁happiness	10
▁prominent	10
▁nonlinear	10
▁virtually	10
▁criticism	10
▁convinced	10
▁paragraph	10
▁classroom	10
▁complaint	10
▁exploring	10
▁processed	10
▁processor	10
▁expecting	10
▁democracy	10
▁movements	10
▁attending	10
▁requiring	10
▁converted	10
▁promising	10
▁replacing	10
▁promoting	10
▁motivated	10
▁incorrect	10
▁deviation	10
▁satellite	10
▁dynamical	10
▁promotion	10
▁Marketing	10
▁narrative	10
▁streaming	10
▁concluded	10
▁libraries	10
▁referring	10
▁instantly	10
▁curvature	10
Connection	10
▁substance	10
▁emissions	10
▁mountains	10
▁appointed	10
▁Singapore	10
▁reactions	10
▁measuring	10
▁volunteer	10
▁opponents	10
▁forgotten	10
▁similarly	10
▁diagnosis	10
▁finishing	10
▁integrity	10
▁seemingly	10
▁switching	10
▁associate	10
▁confusion	10
▁thickness	10
▁sentences	10
▁campaigns	10
▁projected	10
▁gathering	10
▁provision	10
▁affiliate	10
▁reflected	10
▁resonance	10
▁employers	10
▁appearing	10
▁screening	10
▁inclusion	10
▁designers	10
▁competing	10
▁collision	10
▁neighbour	10
▁terrorist	10
▁densities	10
▁followers	10
▁synthetic	10
▁Wisconsin	10
connection	10
▁spokesman	10
▁simulated	10
▁continuum	10
▁certified	10
▁Following	10
▁molecules	10
▁producers	10
▁selecting	10
▁investing	10
▁mechanics	10
▁gradually	10
▁overnight	10
▁animation	10
▁exercises	10
▁uncomfort	10
▁hospitals	10
▁engineers	10
▁inventory	10
▁creatures	10
▁demanding	10
▁residence	10
▁touchdown	10
▁consensus	10
ertainment	10
▁breathing	10
▁disappear	10
▁reception	10
▁geometric	10
▁Elizabeth	10
consistent	10
▁centuries	10
▁Transport	10
▁packaging	10
▁attracted	10
▁obtaining	10
▁Similarly	10
▁companion	10
▁occasions	10
▁recovered	10
Collection	10
▁reporters	10
▁combining	10
▁allegedly	10
▁inference	10
▁designing	10
▁abandoned	10
▁Meanwhile	10
▁behaviors	10
ologically	10
▁secretary	10
▁apparatus	10
▁physician	10
▁achieving	10
▁permitted	10
▁automated	10
▁reproduce	10
▁prospects	10
▁Represent	10
▁perceived	10
▁reasoning	10
▁addiction	10
▁chemicals	10
▁Exception	10
▁nutrition	10
▁Insurance	10
▁anonymous	10
▁enjoyable	10
▁migration	10
▁batteries	10
▁shoulders	10
▁authentic	10
▁empirical	10
▁substrate	10
▁canonical	10
▁contacted	10
▁suspended	10
▁Something	10
▁governing	10
Properties	10
▁strengths	10
▁extending	10
▁Halloween	10
▁favorites	10
▁Tennessee	10
▁accepting	10
▁passenger	10
▁liability	10
▁graduated	10
▁accompany	10
▁remainder	10
▁placement	10
▁sacrifice	10
▁Authority	10
▁diagnosed	10
▁publisher	10
scriptsize	10
▁donations	10
▁excessive	10
Background	10
▁countless	10
▁splitting	10
▁Amendment	10
▁disorders	10
▁sponsored	10
▁decreased	10
Parameters	10
▁economics	10
components	10
▁musicians	10
▁compounds	10
▁pollution	10
▁activists	10
▁Cleveland	10
▁composite	10
processing	10
▁Challenge	10
▁considers	10
Repository	10
▁Obviously	10
▁affecting	10
▁qualities	10
▁confusing	10
▁retailers	10
▁admission	10
▁spreading	10
▁accretion	10
▁subscribe	10
▁districts	10
controller	10
▁disadvant	10
▁occurring	10
▁attacking	10
▁ecosystem	10
supervised	10
▁workplace	10
▁unlimited	10
▁terrorism	10
▁phenomena	10
▁directors	10
▁convicted	10
▁inspiring	10
▁departure	10
▁injection	10
especially	10
▁Hopefully	10
▁audiences	10
▁struggles	10
▁financing	10
▁Relations	10
▁cognitive	10
▁testimony	10
▁rendering	10
▁Assistant	10
▁targeting	10
▁conflicts	10
Definition	10
▁Jerusalem	10
▁strengthe	10
▁appealing	10
▁memorable	10
▁suspected	10
▁Currently	10
▁incidents	10
▁explosion	10
▁comprises	10
▁magazines	10
▁utilizing	10
▁Available	10
▁daughters	10
▁breakdown	10
▁respected	10
▁spherical	10
▁commented	10
▁defending	10
▁privilege	10
▁spectrosc	10
▁corrected	10
▁couplings	10
properties	10
▁paintings	10
▁scientist	10
▁legendary	10
▁relatives	10
▁spacetime	10
▁workshops	10
▁Algorithm	10
▁releasing	10
▁Wikipedia	10
▁scattered	10
▁launching	10
▁suppliers	10
▁amendment	10
▁strongest	10
▁offerings	10
▁reinforce	10
▁activated	10
▁Solutions	10
▁Different	10
▁observing	10
▁analytics	10
▁celebrity	10
▁Agreement	10
▁algebraic	10
▁sustained	10
▁varieties	10
▁criterion	10
▁averaging	10
ndifferent	10
▁belonging	10
▁screaming	10
▁induction	10
▁triggered	10
▁Louisiana	10
▁microwave	10
Conclusion	10
typescript	10
▁discounts	10
▁dismissed	10
ographical	10
▁filtering	10
▁believing	10
▁analyzing	10
▁revealing	10
▁Questions	10
▁necessity	10
▁answering	10
centerline	10
▁witnessed	10
annotation	10
▁Liverpool	10
▁versatile	10
▁advocates	10
▁workforce	10
▁neglected	10
▁hilarious	10
resolution	10
collection	10
▁isolation	10
▁consuming	10
▁defendant	10
▁obstacles	10
▁prototype	10
▁maintains	10
▁prisoners	10
▁witnesses	10
▁fortunate	10
▁penalties	10
▁invisible	10
responding	10
▁justified	10
▁discusses	10
▁proximity	10
productive	10
▁amenities	10
▁accidents	10
▁genuinely	10
▁preserved	10
▁intuitive	10
▁specially	10
▁exchanges	10
▁Universal	10
▁reviewing	10
▁recession	10
▁initiated	10
▁localized	10
▁emphasize	10
▁recipient	10
production	10
▁inclusive	10
▁elaborate	10
▁sanctions	10
▁synthesis	10
▁succeeded	10
▁incentive	10
▁nominated	10
▁transfers	10
▁ambitious	10
▁intensive	10
▁teammates	10
▁aggregate	10
▁apologize	10
▁headlines	10
▁relevance	10
▁Basically	10
▁prevented	10
▁nutrients	10
▁cancelled	10
▁criminals	10
▁auxiliary	10
▁backwards	10
▁specialty	10
pendicular	10
Comparison	10
▁welcoming	10
▁rejection	10
▁inability	10
▁attitudes	10
▁economies	10
▁travelers	10
stylesheet	10
▁sentenced	10
▁taxpayers	10
▁formalism	10
▁resistant	10
▁Champions	10
▁assembled	10
▁rewarding	10
▁Jefferson	10
▁vegetable	10
▁Bluetooth	10
▁primitive	10
▁comprised	10
▁retrieval	10
▁champions	10
▁wrestling	10
▁graduates	10
▁allocated	10
▁disclosed	10
▁unchanged	10
Expression	10
▁societies	10
management	10
▁artifacts	10
▁stainless	10
▁energetic	10
▁capturing	10
▁realizing	10
▁depressed	10
▁predecess	10
creational	10
▁regulated	10
controlled	10
▁asymmetry	10
▁employing	10
▁Hampshire	10
▁licensing	10
▁aesthetic	10
▁accessing	10
generation	10
▁decorated	10
▁mortality	10
validation	10
▁analogous	10
▁converges	10
▁survivors	10
▁curiosity	10
▁strangers	10
ernational	10
▁reservoir	10
▁nightmare	10
▁Technical	10
bottomrule	10
▁organised	10
▁detecting	10
▁Beautiful	10
▁adjusting	10
compatible	10
▁attendees	10
▁colleague	10
▁customize	10
▁recycling	10
▁connector	10
▁concludes	10
▁summarize	10
▁statistic	10
▁affection	10
▁exhausted	10
▁Depending	10
▁downloads	10
▁repeating	10
Discussion	10
▁modelling	10
Rightarrow	10
▁utilities	10
▁polarized	10
Descriptor	10
▁assertion	10
▁retention	10
▁continent	10
▁Seriously	10
▁histogram	10
▁firefight	10
▁sexuality	10
▁commander	10
▁examining	10
▁lightning	10
▁Statement	10
▁subjected	10
▁righteous	10
▁Political	10
▁stretched	10
▁negotiate	10
▁Operation	10
▁fulfilled	10
▁therapist	10
▁messaging	10
▁triangles	10
▁spotlight	10
▁vanishing	10
▁Standards	10
▁stressful	10
▁warehouse	10
▁Nashville	10
conditions	10
▁preceding	10
▁sensation	10
▁religions	10
acceptable	10
▁Corollary	10
▁competent	10
▁Reference	10
▁irregular	10
▁balancing	10
▁Brazilian	10
▁privately	10
attributes	10
▁enjoyment	10
▁voluntary	10
▁Framework	10
▁collapsed	10
▁graphical	10
▁explosive	10
▁schedules	10
scriptions	10
▁encrypted	10
▁Emergency	10
iterranean	10
▁malicious	10
▁accounted	10
▁integrals	10
▁ancestors	10
▁surviving	10
▁receivers	10
▁Knowledge	10
▁medicines	10
▁Bloomberg	10
▁neutrinos	10
government	10
▁Argentina	10
raditional	10
▁transient	10
▁Hurricane	10
▁Treatment	10
▁practiced	10
▁teachings	10
▁upgrading	10
▁enhancing	10
▁meanwhile	10
▁additions	10
▁plurality	10
▁applicant	10
▁completes	10
▁imperfect	10
▁emergence	10
▁Analytics	10
▁surprises	10
▁violating	10
▁festivals	10
▁forbidden	10
▁oversight	10
▁municipal	10
ustainable	10
▁routinely	10
▁fictional	10
▁judgement	10
▁paperwork	10
▁divisions	10
▁acquiring	10
▁Condition	10
Identifier	10
▁consisted	10
▁parenting	10
▁executing	10
▁incidence	10
▁populated	10
usepackage	10
▁salvation	10
▁educators	10
▁Directory	10
▁turbulent	10
▁Component	10
▁inherited	10
▁premature	10
▁superhero	10
▁selective	10
▁Coalition	10
▁Generally	10
▁skeptical	10
▁freelance	10
▁unrelated	10
▁mentality	10
▁saturated	10
▁Corporate	10
▁bathrooms	10
▁Character	10
▁Adventure	10
▁Photoshop	10
▁observers	10
▁retaining	10
▁Milwaukee	10
▁interfere	10
mabaochang	10
▁radiative	10
▁dominance	10
▁Armstrong	10
▁luxurious	10
▁footprint	10
repository	10
▁publicity	10
▁logistics	10
▁Mountains	10
▁vibration	10
▁declining	10
▁immigrant	10
▁offseason	10
identified	10
▁recognise	10
▁elevation	10
▁proceeded	10
▁collector	10
iovascular	10
▁successor	10
▁portrayed	10
▁detention	10
▁branching	10
▁commodity	10
▁Calculate	10
▁prevalent	10
▁viewpoint	10
▁fractions	10
textnormal	10
▁coincides	10
successful	10
Validation	10
▁Certified	10
▁cartridge	10
▁aftermath	10
▁spatially	10
▁augmented	10
▁exploited	10
▁Evolution	10
▁catalogue	10
▁believers	10
▁Typically	10
▁rectangle	10
▁Economics	10
reasonable	10
▁electrode	10
▁obsession	10
▁subsidies	10
▁plaintiff	10
▁iterative	10
▁rewritten	10
▁organisms	10
▁successes	10
authorized	10
▁Holocaust	10
▁electoral	10
▁Discovery	10
▁Cardinals	10
▁conserved	10
ighborhood	10
transition	10
▁reinstall	10
▁excluding	10
▁supporter	10
▁presently	10
▁detective	10
▁marketers	10
▁Developer	10
▁Associate	10
▁Southeast	10
▁factories	10
▁fireplace	10
▁exhibited	10
▁creations	10
▁inversion	10
▁directing	10
▁planetary	10
▁historian	10
▁illegally	10
comparison	10
▁Communist	10
▁exchanged	10
▁acclaimed	10
▁beginners	10
▁victories	10
▁advancing	10
▁displaced	10
▁assessing	10
▁retrieved	10
▁uncovered	10
▁testified	10
▁Rodriguez	10
▁Certainly	10
ensitivity	10
▁Breakfast	10
▁mushrooms	10
categories	10
▁Architect	10
▁remembers	10
nfollowing	10
▁travelled	10
▁institute	10
▁viscosity	10
▁timestamp	10
▁Pakistani	10
▁converter	10
▁gentleman	10
▁Venezuela	10
▁possesses	10
▁recurrent	10
▁valuation	10
expression	10
▁discarded	10
▁Newcastle	10
▁furnished	10
▁Commander	10
▁beverages	10
▁defenders	10
▁tunneling	10
▁Equipment	10
▁Catholics	10
▁objection	10
▁smoothing	10
onlinecite	10
▁Extension	10
▁formulate	10
▁intuition	10
▁illnesses	10
▁multitude	10
▁alleviate	10
▁Directors	10
▁dashboard	10
▁stimulate	10
▁deposited	10
▁subsystem	10
▁fireworks	10
▁performer	10
▁disasters	10
▁unwilling	10
▁galleries	10
▁validated	10
▁uninstall	10
▁cardboard	10
▁notorious	10
▁assisting	10
▁Ukrainian	10
▁academics	10
▁conceived	10
▁terminals	10
▁Excellent	10
▁offenders	10
▁disciples	10
▁quarterly	10
▁gardening	10
▁undertake	10
▁advertise	10
▁detailing	10
▁compelled	10
▁manifolds	10
▁realities	10
▁hurricane	10
▁metabolic	10
▁pointless	10
▁Structure	10
commercial	10
▁modifying	10
▁regulator	10
▁assurance	10
▁complexes	10
▁prolonged	10
▁slideshow	10
▁blessings	10
▁Interface	10
▁Customers	10
▁insertion	10
▁sculpture	10
▁wandering	10
restricted	10
▁supplying	10
▁geography	10
▁preserves	10
▁annotated	10
▁biography	10
▁subreddit	10
University	10
▁fertility	10
▁recruited	10
▁accessory	10
▁inquiries	10
▁signaling	10
▁resolving	10
▁provinces	10
continuous	10
▁declaring	10
▁visualize	10
▁amazingly	10
▁recurring	10
Permission	10
▁restoring	10
▁Norwegian	10
▁histories	10
▁conductor	10
▁afterward	10
▁alcoholic	10
▁deadlines	10
▁forefront	10
▁exceeding	10
▁specifics	10
▁marriages	10
nforcement	10
▁prejudice	10
▁Selection	10
▁economist	10
responsive	10
▁Roosevelt	10
ncharacter	10
▁Anonymous	10
▁mutations	10
▁pediatric	10
▁preseason	10
▁hazardous	10
▁guitarist	10
▁ordinance	10
▁proposing	10
▁Northeast	10
▁inconsist	10
▁differing	10
▁summation	10
▁Nutrition	10
nparameter	10
▁corrupted	10
▁charities	10
▁underwear	10
▁borrowing	10
▁discovers	10
▁distorted	10
▁northeast	10
▁bacterial	10
▁therapies	10
▁exemption	10
▁livestock	10
▁possessed	10
▁Computing	10
▁proactive	10
▁truncated	10
▁undermine	10
▁withstand	10
▁registers	10
▁terrified	10
▁Scripture	10
▁specifies	10
▁simulator	10
▁threatens	10
▁thrilling	10
▁residuals	10
imensional	10
▁Operating	10
positories	10
▁compliant	10
▁admitting	10
▁offspring	10
▁absorbing	10
▁amplifier	10
liferation	10
▁cosmology	10
conclusion	10
▁reimburse	10
dependency	10
▁worthless	10
▁concealed	10
▁Frederick	10
▁exponents	10
cyclopedia	10
▁benefited	10
▁reviewers	10
▁columnist	10
▁probation	10
▁residency	10
▁fragrance	10
▁Interview	10
▁formatted	10
▁citations	10
▁adiabatic	10
▁portraits	10
nrepresent	10
▁mythology	10
▁filmmaker	10
▁southwest	10
confidence	10
▁incumbent	10
ynchronous	10
▁recursive	10
functional	10
dependence	10
▁Europeans	10
▁northwest	10
▁perimeter	10
▁addictive	10
▁covariant	10
▁Chevrolet	10
▁attackers	10
▁butterfly	10
▁Principal	10
▁intrigued	10
▁southeast	10
▁statewide	10
▁inception	10
▁inaugural	10
▁rationale	10
▁counselor	10
▁ambiguity	10
▁immensely	10
▁ambiguous	10
▁announces	10
▁Democracy	10
identifier	10
▁reminding	10
▁receptors	10
▁Lightning	10
▁sweetness	10
▁expresses	10
irectional	10
▁inserting	10
nstructure	10
▁disturbed	10
▁sincerely	10
omorphisms	10
▁dividends	10
▁positives	10
constraint	10
▁whichever	10
▁sanctuary	10
▁communist	10
▁occupancy	10
▁stringent	10
Dictionary	10
▁Cathedral	10
▁mysteries	10
▁appliance	10
▁subgroups	10
▁Peninsula	10
nincluding	10
▁lucrative	10
▁rotations	10
▁contender	10
▁exquisite	10
▁bootstrap	10
▁digestive	10
Extensions	10
npotential	10
▁Subscribe	10
▁debugging	10
▁Robertson	10
▁slightest	10
Evaluation	10
▁innocence	10
ionization	10
▁cocktails	10
▁groceries	10
prehensive	10
▁unusually	10
▁shrinking	10
containing	10
▁workspace	10
initialize	10
▁orchestra	10
▁dictators	10
▁poisoning	10
▁removable	10
▁ambitions	10
▁scrolling	10
▁propagate	10
▁dissolved	10
discussion	10
Additional	10
▁educating	10
correlated	10
▁Naturally	10
▁condensed	10
▁assaulted	10
▁scripture	10
▁judgments	10
▁liquidity	10
▁longevity	10
▁criticize	10
▁organizer	10
▁pertinent	10
▁wallpaper	10
▁usability	10
▁projector	10
▁renovated	10
▁assigning	10
▁withdrawn	10
▁preaching	10
▁slaughter	10
▁abortions	10
▁cleansing	10
performing	10
▁hydraulic	10
▁depicting	10
▁greatness	10
▁Initially	10
▁Strategic	10
▁shootings	10
▁Furniture	10
Everything	10
▁treasures	10
▁messenger	10
▁corollary	10
▁electroly	10
▁troubling	10
▁endpoints	10
▁normalize	10
▁originate	10
▁textbooks	10
nfunctions	10
▁radically	10
▁anonymity	10
▁Published	10
▁weighting	10
underbrace	10
▁Functions	10
▁underwent	10
▁Nationals	10
▁astronomy	10
uggestions	10
▁notations	10
▁scholarly	10
▁stabilize	10
▁Engineers	10
Serializer	10
▁snapshots	10
▁optically	10
▁shortcuts	10
▁Employees	10
▁evidenced	10
▁Important	10
▁kidnapped	10
▁squeezing	10
▁surgeries	10
▁uploading	10
▁massively	10
rimination	10
▁defective	10
▁defeating	10
▁Bangalore	10
Components	10
▁expansive	10
▁undergone	10
▁empowered	10
▁sparkling	10
▁liberties	10
▁adversary	10
▁socialism	10
▁deploying	10
▁Arlington	10
▁downright	10
▁preschool	10
▁directive	10
▁wellbeing	10
population	10
▁Boltzmann	10
▁mitochond	10
▁prompting	10
Management	10
▁exemplary	10
ncondition	10
tprotected	10
▁magnesium	10
conference	10
Constraint	10
permission	10
▁Messenger	10
▁impending	10
kernelspec	10
▁Hungarian	10
▁multiplex	10
▁diligence	10
▁Unlimited	10
extensions	10
▁digitally	10
▁schooling	10
registered	10
▁penetrate	10
Annotation	10
nimportant	10
▁lingering	10
▁revisions	10
▁Yorkshire	10
▁Churchill	10
▁Recommend	10
▁negatives	10
▁PropTypes	10
▁interplay	10
▁intervene	10
▁Methodist	10
▁harvested	10
▁commuting	10
▁Telegraph	10
parametric	10
▁ascending	10
▁courtroom	10
▁notebooks	10
▁insulting	10
▁creditors	10
▁Animation	10
▁homeowner	10
▁colourful	10
▁avoidance	10
▁ensembles	10
▁receptive	10
▁perturbed	10
▁Effective	10
nsupported	10
▁ethnicity	10
▁enforcing	10
▁vacations	10
experiment	10
▁crossings	10
activation	10
▁Malaysian	10
▁unfolding	10
▁commanded	10
▁attentive	10
associated	10
▁nostalgia	10
▁minimizes	10
Initialize	10
▁stupidity	10
▁logarithm	10
interfaces	10
▁Religious	10
▁shipments	10
▁Awareness	10
▁Hernandez	10
▁Worldwide	10
▁Responses	10
▁petroleum	10
▁immersion	10
▁informing	10
▁viability	10
likelihood	10
reditation	10
▁Laplacian	10
Statistics	10
blockquote	10
▁showcases	10
accessible	10
▁ascertain	10
▁forwarded	10
▁pronounce	10
▁borrowers	10
▁depletion	10
▁potassium	10
▁Sebastian	10
horizontal	10
▁contested	10
▁reconnect	10
efficiency	10
▁inspected	10
▁consulted	10
plementary	10
Simulation	10
normalized	10
▁Featuring	10
▁imagining	10
▁compiling	10
▁insisting	10
npublished	10
▁corrosion	10
▁dismissal	10
▁Construct	10
prediction	10
▁deception	10
Enumerable	10
increasing	10
▁sidelines	10
experience	10
setcounter	10
▁gentlemen	10
▁Hezbollah	10
▁adulthood	10
▁disrupted	10
▁injective	10
▁reminders	10
▁resultant	10
▁Beginning	10
▁tolerated	10
▁surrounds	10
▁oversized	10
▁azimuthal	10
▁intensely	10
▁mediation	10
▁Reporting	10
▁Secondary	10
▁amplified	10
▁Detection	10
▁medicinal	10
▁rejecting	10
▁waterfall	10
regulation	10
reliminary	10
▁Potential	10
additional	10
▁repairing	10
▁cylinders	10
▁drawbacks	10
▁profiling	10
Transition	10
concurrent	10
▁Municipal	10
▁Classical	10
▁Detective	10
▁postponed	10
▁servicing	10
▁recalling	10
▁relocated	10
▁stitching	10
▁safeguard	10
▁Including	10
▁advocated	10
▁Scandinav	10
▁vacancies	10
Navigation	10
▁magically	10
▁bluetooth	10
▁cultivate	10
▁deserving	10
▁clarified	10
▁impacting	10
▁intermedi	10
▁restraint	10
▁willingly	10
▁scratches	10
▁publishes	10
▁unlabeled	10
▁repulsive	10
vitational	10
▁evidently	10
▁nationals	10
▁centrally	10
▁immersive	10
evaluation	10
▁staircase	10
▁shortened	10
▁unanimous	10
▁courtyard	10
coordinate	10
▁misguided	10
employment	10
naccording	10
▁Promotion	10
▁reconcile	10
▁advisable	10
▁deduction	10
everything	10
▁obligated	10
References	10
▁standings	10
▁athletics	10
▁composing	10
▁attaching	10
▁elephants	10
▁motivates	10
▁paramount	10
▁readiness	10
▁aluminium	10
▁disparity	10
▁logically	10
integrated	10
▁mentoring	10
Foundation	10
▁prohibits	10
▁recursion	10
▁Attention	10
classified	10
▁Leicester	10
individual	10
▁pipelines	10
▁Guarantee	10
▁startling	10
Illuminate	10
▁importing	10
▁keyboards	10
▁quotation	10
▁construed	10
▁coworkers	10
▁unpopular	10
nequations	10
equivalent	10
preserving	10
▁warranted	10
▁Signature	10
ndescribed	10
▁occupying	10
▁portrayal	10
▁pleasures	10
▁stripping	10
▁Migration	10
▁villagers	10
▁Hermitian	10
▁moderated	10
▁Investors	10
▁austerity	10
▁painfully	10
▁patiently	10
▁arranging	10
▁diplomacy	10
▁hostility	10
▁composers	10
▁elongated	10
▁exercised	10
▁maximally	10
▁purported	10
▁strangely	10
▁surpassed	10
▁stationed	10
▁Essential	10
▁brokerage	10
▁finalists	10
▁undergoes	10
difference	10
plications	10
▁disabling	10
▁marvelous	10
compressed	10
▁persuaded	10
▁Astronomy	10
▁depiction	10
▁Libraries	10
▁Officials	10
▁refreshed	10
reversible	10
▁shortages	10
▁treadmill	10
lstlisting	10
▁Sheffield	10
▁Riverside	10
▁offending	10
▁summaries	10
▁customary	10
▁Procedure	10
▁outskirts	10
▁erroneous	10
▁digestion	10
▁leftovers	10
▁lifetimes	10
▁Regarding	10
▁infinites	10
▁verifying	10
assumption	10
neffective	10
descriptor	10
▁clustered	10
▁maternity	10
ninterface	10
▁scripting	10
▁Tottenham	10
▁priceless	10
ntherefore	10
▁Residents	10
projection	10
▁Diversity	10
▁Admission	10
▁Presbyter	10
▁commenced	10
▁presenter	10
statistics	10
▁giveaways	10
▁primaries	10
▁tentative	10
▁Brunswick	10
▁everytime	10
▁Satellite	10
▁inductive	10
▁unbounded	10
▁confessed	10
▁Katherine	10
▁unnatural	10
ochemistry	10
▁Carpenter	10
ablishment	10
operations	10
▁blueprint	10
▁extremist	10
▁nurturing	10
Department	10
▁guideline	10
▁cosmetics	10
▁cherished	10
▁Wrestling	10
▁minimally	10
▁apprehens	10
▁disagreed	10
▁worldview	10
centration	10
▁Hyderabad	10
degenerate	10
▁Volunteer	10
▁profanity	10
▁exploding	10
▁pervasive	10
Washington	10
submission	10
▁anthology	10
▁bothering	10
▁Bollywood	10
▁Wonderful	10
▁awakening	10
▁decidedly	10
▁Worcester	10
▁Publisher	10
▁televised	10
▁unleashed	10
navigation	10
▁vengeance	10
▁leveraged	10
JavaScript	10
▁Practices	10
▁sidewalks	10
enterprise	10
▁headphone	10
<strong/>	9
</strong>	9
processed	9
redpajama	9
formation	9
▁interest	9
▁business	9
▁possible	9
▁addition	9
▁actually	9
▁together	9
▁consider	9
▁children	9
▁anything	9
▁question	9
▁specific	9
▁American	9
ification	9
▁students	9
▁probably	9
▁research	9
▁previous	9
▁features	9
vironment	9
▁position	9
▁training	9
▁services	9
▁signific	9
▁personal	9
▁everyone	9
▁approach	9
egraphics	9
▁products	9
▁problems	9
▁opportun	9
▁solution	9
▁required	9
▁learning	9
▁original	9
▁expected	9
starcoder	9
▁complete	9
▁standard	9
▁provided	9
▁increase	9
▁building	9
▁continue	9
▁industry	9
▁investig	9
▁recently	9
▁software	9
▁yourself	9
▁official	9
▁provides	9
▁positive	9
▁multiple	9
▁response	9
▁National	9
▁remember	9
▁experien	9
▁includes	9
▁decision	9
▁security	9
▁computer	9
▁received	9
▁reported	9
▁thinking	9
▁language	9
▁included	9
▁comments	9
▁designed	9
▁directly	9
▁download	9
▁starting	9
▁physical	9
▁national	9
▁practice	9
▁proposed	9
▁compared	9
▁involved	9
centering	9
▁location	9
kexchange	9
▁maintain	9
▁campaign	9
▁distance	9
▁approxim	9
▁challeng	9
▁evidence	9
▁favorite	9
▁straight	9
▁released	9
▁pressure	9
▁observed	9
▁elements	9
▁behavior	9
▁equation	9
▁although	9
▁platform	9
▁Republic	9
▁happened	9
▁electron	9
▁critical	9
▁projects	9
▁programs	9
▁contains	9
▁manufact	9
▁demonstr	9
▁administ	9
▁economic	9
▁transfer	9
▁November	9
ashington	9
▁military	9
▁activity	9
▁December	9
▁negative	9
▁strength	9
▁requires	9
▁customer	9
▁Facebook	9
RedPajama	9
▁magnetic	9
▁existing	9
▁creating	9
▁strategy	9
textwidth	9
▁followed	9
Exception	9
▁families	9
▁sequence	9
▁restrict	9
▁February	9
▁electric	9
▁powerful	9
▁planning	9
▁selected	9
▁produced	9
▁relevant	9
▁Internet	9
▁European	9
▁movement	9
▁watching	9
▁director	9
▁surround	9
▁slightly	9
▁pictures	9
▁finished	9
▁majority	9
▁spectrum	9
▁partners	9
▁relative	9
▁operator	9
▁examples	9
abilities	9
▁neighbor	9
▁daughter	9
▁supposed	9
▁Congress	9
▁changing	9
▁networks	9
▁thoughts	9
▁football	9
▁Although	9
▁spending	9
▁internal	9
▁relation	9
▁estimate	9
▁Research	9
▁exchange	9
▁accuracy	9
▁settings	9
▁describe	9
▁identify	9
▁possibly	9
▁audience	9
▁measured	9
▁velocity	9
▁variable	9
▁election	9
▁district	9
▁becoming	9
▁offering	9
▁hospital	9
▁coverage	9
▁external	9
roduction	9
▁capacity	9
▁returned	9
▁allowing	9
▁prepared	9
▁detailed	9
▁collabor	9
▁boundary	9
▁conflict	9
▁articles	9
▁creative	9
▁exercise	9
▁measures	9
▁improved	9
▁delivery	9
▁Services	9
▁identity	9
▁accurate	9
▁category	9
▁chemical	9
▁teaching	9
▁feedback	9
▁violence	9
▁intended	9
▁concerns	9
▁momentum	9
▁register	9
▁resource	9
▁citizens	9
▁particle	9
▁marriage	9
▁discover	9
▁entirely	9
▁appeared	9
▁emission	9
▁dynamics	9
▁purposes	9
linewidth	9
▁anywhere	9
▁numerous	9
▁standing	9
▁schedule	9
▁distinct	9
itionally	9
widetilde	9
▁Hamilton	9
▁affected	9
▁coupling	9
▁advanced	9
▁incorpor	9
▁shopping	9
▁friendly	9
▁creation	9
▁accounts	9
▁realized	9
▁teachers	9
▁incident	9
▁exciting	9
▁fighting	9
▁speaking	9
▁suggests	9
▁hundreds	9
▁accident	9
▁substant	9
▁opposite	9
▁strongly	9
▁Japanese	9
▁hardware	9
▁announce	9
▁Minister	9
▁reaction	9
▁District	9
▁phenomen	9
▁shooting	9
▁achieved	9
▁somewhat	9
▁channels	9
▁bringing	9
▁fraction	9
▁politics	9
▁versions	9
▁Security	9
▁consists	9
▁scenario	9
▁revealed	9
▁symmetry	9
▁surprise	9
▁circumst	9
▁replaced	9
▁Director	9
▁recorded	9
▁suitable	9
▁religion	9
ibilities	9
timestamp	9
▁believed	9
▁occasion	9
▁breaking	9
▁cultural	9
▁repeated	9
▁inspired	9
▁accepted	9
▁officers	9
▁websites	9
▁resident	9
▁universe	9
questions	9
▁absolute	9
▁criminal	9
▁discount	9
▁recovery	9
▁supports	9
▁tomorrow	9
▁accommod	9
▁approved	9
subfigure	9
▁sentence	9
▁independ	9
ventional	9
▁reliable	9
▁facility	9
▁referred	9
▁provider	9
▁sections	9
avascript	9
▁feelings	9
▁normally	9
▁stronger	9
▁Canadian	9
▁directed	9
▁whenever	9
▁attached	9
▁applying	9
▁symptoms	9
▁visitors	9
▁academic	9
▁shipping	9
▁agencies	9
▁magazine	9
▁modified	9
▁upcoming	9
▁domestic	9
▁proposal	9
▁birthday	9
▁requests	9
▁believes	9
▁cleaning	9
▁involves	9
▁detected	9
▁employee	9
▁occurred	9
▁integral	9
▁prospect	9
▁suddenly	9
▁explains	9
▁featured	9
▁assuming	9
▁computed	9
▁visiting	9
▁Administ	9
Component	9
▁drinking	9
▁distingu	9
▁attempts	9
▁Williams	9
▁Carolina	9
▁matching	9
▁decrease	9
structure	9
▁Michigan	9
including	9
▁interior	9
▁Virginia	9
▁everyday	9
▁vertices	9
▁informed	9
▁mountain	9
▁arrested	9
▁choosing	9
▁tracking	9
▁wireless	9
▁clinical	9
▁Gaussian	9
▁commonly	9
▁covering	9
▁clusters	9
▁employed	9
nfunction	9
▁pleasure	9
▁Pakistan	9
▁singular	9
▁priority	9
▁assigned	9
▁regional	9
▁vertical	9
▁reducing	9
▁checking	9
▁division	9
▁Software	9
▁rational	9
▁criteria	9
▁thorough	9
▁carrying	9
▁instruct	9
▁subjects	9
▁meetings	9
▁medicine	9
protected	9
▁sampling	9
▁energies	9
▁remained	9
▁injuries	9
scription	9
▁bathroom	9
▁conclude	9
▁payments	9
▁minister	9
▁memories	9
▁painting	9
▁handling	9
ustration	9
▁approval	9
▁sessions	9
▁attitude	9
▁vacation	9
▁profiles	9
▁Colorado	9
▁graphics	9
▁graduate	9
ictionary	9
▁concepts	9
▁ultimate	9
▁studying	9
▁thousand	9
▁baseball	9
▁lifetime	9
▁attended	9
▁clicking	9
▁somebody	9
▁clothing	9
▁produces	9
▁entering	9
▁geometry	9
▁shoulder	9
avelength	9
▁mathemat	9
▁unlikely	9
▁designer	9
▁captured	9
▁soldiers	9
▁disorder	9
▁keyboard	9
▁concrete	9
▁guidance	9
▁reaching	9
▁duration	9
▁suffered	9
▁Festival	9
▁supplies	9
▁enjoying	9
▁stations	9
▁theories	9
▁downtown	9
▁historic	9
▁admitted	9
▁focusing	9
▁lighting	9
▁managing	9
▁mistakes	9
▁Hospital	9
▁removing	9
▁Children	9
▁contents	9
▁overcome	9
▁Division	9
container	9
▁outcomes	9
▁festival	9
▁grateful	9
▁Standard	9
underline	9
▁speakers	9
▁southern	9
▁receiver	9
▁resulted	9
▁assembly	9
▁surfaces	9
▁episodes	9
▁emotions	9
▁Download	9
▁enhanced	9
▁expenses	9
▁confused	9
▁acquired	9
▁answered	9
connected	9
dependent	9
▁declared	9
▁commands	9
▁diseases	9
▁targeted	9
▁stunning	9
▁Continue	9
▁managers	9
▁Illinois	9
▁disabled	9
askubuntu	9
▁eligible	9
▁Everyone	9
▁composed	9
▁reserved	9
▁releases	9
▁sleeping	9
▁modeling	9
▁publicly	9
▁calendar	9
▁withdraw	9
▁northern	9
▁equality	9
▁disaster	9
▁champion	9
paragraph	9
▁advertis	9
▁talented	9
▁gorgeous	9
parameter	9
▁Remember	9
▁Learning	9
component	9
▁entitled	9
▁opponent	9
▁printing	9
▁frequent	9
▁promised	9
▁throwing	9
▁judgment	9
▁emerging	9
▁pointing	9
▁dramatic	9
▁Training	9
mentation	9
▁isolated	9
▁Mountain	9
▁producer	9
▁stopping	9
eleration	9
▁embedded	9
▁exponent	9
istically	9
▁balanced	9
▁insights	9
▁reviewed	9
▁strictly	9
▁accompan	9
▁smallest	9
▁engaging	9
omorphism	9
▁employer	9
framework	9
algorithm	9
▁adjacent	9
nsylvania	9
▁entrance	9
▁ceremony	9
▁disagree	9
▁pipeline	9
▁residual	9
▁entities	9
condition	9
▁rejected	9
▁manually	9
▁swimming	9
▁actively	9
▁confront	9
▁diameter	9
▁ordering	9
▁manifest	9
▁Building	9
▁resolved	9
▁operated	9
▁preserve	9
▁governor	9
achusetts	9
construct	9
▁workshop	9
▁humanity	9
▁notation	9
▁abortion	9
▁performs	9
▁ensuring	9
reference	9
▁licensed	9
▁counting	9
▁Students	9
▁contacts	9
▁inherent	9
▁crossing	9
▁claiming	9
isticated	9
▁executed	9
▁relating	9
▁receives	9
▁coaching	9
▁promises	9
▁contrary	9
▁precious	9
▁striking	9
transform	9
▁charging	9
▁Scotland	9
▁Analysis	9
▁adoption	9
▁enormous	9
▁overview	9
Interface	9
▁subscrib	9
▁warranty	9
downarrow	9
▁defining	9
arliament	9
▁athletes	9
▁ensemble	9
▁attacked	9
Parameter	9
▁circular	9
▁Magazine	9
▁chairman	9
▁petition	9
▁innocent	9
▁manifold	9
▁earnings	9
▁regarded	9
▁reporter	9
▁Governor	9
▁deadline	9
▁averaged	9
▁annoying	9
ependence	9
▁reminded	9
Container	9
▁Consider	9
▁segments	9
▁Archives	9
available	9
▁engineer	9
istration	9
▁Assembly	9
▁dropping	9
▁minority	9
▁arranged	9
▁Maryland	9
ategories	9
▁neutrino	9
▁Exchange	9
▁complain	9
overnment	9
placement	9
▁province	9
▁hydrogen	9
▁convince	9
▁Atlantic	9
▁Football	9
▁Universe	9
▁adjusted	9
▁pleasant	9
▁treating	9
▁calories	9
mentioned	9
▁congress	9
▁bacteria	9
▁compound	9
▁examined	9
anglement	9
▁override	9
▁centered	9
sequently	9
▁supplied	9
▁explored	9
liography	9
▁diagrams	9
▁operates	9
▁transmit	9
▁cultures	9
▁limiting	9
▁peaceful	9
▁Comments	9
▁weighted	9
▁verified	9
▁overseas	9
▁encoding	9
▁occupied	9
▁floating	9
conscious	9
▁delivers	9
▁Memorial	9
▁Oklahoma	9
▁churches	9
▁blogging	9
▁Language	9
attribute	9
▁leverage	9
▁Function	9
▁troubles	9
▁Computer	9
▁enabling	9
ividually	9
▁Sciences	9
▁wondered	9
▁deciding	9
▁Victoria	9
▁Kentucky	9
▁switched	9
▁profound	9
▁darkness	9
▁Partners	9
▁updating	9
▁Portland	9
▁veterans	9
▁incoming	9
▁Brooklyn	9
Reference	9
▁pressing	9
▁overhead	9
▁survived	9
▁playoffs	9
▁Features	9
▁depicted	9
▁advocate	9
▁heritage	9
effective	9
▁indirect	9
▁Economic	9
▁proteins	9
▁avoiding	9
▁athletic	9
▁Missouri	9
▁treasure	9
▁aluminum	9
▁donation	9
▁rotating	9
▁triangle	9
▁invested	9
▁blocking	9
▁Customer	9
▁deployed	9
▁reminder	9
▁climbing	9
▁creature	9
▁defeated	9
▁laughing	9
▁overlook	9
▁Advanced	9
▁infected	9
▁tendency	9
▁username	9
footnotes	9
interface	9
ationally	9
ledgments	9
astically	9
▁cannabis	9
▁portions	9
functions	9
▁mobility	9
aceutical	9
▁excluded	9
▁stressed	9
▁educated	9
▁Chairman	9
▁Thompson	9
▁relaxing	9
▁Response	9
valuation	9
▁courtesy	9
▁advances	9
▁missions	9
▁situated	9
▁colleges	9
▁Actually	9
▁compiled	9
▁counties	9
▁compress	9
Operation	9
▁gameplay	9
▁carriers	9
▁callback	9
▁organize	9
▁sometime	9
▁redirect	9
▁annually	9
▁semester	9
▁literary	9
▁Nintendo	9
▁globally	9
▁goodness	9
▁exhibits	9
▁Register	9
▁reserves	9
▁Electric	9
▁revenues	9
▁Creative	9
▁refriger	9
▁Regional	9
▁outlined	9
▁meantime	9
▁browsing	9
▁traveled	9
▁Olympics	9
▁prevents	9
▁promoted	9
▁barriers	9
▁listened	9
▁mentally	9
▁gambling	9
▁catching	9
▁topology	9
▁proceeds	9
leftarrow	9
▁tourists	9
ributions	9
▁formally	9
▁thankful	9
▁validate	9
▁animated	9
▁sexually	9
▁upgraded	9
relations	9
▁Lawrence	9
▁oriented	9
▁touching	9
▁basement	9
▁workflow	9
▁searched	9
ropolitan	9
▁Scottish	9
▁Robinson	9
▁shifting	9
▁instinct	9
▁thrilled	9
▁validity	9
Microsoft	9
▁chapters	9
▁monetary	9
▁investor	9
▁failures	9
▁achieves	9
▁inserted	9
▁keywords	9
▁fighters	9
corollary	9
▁homework	9
direction	9
▁sacrific	9
gregation	9
▁Products	9
▁syndrome	9
▁welcomed	9
▁Baseball	9
important	9
▁connects	9
▁arriving	9
▁scholars	9
▁faithful	9
▁Malaysia	9
▁sticking	9
▁Recently	9
extension	9
▁smoothly	9
▁ignoring	9
▁Explorer	9
▁Equation	9
▁weekends	9
▁opposing	9
▁dressing	9
▁midnight	9
frequency	9
▁colorful	9
▁mattress	9
▁linearly	9
▁Planning	9
▁adaptive	9
▁evolving	9
▁subgroup	9
equations	9
▁pursuing	9
itzerland	9
▁bedrooms	9
▁Commerce	9
▁outdoors	9
▁drawings	9
wikipedia	9
▁infinity	9
▁Together	9
▁showcase	9
▁Settings	9
▁steering	9
▁activist	9
▁switches	9
▁captures	9
▁upgrades	9
▁cellular	9
▁bloggers	9
▁guessing	9
▁blessing	9
▁charming	9
▁billions	9
▁Thailand	9
generated	9
▁retrieve	9
▁tropical	9
▁observer	9
microsoft	9
▁molecule	9
▁severely	9
▁accessed	9
▁spinning	9
▁invasion	9
▁rankings	9
▁mounting	9
smallskip	9
▁psychiat	9
▁spacious	9
▁supplier	9
something	9
▁Practice	9
▁portrait	9
▁Question	9
▁Military	9
▁cylinder	9
▁seasonal	9
prototype	9
fessional	9
resources	9
▁scanning	9
▁backpack	9
▁stranger	9
subscribe	9
▁activate	9
▁misunder	9
▁elevated	9
▁mentions	9
character	9
▁Probably	9
▁insisted	9
▁Princess	9
▁imported	9
▁backward	9
▁Montreal	9
▁musician	9
▁peripher	9
expensive	9
▁Michelle	9
▁governed	9
▁confined	9
▁invented	9
▁midfield	9
▁headline	9
▁develops	9
▁vanishes	9
▁formulas	9
configure	9
▁listings	9
▁Heritage	9
▁renowned	9
▁finishes	9
▁founding	9
▁unwanted	9
▁sporting	9
▁realised	9
▁quarters	9
▁outbreak	9
Directory	9
▁murdered	9
▁Arkansas	9
▁Galactic	9
exception	9
▁graphene	9
▁backyard	9
▁warnings	9
▁violated	9
operation	9
▁currents	9
▁worrying	9
▁assessed	9
▁simulate	9
izational	9
▁villages	9
▁stepping	9
▁Platform	9
▁defender	9
▁bleeding	9
▁recalled	9
▁simplify	9
▁notified	9
directory	9
▁Guardian	9
▁formerly	9
▁mistaken	9
▁youngest	9
▁Mitchell	9
▁tailored	9
▁licenses	9
▁infrared	9
▁surgical	9
▁remotely	9
▁imprison	9
▁suspects	9
▁nonsense	9
▁visually	9
▁terrific	9
▁assisted	9
▁shocking	9
incinnati	9
▁deterior	9
▁memorial	9
▁monsters	9
▁filename	9
▁Campaign	9
▁Starting	9
▁Original	9
▁unsigned	9
community	9
▁judicial	9
namespace	9
▁premiere	9
▁firmware	9
▁Egyptian	9
▁uploaded	9
▁republic	9
represent	9
▁sandwich	9
▁retailer	9
urability	9
▁damaging	9
▁doctrine	9
different	9
▁friction	9
fficiency	9
bootstrap	9
▁shutdown	9
▁revision	9
invariant	9
▁freezing	9
▁referend	9
▁Location	9
▁arguably	9
▁Transfer	9
▁retained	9
▁outgoing	9
olesterol	9
▁clearing	9
▁Venezuel	9
▁ideology	9
▁shortage	9
▁compares	9
▁advocacy	9
▁underest	9
▁deposits	9
▁filtered	9
▁attacker	9
claration	9
▁rebounds	9
▁sciences	9
▁siblings	9
▁obsessed	9
supported	9
▁Networks	9
▁Examples	9
▁promotes	9
▁sponsors	9
▁registry	9
akespeare	9
▁overtime	9
▁vicinity	9
▁stealing	9
▁adopting	9
hyperlink	9
▁inviting	9
▁pitching	9
▁inconven	9
positions	9
▁likewise	9
▁regulate	9
▁Richmond	9
▁finances	9
irmingham	9
▁Strategy	9
Wednesday	9
▁triggers	9
▁enrolled	9
▁confirms	9
▁Official	9
▁hardcore	9
▁reversed	9
▁premises	9
▁socially	9
▁bullshit	9
▁compiler	9
▁underway	9
▁Nebraska	9
ographics	9
▁kindness	9
▁textures	9
▁converge	9
▁glorious	9
▁starring	9
▁concaten	9
commended	9
▁Pictures	9
▁contexts	9
iological	9
▁sunlight	9
▁Multiple	9
▁coloring	9
▁composer	9
▁Recovery	9
▁archives	9
Resources	9
resizebox	9
bsolutely	9
▁Shipping	9
▁Benjamin	9
▁Berkeley	9
▁impacted	9
▁laughter	9
▁readings	9
Statement	9
▁disclose	9
▁journals	9
▁endpoint	9
▁spanning	9
▁breeding	9
▁flooding	9
▁Solution	9
noperator	9
▁cheating	9
selection	9
▁protagon	9
▁spelling	9
▁Warriors	9
▁outdated	9
▁backbone	9
▁Anything	9
▁alphabet	9
▁brighter	9
▁firearms	9
▁minerals	9
Generator	9
▁cocktail	9
▁coincide	9
▁drilling	9
▁obstacle	9
▁credible	9
▁averages	9
▁peculiar	9
▁deserved	9
▁endorsed	9
published	9
ordinates	9
▁envision	9
▁terribly	9
Selection	9
▁inferred	9
▁longtime	9
vertising	9
▁algebras	9
▁Terminal	9
▁downward	9
▁binaries	9
▁Movement	9
▁Margaret	9
▁lowering	9
▁hometown	9
highlight	9
▁figuring	9
▁Optional	9
▁unveiled	9
▁Articles	9
▁salaries	9
setlength	9
ciplinary	9
Constants	9
▁lectures	9
▁additive	9
▁overflow	9
▁credited	9
Transform	9
▁quantify	9
▁taxpayer	9
▁monument	9
▁Whenever	9
▁Champion	9
▁advisory	9
▁decoding	9
▁plumbing	9
statement	9
▁securing	9
▁Internal	9
irections	9
▁resonant	9
▁scrutiny	9
▁workouts	9
▁illusion	9
▁perceive	9
▁steadily	9
▁labeling	9
▁refusing	9
▁Delivery	9
▁Township	9
▁mutually	9
intendent	9
▁troubled	9
▁Licensed	9
▁threaten	9
▁fidelity	9
▁junction	9
▁lineback	9
▁Wireless	9
▁morality	9
▁princess	9
▁writings	9
▁sweeping	9
▁responds	9
asketball	9
▁concerts	9
plication	9
▁imposing	9
▁offshore	9
▁Election	9
▁planting	9
▁Orthodox	9
▁sounding	9
▁efficacy	9
▁stumbled	9
▁injected	9
▁Portugal	9
▁bounding	9
▁polished	9
attention	9
▁proposes	9
▁infamous	9
▁launches	9
velopment	9
▁dividing	9
▁finitely	9
▁bullying	9
▁wardrobe	9
▁severity	9
▁classify	9
▁Citizens	9
▁uncommon	9
▁branding	9
▁exceeded	9
▁grounded	9
▁Russians	9
▁Mathemat	9
▁Physical	9
▁routines	9
▁defended	9
▁Delaware	9
▁medieval	9
▁commerce	9
▁Engineer	9
▁airports	9
▁brackets	9
portation	9
▁comprise	9
Extension	9
potential	9
▁shortest	9
▁Assuming	9
▁Clinical	9
▁initiate	9
▁nitrogen	9
prisingly	9
ntemplate	9
▁elliptic	9
▁Interior	9
▁tactical	9
▁aviation	9
▁Activity	9
ubernetes	9
▁Category	9
▁rewarded	9
▁Buddhist	9
▁humidity	9
▁Politics	9
▁offended	9
▁Shanghai	9
▁geodesic	9
▁cautious	9
▁downside	9
▁flooring	9
▁secretly	9
▁resigned	9
▁battling	9
▁comeback	9
▁canceled	9
▁recycled	9
▁eventual	9
▁speeches	9
▁immunity	9
▁missiles	9
▁Overview	9
▁traction	9
▁beginner	9
cellcolor	9
Construct	9
▁lifelong	9
andidates	9
nargument	9
▁beverage	9
imensions	9
▁upstream	9
▁Workshop	9
▁crafting	9
▁motivate	9
▁giveaway	9
▁pictured	9
▁exposing	9
▁tensions	9
▁realizes	9
mediately	9
▁Advisory	9
▁flagship	9
▁elevator	9
▁galactic	9
▁awaiting	9
▁Schedule	9
▁bachelor	9
▁Historic	9
▁literacy	9
▁examines	9
▁railroad	9
▁quotient	9
▁packaged	9
▁shortcut	9
▁Sullivan	9
nexpected	9
▁shoppers	9
▁mutation	9
▁backdrop	9
▁theology	9
criptions	9
▁pharmacy	9
▁labelled	9
▁Birthday	9
▁utilizes	9
▁Bachelor	9
▁mechanic	9
▁Brussels	9
▁Compared	9
▁wrapping	9
▁cosmetic	9
▁Collabor	9
▁punished	9
▁sympathy	9
ASHINGTON	9
processor	9
▁Nicholas	9
▁addicted	9
▁premiums	9
▁theaters	9
▁enclosed	9
▁agreeing	9
▁maturity	9
▁yielding	9
▁counters	9
operative	9
▁implying	9
partition	9
▁cinnamon	9
▁dreaming	9
▁Cultural	9
▁chatting	9
▁Muhammad	9
▁enhances	9
▁feminine	9
▁morphism	9
▁classics	9
▁stubborn	9
▁Projects	9
▁Steelers	9
generator	9
Copyright	9
Christian	9
▁appendix	9
▁driveway	9
▁Downtown	9
▁stirring	9
sociation	9
▁dividend	9
▁seasoned	9
Character	9
▁horrific	9
▁diagnose	9
▁Position	9
classical	9
▁borrowed	9
▁weighing	9
▁enforced	9
▁umbrella	9
▁settling	9
▁deceased	9
▁tangible	9
▁noticing	9
▁assemble	9
identally	9
plemented	9
▁knocking	9
▁meanings	9
▁residing	9
sensitive	9
▁multiply	9
▁editions	9
symmetric	9
▁converts	9
▁crashing	9
cientific	9
▁Designer	9
▁reliably	9
▁atheists	9
▁fixtures	9
▁dissemin	9
undefined	9
▁helpless	9
▁systemic	9
▁pandemic	9
▁prostate	9
▁unbiased	9
▁Speaking	9
Condition	9
▁catalyst	9
▁relieved	9
▁Required	9
▁thriller	9
▁ambition	9
▁dragging	9
▁incompet	9
Framework	9
▁hearings	9
▁believer	9
▁biblical	9
▁culinary	9
▁prisoner	9
▁sidewalk	9
▁grinding	9
mercially	9
arguments	9
▁evenings	9
▁township	9
secondary	9
▁pleasing	9
Direction	9
evolution	9
▁founders	9
▁boarding	9
▁grabbing	9
▁Creating	9
▁pathetic	9
▁playlist	9
▁detained	9
▁screened	9
▁replaces	9
▁belonged	9
▁freaking	9
▁defenses	9
▁receptor	9
▁boosting	9
▁Graduate	9
▁divorced	9
▁citation	9
ArrayList	9
▁shouting	9
▁stresses	9
▁deleting	9
▁disposed	9
▁crushing	9
▁elephant	9
▁outlines	9
▁Secondly	9
▁Discover	9
▁impurity	9
▁surveyed	9
▁dispatch	9
▁thriving	9
nobtained	9
▁coloured	9
▁suffices	9
▁builders	9
radiation	9
Therefore	9
▁swelling	9
▁McCarthy	9
▁teammate	9
▁prepares	9
clamation	9
▁Academic	9
▁invasive	9
▁attained	9
▁contempt	9
Processor	9
napproxim	9
qualified	9
threshold	9
▁securely	9
▁Includes	9
Structure	9
versation	9
▁juvenile	9
According	9
orescence	9
othetical	9
▁daunting	9
WriteLine	9
▁playback	9
▁trailing	9
▁repaired	9
▁remedies	9
▁vaccines	9
▁subgraph	9
precision	9
President	9
▁knitting	9
Algorithm	9
▁Teaching	9
▁catering	9
Available	9
▁Christie	9
▁Province	9
▁mornings	9
ninterest	9
▁attracts	9
▁skeleton	9
requently	9
▁Shopping	9
▁collects	9
▁tempting	9
▁Marriage	9
▁openings	9
▁advisors	9
▁nickname	9
▁numbered	9
sometimes	9
▁cracking	9
▁squeezed	9
▁inverted	9
▁outfield	9
▁tackling	9
▁optimism	9
▁Behavior	9
▁allocate	9
▁incurred	9
▁roommate	9
Converter	9
textstyle	9
otherwise	9
▁sanction	9
▁mainland	9
▁warriors	9
▁pitchers	9
▁welcomes	9
resistant	9
Animation	9
▁Brisbane	9
▁sickness	9
▁swinging	9
▁sketches	9
▁unlocked	9
▁printers	9
▁firewall	9
▁devotion	9
▁calculus	9
existence	9
▁genocide	9
▁cartoons	9
▁forehead	9
▁nutrient	9
September	9
▁american	9
▁speeding	9
▁Thinking	9
icultural	9
▁passions	9
▁Managing	9
▁workload	9
▁recharge	9
▁smoother	9
▁uniforms	9
▁Buddhism	9
▁unlawful	9
▁analysed	9
▁trailers	9
templates	9
▁Crawford	9
▁comedian	9
▁Previous	9
▁blending	9
▁enduring	9
▁Religion	9
▁seminars	9
▁flashing	9
dimension	9
consuming	9
▁exported	9
▁Gonzalez	9
▁Chrysler	9
▁doubling	9
▁survivor	9
▁persuade	9
variables	9
▁flipping	9
▁daylight	9
▁imminent	9
▁organism	9
nequation	9
▁Athletic	9
▁overhaul	9
▁pointers	9
essential	9
political	9
▁Creation	9
▁cyclists	9
▁analogue	9
▁Benedict	9
▁homepage	9
▁Tomorrow	9
▁Vladimir	9
nconsider	9
▁Graphics	9
▁toughest	9
▁eternity	9
▁impaired	9
▁shipment	9
▁Sterling	9
▁reactive	9
▁podcasts	9
translate	9
▁offenses	9
▁Problems	9
▁aspiring	9
Execution	9
▁Officers	9
▁genetics	9
▁stacking	9
▁taxation	9
FORMATION	9
▁Thoughts	9
canonical	9
▁adapting	9
▁Facility	9
▁communal	9
Sometimes	9
▁appealed	9
▁Normally	9
▁Twilight	9
▁campuses	9
▁cemetery	9
▁freedoms	9
▁fountain	9
▁detached	9
alignment	9
checkmark	9
matically	9
▁drafting	9
▁killings	9
▁Hawaiian	9
▁Dynamics	9
▁bouncing	9
▁Sessions	9
▁Designed	9
ructuring	9
organized	9
ViewModel	9
▁husbands	9
▁lobbying	9
▁Chemical	9
▁dwelling	9
▁decaying	9
▁muscular	9
DataFrame	9
▁carriage	9
quisition	9
▁weakened	9
▁philanth	9
▁activism	9
▁obsolete	9
▁trapping	9
▁plotting	9
▁retiring	9
▁redesign	9
▁Reporter	9
Signature	9
▁Avengers	9
▁autonomy	9
▁hardwood	9
▁orchestr	9
▁granting	9
▁deformed	9
▁artifact	9
▁highways	9
sponsored	9
▁soothing	9
▁Decision	9
▁monopoly	9
▁affinity	9
▁reviewer	9
▁Cleaning	9
ndescribe	9
▁altering	9
▁marketed	9
openhagen	9
▁throttle	9
cientists	9
▁Suddenly	9
▁Strength	9
▁computes	9
▁greeting	9
ymmetries	9
▁escaping	9
▁Mohammed	9
▁Symphony	9
locations	9
▁Critical	9
▁inactive	9
▁offender	9
▁screamed	9
▁shutting	9
vanishing	9
▁massacre	9
▁intermit	9
▁educator	9
▁donating	9
▁feathers	9
▁prohibit	9
▁fruitful	9
▁follower	9
▁drainage	9
▁Employee	9
▁elegance	9
▁solitary	9
▁Provider	9
▁gigantic	9
minecraft	9
▁Hardware	9
▁ImageNet	9
▁competed	9
developer	9
▁immersed	9
▁Violence	9
▁asserted	9
▁patented	9
▁barbecue	9
▁theorems	9
▁Cemetery	9
▁Aviation	9
aporation	9
▁launcher	9
▁slipping	9
▁emitting	9
▁youthful	9
▁Austrian	9
▁trusting	9
▁intimacy	9
Americans	9
asionally	9
▁maternal	9
▁preceded	9
▁silicone	9
▁thirteen	9
▁traveler	9
▁homotopy	9
Alignment	9
developed	9
ellington	9
▁Changing	9
▁Standing	9
essionals	9
▁Caroline	9
▁ignition	9
Threading	9
▁famously	9
▁cheering	9
unciation	9
▁remarked	9
▁Distance	9
▁alarming	9
▁grouping	9
▁specials	9
▁tortured	9
ustralian	9
stituting	9
▁downhill	9
▁Adelaide	9
▁suspense	9
Timestamp	9
stringify	9
▁silently	9
▁audition	9
▁prolific	9
▁retarded	9
Something	9
itiveness	9
▁archived	9
▁handheld	9
▁insecure	9
▁Biblical	9
▁leftover	9
innerHTML	9
▁warrants	9
▁Syracuse	9
committee	9
▁breakout	9
▁striving	9
▁drawback	9
▁skipping	9
▁ornament	9
described	9
▁obstruct	9
▁paycheck	9
▁enriched	9
▁sparsity	9
▁councils	9
▁Included	9
▁outliers	9
▁Breaking	9
calculate	9
▁Ethiopia	9
constants	9
▁selector	9
dominated	9
installed	9
▁Winnipeg	9
▁footwear	9
Numerical	9
ocumented	9
subscript	9
▁factions	9
▁deficits	9
▁recruits	9
quartered	9
Namespace	9
conductor	9
▁pavement	9
▁debating	9
▁modelled	9
copyright	9
▁neutrons	9
▁stitches	9
▁overload	9
transport	9
agination	9
▁holdings	9
▁fracture	9
▁logistic	9
▁extremes	9
▁feminism	9
▁Chargers	9
▁adhesive	9
▁Inspired	9
▁Positive	9
▁robotics	9
▁horribly	9
detection	9
▁infantry	9
▁declares	9
▁deprived	9
▁promoter	9
▁External	9
▁shooters	9
▁Exercise	9
▁Evidence	9
▁marching	9
▁Straight	9
▁Holdings	9
objective	9
▁nominees	9
▁receipts	9
dashboard	9
▁Tracking	9
▁planners	9
▁ablation	9
ermediate	9
ificially	9
planation	9
▁steroids	9
converted	9
▁ventures	9
ochemical	9
▁diminish	9
▁postings	9
▁enlarged	9
▁humility	9
agnostics	9
nobserved	9
▁standout	9
notations	9
▁Savannah	9
▁advising	9
▁staffing	9
▁mandated	9
▁deletion	9
▁pensions	9
▁advisers	9
▁Possible	9
▁afforded	9
▁settlers	9
▁Shepherd	9
▁Reserved	9
oelectric	9
▁disputed	9
▁mushroom	9
▁inertial	9
▁chilling	9
▁openness	9
▁ancestor	9
universal	9
▁bicycles	9
▁succeeds	9
▁Brighton	9
▁Contents	9
▁Yourself	9
▁financed	9
▁Discount	9
▁forgiven	9
activated	9
ographers	9
addresses	9
▁fourteen	9
▁deferred	9
▁destroys	9
sequences	9
▁locality	9
▁takeover	9
nconstant	9
nsolution	9
▁Sections	9
tfunction	9
▁casually	9
▁heavenly	9
▁wrinkles	9
uminosity	9
▁WARRANTY	9
ographies	9
▁bearings	9
▁hardship	9
▁Cambodia	9
▁Fighting	9
▁departed	9
▁halftime	9
contained	9
instagram	9
▁cavities	9
▁prophecy	9
Subscribe	9
▁homicide	9
▁academia	9
▁Istanbul	9
▁pounding	9
religious	9
▁swapping	9
▁bisexual	9
endregion	9
▁deputies	9
▁kitchens	9
▁whopping	9
Documents	9
▁converse	9
▁observes	9
▁Lebanese	9
▁eclectic	9
▁homology	9
▁vanished	9
▁closures	9
▁voltages	9
education	9
struments	9
▁smoothed	9
▁Spectrum	9
▁Expected	9
▁Filipino	9
▁twisting	9
nmagnetic	9
▁hardness	9
regulated	9
▁Clifford	9
▁Specific	9
Formatter	9
reciation	9
animation	9
▁cupcakes	9
▁persists	9
▁locating	9
▁Majorana	9
Functions	9
▁covenant	9
▁thinkers	9
▁spoilers	9
polarized	9
▁Registry	9
▁helicity	9
Transport	9
appointed	9
ificantly	9
▁Majority	9
according	9
▁Keyboard	9
▁antibody	9
▁cruising	9
▁enlisted	9
▁erection	9
geometric	9
▁horizons	9
▁scouting	9
financial	9
▁vomiting	9
▁waveform	9
▁Domestic	9
▁downturn	9
signature	9
▁inventor	9
Community	9
hetically	9
▁depleted	9
▁excludes	9
▁nicotine	9
tabcolsep	9
▁reacting	9
▁insanity	9
▁Highland	9
▁lifespan	9
▁outweigh	9
knowledge	9
▁watering	9
▁outburst	9
▁splendid	9
▁inflated	9
▁bilinear	9
itsubishi	9
▁mediated	9
execution	9
inventory	9
▁explorer	9
president	9
▁starving	9
▁quitting	9
▁formulae	9
▁modifier	9
▁Prospect	9
▁crawling	9
nanalysis	9
substring	9
▁Lighting	9
▁Salvador	9
▁gracious	9
▁Accuracy	9
▁Applying	9
▁honoring	9
▁authored	9
▁Africans	9
▁surfaced	9
migration	9
▁cheerful	9
▁clueless	9
forcement	9
▁Variable	9
versarial	9
▁dictated	9
▁Coverage	9
▁recorder	9
▁Messages	9
▁hovering	9
▁snippets	9
▁Accounts	9
▁Infinity	9
triangleq	9
▁toxicity	9
Supported	9
▁Watching	9
▁balloons	9
▁bursting	9
▁markings	9
▁aquarium	9
confirmed	9
▁Visitors	9
▁dictator	9
▁Kingston	9
Configure	9
hopefully	9
▁Railroad	9
▁murderer	9
▁pancakes	9
▁downtime	9
▁mystical	9
▁titanium	9
▁withdrew	9
publisher	9
▁Friendly	9
▁narrowly	9
▁playable	9
▁Midnight	9
▁diabetic	9
▁dictates	9
▁punching	9
▁bookings	9
ClassName	9
iparticle	9
▁Sherlock	9
▁surgeons	9
▁trousers	9
▁traverse	9
Corollary	9
currently	9
▁novelist	9
▁Patricia	9
▁assaults	9
▁polymers	9
depending	9
▁stocking	9
▁applause	9
igrations	9
typically	9
▁deriving	9
▁plastics	9
▁conceded	9
▁modality	9
Arguments	9
▁politely	9
▁scissors	9
▁sideways	9
▁Producer	9
Variables	9
▁Bulgaria	9
▁denoting	9
▁lightest	9
▁capsules	9
▁disappro	9
▁trustees	9
▁brushing	9
expansion	9
▁trending	9
▁tutoring	9
ntogether	9
▁excerpts	9
▁policing	9
▁Lifetime	9
▁populate	9
ifference	9
▁shredded	9
napproach	9
▁watchdog	9
▁ancestry	9
▁oversees	9
intensity	9
▁haunting	9
▁drowning	9
▁survives	9
▁toroidal	9
completed	9
▁polarity	9
▁Triangle	9
▁Increase	9
unningham	9
▁cohesive	9
separator	9
▁indexing	9
▁asteroid	9
▁narrower	9
Obviously	9
▁migrated	9
▁shedding	9
Completed	9
▁offences	9
▁recovers	9
ributable	9
terrorism	9
▁Pipeline	9
▁cervical	9
▁prophets	9
▁resisted	9
▁gripping	9
▁sweating	9
▁brutally	9
▁frosting	9
▁suitably	9
ocalyptic	9
▁inducing	9
▁melodies	9
Generated	9
izability	9
▁stuffing	9
▁dripping	9
▁fortunes	9
▁immature	9
▁volcanic	9
Candidate	9
▁Speedway	9
▁bindings	9
▁conducts	9
▁agnostic	9
▁anchored	9
▁embodied	9
▁trolling	9
LowerCase	9
portfolio	9
▁grooming	9
nintegral	9
nstandard	9
▁Priority	9
▁Printing	9
▁dissolve	9
Relations	9
▁Incorpor	9
▁slowdown	9
▁Jennings	9
<strong>	8
</table>	8
</tbody>	8
filename	8
▁because	8
▁differe	8
▁through	8
equation	8
▁between	8
▁support	8
▁process	8
▁develop	8
▁without	8
▁perform	8
▁another	8
▁product	8
▁program	8
▁current	8
▁feature	8
▁against	8
▁project	8
▁present	8
▁problem	8
▁results	8
▁thought	8
▁example	8
▁company	8
▁working	8
▁looking	8
▁provide	8
▁getting	8
▁service	8
▁control	8
iversity	8
▁several	8
▁account	8
▁success	8
▁special	8
▁However	8
▁general	8
▁someone	8
ribution	8
▁country	8
▁content	8
▁similar	8
▁started	8
▁measure	8
▁describ	8
▁suggest	8
▁believe	8
▁complet	8
▁connect	8
ncomment	8
▁include	8
▁million	8
▁network	8
▁require	8
▁members	8
▁profess	8
eqnarray	8
▁percent	8
▁further	8
▁version	8
▁website	8
▁quality	8
pecially	8
ications	8
▁friends	8
▁address	8
▁nothing	8
▁perfect	8
▁however	8
cription	8
▁running	8
▁section	8
▁minutes	8
▁contact	8
perature	8
▁systems	8
▁respons	8
▁history	8
▁various	8
▁average	8
▁request	8
▁subject	8
▁players	8
▁reading	8
▁outside	8
▁mention	8
▁complex	8
▁regular	8
▁usually	8
▁writing	8
▁created	8
▁article	8
ological	8
▁details	8
▁correct	8
▁initial	8
▁playing	8
▁consist	8
ependent	8
▁natural	8
▁related	8
▁written	8
▁attempt	8
▁methods	8
▁popular	8
▁collect	8
▁serious	8
▁decided	8
▁density	8
▁follows	8
▁effects	8
▁surface	8
▁ability	8
ulations	8
▁morning	8
▁private	8
▁release	8
position	8
▁numbers	8
▁quickly	8
▁receive	8
▁comfort	8
▁parents	8
▁leading	8
▁finally	8
▁leaders	8
ccording	8
▁prevent	8
▁himself	8
▁towards	8
▁talking	8
username	8
▁convers	8
▁medical	8
▁meeting	8
▁limited	8
▁element	8
▁obvious	8
▁amazing	8
▁picture	8
▁student	8
▁conduct	8
▁concept	8
▁English	8
▁setting	8
nonumber	8
▁changed	8
▁January	8
▁feeling	8
▁becomes	8
▁command	8
▁stories	8
▁smaller	8
▁concern	8
▁brought	8
ednesday	8
▁located	8
▁achieve	8
▁machine	8
▁variety	8
▁overall	8
▁meaning	8
▁college	8
▁Austral	8
▁sources	8
▁studies	8
overline	8
▁October	8
▁purpose	8
▁applied	8
▁reasons	8
▁growing	8
▁devices	8
entially	8
▁learned	8
▁maximum	8
atically	8
function	8
▁science	8
▁happens	8
▁perhaps	8
▁appears	8
▁produce	8
▁weekend	8
izations	8
▁digital	8
▁reports	8
▁billion	8
▁quantum	8
▁culture	8
▁classes	8
▁largest	8
▁remains	8
▁channel	8
ensional	8
▁finding	8
▁hundred	8
▁quarter	8
icrosoft	8
▁attract	8
▁society	8
▁clients	8
▁schools	8
▁Section	8
▁primary	8
▁restaur	8
▁opinion	8
▁husband	8
▁reality	8
▁brother	8
▁objects	8
▁healthy	8
▁showing	8
▁economy	8
▁counter	8
▁station	8
▁biggest	8
▁minimum	8
▁actions	8
▁equival	8
▁testing	8
▁driving	8
▁highest	8
▁Service	8
▁explain	8
▁disease	8
▁waiting	8
▁guarant	8
▁respond	8
▁opening	8
▁conserv	8
▁missing	8
▁willing	8
▁offered	8
▁traffic	8
▁efforts	8
▁deliver	8
▁British	8
▁workers	8
▁profile	8
▁reduced	8
▁excited	8
▁manager	8
▁keeping	8
▁samples	8
▁foreign	8
▁General	8
▁Council	8
▁leaving	8
▁removed	8
▁helping	8
▁College	8
▁century	8
▁session	8
▁covered	8
▁defense	8
▁putting	8
▁partner	8
▁massive	8
▁seconds	8
▁totally	8
▁concent	8
▁illustr	8
▁regions	8
▁Chinese	8
▁mission	8
▁awesome	8
▁helpful	8
▁reached	8
▁Program	8
▁realize	8
▁reviews	8
▁Theorem	8
standing	8
▁conclud	8
▁library	8
▁sharing	8
▁managed	8
possible	8
▁calling	8
▁parties	8
▁England	8
▁compare	8
▁sitting	8
▁Florida	8
▁Develop	8
▁records	8
▁animals	8
▁researc	8
▁focused	8
▁evening	8
▁typical	8
▁walking	8
▁telling	8
▁holding	8
▁kitchen	8
▁Science	8
▁attacks	8
▁stopped	8
▁teacher	8
▁advance	8
▁passion	8
▁noticed	8
▁updated	8
language	8
ometimes	8
▁welcome	8
igration	8
▁charged	8
▁hearing	8
ructions	8
▁episode	8
▁appoint	8
▁univers	8
▁married	8
▁charges	8
noindent	8
▁winning	8
▁failure	8
▁trouble	8
inations	8
▁accompl	8
▁Company	8
▁formula	8
▁Project	8
▁studied	8
▁selling	8
▁funding	8
▁carried	8
▁classic	8
▁enjoyed	8
question	8
▁destroy	8
▁degrees	8
▁markets	8
▁cluster	8
▁payment	8
▁encount	8
operator	8
▁confirm	8
▁housing	8
▁moments	8
▁implies	8
▁figures	8
▁segment	8
▁portion	8
▁virtual	8
▁Instead	8
▁choices	8
▁knowing	8
attering	8
▁diagram	8
▁treated	8
▁answers	8
▁derived	8
▁enhance	8
▁arrived	8
▁battery	8
▁optical	8
▁experts	8
▁Germany	8
▁wearing	8
ployment	8
▁Russian	8
▁herself	8
▁plastic	8
▁wedding	8
▁African	8
▁witness	8
▁artists	8
▁anymore	8
▁ordered	8
ollowing	8
▁dynamic	8
▁officer	8
▁Western	8
footnote	8
▁license	8
▁planned	8
▁involve	8
▁seeking	8
▁Network	8
▁passing	8
Response	8
▁shouldn	8
filtered	8
▁compact	8
ifferent	8
▁capture	8
▁turning	8
▁perturb	8
▁suspect	8
gorithms	8
▁unknown	8
▁weapons	8
▁sustain	8
▁trading	8
▁drivers	8
response	8
ographic	8
▁desired	8
missions	8
▁algebra	8
▁victory	8
▁arrange	8
▁assumed	8
▁promote	8
▁privacy	8
▁serving	8
▁Finally	8
▁surgery	8
▁revenue	8
▁Angeles	8
▁neither	8
▁spatial	8
▁reconst	8
▁Johnson	8
itutions	8
expected	8
▁observe	8
▁prepare	8
▁dealing	8
▁parking	8
opyright	8
culation	8
▁alcohol	8
amespace	8
pression	8
▁illegal	8
▁watched	8
lections	8
▁closely	8
▁signals	8
▁compens	8
▁younger	8
▁Profess	8
▁compute	8
▁designs	8
▁protein	8
▁alleged	8
anguages	8
clusions	8
▁Special	8
▁theorem	8
▁posting	8
▁cutting	8
▁succeed	8
▁largely	8
Property	8
▁entered	8
▁strange	8
▁pointed	8
▁William	8
▁warrant	8
Override	8
▁disappe	8
▁Society	8
▁somehow	8
▁promise	8
▁whereas	8
▁authent	8
idelines	8
omething	8
▁checked	8
▁physics	8
▁sending	8
▁tonight	8
ramework	8
▁amounts	8
▁causing	8
▁killing	8
▁recover	8
▁adopted	8
▁village	8
▁preserv	8
▁matches	8
▁circuit	8
▁writers	8
▁aggress	8
▁upgrade	8
▁tickets	8
▁cooking	8
▁edition	8
▁drawing	8
▁streets	8
▁victims	8
▁electro	8
▁outcome	8
▁chapter	8
document	8
▁divided	8
▁warning	8
▁Jackson	8
▁monthly	8
▁ongoing	8
ilibrium	8
▁multipl	8
▁weights	8
▁opposed	8
▁ancient	8
▁falling	8
▁suppose	8
▁Library	8
▁History	8
▁insight	8
▁Spanish	8
▁mistake	8
▁operate	8
▁therapy	8
▁assault	8
▁Italian	8
▁careful	8
▁satisfy	8
▁roughly	8
▁seasons	8
▁musical	8
▁propose	8
location	8
▁bedroom	8
▁possess	8
unctions	8
▁targets	8
▁equally	8
▁angular	8
▁partial	8
▁Supreme	8
▁premium	8
▁exposed	8
▁Perhaps	8
▁council	8
▁summary	8
▁Medical	8
▁visited	8
▁wanting	8
▁routine	8
▁rapidly	8
▁delight	8
▁Product	8
▁vectors	8
▁elected	8
▁offense	8
▁fitting	8
▁doctors	8
▁fucking	8
▁Support	8
▁worried	8
▁entries	8
▁pleased	8
▁scaling	8
▁desktop	8
▁persons	8
Instance	8
▁acceler	8
▁discipl	8
▁Britain	8
▁illness	8
▁Through	8
irection	8
▁airport	8
▁lessons	8
▁counsel	8
▁speaker	8
urations	8
plements	8
▁gravity	8
▁letting	8
▁neutral	8
▁trigger	8
property	8
▁accused	8
minipage	8
▁viewing	8
▁mapping	8
▁survive	8
▁invited	8
▁fitness	8
▁staying	8
▁locally	8
▁Ireland	8
▁coupled	8
▁flowers	8
▁outdoor	8
iversary	8
▁granted	8
▁pushing	8
▁engaged	8
▁closing	8
subseteq	8
▁hitting	8
Resource	8
▁cameras	8
▁applies	8
ublished	8
▁induced	8
ymmetric	8
▁Pacific	8
▁emotion	8
▁voltage	8
▁printed	8
markdown	8
▁screens	8
ogeneous	8
▁injured	8
▁penalty	8
▁Georgia	8
▁factory	8
▁nations	8
▁founded	8
▁joining	8
▁fingers	8
▁reduces	8
▁savings	8
▁anxiety	8
▁fiction	8
▁centers	8
▁Digital	8
▁hosting	8
▁nearest	8
▁Seattle	8
▁bounded	8
▁precise	8
▁curious	8
▁utility	8
▁consent	8
▁intense	8
▁filling	8
▁figured	8
▁recipes	8
▁resolve	8
▁finance	8
formance	8
▁metrics	8
▁raising	8
▁Arizona	8
American	8
▁compete	8
setminus	8
▁picking	8
ensities	8
pository	8
▁Current	8
Listener	8
▁examine	8
▁fantasy	8
olutions	8
▁removal	8
instance	8
▁refused	8
▁disturb	8
▁scoring	8
▁Kingdom	8
▁texture	8
▁anybody	8
▁signing	8
▁hanging	8
▁solving	8
▁smoking	8
template	8
▁offices	8
▁arrival	8
▁burning	8
▁Israeli	8
itations	8
▁fishing	8
▁exhibit	8
▁Account	8
▁western	8
specific	8
▁varying	8
▁healing	8
▁scholar	8
▁heating	8
▁concert	8
▁violent	8
▁Process	8
▁Islamic	8
complete	8
interest	8
▁farmers	8
▁cooling	8
▁focuses	8
Function	8
▁ignored	8
▁Content	8
friendly	8
▁strings	8
relation	8
▁cancell	8
▁affects	8
▁editing	8
▁threats	8
▁Version	8
▁Nothing	8
▁closest	8
▁circles	8
▁denoted	8
Provider	8
▁rolling	8
▁engines	8
▁scratch	8
adelphia	8
children	8
▁veteran	8
category	8
▁evident	8
▁awarded	8
▁stomach	8
▁founder	8
▁binding	8
tprivate	8
▁pulling	8
▁genetic	8
▁shorter	8
▁horizon	8
▁radical	8
▁shortly	8
security	8
password	8
▁buttons	8
onential	8
▁Atlanta	8
▁publish	8
ordinary	8
▁damaged	8
▁singing	8
▁carrier	8
▁genuine	8
▁Systems	8
▁filters	8
▁Conserv	8
▁synthes	8
▁briefly	8
▁retired	8
learning	8
▁ranging	8
▁graphic	8
▁pricing	8
▁tension	8
▁podcast	8
▁Detroit	8
required	8
▁labeled	8
▁execute	8
▁trailer	8
▁logical	8
▁listing	8
▁hunting	8
▁grounds	8
▁suicide	8
▁Country	8
▁settled	8
▁thereby	8
▁Suppose	8
▁defines	8
Position	8
▁forming	8
▁carries	8
ensively	8
▁ranking	8
▁loading	8
▁imaging	8
▁Studies	8
ractions	8
requency	8
▁expense	8
▁ratings	8
▁coaches	8
▁Natural	8
▁trivial	8
omorphic	8
▁Contact	8
▁handled	8
▁barrier	8
▁Airport	8
▁failing	8
ologists	8
▁reserve	8
▁lawyers	8
▁charity	8
▁painful	8
▁Station	8
▁citizen	8
▁acquire	8
▁mounted	8
register	8
▁Results	8
▁Reading	8
▁worship	8
▁handful	8
▁belongs	8
▁deposit	8
Location	8
parallel	8
▁Defense	8
▁Nations	8
▁Channel	8
▁trusted	8
multirow	8
internal	8
▁justify	8
▁recruit	8
training	8
▁banking	8
▁Besides	8
▁deleted	8
▁photons	8
▁blocked	8
▁painted	8
▁Details	8
▁feeding	8
▁Command	8
comments	8
▁dancing	8
building	8
▁winners	8
▁Privacy	8
▁welfare	8
▁Officer	8
▁threads	8
quarters	8
▁Indiana	8
▁dressed	8
▁landing	8
▁theater	8
▁portray	8
▁captain	8
▁viewers	8
▁neutron	8
▁Mexican	8
▁Edition	8
▁implied	8
Settings	8
▁colours	8
▁forcing	8
npackage	8
selected	8
▁placing	8
▁actress	8
together	8
▁devoted	8
▁outputs	8
etheless	8
▁workout	8
▁affairs	8
elescope	8
standard	8
▁venture	8
▁Vietnam	8
▁Stadium	8
▁readily	8
▁females	8
resident	8
unsigned	8
▁credits	8
Document	8
▁stepped	8
▁Members	8
ventions	8
resource	8
▁evolved	8
▁lawsuit	8
▁matched	8
▁Student	8
▁transit	8
▁ceiling	8
▁crossed	8
settings	8
although	8
▁replied	8
▁bottles	8
▁divorce	8
breaking	8
▁qualify	8
negative	8
▁Foreign	8
ceptions	8
▁skilled	8
▁magical	8
▁beating	8
▁colored	8
▁imposed	8
▁powered	8
▁emerged	8
▁overlap	8
▁nursing	8
▁relaxed	8
▁adapted	8
▁Fourier	8
▁singles	8
Category	8
leveland	8
▁impacts	8
▁shocked	8
▁volumes	8
▁shifted	8
creation	8
▁fastest	8
▁Anthony	8
▁Theatre	8
▁footage	8
▁Village	8
▁closure	8
▁plotted	8
▁patches	8
▁flights	8
▁warming	8
▁monster	8
▁Premier	8
▁Quality	8
▁Looking	8
▁deficit	8
▁Captain	8
▁strikes	8
▁critics	8
▁booking	8
▁Senator	8
▁lighter	8
argument	8
▁stadium	8
▁queries	8
relevant	8
▁anytime	8
▁eastern	8
cosystem	8
▁decides	8
business	8
▁lengths	8
▁elegant	8
▁touched	8
▁glasses	8
▁vintage	8
▁auction	8
▁notable	8
▁Chapter	8
▁Friends	8
stration	8
▁kinetic	8
▁assured	8
▁Hillary	8
▁beloved	8
▁expects	8
▁advised	8
ensitive	8
▁clarity	8
▁suscept	8
▁Kennedy	8
original	8
▁blessed	8
▁reminds	8
▁Ukraine	8
▁useless	8
platform	8
▁existed	8
▁Example	8
▁printer	8
▁Phoenix	8
▁preview	8
▁stating	8
▁highway	8
▁disable	8
▁tactics	8
▁sisters	8
▁Records	8
▁longest	8
▁delayed	8
▁Message	8
▁Reviews	8
▁secrets	8
▁shipped	8
▁logging	8
▁Reserve	8
▁artwork	8
▁legally	8
▁lasting	8
itecture	8
▁Ontario	8
▁defence	8
▁Article	8
▁aligned	8
▁Limited	8
creasing	8
▁Website	8
▁battles	8
▁Russell	8
▁jumping	8
Template	8
particle	8
▁streams	8
▁secured	8
blogspot	8
▁kingdom	8
▁assumes	8
▁cabinet	8
▁passive	8
▁bearing	8
graduate	8
chnology	8
▁gaining	8
nbetween	8
▁Private	8
▁avoided	8
▁earning	8
continue	8
▁harmful	8
▁pressed	8
▁Highway	8
▁Finance	8
▁scripts	8
▁unclear	8
▁receipt	8
▁dispute	8
▁lacking	8
▁squares	8
▁assists	8
▁pension	8
▁archive	8
▁backing	8
▁Mission	8
▁careers	8
▁damages	8
▁islands	8
▁Working	8
▁permits	8
▁Classic	8
oriented	8
▁washing	8
▁teaches	8
▁ethical	8
▁innings	8
▁elderly	8
▁borders	8
▁antenna	8
▁cleared	8
▁Francis	8
Activity	8
services	8
▁Virtual	8
distance	8
▁outline	8
▁comprom	8
▁wealthy	8
▁playoff	8
▁caution	8
▁Writing	8
▁needing	8
▁pointer	8
▁linking	8
▁Release	8
contains	8
▁sampled	8
▁pockets	8
▁empower	8
Callback	8
▁seventh	8
boldmath	8
▁declare	8
▁pending	8
outheast	8
▁repairs	8
▁arguing	8
▁offline	8
▁fighter	8
▁bitcoin	8
▁durable	8
▁cleaned	8
▁retreat	8
pectives	8
▁theatre	8
Abstract	8
▁tourism	8
▁custody	8
sequence	8
ortunate	8
▁arrives	8
▁undergo	8
▁prosper	8
▁corrupt	8
▁Success	8
rational	8
▁peoples	8
▁Perfect	8
▁soldier	8
▁Century	8
activity	8
▁blogger	8
▁Problem	8
▁WARRANT	8
consider	8
▁travels	8
curities	8
▁defects	8
▁lifting	8
▁proving	8
commerce	8
uclidean	8
atherine	8
▁Getting	8
▁betting	8
▁Turkish	8
emptyset	8
products	8
▁semicon	8
▁cycling	8
▁casting	8
▁coconut	8
▁laundry	8
▁happily	8
▁Beijing	8
▁lecture	8
positive	8
▁Options	8
Password	8
▁Similar	8
▁spotted	8
callback	8
▁Cameron	8
▁flowing	8
▁energet	8
articles	8
nonymous	8
▁quietly	8
▁outlets	8
▁thereof	8
▁Usually	8
▁stylish	8
sections	8
▁outlook	8
cedented	8
▁Islands	8
triangle	8
▁packing	8
analysis	8
▁Request	8
ordinate	8
iliation	8
▁arising	8
▁cartoon	8
▁Springs	8
▁decoder	8
▁Between	8
▁torture	8
▁clarify	8
▁counted	8
features	8
▁honored	8
▁inquiry	8
▁Schools	8
▁sounded	8
▁polymer	8
▁Culture	8
▁bicycle	8
▁Promise	8
▁revised	8
otherapy	8
▁pursuit	8
vartheta	8
▁educate	8
▁approve	8
▁Chelsea	8
▁twisted	8
▁donated	8
approxim	8
▁visitor	8
▁Stanley	8
▁vessels	8
arcelona	8
▁knocked	8
▁builder	8
▁eternal	8
▁Respons	8
▁reforms	8
▁pairing	8
download	8
▁refined	8
▁Sheriff	8
ificates	8
▁Initial	8
▁neurons	8
▁descent	8
▁farming	8
ertainly	8
▁keyword	8
▁lightly	8
progress	8
Database	8
▁Kitchen	8
▁tribute	8
packages	8
▁sponsor	8
▁watches	8
▁metabol	8
▁secular	8
▁wounded	8
nbecause	8
imension	8
▁Swedish	8
▁motions	8
▁sliding	8
▁Morning	8
▁biology	8
▁worries	8
volution	8
▁amateur	8
▁camping	8
▁compile	8
▁Collect	8
▁Lorentz	8
▁unitary	8
▁runtime	8
▁rushing	8
▁modeled	8
▁athlete	8
▁bracket	8
▁packets	8
includes	8
▁notably	8
▁relying	8
▁Speaker	8
subfloat	8
▁Rangers	8
▁quicker	8
Selected	8
restrict	8
▁Fantasy	8
▁Diamond	8
▁frankly	8
▁Nigeria	8
▁mindset	8
▁abandon	8
▁fortune	8
▁dresses	8
▁planted	8
▁storing	8
Argument	8
▁selfish	8
▁adapter	8
validate	8
▁tuition	8
▁coating	8
▁wonders	8
▁happier	8
▁lengthy	8
▁Imagine	8
▁premise	8
▁kicking	8
▁Stories	8
nrespect	8
▁inhabit	8
▁vaccine	8
▁slavery	8
▁forgive	8
▁fifteen	8
▁pitcher	8
▁seniors	8
optional	8
ographer	8
icularly	8
▁adverse	8
▁analogy	8
material	8
▁differs	8
nrequire	8
nthrough	8
database	8
▁posters	8
▁smiling	8
▁staring	8
▁crafted	8
▁anxious	8
▁seating	8
▁coastal	8
▁blowing	8
▁origins	8
▁Meeting	8
physical	8
changing	8
▁subsets	8
▁Housing	8
▁obesity	8
▁rebuild	8
▁Physics	8
▁exclude	8
velocity	8
▁Studios	8
▁Feature	8
Services	8
andidate	8
▁chooses	8
▁hopeful	8
licenses	8
▁Against	8
▁runners	8
stackrel	8
▁advisor	8
ablished	8
▁scatter	8
▁folders	8
▁accepts	8
Download	8
▁priorit	8
▁sensing	8
Selector	8
▁missile	8
▁renewed	8
▁Thought	8
▁prolong	8
Security	8
▁dealers	8
▁Arsenal	8
▁spacing	8
timately	8
▁appeals	8
▁Methods	8
▁lending	8
▁outflow	8
▁doubled	8
▁Players	8
▁glimpse	8
ritional	8
iterator	8
▁acclaim	8
▁shooter	8
▁nonzero	8
▁tightly	8
▁Jessica	8
▁exceeds	8
critical	8
▁routing	8
▁crashed	8
▁Picture	8
personal	8
▁squared	8
▁removes	8
▁cricket	8
▁Coulomb	8
▁dispers	8
▁mailing	8
▁Invoice	8
▁revenge	8
Thursday	8
▁rewrite	8
▁Summary	8
▁jointly	8
▁imagery	8
▁squeeze	8
aternity	8
election	8
▁caption	8
relative	8
▁halfway	8
irements	8
▁latency	8
▁bubbles	8
chanical	8
▁regimes	8
▁Belgium	8
▁abusive	8
abstract	8
▁drafted	8
▁congrat	8
▁suffers	8
Progress	8
▁lowered	8
erranean	8
▁feather	8
variable	8
duration	8
▁Profile	8
▁habitat	8
Register	8
▁digging	8
▁dignity	8
otential	8
▁catches	8
▁chopped	8
▁Premium	8
▁heights	8
ToString	8
▁Session	8
▁crashes	8
▁budgets	8
▁wasting	8
▁customs	8
▁debates	8
▁exagger	8
▁mineral	8
Iterator	8
▁malware	8
▁marking	8
▁chasing	8
▁Running	8
▁martial	8
jupytext	8
▁Greater	8
earchers	8
▁drought	8
▁hurting	8
▁unified	8
▁fathers	8
constant	8
▁tasting	8
examples	8
▁Episode	8
acterial	8
▁praying	8
▁mirrors	8
otically	8
▁crosses	8
▁silicon	8
▁unaware	8
▁doubles	8
▁Manning	8
▁dangers	8
▁pumping	8
protocol	8
▁congest	8
▁dietary	8
▁replies	8
▁hostile	8
▁anomaly	8
▁crushed	8
▁imports	8
▁evangel	8
▁triumph	8
resolved	8
▁emitted	8
contents	8
▁reminis	8
official	8
▁tissues	8
Although	8
heastern	8
▁hormone	8
▁payload	8
▁judging	8
▁locking	8
▁shaking	8
▁immense	8
idential	8
▁stacked	8
▁shaping	8
▁refuses	8
▁viruses	8
probably	8
▁stuffed	8
Facebook	8
▁wishing	8
▁filming	8
▁clicked	8
notation	8
▁foolish	8
▁tangent	8
▁induces	8
reatment	8
▁glucose	8
▁infring	8
▁cuisine	8
Saturday	8
▁Vermont	8
▁Scholar	8
▁Tickets	8
▁harmony	8
illation	8
▁tracked	8
▁employs	8
▁showers	8
▁resting	8
▁Factory	8
nresults	8
Internal	8
▁railway	8
existing	8
pretrain	8
redirect	8
Sequence	8
PASSWORD	8
momentum	8
nmeasure	8
▁Denmark	8
▁leagues	8
Analysis	8
▁shuttle	8
▁slipped	8
ervation	8
▁confess	8
▁Alberta	8
inspired	8
▁copying	8
olecular	8
Comments	8
balanced	8
▁momenta	8
▁Simpson	8
ancellor	8
Variable	8
provider	8
transfer	8
generate	8
▁touring	8
▁billing	8
▁kernels	8
▁Reports	8
▁interim	8
▁damping	8
Required	8
▁surgeon	8
▁denying	8
national	8
disabled	8
lessness	8
▁praised	8
volatile	8
▁Univers	8
contract	8
▁Average	8
ivariate	8
▁winding	8
▁conting	8
▁Archive	8
▁Monster	8
▁Maxwell	8
▁Raiders	8
▁guiding	8
▁balcony	8
▁someday	8
▁obscure	8
▁greeted	8
nprocess	8
▁bending	8
▁Formula	8
▁bargain	8
customer	8
▁bombing	8
▁warrior	8
▁Improve	8
▁invites	8
▁kidding	8
▁screwed	8
▁scenery	8
▁slowing	8
▁Austria	8
▁dioxide	8
▁masturb	8
▁climbed	8
aspberry	8
▁omitted	8
ertation	8
▁warfare	8
projects	8
▁Outlook	8
describe	8
▁studios	8
▁freezer	8
▁hopping	8
▁folding	8
▁tempted	8
Material	8
strument	8
ustralia	8
ogeneity	8
software	8
▁Quarter	8
▁DEFAULT	8
▁fabrics	8
▁cracked	8
▁denomin	8
▁Verizon	8
ernandez	8
▁merging	8
external	8
ducation	8
▁Testing	8
▁nominee	8
▁Counsel	8
Standard	8
▁payroll	8
▁Heights	8
▁persist	8
nolimits	8
underset	8
pressure	8
▁statute	8
▁futures	8
iltonian	8
pleasant	8
▁Primary	8
▁lottery	8
Business	8
ergarten	8
etically	8
electron	8
▁excuses	8
▁sailing	8
▁sorting	8
▁outward	8
▁Amazing	8
▁dragged	8
ognition	8
▁Related	8
Language	8
▁Bennett	8
▁pitched	8
ilingual	8
▁hacking	8
▁Trading	8
▁museums	8
▁adviser	8
▁sadness	8
▁depicts	8
Elements	8
olerance	8
▁Traffic	8
boarding	8
▁cottage	8
▁veggies	8
substack	8
ublisher	8
▁Wedding	8
▁Griffin	8
▁referee	8
▁leaning	8
▁hunters	8
▁Gardens	8
▁Figures	8
▁clinics	8
▁Surface	8
ndefined	8
▁sincere	8
▁coupons	8
▁polling	8
▁Finland	8
▁ashamed	8
▁Centers	8
neapolis	8
▁popping	8
▁vicious	8
oretical	8
research	8
cellence	8
solution	8
▁notions	8
Continue	8
▁Concept	8
centered	8
▁firearm	8
▁batting	8
▁pitches	8
▁diffuse	8
ructures	8
npresent	8
vertical	8
▁Created	8
▁licence	8
▁alright	8
▁outfits	8
▁Trinity	8
Optional	8
▁Iceland	8
▁spreads	8
▁melting	8
sampling	8
▁seminar	8
interval	8
▁Workers	8
Learning	8
identity	8
▁anyways	8
▁sleeves	8
▁bonding	8
▁unconst	8
▁parsing	8
▁Germans	8
possibly	8
Duration	8
▁shining	8
diagonal	8
ithmetic	8
▁relieve	8
division	8
▁recount	8
▁insists	8
▁Therapy	8
▁expired	8
▁intends	8
▁plugged	8
▁Changes	8
▁whistle	8
Interval	8
▁ideally	8
▁sparked	8
▁emerges	8
weighted	8
▁sucking	8
aneously	8
▁Setting	8
elements	8
otiation	8
▁sheriff	8
Platform	8
periodic	8
▁yelling	8
▁freight	8
dynamics	8
▁Emperor	8
ractical	8
vertible	8
▁tougher	8
modified	8
▁renamed	8
▁surfing	8
emporary	8
▁Quantum	8
▁apology	8
▁styling	8
▁Bristol	8
▁Finding	8
▁Leonard	8
▁pursued	8
▁issuing	8
▁english	8
Registry	8
dispatch	8
National	8
▁protons	8
AAAAAAAA	8
▁dispens	8
vergence	8
initions	8
▁Revenue	8
actually	8
▁brewing	8
▁abelian	8
▁posture	8
Contract	8
▁procure	8
▁travers	8
paration	8
▁asshole	8
hibition	8
Question	8
channels	8
versions	8
▁fixture	8
▁entitle	8
▁Partner	8
▁brokers	8
ilateral	8
requires	8
▁guessed	8
currency	8
▁pleaded	8
appiness	8
▁painter	8
▁Podcast	8
Identity	8
▁deepest	8
▁rehears	8
▁planner	8
collapse	8
▁enacted	8
▁applaud	8
▁Include	8
▁lensing	8
▁duality	8
▁spheres	8
▁Belgian	8
▁dancers	8
▁upright	8
▁gradual	8
▁cocaine	8
▁renting	8
▁Awesome	8
▁mileage	8
▁Walking	8
thinking	8
▁roasted	8
▁ceramic	8
▁murders	8
Children	8
▁amusing	8
▁Knowing	8
▁Prophet	8
rections	8
▁dilemma	8
▁resides	8
▁Falcons	8
▁Reality	8
▁refusal	8
▁Opening	8
CRIPTION	8
▁Guarant	8
▁suburbs	8
▁lithium	8
▁emailed	8
keywords	8
▁Regular	8
graphics	8
overview	8
Training	8
Contents	8
▁uncover	8
economic	8
▁excerpt	8
▁strokes	8
Constant	8
▁Fitness	8
▁Shannon	8
▁Timothy	8
Protocol	8
▁offence	8
▁Ancient	8
closures	8
NotFound	8
multiple	8
approved	8
▁Melissa	8
▁Outside	8
▁webpage	8
computer	8
▁Silicon	8
▁selects	8
▁Healthy	8
▁kissing	8
▁madness	8
▁torsion	8
▁Knights	8
archives	8
Original	8
assuming	8
▁patrons	8
▁residue	8
▁handing	8
nwithout	8
roducing	8
▁dreamed	8
▁stamped	8
▁bidding	8
▁gallons	8
▁solvent	8
▁charger	8
▁Dynamic	8
▁evolves	8
▁newborn	8
previous	8
▁buddies	8
▁thicker	8
▁costing	8
▁chassis	8
▁rebound	8
ordering	8
▁Tonight	8
FileName	8
approach	8
▁Economy	8
▁begging	8
▁prefers	8
▁recipro	8
▁Counter	8
electric	8
▁pruning	8
▁oneself	8
▁insured	8
terminal	8
ndensity	8
Gaussian	8
Operator	8
oltzmann	8
▁pioneer	8
▁Gabriel	8
Customer	8
▁goodies	8
▁Located	8
harmonic	8
▁layered	8
Transfer	8
▁flooded	8
▁cancers	8
▁motives	8
▁shouted	8
▁retains	8
▁Appeals	8
▁skipped	8
▁infants	8
▁illumin	8
▁tracing	8
▁Defence	8
uitively	8
▁trilogy	8
▁headset	8
TestCase	8
atisfied	8
▁compost	8
▁invoice	8
▁Fiction	8
▁Markets	8
Strategy	8
ensation	8
exchange	8
▁furnish	8
External	8
▁dialect	8
affected	8
Features	8
▁Believe	8
▁compose	8
geometry	8
▁yielded	8
▁glowing	8
▁Popular	8
▁indoors	8
▁rightly	8
Controls	8
artments	8
dropdown	8
▁Keeping	8
▁stunned	8
▁capsule	8
daughter	8
▁thinner	8
entation	8
▁Coleman	8
ruitment	8
ntypedef	8
▁Preview	8
▁tighter	8
aggering	8
▁Fortune	8
▁Playing	8
▁rubbing	8
▁nursery	8
Messages	8
▁Various	8
▁sourced	8
ttfamily	8
▁drastic	8
▁morally	8
Software	8
▁carrots	8
▁tapping	8
agnostic	8
▁rotated	8
▁tearing	8
Distance	8
▁Weekend	8
▁suspend	8
▁Gregory	8
▁Pradesh	8
▁guitars	8
atterson	8
▁dictate	8
manifold	8
▁Updated	8
▁sidebar	8
Endpoint	8
▁rubbish	8
▁blaming	8
irically	8
checkbox	8
▁confuse	8
▁drummer	8
▁Hungary	8
▁skating	8
▁invoked	8
▁craving	8
▁playful	8
Internet	8
ncurrent	8
▁Convert	8
ninclude	8
override	8
▁Minimum	8
released	8
assembly	8
▁visuals	8
▁academy	8
▁opacity	8
▁faction	8
▁pooling	8
restrial	8
▁festive	8
▁Illustr	8
▁loosely	8
▁Railway	8
encoding	8
▁visions	8
▁banning	8
▁concise	8
spectrum	8
▁legends	8
Everyone	8
erential	8
▁contend	8
▁insider	8
▁ensured	8
▁thanked	8
▁skeptic	8
▁matchup	8
subtitle	8
▁Warning	8
▁Numbers	8
▁Wyoming	8
endpoint	8
▁Whereas	8
▁panties	8
▁Tourism	8
▁incomes	8
designed	8
▁singers	8
▁onboard	8
tracking	8
▁revisit	8
▁commits	8
▁leaking	8
▁Rolling	8
Graphics	8
ocalypse	8
▁texting	8
priority	8
Executor	8
strategy	8
▁Raymond	8
ynamical	8
▁prophet	8
variance	8
▁Nursing	8
▁Maximum	8
▁berries	8
▁enzymes	8
▁grilled	8
nexample	8
▁Freeman	8
boundary	8
selector	8
▁fingert	8
▁Persian	8
▁embassy	8
▁Conduct	8
▁debated	8
accuracy	8
journals	8
AreEqual	8
commands	8
speaking	8
▁Biology	8
▁pledged	8
▁Embassy	8
▁Receipt	8
▁haunted	8
Expected	8
ffffffff	8
Contains	8
Delegate	8
ogenesis	8
pipeline	8
▁Elliott	8
▁mindful	8
▁Started	8
▁Fighter	8
iseconds	8
▁exacerb	8
▁resorts	8
activate	8
▁urgency	8
▁webinar	8
▁backups	8
▁Utility	8
▁rocking	8
December	8
▁Horizon	8
agnitude	8
magnetic	8
▁Warrior	8
▁divides	8
▁Leaders	8
▁Spotify	8
▁layouts	8
▁clutter	8
▁testify	8
▁Answers	8
▁Compare	8
▁endured	8
▁jackets	8
▁Comfort	8
▁Unknown	8
▁rivalry	8
▁brushes	8
ributing	8
▁mergers	8
▁Gardner	8
bfseries	8
▁inherit	8
▁rituals	8
▁sausage	8
MenuItem	8
▁entails	8
▁brewery	8
▁admired	8
▁Battery	8
schedule	8
absolute	8
scalebox	8
bigoplus	8
▁Transit	8
overflow	8
produced	8
▁prisons	8
▁batches	8
▁Catalog	8
ellation	8
▁sixteen	8
chemical	8
orkshire	8
capacity	8
▁rockets	8
▁bowling	8
▁Subject	8
occupied	8
▁grading	8
releases	8
▁Citizen	8
▁novelty	8
▁erosion	8
▁Killing	8
▁elusive	8
coupling	8
vertices	8
▁fasting	8
isitions	8
▁liquids	8
directed	8
▁Sharing	8
▁curated	8
Encoding	8
Nullable	8
Resolver	8
▁mansion	8
▁congreg	8
▁furious	8
▁boosted	8
▁spoiled	8
▁Boulder	8
▁allergy	8
appendix	8
shipping	8
▁Kenneth	8
▁Banking	8
nprivate	8
nproblem	8
▁Romania	8
▁killers	8
▁mundane	8
▁sinking	8
▁Driving	8
▁upfront	8
registry	8
▁cynical	8
Commerce	8
ributors	8
▁Meaning	8
▁needles	8
February	8
▁cruelty	8
▁Surgery	8
▁compuls	8
▁rebuilt	8
▁borough	8
othermal	8
cmidrule	8
▁jerseys	8
networks	8
▁thieves	8
▁bladder	8
orescent	8
practice	8
ertility	8
▁devised	8
▁obliged	8
November	8
ognitive	8
▁equilib	8
▁turmoil	8
▁puppies	8
▁Brewing	8
▁overest	8
▁shuffle	8
▁messing	8
▁turbine	8
▁temples	8
▁realism	8
isheries	8
ypically	8
▁seekers	8
controls	8
▁slammed	8
▁Doctors	8
▁Founder	8
▁Finnish	8
artifact	8
▁wording	8
▁repeats	8
▁bottled	8
▁inadver	8
▁pillows	8
▁topping	8
▁Corinth	8
▁screams	8
▁Provide	8
▁abbrevi	8
orgetown	8
▁Outdoor	8
▁bipolar	8
▁flashes	8
Pipeline	8
▁catcher	8
▁framing	8
▁sibling	8
▁textual	8
▁keynote	8
▁dumping	8
aterials	8
quantity	8
▁inhibit	8
▁tunnels	8
▁reacted	8
▁Insider	8
▁baskets	8
▁ethanol	8
ximately	8
▁Evangel	8
▁polygon	8
cultural	8
▁dragons	8
▁drained	8
▁Colonel	8
cheduled	8
Remember	8
▁Jamaica	8
▁topical	8
▁craftsm	8
▁Hussein	8
Criteria	8
European	8
▁Judaism	8
▁banners	8
▁Legends	8
ablation	8
▁debuted	8
▁Witness	8
▁asserts	8
▁staging	8
TextView	8
arations	8
▁Growing	8
educated	8
neighbor	8
odynamic	8
orations	8
▁Designs	8
omedical	8
remember	8
▁buckets	8
▁fearful	8
▁Minutes	8
▁dinners	8
▁pokemon	8
▁hostage	8
▁regimen	8
▁Lindsay	8
▁naughty	8
usterity	8
▁Granted	8
▁telecom	8
▁Celtics	8
▁brushed	8
▁tagging	8
reported	8
▁braking	8
▁ringing	8
▁vacancy	8
imentary	8
▁Artists	8
charging	8
▁Purpose	8
▁cheated	8
Relative	8
Username	8
reements	8
▁booting	8
cessions	8
▁coached	8
▁hashtag	8
▁Strange	8
▁Simmons	8
▁sealing	8
uplicate	8
▁summers	8
▁smashed	8
▁Dragons	8
▁Parking	8
▁commend	8
▁suffice	8
▁unravel	8
▁trimmed	8
Examples	8
ibernate	8
▁Mustang	8
▁mustard	8
▁quoting	8
▁dubious	8
▁snippet	8
Validate	8
▁mammals	8
▁Classes	8
finished	8
▁Daniels	8
nanother	8
▁punched	8
▁perfume	8
▁plagued	8
▁veterin	8
▁Hampton	8
▁Talking	8
▁fleeing	8
▁tighten	8
nsection	8
received	8
campaign	8
▁Applied	8
families	8
▁looming	8
Generate	8
▁Monthly	8
averaged	8
compress	8
▁Parties	8
FilePath	8
▁Webster	8
▁reclaim	8
▁Ideally	8
▁bishops	8
Geometry	8
nproduct	8
▁growers	8
▁stocked	8
▁diploma	8
Overview	8
▁Garrett	8
workflow	8
▁oversee	8
▁avenues	8
▁Compute	8
▁Cricket	8
▁Planned	8
▁bounced	8
uggested	8
▁Achieve	8
ractable	8
▁payable	8
answered	8
▁Advisor	8
Appendix	8
▁invaded	8
▁conceal	8
matching	8
provided	8
▁Replace	8
▁regrets	8
▁Perform	8
▁dynasty	8
Commands	8
▁informs	8
▁nurture	8
gressive	8
iability	8
▁baryons	8
Calendar	8
▁Farmers	8
feedback	8
▁Missing	8
▁Objects	8
▁prevail	8
▁psyched	8
Previous	8
Research	8
▁statues	8
▁tornado	8
▁Customs	8
cccccccc	8
nsystems	8
romagnet	8
▁baseman	8
▁emulate	8
▁pulsars	8
ustering	8
Observer	8
▁presume	8
aliation	8
▁onwards	8
▁spouses	8
employee	8
▁caching	8
▁assigns	8
Multiple	8
actively	8
galactic	8
▁Vintage	8
▁soliton	8
▁volcano	8
Consumer	8
Modified	8
infrared	8
▁captive	8
▁Respond	8
▁anatomy	8
▁skillet	8
Solution	8
informed	8
▁nightly	8
sentence	8
upstream	8
consumer	8
▁steward	8
▁Evening	8
▁heavens	8
▁raining	8
▁chilled	8
▁baptism	8
▁pillars	8
viewport	8
ndevelop	8
▁Croatia	8
ymptotic	8
coverage	8
▁Hawking	8
starting	8
symmetry	8
▁imprint	8
▁inquire	8
▁derives	8
▁Morocco	8
▁emperor	8
clerosis	8
▁Norfolk	8
regation	8
uttering	8
▁virtues	8
nquantum	8
▁deduced	8
▁Powered	8
▁probing	8
otypical	8
▁presses	8
mrrooter	8
▁Musical	8
▁lesions	8
▁compass	8
Assembly	8
director	8
▁drawers	8
▁footing	8
defaults	8
▁Feynman	8
erialize	8
Building	8
▁Clayton	8
Behavior	8
▁conject	8
▁marched	8
ninitial	8
▁Flowers	8
nsupport	8
▁proverb	8
▁stabbed	8
▁strives	8
formerly	8
▁policym	8
▁Himself	8
▁bedding	8
▁longing	8
▁offsets	8
xxxxxxxx	8
▁Streets	8
existent	8
included	8
▁Laplace	8
▁clashes	8
▁soaking	8
▁Healing	8
▁coveted	8
▁abdomen	8
▁Tibetan	8
vantages	8
▁condoms	8
protobuf	8
▁Belarus	8
requests	8
▁Natalie	8
citation	8
▁engages	8
▁Imaging	8
▁Prepare	8
▁exiting	8
▁Listing	8
▁imposes	8
▁routers	8
▁Raleigh	8
▁avocado	8
integral	8
▁Actions	8
▁affidav	8
▁roofing	8
▁tackled	8
▁sampler	8
▁Tiffany	8
▁leasing	8
▁fission	8
▁welding	8
▁atheism	8
▁soaring	8
rocities	8
▁diluted	8
▁whining	8
▁Bengals	8
▁exposes	8
football	8
▁unnamed	8
▁darling	8
▁hateful	8
▁confisc	8
Employee	8
▁rejuven	8
▁bathing	8
Exchange	8
allocate	8
▁recycle	8
▁viscous	8
▁Barrett	8
xymatrix	8
▁Chennai	8
Advanced	8
▁lookout	8
reaction	8
▁Drivers	8
▁shields	8
nhowever	8
Snapshot	8
▁Wheeler	8
▁Lawyers	8
ViewById	8
creative	8
▁spilled	8
clusters	8
adaptive	8
▁Leading	8
▁bolster	8
▁spectro	8
ermanent	8
▁Bedroom	8
▁agility	8
▁bundled	8
administ	8
indsight	8
▁Ecuador	8
▁Passion	8
▁obscene	8
Vertical	8
bringing	8
reetings	8
energies	8
▁hadrons	8
▁directs	8
▁ripping	8
combined	8
strength	8
fighting	8
ivalence	8
▁Orioles	8
▁abusing	8
▁humming	8
▁rumored	8
▁Angular	8
entities	8
▁darkest	8
▁advises	8
▁fractal	8
nagainst	8
▁poorest	8
ategoria	8
▁Babylon	8
▁Clients	8
Interest	8
▁Windsor	8
▁Messiah	8
▁subsidy	8
▁lurking	8
extended	8
▁masking	8
onderful	8
▁attends	8
▁Rockets	8
▁chewing	8
nprogram	8
▁battled	8
▁tossing	8
manifest	8
▁teasing	8
▁roaming	8
antastic	8
▁Cooking	8
▁stalled	8
▁infused	8
▁rejects	8
observed	8
▁Graphic	8
▁Partial	8
▁drilled	8
▁extinct	8
historic	8
algebras	8
tdefault	8
textarea	8
▁tipping	8
implicit	8
▁erupted	8
▁Unified	8
▁breakup	8
▁booming	8
politics	8
▁elevate	8
embedded	8
erencing	8
▁Shortly	8
Schedule	8
▁defeats	8
▁dipping	8
▁rabbits	8
mutation	8
▁Belfast	8
▁ejected	8
▁Funding	8
▁ecology	8
▁revived	8
▁Holding	8
igations	8
▁alleges	8
▁glaring	8
▁illicit	8
andering	8
▁Calling	8
▁rethink	8
▁smelled	8
problems	8
cylinder	8
imbledon	8
▁Lithuan	8
▁Pioneer	8
▁blasted	8
▁scrutin	8
▁slaught	8
▁Caption	8
▁Waiting	8
▁regrett	8
▁spoiler	8
ariances	8
calendar	8
▁erected	8
▁tyranny	8
captions	8
▁Deborah	8
▁overdue	8
reaching	8
▁Drawing	8
▁cumbers	8
gregated	8
▁Analyst	8
reviewed	8
▁seminal	8
Accessor	8
baichuan	8
▁backers	8
▁sailors	8
▁calming	8
▁diction	8
▁spawned	8
▁peanuts	8
straight	8
▁Dropbox	8
▁resumes	8
▁wrongly	8
featured	8
▁Hamburg	8
▁grating	8
▁weaving	8
inctions	8
▁stirred	8
patterns	8
▁cockpit	8
▁Charity	8
▁nesting	8
▁seeming	8
NSString	8
▁kittens	8
nperform	8
sociated	8
▁Boehner	8
assisted	8
▁Cardiff	8
▁natives	8
listener	8
pecified	8
▁sandbox	8
▁shorten	8
content	7
▁people	7
process	7
▁should	7
▁includ	7
▁system	7
▁result	7
▁follow	7
ational	7
▁really	7
▁around	7
▁number	7
▁person	7
▁proble	7
▁partic	7
▁things	7
▁effect	7
▁better	7
▁second	7
▁little	7
ization	7
section	7
mathcal	7
▁design	7
▁always	7
▁during	7
▁commun	7
▁provid	7
▁report	7
▁friend	7
▁direct	7
▁method	7
ability	7
ailable	7
ication	7
▁expect	7
▁school	7
▁change	7
▁comple	7
▁public	7
▁family	7
▁invest	7
▁within	7
ulation	7
▁enough	7
▁market	7
▁having	7
▁energy	7
▁recent	7
▁though	7
▁making	7
nimport	7
▁called	7
▁custom	7
lection	7
ination	7
▁access	7
▁comput	7
▁reason	7
olution	7
▁single	7
▁strong	7
▁object	7
▁happen	7
▁season	7
ructure	7
▁become	7
▁online	7
▁others	7
▁either	7
raphics	7
▁observ	7
ividual	7
aterial	7
▁record	7
▁points	7
▁future	7
▁across	7
▁employ	7
▁trying	7
▁pretty	7
▁months	7
partial	7
ception	7
▁almost	7
respond	7
ibility	7
▁rather	7
▁amount	7
▁taking	7
plement	7
▁series	7
anguage	7
▁period	7
▁action	7
▁common	7
caption	7
▁entire	7
▁target	7
▁moment	7
▁higher	7
▁cannot	7
▁models	7
▁author	7
agement	7
ilities	7
▁likely	7
▁wanted	7
▁issues	7
▁search	7
▁states	7
▁compet	7
▁attack	7
▁select	7
▁United	7
▁anyone	7
unction	7
tention	7
▁needed	7
▁associ	7
▁coming	7
▁compan	7
▁ground	7
ruction	7
▁recomm	7
▁review	7
▁please	7
▁accept	7
▁effort	7
▁living	7
▁longer	7
itional	7
▁myself	7
▁events	7
uration	7
▁inside	7
▁travel	7
▁Europe	7
▁weight	7
▁States	7
▁images	7
▁saying	7
epsilon	7
▁wonder	7
▁length	7
▁option	7
▁choose	7
▁impact	7
▁former	7
▁choice	7
▁screen	7
▁engine	7
▁office	7
▁satisf	7
▁policy	7
▁figure	7
▁recogn	7
▁player	7
▁answer	7
▁device	7
gorithm	7
nection	7
▁groups	7
▁worked	7
▁center	7
▁neighb	7
▁member	7
▁police	7
mission	7
▁mother	7
▁growth	7
▁theory	7
▁detail	7
▁larger	7
▁immedi	7
▁levels	7
▁offers	7
▁played	7
▁County	7
▁System	7
atively	7
xchange	7
▁streng	7
▁giving	7
▁rights	7
▁mechan	7
▁assist	7
▁School	7
treturn	7
▁became	7
▁turned	7
▁matrix	7
▁compar	7
▁nature	7
▁Center	7
▁charge	7
▁looked	7
▁double	7
▁summer	7
actions	7
▁career	7
▁candid	7
▁update	7
▁commit	7
artment	7
tabular	7
▁highly	7
ovember	7
▁sample	7
▁moving	7
▁degree	7
▁nearly	7
▁useful	7
▁credit	7
▁threat	7
▁static	7
private	7
▁wouldn	7
▁couldn	7
ography	7
▁father	7
raction	7
▁advant	7
▁slight	7
▁memory	7
itation	7
▁beyond	7
▁places	7
include	7
▁Please	7
▁proced	7
▁skills	7
▁active	7
▁remain	7
▁nation	7
▁August	7
▁struct	7
▁signal	7
▁fields	7
▁assume	7
▁affect	7
▁prefer	7
ifornia	7
▁except	7
clusion	7
▁vector	7
▁advice	7
▁safety	7
usiness	7
▁budget	7
▁scient	7
mercial	7
▁String	7
▁mobile	7
erences	7
▁stream	7
▁reduce	7
▁client	7
▁seeing	7
▁camera	7
▁Figure	7
▁compos	7
▁histor	7
▁status	7
▁photos	7
▁strugg	7
▁closed	7
▁damage	7
▁advert	7
▁prices	7
ensions	7
▁symmet	7
ression	7
▁daught	7
▁Street	7
▁concer	7
idering	7
▁passed	7
▁define	7
▁helped	7
▁thanks	7
▁income	7
▁adding	7
pective	7
▁thread	7
article	7
▁smooth	7
▁regist	7
▁bright	7
▁secret	7
▁owners	7
▁volume	7
▁Commun	7
▁domain	7
▁posted	7
▁mostly	7
▁church	7
▁motion	7
▁invent	7
▁script	7
▁corpor	7
▁expert	7
▁Canada	7
▁Direct	7
▁bought	7
▁switch	7
▁toward	7
▁assess	7
▁button	7
▁shared	7
▁sexual	7
▁resist	7
▁finish	7
uations	7
▁caused	7
eration	7
▁letter	7
▁danger	7
▁conver	7
▁batter	7
▁remind	7
▁failed	7
▁seemed	7
▁supply	7
version	7
▁afford	7
▁sounds	7
ervices	7
igation	7
ologies	7
▁incred	7
Service	7
▁victim	7
▁driver	7
▁asking	7
▁videos	7
▁killed	7
▁People	7
▁forget	7
▁street	7
▁French	7
▁placed	7
ampions	7
▁height	7
▁sports	7
resents	7
vention	7
▁pieces	7
▁battle	7
▁attend	7
▁decide	7
▁forces	7
display	7
▁launch	7
▁opened	7
▁annual	7
▁Church	7
▁square	7
▁filter	7
ference	7
▁promot	7
▁female	7
▁conven	7
▁served	7
▁listed	7
▁minute	7
▁listen	7
▁dating	7
▁belong	7
connect	7
ocation	7
current	7
▁reserv	7
▁faster	7
▁speech	7
Request	7
▁Office	7
▁doctor	7
▁raised	7
▁League	7
▁terror	7
▁Public	7
Message	7
▁buying	7
▁spring	7
▁broken	7
▁medium	7
▁stated	7
clusive	7
request	7
▁eating	7
▁forced	7
tpublic	7
summary	7
default	7
related	7
▁filled	7
▁signed	7
▁movies	7
▁leaves	7
command	7
▁symbol	7
▁survey	7
▁writer	7
inating	7
▁retail	7
▁bigger	7
package	7
▁colors	7
▁secure	7
▁vision	7
▁senior	7
▁agency	7
▁behavi	7
▁caught	7
outhern	7
▁advent	7
▁prepar	7
▁editor	7
▁closer	7
▁assign	7
▁fourth	7
▁German	7
▁sudden	7
▁famous	7
▁academ	7
▁brings	7
oration	7
▁applic	7
▁appeal	7
pecific	7
▁paying	7
▁anyway	7
message	7
▁cities	7
▁layers	7
▁Market	7
appoint	7
▁agreed	7
▁acknow	7
product	7
inition	7
▁formed	7
▁hidden	7
▁artist	7
▁dinner	7
▁league	7
▁reject	7
▁Africa	7
▁picked	7
iveness	7
▁fellow	7
contain	7
Element	7
▁stores	7
▁injury	7
reshold	7
▁Design	7
▁joined	7
▁debate	7
▁theore	7
▁plants	7
theorem	7
▁orders	7
▁repair	7
ategory	7
▁animal	7
▁missed	7
▁sister	7
▁beauty	7
▁defend	7
Manager	7
▁limits	7
▁Social	7
▁losing	7
▁radius	7
▁France	7
▁mainly	7
▁excess	7
▁Russia	7
▁begins	7
▁During	7
▁binary	7
▁slowly	7
▁tested	7
▁flight	7
▁topics	7
tenance	7
▁regime	7
ameters	7
iration	7
ometric	7
▁favour	7
▁stands	7
▁branch	7
▁recipe	7
▁origin	7
▁estate	7
▁strict	7
▁pulled	7
▁garden	7
essions	7
▁Second	7
▁hoping	7
project	7
▁intent	7
▁county	7
imately	7
▁blocks	7
ributes	7
▁liquid	7
▁affili	7
▁stupid	7
istical	7
service	7
▁narrow	7
▁occurs	7
▁centre	7
▁Police	7
▁guests	7
ulating	7
perform	7
▁native	7
▁talked	7
▁taught	7
▁issued	7
▁proved	7
▁Engine	7
▁walked	7
▁colour	7
raining	7
▁retain	7
widehat	7
▁widely	7
results	7
perties	7
▁covers	7
▁island	7
▁acting	7
▁Mexico	7
▁Valley	7
▁linked	7
▁kernel	7
▁basket	7
▁bodies	7
▁murder	7
▁inject	7
▁facing	7
install	7
▁lights	7
▁analog	7
▁Online	7
▁Policy	7
▁Custom	7
▁nearby	7
▁driven	7
Content	7
ocument	7
▁Series	7
▁harder	7
itivity	7
▁superv	7
options	7
▁Boston	7
agnetic	7
▁scores	7
▁Jewish	7
▁afraid	7
▁thinks	7
▁exceed	7
forward	7
▁papers	7
▁Review	7
▁folder	7
npublic	7
▁dialog	7
▁assets	7
▁marked	7
control	7
▁butter	7
▁powers	7
▁negoti	7
▁tracks	7
▁labels	7
akistan	7
▁Family	7
▁athlet	7
viously	7
▁Author	7
▁bottle	7
itative	7
▁retire	7
▁Energy	7
▁masses	7
▁studio	7
blogger	7
▁scenes	7
▁campus	7
▁upload	7
▁versus	7
nexport	7
▁ending	7
▁Spring	7
▁bridge	7
▁ticket	7
▁finger	7
▁spokes	7
▁earned	7
example	7
▁guitar	7
▁houses	7
Handler	7
▁strike	7
▁engage	7
▁convin	7
ificate	7
ipeline	7
▁orient	7
▁scored	7
▁yields	7
▁exclud	7
▁Object	7
▁severe	7
▁delete	7
▁prosec	7
profile	7
▁Museum	7
▁submit	7
▁deploy	7
elihood	7
reprene	7
▁writes	7
▁rating	7
ruption	7
▁Invest	7
comment	7
▁neural	7
▁Corpor	7
▁manual	7
▁cheese	7
▁gaming	7
▁legisl	7
ishment	7
▁combat	7
Builder	7
illiant	7
▁merely	7
aligned	7
Default	7
ilation	7
theless	7
issions	7
▁refere	7
▁pounds	7
ircraft	7
▁offset	7
ultural	7
▁arrive	7
▁silver	7
▁Little	7
▁pushed	7
▁Comput	7
▁losses	7
▁suffer	7
▁throws	7
▁vacuum	7
▁Report	7
▁saving	7
▁flying	7
▁Victor	7
ologist	7
▁Should	7
▁dreams	7
▁deeper	7
▁Though	7
▁attach	7
▁summar	7
▁rising	7
▁lawyer	7
▁stages	7
▁suppor	7
▁repeat	7
▁weekly	7
▁Daniel	7
▁assert	7
quality	7
▁mirror	7
closure	7
session	7
▁loving	7
▁passes	7
▁titles	7
▁panels	7
▁photon	7
▁breaks	7
▁stayed	7
▁forest	7
▁twenty	7
▁Centre	7
▁voting	7
success	7
mediate	7
Command	7
▁guilty	7
endment	7
▁rarely	7
▁resort	7
▁nobody	7
▁accord	7
ributed	7
▁shower	7
▁scream	7
▁aggreg	7
▁drives	7
▁mixing	7
inction	7
▁subset	7
▁verify	7
▁graphs	7
▁defect	7
▁barely	7
comfort	7
▁Taylor	7
▁Jersey	7
▁notion	7
▁satell	7
athered	7
address	7
ificial	7
▁unlike	7
▁Joseph	7
Options	7
▁counts	7
▁gained	7
▁Method	7
▁namely	7
▁Friend	7
▁nights	7
▁Brazil	7
▁emails	7
▁median	7
Factory	7
onymous	7
▁Access	7
▁steady	7
limited	7
▁Rights	7
▁borrow	7
▁hospit	7
▁riding	7
▁viewed	7
Version	7
▁surely	7
through	7
▁Number	7
▁museum	7
▁pocket	7
▁cancel	7
▁solved	7
▁layout	7
▁Having	7
holders	7
▁dining	7
▁sought	7
▁approx	7
orgeous	7
require	7
Control	7
channel	7
▁backup	7
▁Action	7
▁struck	7
▁troops	7
▁subsid	7
istence	7
mitting	7
▁orange	7
isition	7
angular	7
igrants	7
▁refers	7
console	7
nthetic	7
▁advers	7
▁worker	7
▁thrown	7
▁luxury	7
▁Images	7
parison	7
looking	7
Project	7
element	7
▁Common	7
imental	7
▁preced	7
▁Silver	7
instein	7
▁modify	7
▁Mobile	7
Results	7
replace	7
▁timing	7
▁mining	7
▁plasma	7
▁salary	7
Windows	7
entials	7
▁bounds	7
▁drinks	7
▁crimes	7
▁locked	7
▁argued	7
▁Avenue	7
▁racing	7
▁pixels	7
▁packed	7
▁tissue	7
▁differ	7
pmatrix	7
▁boards	7
▁Agency	7
▁permit	7
▁settle	7
Process	7
ounding	7
ymmetry	7
▁deaths	7
develop	7
ylvania	7
alities	7
istance	7
▁ruling	7
▁actors	7
▁hosted	7
▁Square	7
eddings	7
conduct	7
initely	7
▁awards	7
▁undert	7
ritical	7
▁singer	7
▁dashed	7
reement	7
cession	7
▁horror	7
▁defeat	7
network	7
variant	7
regular	7
▁comedy	7
Address	7
▁forums	7
▁Things	7
▁Golden	7
▁visits	7
▁derive	7
▁Travel	7
modules	7
▁overse	7
▁lately	7
▁ranked	7
sampled	7
▁rounds	7
▁Change	7
▁angles	7
figures	7
▁sevent	7
▁fitted	7
▁Oregon	7
attered	7
▁pursue	7
▁Korean	7
rations	7
▁substr	7
izabeth	7
▁Summer	7
ocratic	7
▁quotes	7
▁waters	7
leading	7
▁Garden	7
Product	7
foreach	7
aration	7
Current	7
▁rescue	7
▁Bridge	7
▁scared	7
▁Season	7
▁buyers	7
▁fiscal	7
▁Kansas	7
▁cycles	7
▁Turkey	7
▁golden	7
▁refund	7
▁speaks	7
nstatic	7
▁Nation	7
ruments	7
▁spoken	7
midrule	7
▁convex	7
▁fought	7
▁themes	7
▁dishes	7
▁invite	7
▁Player	7
▁execut	7
▁funded	7
▁ladies	7
account	7
▁unlock	7
▁frozen	7
▁excuse	7
uparrow	7
▁makeup	7
▁upgrad	7
▁packet	7
▁Austin	7
▁boring	7
▁clouds	7
▁Awards	7
▁Studio	7
▁recept	7
▁Doctor	7
▁mutual	7
▁Battle	7
▁mature	7
▁warned	7
▁scroll	7
▁Includ	7
feature	7
▁legacy	7
▁Living	7
▁ranges	7
▁edited	7
acteria	7
initial	7
However	7
iversal	7
rection	7
▁wheels	7
claimer	7
▁Future	7
icating	7
▁nicely	7
▁beings	7
▁Howard	7
▁Option	7
▁voices	7
▁hiring	7
written	7
▁assemb	7
ogether	7
▁alumin	7
Section	7
▁Credit	7
▁wishes	7
▁shifts	7
▁tunnel	7
ictions	7
▁recycl	7
▁Safety	7
riculum	7
▁Senior	7
▁presum	7
▁devast	7
▁Select	7
ository	7
▁perpet	7
▁cookie	7
▁oldest	7
picture	7
▁coding	7
▁sphere	7
herence	7
▁taxpay	7
tically	7
▁Soviet	7
▁bubble	7
▁shield	7
▁ancest	7
ambling	7
▁meters	7
▁rolled	7
▁baking	7
▁Member	7
defined	7
▁therap	7
winning	7
▁roster	7
▁backed	7
▁tongue	7
▁Scient	7
▁forgot	7
returns	7
herical	7
▁Native	7
▁rubber	7
▁duties	7
ulative	7
▁Sydney	7
arently	7
▁Histor	7
▁routes	7
▁poison	7
Session	7
▁Posted	7
▁noting	7
ervised	7
▁Winter	7
▁builds	7
▁worthy	7
▁resume	7
ativity	7
created	7
▁judges	7
▁dozens	7
viation	7
bmatrix	7
ignment	7
▁refuse	7
▁flower	7
Theorem	7
▁multip	7
▁speeds	7
▁sculpt	7
▁sheets	7
▁quoted	7
because	7
▁desert	7
▁equity	7
▁divide	7
▁poster	7
▁slower	7
▁wooden	7
▁regret	7
liament	7
▁Rather	7
▁hockey	7
▁contam	7
▁killer	7
▁jumped	7
▁banned	7
counter	7
▁anisot	7
▁stroke	7
▁poorly	7
▁hungry	7
▁tennis	7
trained	7
ristian	7
irlines	7
general	7
writing	7
respons	7
lectric	7
▁covari	7
atching	7
working	7
illance	7
Account	7
ordered	7
padding	7
▁fruits	7
▁sketch	7
▁prelim	7
▁cavity	7
▁convey	7
▁caring	7
support	7
▁titled	7
▁Orange	7
▁cooked	7
▁varies	7
Channel	7
▁Double	7
▁Nature	7
Integer	7
▁Really	7
program	7
uscript	7
▁buried	7
▁viable	7
▁poetry	7
▁dealer	7
▁elabor	7
ardless	7
▁guides	7
manager	7
ptember	7
ropical	7
▁slides	7
parency	7
ynamics	7
intendo	7
▁raises	7
▁Unlike	7
rangian	7
▁novels	7
forming	7
▁Reddit	7
▁cotton	7
cellent	7
▁fusion	7
▁census	7
▁Target	7
changed	7
ressing	7
▁thirty	7
ryption	7
▁Walker	7
▁kicked	7
▁Anyone	7
▁Greece	7
▁crying	7
▁ethnic	7
▁hiding	7
▁Observ	7
▁sooner	7
Connect	7
▁burned	7
▁lyrics	7
ivities	7
virtual	7
▁comics	7
▁waited	7
jecture	7
println	7
▁albums	7
boolean	7
▁jacket	7
▁deemed	7
issippi	7
Storage	7
▁intake	7
▁outfit	7
▁intend	7
▁Labour	7
▁Script	7
▁enroll	7
Network	7
achelor	7
▁fortun	7
▁Justin	7
▁locate	7
▁gently	7
olation	7
newline	7
▁pedest	7
▁traged	7
▁finest	7
▁unfair	7
lesssim	7
lements	7
▁priest	7
▁fundra	7
▁suited	7
▁router	7
▁agrees	7
etition	7
cluster	7
▁Either	7
reating	7
subject	7
▁Anyway	7
release	7
▁preval	7
present	7
▁advise	7
▁deadly	7
▁throat	7
▁fights	7
Display	7
▁Alaska	7
▁admits	7
▁Annual	7
▁carpet	7
▁cruise	7
diction	7
fulness	7
▁arises	7
▁trucks	7
cleaned	7
▁fixing	7
▁Estate	7
station	7
General	7
commits	7
▁evolve	7
▁broker	7
▁firing	7
loading	7
▁Gordon	7
▁Hunter	7
▁floors	7
▁indoor	7
▁treats	7
predict	7
▁asleep	7
primary	7
▁heated	7
▁filing	7
▁infant	7
criptor	7
▁commod	7
▁temple	7
▁unions	7
▁basics	7
urchase	7
▁guided	7
ebruary	7
country	7
▁Wright	7
▁equals	7
nsystem	7
▁chairs	7
idelity	7
▁Temple	7
aughter	7
century	7
▁valued	7
handler	7
without	7
▁Hawaii	7
▁rhythm	7
▁priced	7
medskip	7
▁enjoys	7
▁vessel	7
▁impose	7
▁superb	7
▁Employ	7
▁valley	7
▁Wonder	7
▁costly	7
▁outlet	7
▁comply	7
assador	7
jection	7
fficial	7
ictures	7
▁bucket	7
▁essays	7
▁lifted	7
special	7
imation	7
▁recurs	7
▁ritual	7
builder	7
▁reddit	7
balance	7
▁grades	7
▁Client	7
▁labour	7
▁Active	7
▁tuning	7
▁Sweden	7
▁lenses	7
essages	7
pressed	7
phantom	7
Example	7
rolling	7
▁Stream	7
▁affair	7
atility	7
Initial	7
▁rocket	7
▁Making	7
Enabled	7
compare	7
▁resign	7
▁Leader	7
▁emerge	7
noreply	7
ascular	7
▁Import	7
▁trails	7
▁Nether	7
duction	7
▁sequel	7
arriage	7
achment	7
▁prints	7
abulary	7
induced	7
▁delays	7
▁fright	7
integer	7
▁typing	7
parents	7
columns	7
▁Remove	7
▁Warren	7
▁freeze	7
patient	7
▁canvas	7
▁enters	7
▁Moscow	7
▁assass	7
igenous	7
details	7
▁sorted	7
▁Knight	7
western	7
▁closet	7
dynamic	7
ynchron	7
▁plaint	7
▁degrad	7
generic	7
▁Single	7
ixtures	7
respect	7
▁racism	7
▁Castle	7
▁streak	7
▁runner	7
riteria	7
▁unders	7
▁Giants	7
Changed	7
▁tricky	7
istered	7
rencies	7
▁excell	7
▁logged	7
ificant	7
▁overly	7
claimed	7
prising	7
classes	7
▁Region	7
▁expend	7
▁thesis	7
▁openly	7
▁socket	7
umption	7
berries	7
onomous	7
▁Taking	7
▁ethics	7
storage	7
natural	7
Invalid	7
▁strive	7
▁Taiwan	7
execute	7
▁portal	7
history	7
testing	7
contact	7
▁booked	7
algebra	7
correct	7
density	7
conomic	7
▁rookie	7
Details	7
headers	7
running	7
▁reconc	7
▁laying	7
equence	7
▁dotted	7
problem	7
▁spouse	7
▁Poland	7
protect	7
▁marine	7
Generic	7
Profile	7
▁summit	7
Feature	7
utorial	7
taining	7
▁renown	7
▁sealed	7
keeping	7
Summary	7
Success	7
naments	7
umbling	7
scripts	7
nbefore	7
ructive	7
archive	7
▁Status	7
plugins	7
racting	7
▁locals	7
▁Heaven	7
pletion	7
▁attain	7
▁Linked	7
▁Eagles	7
allowed	7
▁merger	7
▁awhile	7
▁cataly	7
similar	7
▁Arthur	7
between	7
▁wasted	7
scriber	7
Station	7
▁Nevada	7
▁orbits	7
▁eighth	7
▁hiking	7
logging	7
▁affirm	7
itching	7
ulously	7
▁upside	7
Program	7
▁sizeof	7
trivial	7
powered	7
Related	7
▁glance	7
citealt	7
▁Result	7
▁multim	7
iblical	7
ivation	7
▁biased	7
ringing	7
othered	7
selling	7
versely	7
consist	7
reading	7
▁deputy	7
▁Weight	7
urities	7
▁expose	7
arettes	7
▁scaled	7
earning	7
Because	7
library	7
▁Dakota	7
▁Interv	7
▁encomp	7
▁bounce	7
charged	7
million	7
▁nurses	7
▁lasted	7
ificent	7
▁Beyond	7
▁Johnny	7
▁Junior	7
nobserv	7
▁prizes	7
▁Bright	7
ractive	7
▁gluten	7
▁assure	7
▁cinema	7
▁Saints	7
▁dipole	7
▁washed	7
▁hatred	7
enezuel	7
▁Ground	7
▁smiled	7
▁debris	7
▁Arabia	7
Package	7
▁rushed	7
▁brains	7
▁admire	7
igating	7
checked	7
iblings	7
▁bloody	7
▁fucked	7
Welcome	7
▁venues	7
ountain	7
▁Volume	7
▁viewer	7
ventory	7
▁rivers	7
Adapter	7
collect	7
▁parity	7
▁Hitler	7
▁banner	7
▁Yellow	7
Library	7
▁Legisl	7
olester	7
iencies	7
commend	7
▁Theory	7
▁Inside	7
▁pickup	7
▁Budget	7
▁Murphy	7
ressive	7
▁hunger	7
entropy	7
Timeout	7
amiliar	7
▁joints	7
complex	7
measure	7
toprule	7
visible	7
▁geodes	7
▁hooked	7
▁ladder	7
▁inning	7
▁Polish	7
factory	7
healthy	7
central	7
▁rotate	7
▁Strong	7
▁fossil	7
▁Watson	7
essment	7
Support	7
neffect	7
▁virtue	7
▁intact	7
▁Bishop	7
resolve	7
▁whites	7
overing	7
▁strips	7
rollers	7
fitting	7
average	7
▁aiming	7
▁arrows	7
▁Summit	7
▁enrich	7
quantum	7
▁senses	7
▁farmer	7
▁epochs	7
▁helmet	7
issance	7
ivalent	7
▁Legend	7
▁prejud	7
Advisor	7
▁notify	7
uminate	7
objects	7
playing	7
perturb	7
▁diplom	7
▁abused	7
▁dragon	7
▁cylind	7
▁needle	7
wrapper	7
▁cutoff	7
▁united	7
▁darker	7
▁insist	7
emetery	7
▁Matrix	7
▁slices	7
▁oppose	7
▁rivals	7
▁addict	7
jective	7
▁rooted	7
uristic	7
▁pulses	7
▁cattle	7
updated	7
pattern	7
▁punish	7
▁merged	7
▁slaves	7
▁immers	7
▁donors	7
▁apples	7
▁wished	7
quiries	7
▁Oliver	7
runtime	7
samples	7
▁lining	7
Contact	7
optimal	7
vectors	7
science	7
▁induce	7
▁Deputy	7
VERSION	7
ometown	7
▁append	7
Console	7
exports	7
▁thrust	7
ortions	7
▁volcan	7
▁Vision	7
atories	7
▁Beauty	7
▁sewing	7
▁remedy	7
keyword	7
Wrapper	7
percent	7
▁snacks	7
▁allevi	7
innamon	7
amation	7
▁geomet	7
Tuesday	7
▁Driver	7
▁Hebrew	7
▁Puerto	7
workers	7
▁anonym	7
▁ideals	7
iratory	7
nmodule	7
▁Rivers	7
founder	7
▁sights	7
▁honour	7
members	7
windows	7
▁topped	7
emption	7
redited	7
▁induct	7
ourcing	7
▁sticky	7
borough	7
▁Weekly	7
Texture	7
ullivan	7
▁Switch	7
▁pillow	7
nstruct	7
▁citing	7
▁opener	7
uniform	7
▁coarse	7
nshould	7
▁Period	7
starter	7
▁Around	7
▁precip	7
▁diesel	7
▁wounds	7
ussions	7
orption	7
▁vocals	7
▁thrive	7
▁shrink	7
▁Higher	7
▁Census	7
payload	7
inology	7
▁Button	7
▁turkey	7
▁causal	7
▁Sounds	7
▁evenly	7
▁commem	7
LICENSE	7
▁Rating	7
nnumber	7
Boolean	7
▁diving	7
▁Brooks	7
nenergy	7
▁doesnt	7
Returns	7
▁alerts	7
osition	7
▁Racing	7
▁liable	7
▁kidney	7
metrics	7
▁lounge	7
▁Dennis	7
▁naming	7
▁qubits	7
▁vanish	7
ulatory	7
▁onions	7
▁polish	7
atorial	7
▁aboard	7
recated	7
ordable	7
attices	7
▁finals	7
fiction	7
nselect	7
usually	7
▁cursor	7
▁Flight	7
ragment	7
amacare	7
ularity	7
encoder	7
olphins	7
▁Angels	7
▁theirs	7
▁Arabic	7
ulators	7
ciously	7
portion	7
History	7
▁Impact	7
▁judged	7
binding	7
justice	7
▁ginger	7
sterdam	7
▁liking	7
▁parked	7
▁Dating	7
thernet	7
▁sleeve	7
▁curved	7
▁genres	7
▁blamed	7
▁tenure	7
▁Gospel	7
▁sucked	7
▁saddle	7
owntown	7
▁Filter	7
▁waking	7
disable	7
letters	7
▁Sacram	7
▁closes	7
logical	7
▁splash	7
▁stereo	7
payment	7
▁autism	7
▁pissed	7
DEFAULT	7
irement	7
▁mighty	7
weights	7
stellar	7
▁Colomb	7
timeout	7
▁honors	7
▁unreal	7
▁jersey	7
itially	7
ractice	7
setting	7
▁Holmes	7
▁unanim	7
forcing	7
▁tribal	7
Article	7
▁cement	7
▁Harvey	7
confirm	7
company	7
▁clutch	7
cluding	7
nextern	7
listing	7
otional	7
▁warmer	7
▁towers	7
▁Recent	7
PhysRev	7
▁Border	7
▁greedy	7
paramet	7
▁parish	7
Drawing	7
▁eleven	7
▁Quebec	7
Release	7
▁culmin	7
atterns	7
▁Canyon	7
▁statue	7
apanese	7
labeled	7
▁patron	7
convert	7
▁Except	7
▁pushes	7
▁flames	7
Special	7
▁tribes	7
▁fluxes	7
▁awaken	7
▁storms	7
▁smells	7
▁owning	7
▁Writer	7
▁breeze	7
▁yearly	7
▁Ottawa	7
▁metres	7
racking	7
inburgh	7
centric	7
machine	7
▁kindly	7
▁sunset	7
Created	7
colhead	7
▁Butler	7
▁locker	7
▁Hubble	7
▁wicked	7
▁tossed	7
▁reside	7
uddenly	7
▁folded	7
▁splits	7
▁Attack	7
▁Coming	7
heading	7
browser	7
lington	7
▁tagged	7
English	7
pointer	7
▁Motion	7
invalid	7
bigskip	7
▁Artist	7
▁strang	7
coholic	7
▁Buddha	7
erguson	7
autiful	7
meaning	7
▁hypers	7
warning	7
license	7
▁boxing	7
perfect	7
▁bursts	7
▁alumni	7
▁creamy	7
desktop	7
rainian	7
Methods	7
▁Hughes	7
▁graded	7
▁cyclic	7
unknown	7
strings	7
▁ResNet	7
▁gifted	7
arnings	7
weather	7
nresult	7
▁relent	7
ubernet	7
▁stamps	7
NotNull	7
verages	7
tration	7
▁treaty	7
feeding	7
▁sodium	7
surface	7
▁occupy	7
Objects	7
▁bosons	7
▁leaked	7
▁conced	7
uropean	7
▁Chiefs	7
▁Campus	7
▁feared	7
▁fluids	7
Private	7
▁purity	7
fashion	7
▁greens	7
Pointer	7
commons	7
▁affine	7
creased	7
plotlib	7
itively	7
Figures	7
▁fisher	7
▁Julian	7
▁deduce	7
▁screws	7
▁doping	7
lasting	7
▁trophy	7
▁liquor	7
express	7
▁thresh	7
▁Skills	7
▁drying	7
student	7
▁sturdy	7
Loading	7
compact	7
▁Volunt	7
▁Former	7
▁almond	7
▁Arctic	7
▁unused	7
▁recess	7
▁adhere	7
▁throne	7
bounded	7
▁livest	7
▁Income	7
ceptive	7
▁tactic	7
▁rebels	7
▁melted	7
▁incumb	7
ichever	7
pletely	7
angered	7
▁framed	7
▁smoked	7
inality	7
▁Palmer	7
▁Repair	7
rington	7
maximum	7
eclipse	7
▁devote	7
▁noises	7
Binding	7
▁hunter	7
▁thrill	7
▁colony	7
▁peanut	7
▁Format	7
gravity	7
athetic	7
▁pupils	7
▁seated	7
▁tasted	7
▁attent	7
▁Superv	7
Install	7
▁Retail	7
appings	7
isional	7
▁Duncan	7
▁laughs	7
sources	7
Visible	7
America	7
Counter	7
▁traced	7
▁Define	7
▁Bottom	7
▁felony	7
▁stakes	7
overset	7
▁Angela	7
▁fading	7
orphism	7
nauthor	7
▁bronze	7
▁Accept	7
npeople	7
conserv	7
▁coated	7
▁Ravens	7
▁truths	7
▁solves	7
pairing	7
▁Issues	7
▁skinny	7
seconds	7
Another	7
Upsilon	7
▁rented	7
▁nested	7
▁hugely	7
Michael	7
▁demons	7
destroy	7
▁Comics	7
▁underm	7
hematic	7
▁bosses	7
▁themed	7
▁jungle	7
htaking	7
ousands	7
Unknown	7
casting	7
▁towels	7
quarter	7
hearted	7
Compact	7
▁misses	7
▁Shield	7
reflect	7
▁intens	7
Setting	7
noalign	7
compile	7
▁Adding	7
▁rabbit	7
holding	7
matched	7
▁thirst	7
▁Launch	7
▁Factor	7
osevelt	7
▁nodded	7
chester	7
growing	7
ornings	7
itating	7
diagram	7
▁Boeing	7
▁thrott	7
roduced	7
▁Moving	7
isphere	7
popular	7
thermal	7
ustomed	7
▁replay	7
nmethod	7
segment	7
▁herbal	7
▁Stuart	7
▁Dayton	7
ncomput	7
▁Reason	7
▁typeof	7
▁physic	7
▁capita	7
▁Danish	7
▁Serial	7
▁Cities	7
methods	7
▁memoir	7
incipal	7
▁stitch	7
minimum	7
minster	7
neutral	7
icative	7
▁sliced	7
▁Career	7
▁Lauren	7
▁Hannah	7
▁Gaming	7
inarily	7
▁Adrian	7
henever	7
▁messed	7
thought	7
▁urging	7
colored	7
nthesis	7
▁Terror	7
compute	7
plectic	7
▁Apollo	7
▁Legacy	7
▁skiing	7
backend	7
▁geared	7
hooting	7
▁assort	7
Warning	7
▁regain	7
▁helium	7
▁Fields	7
▁orphan	7
▁Delete	7
▁Vienna	7
changes	7
▁solver	7
nreturn	7
▁Medium	7
▁handic	7
▁obsess	7
▁cowork	7
ropolis	7
allenge	7
trigger	7
sharing	7
eworthy	7
▁ranged	7
▁redeem	7
ncalcul	7
▁crappy	7
literal	7
▁drawer	7
focused	7
▁masked	7
▁weighs	7
ogenous	7
▁probes	7
Actions	7
▁carved	7
enstein	7
▁Adjust	7
Subject	7
typedef	7
▁marble	7
▁stared	7
quisite	7
imbabwe	7
▁Geneva	7
▁spaced	7
Average	7
website	7
▁Browns	7
▁slated	7
nvalues	7
quently	7
bsolute	7
▁Supply	7
▁helper	7
chapter	7
nfollow	7
▁Morocc	7
▁enzyme	7
ndirect	7
ivating	7
tstruct	7
Problem	7
▁Mental	7
▁tailor	7
▁meteor	7
▁Fusion	7
Servlet	7
digital	7
istries	7
monitor	7
ocative	7
▁cooled	7
missing	7
crafted	7
Further	7
▁housed	7
▁Rescue	7
▁Lights	7
Measure	7
▁slider	7
manship	7
▁Strike	7
January	7
ourable	7
Finally	7
Machine	7
▁paints	7
inished	7
▁termed	7
refresh	7
▁avoids	7
▁linger	7
opening	7
▁Secure	7
reverse	7
▁Sprint	7
Connell	7
▁Degree	7
undreds	7
▁silhou	7
creases	7
▁Topics	7
urgical	7
▁Neural	7
▁dwarfs	7
jupyter	7
▁motive	7
▁rugged	7
▁timber	7
orously	7
▁lacked	7
▁twists	7
lifting	7
astrous	7
Without	7
filters	7
getting	7
▁knives	7
▁pulsar	7
inaries	7
uggling	7
ICATION	7
▁biking	7
ipation	7
▁kissed	7
▁repeal	7
▁minors	7
scaling	7
▁refine	7
closing	7
Nothing	7
▁Linear	7
▁Ticket	7
nothing	7
▁majors	7
answers	7
▁styled	7
angling	7
▁appell	7
mathbbm	7
▁Twenty	7
▁priori	7
whether	7
verting	7
▁Seeing	7
sidered	7
▁Titans	7
ymphony	7
draulic	7
located	7
friends	7
purpose	7
visions	7
thereum	7
another	7
eliness	7
▁loudly	7
▁rifles	7
Updated	7
renched	7
▁aggrav	7
arcraft	7
October	7
▁shrimp	7
▁softer	7
Present	7
Collect	7
Pattern	7
▁Munich	7
ographs	7
▁dancer	7
▁keeper	7
concept	7
▁swings	7
▁Bernie	7
nwithin	7
printed	7
▁tucked	7
elocity	7
placian	7
▁Dinner	7
▁Mining	7
▁Cookie	7
▁lookup	7
dirname	7
parable	7
▁Desert	7
▁Length	7
▁Cambod	7
▁staged	7
porters	7
▁Mirror	7
▁outing	7
Headers	7
estions	7
▁poised	7
▁mesons	7
▁spikes	7
▁squash	7
▁yelled	7
iracles	7
▁Surely	7
uploads	7
mapping	7
rounded	7
managed	7
uckland	7
▁wolves	7
▁Gandhi	7
▁Comedy	7
▁insurg	7
▁abuses	7
Execute	7
Twitter	7
gallery	7
nUPDATE	7
routine	7
rupting	7
proving	7
▁Cotton	7
nposted	7
usement	7
▁posing	7
ighbors	7
cribing	7
▁clocks	7
▁Chapel	7
▁Powers	7
▁cheeks	7
▁fringe	7
legiate	7
lightly	7
▁summed	7
uncture	7
▁Trying	7
catalog	7
newpage	7
kernels	7
texture	7
▁facets	7
▁Jackie	7
orative	7
▁plural	7
▁Treaty	7
▁runway	7
sembles	7
▁hourly	7
chnical	7
itorium	7
▁Viagra	7
▁hacked	7
Virtual	7
▁grapes	7
Archive	7
▁depict	7
enguins	7
▁remake	7
▁Sebast	7
▁Albany	7
▁Legion	7
▁Parish	7
Dynamic	7
▁quirky	7
grained	7
olidays	7
started	7
uracies	7
threads	7
▁hairst	7
▁rapper	7
scribed	7
▁Curtis	7
▁neuron	7
igators	7
▁miners	7
▁french	7
▁Mechan	7
▁leaned	7
▁Charge	7
▁citrus	7
decoder	7
players	7
Compare	7
writers	7
▁hypert	7
▁repent	7
▁bishop	7
▁wisely	7
Running	7
▁sorrow	7
ometers	7
▁juices	7
▁thighs	7
ricanes	7
prepare	7
Chapter	7
makebox	7
vantage	7
▁Compet	7
▁louder	7
▁gravel	7
ustrial	7
▁lambda	7
patcher	7
▁funnel	7
▁ounces	7
tswitch	7
▁timest	7
▁gladly	7
culture	7
▁Hidden	7
▁fronts	7
▁suites	7
▁waiver	7
▁Finder	7
▁Caesar	7
▁decode	7
▁grease	7
insider	7
perhaps	7
ributor	7
ninvest	7
▁Mostly	7
casters	7
▁Rocket	7
▁healed	7
▁misery	7
▁Bruins	7
▁cohort	7
optical	7
screens	7
Failure	7
haviour	7
osities	7
▁Cinema	7
▁Monroe	7
helpers	7
ensible	7
HashMap	7
▁Snyder	7
Payment	7
defense	7
publish	7
pending	7
▁bodily	7
▁Signal	7
Through	7
ismatic	7
systems	7
Primary	7
▁methyl	7
▁Cheese	7
▁Ranger	7
onestly	7
▁detain	7
▁teamed	7
arrings	7
Digital	7
▁Flying	7
Columns	7
earance	7
▁breeds	7
nsatisf	7
▁Harold	7
▁sanity	7
▁tasked	7
comings	7
▁skelet	7
CLUDING	7
▁nephew	7
Company	7
▁Symbol	7
autions	7
▁coping	7
Science	7
numbers	7
▁medals	7
▁peaked	7
nstrong	7
▁Newman	7
inverse	7
▁boiler	7
▁rename	7
igslist	7
Percent	7
▁Commit	7
▁daring	7
alaxies	7
▁multic	7
▁suffix	7
▁cereal	7
▁puppet	7
▁Hammer	7
arrison	7
keepers	7
▁slogan	7
▁avatar	7
▁forged	7
nstates	7
naround	7
▁crises	7
▁triang	7
Testing	7
physics	7
inspace	7
Surface	7
DOCTYPE	7
▁finely	7
▁fluffy	7
▁Hospit	7
▁Rapids	7
▁violin	7
bibitem	7
▁unrest	7
minimal	7
Looking	7
extract	7
▁Guitar	7
▁locale	7
▁Ladies	7
preview	7
▁washer	7
gencies	7
Encoder	7
ilitary	7
kswagen	7
nduring	7
zbollah	7
▁Dreams	7
▁Guests	7
formula	7
orating	7
Classes	7
Monitor	7
▁floods	7
▁fueled	7
▁Ethics	7
▁payday	7
▁concur	7
▁unfold	7
▁valves	7
egative	7
▁circus	7
▁recoil	7
ostream	7
▁Rising	7
▁petrol	7
▁voiced	7
Browser	7
Pacific	7
REQUEST	7
alleled	7
▁zoning	7
stanbul	7
entries	7
Develop	7
erville	7
▁rulers	7
▁Finals	7
▁Highly	7
▁neatly	7
authent	7
▁Trophy	7
▁chords	7
Student	7
▁Sexual	7
▁soaked	7
medical	7
bearing	7
▁payoff	7
Replace	7
requent	7
▁barred	7
icester	7
imeters	7
matches	7
▁Darren	7
▁Singer	7
▁quests	7
breaker	7
▁homage	7
▁outage	7
billion	7
ontally	7
▁cached	7
rometer	7
▁Tennis	7
▁impart	7
largest	7
derived	7
nmoment	7
▁embell	7
▁premie	7
▁Giving	7
▁Lounge	7
▁Moment	7
ricular	7
▁Orders	7
matical	7
▁Damage	7
▁Winner	7
ictured	7
istingu	7
Convert	7
scatter	7
▁Bengal	7
▁Carrie	7
▁nickel	7
▁novice	7
▁priors	7
Country	7
▁cannon	7
Members	7
▁ponder	7
ymatrix	7
venture	7
andinav	7
cerning	7
inherit	7
▁elders	7
▁Ginger	7
▁Horror	7
▁sharks	7
nsource	7
ntheory	7
devices	7
▁drills	7
bracket	7
▁Maggie	7
▁joking	7
▁Quotes	7
Express	7
▁opaque	7
▁vanity	7
raising	7
iliated	7
▁Dialog	7
▁easing	7
▁resize	7
insured	7
▁Combat	7
effects	7
▁revive	7
Forward	7
▁paused	7
Central	7
▁Forums	7
▁unpaid	7
▁Origin	7
▁Scouts	7
▁Occupy	7
▁dances	7
ronting	7
▁waving	7
▁Danger	7
▁saints	7
reviews	7
mounted	7
▁Wolver	7
▁Cannot	7
▁multin	7
ranking	7
▁Recipe	7
imposed	7
aghetti	7
rescent	7
charges	7
letcher	7
ensable	7
pancies	7
finance	7
▁postal	7
encoded	7
▁Forget	7
▁parsed	7
licates	7
neither	7
▁Plaint	7
instead	7
otyping	7
▁Enough	7
▁Sketch	7
▁biting	7
▁poorer	7
foreign	7
▁births	7
▁mounts	7
▁coales	7
▁nausea	7
▁blinds	7
▁setups	7
▁Eating	7
placing	7
▁Rabbit	7
▁clergy	7
Caption	7
derabad	7
▁billed	7
▁scorer	7
nsingle	7
upgrade	7
▁boiled	7
▁rested	7
▁Finish	7
organic	7
aternal	7
ennifer	7
heating	7
updates	7
venting	7
▁shakes	7
▁pricey	7
▁revert	7
▁drafts	7
▁pillar	7
▁poetic	7
▁goalie	7
outputs	7
▁Wesley	7
▁Manila	7
rawling	7
riction	7
▁chased	7
Changes	7
▁coward	7
astings	7
▁indisp	7
▁Olivia	7
▁Rhodes	7
▁ceased	7
▁domest	7
violent	7
ymptoms	7
▁Poetry	7
▁elites	7
▁Flower	7
▁Yukawa	7
▁Failed	7
▁outlaw	7
Getting	7
Payload	7
▁Pocket	7
▁doubly	7
Pending	7
▁avenue	7
▁gamble	7
▁knight	7
▁trolls	7
▁colder	7
▁kisses	7
Donnell	7
▁cutter	7
▁Liquid	7
▁Acknow	7
widgets	7
▁ransom	7
busters	7
nperson	7
authors	7
buttons	7
▁bounty	7
▁tandem	7
▁Timber	7
▁trusty	7
teacher	7
▁Kuwait	7
failure	7
▁raging	7
extends	7
retched	7
ncontin	7
minutes	7
covered	7
▁VMware	7
▁totals	7
nchange	7
Trigger	7
awesome	7
▁lumber	7
▁Irving	7
Desktop	7
▁unsett	7
Promise	7
ourtesy	7
▁Connor	7
antiago	7
▁Sirius	7
▁Refuge	7
partner	7
▁Priest	7
Segment	7
ichigan	7
▁Equity	7
inspect	7
Metrics	7
USINESS	7
▁kitten	7
aurants	7
▁joyful	7
▁Suites	7
▁Sacred	7
▁uncont	7
ninline	7
servlet	7
patrick	7
▁piracy	7
Picture	7
▁Suzuki	7
Refresh	7
▁Broken	7
▁glossy	7
adapter	7
ouncing	7
▁rubbed	7
Include	7
rieving	7
voltage	7
bedroom	7
▁sleeps	7
helpful	7
▁ACTION	7
▁hostel	7
▁Hansen	7
Confirm	7
Working	7
▁Nights	7
▁Worker	7
species	7
planned	7
▁attire	7
anguard	7
ittings	7
capture	7
▁Drupal	7
opacity	7
illions	7
rystall	7
▁Smooth	7
▁fluent	7
▁condom	7
▁harmed	7
▁multil	7
grounds	7
records	7
ampling	7
WARNING	7
Whether	7
driving	7
capital	7
ployees	7
nlayout	7
▁lowers	7
▁Ernest	7
▁Incred	7
Instead	7
▁exting	7
▁Sharks	7
filling	7
elected	7
othesis	7
▁sponge	7
▁sugars	7
cutting	7
▁Sunset	7
▁tweaks	7
▁Chavez	7
▁cheesy	7
▁cloudy	7
▁devoid	7
▁filthy	7
▁trusts	7
cipline	7
uctions	7
▁dermat	7
▁Called	7
▁nailed	7
▁trough	7
Checked	7
olerant	7
vehicle	7
▁cooker	7
▁Rafael	7
Concept	7
EqualTo	7
Suppose	7
▁Shared	7
▁lawful	7
▁mailed	7
▁Lenovo	7
▁Theore	7
Decoder	7
ighting	7
missive	7
▁Wisdom	7
nnormal	7
▁Yorker	7
▁Frozen	7
lymouth	7
▁bushes	7
▁danced	7
▁Braves	7
overlay	7
prevent	7
Missing	7
▁skirts	7
▁skewed	7
Entries	7
Overall	7
upsilon	7
▁Essays	7
Complex	7
provide	7
▁warmed	7
Chinese	7
▁Offers	7
▁Buying	7
▁accuse	7
tresult	7
Richard	7
▁Dining	7
▁Kerala	7
▁hectic	7
▁carrot	7
▁Punjab	7
Maximum	7
▁fooled	7
booking	7
▁Wouldn	7
▁rocked	7
opoulos	7
▁Fabric	7
▁hinted	7
▁Intent	7
▁erased	7
▁opting	7
▁scouts	7
▁wrench	7
sidebar	7
founded	7
▁airing	7
▁jumper	7
▁shaken	7
nCREATE	7
regions	7
compose	7
idences	7
reduced	7
▁inflow	7
against	7
webpack	7
▁hailed	7
▁photoc	7
▁fences	7
▁Appeal	7
▁jailed	7
ethical	7
nmatrix	7
▁catchy	7
animate	7
exclude	7
Helpers	7
Quality	7
▁glitch	7
unching	7
▁touted	7
Balance	7
Compile	7
tingham	7
▁Rivera	7
NonNull	7
▁Murder	7
▁sleepy	7
▁toured	7
finding	7
utation	7
iterate	7
reports	7
targets	7
▁floats	7
outside	7
▁exited	7
undance	7
▁Hunger	7
▁UPDATE	7
ivering	7
spatial	7
opathic	7
▁covert	7
▁outset	7
SESSION	7
Tracker	7
▁Guinea	7
ranging	7
lovakia	7
▁Schema	7
▁reopen	7
▁Luxury	7
▁Santos	7
▁hiatus	7
ceiving	7
▁selves	7
henomen	7
squared	7
▁Height	7
▁clumps	7
▁scraps	7
lecting	7
arriers	7
▁Farmer	7
▁Flyers	7
pecting	7
▁soften	7
ndefine	7
Records	7
Privacy	7
asuring	7
nucleon	7
▁adopts	7
noticed	7
▁Finger	7
▁nebula	7
▁walker	7
▁tilted	7
nthanks	7
shields	7
▁sizing	7
▁sulfur	7
cedures	7
▁onsite	7
episode	7
▁Cannon	7
drivers	7
ickness	7
gateway	7
▁Reserv	7
▁Teresa	7
Destroy	7
serving	7
tprintf	7
▁Backup	7
▁sitcom	7
<img/>	6
<0x0C>	6
<0x0E>	6
<0x2D>	6
<0x98>	6
<0xBA>	6
<0xCC>	6
▁which	6
▁their	6
▁about	6
ations	6
▁other	6
▁there	6
▁would	6
source	6
▁first	6
pajama	6
▁every	6
▁these	6
▁could	6
▁under	6
▁think	6
▁after	6
▁class	6
▁start	6
▁right	6
▁years	6
▁again	6
▁being	6
▁point	6
▁exper	6
▁those	6
▁model	6
▁using	6
▁while	6
▁going	6
▁still	6
▁count	6
ection	6
▁appro	6
ically	6
▁found	6
ething	6
return	6
▁three	6
▁small	6
▁state	6
▁since	6
ctions	6
▁order	6
▁place	6
▁never	6
▁child	6
▁might	6
▁month	6
▁power	6
▁field	6
▁level	6
▁value	6
figure	6
▁given	6
▁build	6
▁There	6
▁train	6
▁thing	6
ration	6
ential	6
itions	6
ission	6
▁light	6
▁gover	6
illion	6
▁large	6
resent	6
▁chang	6
includ	6
▁times	6
▁group	6
ording	6
lambda	6
▁based	6
▁elect	6
ending	6
▁water	6
▁doesn	6
▁organ	6
▁until	6
▁space	6
mathbf	6
▁along	6
mathbb	6
▁night	6
▁doing	6
urther	6
erence	6
▁today	6
▁short	6
▁event	6
▁means	6
weixin	6
▁makes	6
▁sever	6
▁often	6
verage	6
public	6
▁ident	6
rivate	6
essage	6
arning	6
▁study	6
▁house	6
▁offic	6
mathrm	6
▁major	6
▁known	6
action	6
▁focus	6
cially	6
▁later	6
▁women	6
▁needs	6
▁comes	6
change	6
▁invol	6
▁range	6
▁compa	6
▁shown	6
though	6
▁young	6
▁below	6
▁image	6
▁enjoy	6
▁defin	6
uation	6
▁quick	6
▁sound	6
▁video	6
▁games	6
idence	6
aption	6
▁close	6
▁music	6
▁treat	6
▁final	6
ground	6
▁seems	6
▁paper	6
▁issue	6
▁visit	6
▁quite	6
▁works	6
▁break	6
▁begin	6
ograph	6
▁total	6
ension	6
▁bring	6
▁super	6
▁taken	6
▁bound	6
textbf	6
▁watch	6
▁hours	6
selves	6
▁offer	6
ensity	6
▁among	6
itting	6
▁block	6
String	6
▁front	6
iction	6
ensive	6
▁media	6
▁beaut	6
utions	6
▁lower	6
▁price	6
▁store	6
▁compl	6
amples	6
▁third	6
nwhere	6
gorith	6
▁added	6
▁asked	6
▁takes	6
elling	6
▁indic	6
indows	6
▁State	6
▁style	6
aining	6
▁fight	6
▁Count	6
▁cases	6
▁wrong	6
▁becom	6
▁email	6
▁write	6
string	6
curity	6
rangle	6
▁worth	6
inally	6
▁weeks	6
▁limit	6
ervice	6
idered	6
▁death	6
▁white	6
ession	6
▁users	6
▁leave	6
▁cover	6
▁gives	6
▁match	6
▁lines	6
▁looks	6
▁stuff	6
ishing	6
▁assum	6
center	6
▁annou	6
▁drive	6
▁happy	6
▁speak	6
▁apply	6
▁prior	6
▁speed	6
▁areas	6
minist	6
▁tried	6
ecause	6
onents	6
atform	6
▁round	6
aching	6
▁graph	6
▁surpr	6
▁woman	6
▁effic	6
▁somet	6
▁charg	6
▁avoid	6
▁lives	6
ername	6
▁books	6
▁maybe	6
illing	6
▁While	6
▁remov	6
▁print	6
▁staff	6
ribute	6
ashing	6
▁dynam	6
▁parts	6
▁court	6
▁board	6
▁heard	6
▁House	6
▁built	6
textit	6
▁oppos	6
▁types	6
▁March	6
icated	6
▁multi	6
urance	6
atives	6
▁movie	6
▁scale	6
▁wrote	6
rought	6
▁began	6
▁force	6
▁subst	6
▁wants	6
▁agree	6
▁title	6
langle	6
▁marri	6
psilon	6
▁occur	6
lation	6
▁fully	6
▁drink	6
▁piece	6
▁April	6
▁Since	6
istics	6
▁legal	6
▁sales	6
varphi	6
▁fixed	6
refore	6
▁trust	6
cember	6
▁basis	6
▁sites	6
▁prepa	6
▁rules	6
ternal	6
isions	6
▁spent	6
▁blood	6
▁stage	6
encies	6
uesday	6
▁refer	6
script	6
▁enter	6
▁mount	6
▁plans	6
inated	6
ursday	6
▁China	6
▁sleep	6
▁Japan	6
▁haven	6
mitted	6
▁clust	6
▁dream	6
▁green	6
▁Afric	6
itable	6
▁basic	6
ulated	6
elcome	6
Lambda	6
lement	6
assert	6
▁aware	6
▁steps	6
▁arriv	6
▁teams	6
▁truth	6
▁tools	6
▁daily	6
▁trade	6
▁thank	6
▁birth	6
▁names	6
▁somew	6
idents	6
iments	6
▁brain	6
undred	6
▁equal	6
▁gradu	6
Pajama	6
▁helps	6
▁eight	6
coming	6
overed	6
cation	6
Object	6
ifying	6
edding	6
▁moved	6
▁knows	6
▁India	6
friend	6
▁evalu	6
ipping	6
config	6
▁named	6
▁score	6
▁White	6
▁catch	6
▁truly	6
▁photo	6
▁exerc	6
▁floor	6
reedom	6
▁David	6
▁plant	6
▁novel	6
active	6
▁voice	6
▁noise	6
ipment	6
▁leads	6
▁scene	6
▁Court	6
▁seven	6
▁links	6
▁Other	6
▁loved	6
▁album	6
▁goals	6
▁radio	6
result	6
apping	6
▁older	6
vision	6
▁panel	6
▁adopt	6
▁throw	6
▁posts	6
anging	6
▁upper	6
▁meant	6
length	6
ashion	6
iation	6
▁peace	6
▁civil	6
othing	6
stream	6
pected	6
▁Jesus	6
▁ratio	6
▁glass	6
▁accur	6
▁split	6
▁views	6
ancing	6
▁citiz	6
itchen	6
▁units	6
urrent	6
uthors	6
ansion	6
▁innov	6
▁exhib	6
▁James	6
▁owner	6
▁forms	6
▁miles	6
subset	6
▁yield	6
terday	6
ameter	6
▁ideal	6
▁holds	6
▁award	6
▁entry	6
▁brief	6
iverse	6
otimes	6
▁coach	6
ensure	6
▁suppl	6
ptions	6
▁adapt	6
▁tight	6
Config	6
▁therm	6
▁thick	6
▁worry	6
▁https	6
approx	6
vspace	6
▁plane	6
inding	6
▁minor	6
indent	6
height	6
▁depth	6
▁Class	6
▁topic	6
▁agent	6
select	6
▁tasks	6
itness	6
▁plays	6
nwhich	6
▁joint	6
▁noted	6
ubuntu	6
object	6
▁feels	6
roller	6
porary	6
weight	6
nusing	6
▁Maybe	6
▁hyper	6
▁polar	6
inates	6
▁rough	6
stract	6
ildren	6
▁cloud	6
▁cheap	6
▁angle	6
▁obser	6
format	6
static	6
annels	6
▁rapid	6
▁sched	6
normal	6
▁sides	6
▁divid	6
define	6
▁Power	6
▁Times	6
▁cycle	6
▁draft	6
▁occup	6
ometry	6
▁Thank	6
▁paint	6
ewidth	6
▁Board	6
▁tough	6
▁north	6
▁funds	6
▁lived	6
▁south	6
status	6
▁solve	6
▁judge	6
▁trees	6
▁delay	6
▁audio	6
actory	6
▁River	6
▁deriv	6
attice	6
efully	6
▁songs	6
▁teach	6
▁empty	6
▁labor	6
▁waste	6
▁quiet	6
search	6
ournal	6
nconst	6
▁theme	6
▁inner	6
append	6
ussian	6
values	6
▁chair	6
▁crime	6
client	6
sembly	6
target	6
▁crazy	6
▁nodes	6
▁setup	6
author	6
hspace	6
▁Brown	6
▁horiz	6
▁folks	6
unning	6
▁films	6
nclass	6
agraph	6
▁solar	6
▁laugh	6
▁drugs	6
▁signs	6
▁route	6
▁Today	6
esides	6
module	6
ilarly	6
▁funny	6
matrix	6
▁Frank	6
▁mixed	6
▁kinds	6
omorph	6
▁Carol	6
output	6
Client	6
▁chief	6
images	6
▁moves	6
System	6
button	6
▁keeps	6
▁prime	6
textrm	6
▁Mount	6
▁Stand	6
uality	6
struct	6
▁sugar	6
▁bench	6
ulture	6
▁query	6
xspace	6
▁Using	6
ciples	6
▁Louis	6
▁rooms	6
scribe	6
update	6
urally	6
herent	6
Result	6
▁veget	6
▁sizes	6
Status	6
▁reson	6
ivered	6
▁hydro	6
▁liked	6
▁veter	6
▁cream	6
nament	6
ixture	6
▁gauge	6
▁newsp	6
▁abuse	6
▁advoc	6
▁compr	6
▁taxes	6
▁spons	6
▁forth	6
dagger	6
number	6
isters	6
▁dance	6
▁Right	6
▁skill	6
▁sorry	6
ported	6
▁Light	6
▁finds	6
istent	6
▁sight	6
▁fruit	6
▁grown	6
orough	6
▁stuck	6
▁Music	6
▁loves	6
Method	6
method	6
▁saved	6
▁Jones	6
detail	6
▁likes	6
Script	6
texttt	6
▁clock	6
person	6
second	6
vector	6
▁wheel	6
▁owned	6
iously	6
▁yards	6
orders	6
▁broke	6
▁shots	6
ortion	6
▁spoke	6
▁Lemma	6
▁heads	6
▁truck	6
▁faces	6
domain	6
▁talks	6
▁goods	6
▁pitch	6
gments	6
▁brown	6
▁magic	6
energy	6
server	6
lywood	6
Action	6
▁Which	6
▁reput	6
▁stead	6
irtual	6
called	6
▁deals	6
▁Again	6
issues	6
▁resid	6
▁coast	6
rivial	6
params	6
ceived	6
limits	6
ressed	6
alysis	6
Stream	6
▁drawn	6
▁Women	6
▁foods	6
lights	6
common	6
Americ	6
▁fluct	6
▁admit	6
lected	6
▁lucky	6
▁steel	6
expect	6
▁grade	6
Source	6
riting	6
Button	6
▁alive	6
filter	6
system	6
▁usage	6
roduct	6
▁downt	6
season	6
bottom	6
▁doors	6
▁Offic	6
Number	6
▁essay	6
rovers	6
astern	6
header	6
▁lists	6
▁sheet	6
option	6
▁filed	6
inking	6
▁waves	6
adding	6
▁river	6
▁Watch	6
▁regul	6
▁disag	6
angers	6
master	6
▁Young	6
▁Field	6
▁tired	6
python	6
▁scope	6
ritten	6
▁patch	6
▁Night	6
▁fluid	6
▁risks	6
Create	6
romise	6
inator	6
▁Games	6
▁quote	6
google	6
icture	6
uction	6
ocracy	6
▁Award	6
achine	6
ounded	6
▁logic	6
▁Egypt	6
urable	6
▁urban	6
▁conve	6
icular	6
▁Korea	6
orable	6
▁Chief	6
▁overl	6
points	6
▁outer	6
player	6
▁climb	6
▁plain	6
▁Prime	6
▁screw	6
likely	6
ussion	6
▁stone	6
▁roles	6
contin	6
enders	6
▁advis	6
textsc	6
double	6
▁actor	6
ysical	6
▁ridic	6
▁neutr	6
isting	6
▁fewer	6
screen	6
▁batch	6
▁aband	6
others	6
▁Store	6
letter	6
direct	6
apache	6
▁reads	6
▁loans	6
arters	6
everal	6
cience	6
earing	6
▁embed	6
Server	6
▁Would	6
ollary	6
rizona	6
cently	6
▁crash	6
▁opens	6
ouston	6
▁faced	6
should	6
▁tries	6
▁mouse	6
Search	6
Update	6
iences	6
▁Italy	6
nwidth	6
▁votes	6
outube	6
▁seats	6
▁paths	6
effect	6
ifting	6
lessly	6
models	6
closed	6
▁Image	6
Entity	6
rivacy	6
▁voted	6
remove	6
▁angry	6
delete	6
▁debut	6
▁fraud	6
▁Major	6
thread	6
Filter	6
▁gifts	6
▁minds	6
▁atoms	6
charge	6
Figure	6
▁await	6
icking	6
ulator	6
▁Given	6
rition	6
▁birds	6
▁fired	6
equate	6
▁fails	6
▁Greek	6
▁agric	6
▁loose	6
rained	6
random	6
arious	6
▁innoc	6
making	6
formed	6
holder	6
Select	6
rolled	6
entity	6
Buffer	6
▁Photo	6
▁pixel	6
Layout	6
▁Local	6
▁Radio	6
▁alert	6
stable	6
asters	6
istant	6
▁orbit	6
▁Labor	6
Output	6
▁Guard	6
▁drama	6
▁Order	6
Assert	6
except	6
Length	6
▁Medic	6
▁asset	6
ailing	6
omatic	6
efined	6
abetes	6
▁stake	6
▁lying	6
▁meals	6
▁blogs	6
strong	6
▁Being	6
family	6
▁Davis	6
▁shops	6
▁swing	6
▁Chair	6
render	6
▁annot	6
ynamic	6
▁pulse	6
spring	6
custom	6
reated	6
cribed	6
nprint	6
▁Spain	6
plates	6
▁squad	6
izable	6
riving	6
onical	6
intend	6
access	6
▁meets	6
aneous	6
▁Story	6
▁pilot	6
▁smell	6
▁sorts	6
▁towns	6
ounced	6
Change	6
▁Error	6
▁morph	6
▁rural	6
▁virus	6
device	6
printf	6
▁gains	6
vature	6
ninter	6
▁seeds	6
around	6
▁Small	6
Format	6
global	6
▁Cloud	6
▁dense	6
▁clubs	6
▁Drive	6
▁anger	6
margin	6
▁neuro	6
irable	6
▁trips	6
region	6
▁wider	6
▁dirty	6
logger	6
▁weigh	6
people	6
elfare	6
▁enorm	6
Thread	6
▁dozen	6
▁Short	6
window	6
▁hosts	6
makers	6
▁Dream	6
▁armed	6
Equals	6
▁alleg	6
intage	6
▁Based	6
▁Diego	6
Module	6
Vector	6
engers	6
abling	6
nhttps	6
minute	6
▁slide	6
▁drain	6
irical	6
▁Think	6
alling	6
▁rings	6
ensing	6
ilbert	6
owered	6
▁prize	6
encing	6
▁stamp	6
▁ships	6
Please	6
outing	6
handle	6
buffer	6
▁Block	6
verted	6
column	6
Header	6
itical	6
ourier	6
▁juice	6
▁flood	6
▁Could	6
▁threw	6
consin	6
▁admin	6
odynam	6
Target	6
orient	6
▁embod	6
giving	6
▁grows	6
▁dying	6
border	6
ifiers	6
offset	6
Direct	6
▁burst	6
▁tempt	6
health	6
▁Sarah	6
usetts	6
remark	6
rapper	6
insert	6
orship	6
▁Child	6
Access	6
ometer	6
attern	6
sample	6
▁inher	6
ichael	6
assion	6
▁hired	6
▁Among	6
father	6
▁squee	6
ntrans	6
▁ought	6
vation	6
arding	6
▁steam	6
Option	6
period	6
▁chips	6
▁pizza	6
▁Beaut	6
writer	6
rupted	6
▁Lewis	6
Window	6
igious	6
▁venue	6
culate	6
▁ruled	6
▁elder	6
▁rally	6
▁bytes	6
▁kinda	6
▁Allen	6
▁wrest	6
orious	6
▁recip	6
nthere	6
▁stats	6
urches	6
ateral	6
mented	6
▁peaks	6
uition	6
▁stays	6
engine	6
▁Jacob	6
▁Sound	6
online	6
racted	6
▁epoch	6
▁Staff	6
▁Index	6
▁naked	6
▁Break	6
▁Judge	6
boards	6
▁rival	6
▁depos	6
commun	6
elines	6
▁gross	6
accept	6
▁awful	6
▁alien	6
before	6
fields	6
▁unity	6
▁Track	6
hidden	6
Height	6
propto	6
clipse	6
▁Moore	6
▁Analy	6
▁greet	6
▁tooth	6
Params	6
layout	6
commit	6
▁Print	6
▁appar	6
▁Enjoy	6
▁sixth	6
styles	6
▁cyber	6
▁elite	6
ishers	6
mation	6
▁Mayor	6
square	6
ifully	6
▁Books	6
former	6
advant	6
school	6
▁texts	6
▁cited	6
▁Terms	6
▁dough	6
▁conce	6
▁inhib	6
▁sweep	6
▁Creek	6
degree	6
member	6
driven	6
▁Dutch	6
mother	6
graded	6
vertis	6
▁steep	6
▁penet	6
▁schol	6
assets	6
Helper	6
switch	6
▁metab	6
groups	6
rating	6
▁fancy	6
Device	6
plings	6
olding	6
▁wides	6
uggest	6
amount	6
angles	6
▁Steel	6
▁Third	6
etooth	6
Custom	6
ogonal	6
ushing	6
bullet	6
▁rated	6
▁Study	6
▁tower	6
▁slice	6
▁Magic	6
reddit	6
imated	6
rowing	6
▁alike	6
ointer	6
▁Angel	6
ickets	6
▁Happy	6
idding	6
lahoma	6
▁Forum	6
Reader	6
review	6
▁debug	6
Player	6
record	6
▁Month	6
market	6
plugin	6
▁tuned	6
Acknow	6
▁piano	6
Logger	6
exists	6
bourne	6
ousing	6
▁laund	6
▁shake	6
Google	6
states	6
▁Fight	6
oustic	6
iances	6
▁Speed	6
Column	6
apolis	6
▁Later	6
piracy	6
Record	6
volume	6
▁Pitts	6
▁dealt	6
▁Saint	6
▁nurse	6
umbled	6
ention	6
Serial	6
olitan	6
asures	6
▁Wales	6
▁medic	6
ctober	6
urious	6
▁scrap	6
▁wings	6
▁mayor	6
▁Multi	6
ricane	6
▁seeks	6
rowave	6
▁freak	6
shared	6
isible	6
report	6
design	6
havior	6
unting	6
azines	6
▁revel	6
angled	6
posing	6
▁merge	6
▁peers	6
comput	6
▁Kings	6
usalem	6
▁loops	6
uitive	6
ulates	6
▁Andre	6
rystal	6
ermark	6
▁march	6
▁drift	6
▁bored	6
Dialog	6
▁Liver	6
entric	6
▁chaos	6
iology	6
▁Title	6
▁polls	6
orneys	6
forced	6
inline	6
arians	6
▁arrow	6
▁inhab	6
Engine	6
▁frank	6
▁liver	6
itches	6
▁fence	6
▁Below	6
▁sized	6
ailure	6
single	6
Matrix	6
▁lemon	6
Author	6
▁Blood	6
▁saves	6
irates	6
▁draws	6
course	6
simple	6
▁aging	6
People	6
▁tires	6
▁greed	6
paired	6
asting	6
loader	6
▁poker	6
▁buyer	6
ancies	6
urface	6
Donald	6
uclear	6
▁wound	6
hattan	6
equals	6
Active	6
▁Round	6
Delete	6
parser	6
▁slave	6
▁thats	6
abases	6
▁theft	6
▁Bloom	6
▁Visit	6
▁Coach	6
ughter	6
imeter	6
Handle	6
Offset	6
▁sidew	6
errors	6
anners	6
▁freel	6
ntheir	6
▁vegan	6
iliary	6
reason	6
Return	6
▁backs	6
unders	6
▁woods	6
▁zones	6
mathop	6
otypes	6
oliday	6
▁crown	6
▁lease	6
▁breed	6
widget	6
Parser	6
driver	6
social	6
▁noisy	6
▁nasty	6
gather	6
ctrine	6
▁pound	6
subsec	6
crease	6
▁dated	6
events	6
resize	6
ighbor	6
Global	6
▁safer	6
inance	6
rypted	6
▁valve	6
Writer	6
▁Solar	6
dashed	6
▁appet	6
▁Along	6
verter	6
owners	6
uclide	6
consum	6
nwhile	6
keeper	6
▁defic	6
rowser	6
prises	6
▁Prize	6
▁Maine	6
bility	6
▁realm	6
erness	6
handed	6
▁prost	6
acknow	6
pleted	6
raints	6
shaped	6
ICENSE	6
panies	6
▁Audio	6
▁Metro	6
nother	6
ealous	6
hedral	6
▁Train	6
ensely	6
achers	6
▁Allah	6
ustral	6
Thanks	6
▁fleet	6
nmodel	6
prefix	6
▁olive	6
icates	6
▁Glass	6
factor	6
▁reign	6
nunder	6
▁filmm	6
▁sheer	6
ximity	6
▁Tokyo	6
▁dried	6
aurant	6
▁sheep	6
minded	6
umbers	6
▁illum	6
▁guilt	6
▁rolls	6
▁overd	6
▁Tower	6
ployed	6
Parent	6
ailand	6
ustain	6
ulsion	6
▁fires	6
Editor	6
Normal	6
▁artic	6
▁booth	6
▁rigid	6
bucket	6
series	6
ermine	6
▁Agric	6
wenshu	6
tensor	6
middle	6
riters	6
▁Rules	6
▁marry	6
filled	6
▁fixes	6
▁fetch	6
covery	6
Second	6
moment	6
termin	6
usters	6
▁Route	6
▁orche	6
prison	6
kernel	6
▁Focus	6
Policy	6
cursor	6
gender	6
▁kills	6
nabout	6
eering	6
calcul	6
apture	6
ulence	6
▁Unity	6
▁Perry	6
tconst	6
rength	6
▁acted	6
▁ambig	6
▁penis	6
umbing	6
Widget	6
▁blown	6
ainted	6
iosity	6
▁Citiz	6
▁bully	6
nwould	6
▁icons	6
▁surge	6
▁dwarf	6
▁poses	6
▁rifle	6
andard	6
▁boats	6
ancers	6
verely	6
▁beats	6
▁brave	6
Simple	6
▁Users	6
▁relay	6
▁anime	6
labels	6
▁hated	6
▁Prior	6
Report	6
▁Steam	6
paring	6
▁eaten	6
observ	6
Double	6
anship	6
isease	6
iemann	6
tbreak	6
Public	6
bridge	6
▁kicks	6
▁Begin	6
ogenic	6
Before	6
▁pulls	6
▁exped	6
Schema	6
footer	6
depend	6
▁satur	6
▁dairy	6
eworks	6
Effect	6
acking	6
itably	6
▁wrist	6
creens	6
▁urged	6
Person	6
idency	6
▁jumps	6
worthy	6
▁Robin	6
▁Singh	6
arette	6
Screen	6
tained	6
▁scrut	6
Loader	6
▁Craig	6
okemon	6
ractor	6
▁Often	6
ibbean	6
▁pills	6
rative	6
compet	6
▁bitch	6
atable	6
mathit	6
▁tasty	6
▁tiles	6
▁Advis	6
▁Voice	6
folder	6
▁prone	6
▁drill	6
listed	6
▁Plant	6
valued	6
reader	6
atters	6
▁Tools	6
nthese	6
erving	6
prints	6
▁beers	6
ncheck	6
Should	6
phabet	6
submit	6
▁farms	6
editor	6
toggle	6
Bundle	6
ielded	6
▁joins	6
icting	6
▁memor	6
izarre	6
radius	6
▁tubes	6
memory	6
▁trium	6
Member	6
▁delta	6
▁Lions	6
ippers	6
igrant	6
▁centr	6
export	6
native	6
Random	6
▁Iraqi	6
rities	6
▁inacc	6
layers	6
socket	6
wealth	6
▁fever	6
▁grave	6
symbol	6
▁whist	6
nexper	6
income	6
ictory	6
pshire	6
Friday	6
policy	6
arrier	6
▁rises	6
mobile	6
▁punct	6
▁Danny	6
atomic	6
ronics	6
igator	6
▁inaug	6
ascade	6
Center	6
▁Brain	6
secret	6
▁sunny	6
photon	6
braska	6
▁sadly	6
▁miser	6
alking	6
incinn	6
Github	6
▁Panel	6
▁mercy	6
Mobile	6
▁Stage	6
▁Lower	6
itated	6
▁Emily	6
▁scram	6
▁lingu	6
scroll	6
secure	6
encode	6
▁Match	6
throws	6
▁flame	6
opping	6
Master	6
attery	6
nfield	6
▁skept	6
matory	6
shadow	6
▁Range	6
▁cease	6
expand	6
▁feeds	6
▁socks	6
▁devil	6
Remove	6
pencer	6
typeof	6
▁puppy	6
▁Titan	6
▁snack	6
iatric	6
stacle	6
metric	6
▁Faith	6
▁faint	6
▁Excel	6
cedure	6
Monday	6
Plugin	6
Events	6
▁Going	6
arried	6
medium	6
▁wreck	6
▁gloss	6
Render	6
▁didnt	6
▁nails	6
ercise	6
itored	6
choose	6
▁posed	6
SELECT	6
▁Sleep	6
ichard	6
▁crisp	6
▁tribe	6
▁uncle	6
visual	6
textsf	6
▁yeast	6
ambers	6
▁baked	6
akespe	6
▁Czech	6
ulsive	6
answer	6
umping	6
castle	6
▁sanct	6
▁onset	6
▁angel	6
▁medal	6
▁locks	6
▁forty	6
▁Kenya	6
▁excer	6
▁fragr	6
▁cared	6
Single	6
branch	6
unless	6
binary	6
▁skirt	6
liness	6
▁illeg	6
acting	6
uncher	6
▁Nancy	6
▁ankle	6
▁Blues	6
arming	6
upload	6
vertex	6
ocaust	6
▁spawn	6
Health	6
▁Karen	6
rfloor	6
usions	6
▁Charg	6
▁pools	6
▁swear	6
lfloor	6
nsince	6
iotics	6
DIGITS	6
uating	6
▁Draft	6
▁Kerry	6
arking	6
▁Crown	6
▁slept	6
learly	6
ussels	6
choice	6
proved	6
▁Label	6
▁Woods	6
please	6
▁thigh	6
▁risky	6
atinum	6
▁herbs	6
▁wears	6
racies	6
Review	6
ynolds	6
Memory	6
▁norms	6
vanced	6
▁stems	6
▁Files	6
▁skull	6
Common	6
Socket	6
waukee	6
▁Hindu	6
▁opera	6
▁opted	6
ntitle	6
assign	6
rivers	6
Sample	6
placed	6
Folder	6
▁Bring	6
ivated	6
▁quilt	6
jected	6
▁Costa	6
finite	6
Python	6
▁Leave	6
▁flock	6
Driver	6
▁awake	6
▁towel	6
▁poems	6
▁repet	6
Vertex	6
▁Cream	6
▁downs	6
ilight	6
seeing	6
Fields	6
assing	6
Detail	6
▁trunk	6
invoke	6
shifts	6
▁ninth	6
ernels	6
ernand	6
biased	6
porter	6
▁Hello	6
▁shred	6
▁Score	6
kwargs	6
anking	6
ployee	6
hesive	6
nspect	6
places	6
▁specs	6
▁Eagle	6
▁Hyper	6
Sunday	6
varrho	6
▁naive	6
houses	6
▁syrup	6
berger	6
upiter	6
▁Chile	6
▁pleas	6
insula	6
ladesh	6
dialog	6
nafter	6
worker	6
▁Fixed	6
lining	6
▁brass	6
aptive	6
terror	6
ostics	6
▁Calif	6
▁cheek	6
INGTON	6
Scroll	6
ngiven	6
orsion	6
runner	6
headed	6
origin	6
ioxide	6
▁skate	6
inging	6
▁drums	6
rarily	6
ucking	6
▁cough	6
Failed	6
▁tread	6
▁Eight	6
▁overt	6
arsity	6
bigcup	6
▁fuels	6
router	6
Series	6
▁trump	6
▁shook	6
lasses	6
intern	6
▁snipp	6
revers	6
cluded	6
ochang	6
▁witch	6
▁repay	6
corpor	6
itched	6
shirts	6
▁lefto	6
needed	6
cosity	6
EXPECT	6
anting	6
Symbol	6
ective	6
▁theat	6
▁clues	6
▁postp	6
▁gluon	6
ienced	6
comtag	6
▁Jesse	6
astics	6
Import	6
textup	6
nsmall	6
venile	6
Comput	6
Prefix	6
helper	6
▁spike	6
ASSERT	6
▁toast	6
▁hedge	6
owards	6
signal	6
illary	6
nforce	6
▁divor	6
Visual	6
▁marsh	6
▁metro	6
Weight	6
gomery	6
raries	6
ncount	6
ristol	6
▁Sugar	6
racing	6
hammad	6
concat	6
ATIONS	6
follow	6
▁Idaho	6
papers	6
acters	6
amazon	6
▁Issue	6
theory	6
itives	6
▁discs	6
ynasty	6
nevery	6
urning	6
▁oxide	6
almost	6
Region	6
ipolar	6
▁Looks	6
▁Haven	6
rophic	6
office	6
illery	6
▁cheat	6
tuning	6
▁spicy	6
▁fines	6
docker	6
▁counc	6
▁cakes	6
resses	6
▁Hamas	6
▁Nexus	6
always	6
▁Isaac	6
remote	6
▁Avoid	6
Amount	6
▁reimb	6
▁owing	6
▁penny	6
nstate	6
ceiver	6
blocks	6
verify	6
played	6
▁Coord	6
▁wives	6
roleum	6
▁tunes	6
stroke	6
▁Glenn	6
invest	6
icable	6
imming	6
▁Blair	6
Linear	6
histor	6
▁hello	6
modern	6
future	6
ncould	6
Office	6
▁Helen	6
vendor	6
▁wired	6
▁reper	6
linked	6
formal	6
ignore	6
colors	6
▁Julie	6
atican	6
oulder	6
enberg	6
ritish	6
▁Katie	6
▁uncon	6
rators	6
izards	6
▁debts	6
▁Plaza	6
gtrsim	6
arcsec	6
wegian	6
Static	6
counts	6
▁Skype	6
▁Mouse	6
▁Quinn	6
decode	6
agging	6
▁Foods	6
▁chees	6
luence	6
▁Doing	6
▁incom	6
inters	6
Design	6
▁tense	6
street	6
hetics	6
appear	6
igated	6
▁scrat	6
carbon	6
▁aired	6
locale	6
Volume	6
phanie	6
Upload	6
STATUS	6
▁Thing	6
Accept	6
▁beads	6
▁vigil	6
▁exert	6
caster	6
Online	6
iating	6
▁leaks	6
Family	6
frames	6
imates	6
Spring	6
demand	6
etable	6
▁sleek	6
ECTION	6
camera	6
▁undes	6
upyter	6
cycles	6
ibling	6
▁bloss	6
Observ	6
Friend	6
planes	6
▁pains	6
▁mobil	6
Future	6
locked	6
▁Seems	6
▁Lodge	6
▁hates	6
packet	6
broken	6
▁Solve	6
mathtt	6
▁Query	6
nstart	6
abolic	6
▁scrub	6
rences	6
levard	6
cyclop	6
better	6
▁condo	6
▁grape	6
Tensor	6
Points	6
packed	6
reduce	6
ulance	6
scalar	6
▁ninet	6
avirus	6
jquery	6
wright	6
navbar	6
guided	6
▁skies	6
▁twent	6
▁inset	6
agonal	6
Bottom	6
bundle	6
tprint	6
▁Rocky	6
ortium	6
rotate	6
▁pedal	6
irling	6
▁squir	6
▁chord	6
racket	6
iliate	6
▁Clare	6
irteen	6
Depend	6
raphic	6
▁nause	6
moving	6
asonic	6
threat	6
▁inhom	6
launch	6
▁turbo	6
mostly	6
Native	6
manuel	6
really	6
inning	6
▁adiab	6
▁crore	6
▁Neuro	6
Israel	6
▁coats	6
smooth	6
danger	6
▁Derek	6
orange	6
dotted	6
acious	6
▁typed	6
▁civic	6
▁hasht	6
turned	6
taiwan	6
extend	6
ppling	6
▁rugby	6
yellow	6
ivable	6
taking	6
nagain	6
▁lifts	6
Follow	6
Insert	6
ograms	6
▁vault	6
bright	6
▁mixer	6
▁Sites	6
branes	6
Images	6
▁genus	6
vasive	6
▁burnt	6
▁ruins	6
ocrats	6
hadoop	6
▁excel	6
▁apost	6
▁carbs	6
unding	6
ouring	6
funded	6
photos	6
sexual	6
washer	6
Posted	6
ishops	6
nvalue	6
▁clerk	6
ahawks	6
inston	6
nlocal	6
▁drank	6
▁Built	6
▁steer	6
archar	6
oppler	6
▁euros	6
▁mines	6
▁bites	6
Secret	6
enguin	6
FTWARE	6
namese	6
convex	6
cester	6
Enable	6
lander	6
Border	6
ESSION	6
efault	6
▁Lucky	6
flower	6
anding	6
thanks	6
▁Lopez	6
spoken	6
allets	6
thirds	6
canvas	6
ridges	6
nright	6
▁ammun	6
▁lifes	6
▁theor	6
growth	6
▁dryer	6
flight	6
pering	6
▁Bened	6
CONFIG	6
▁chalk	6
istine	6
▁Floor	6
▁Paint	6
Remote	6
▁Ellis	6
Holder	6
fessor	6
priced	6
▁Nixon	6
▁ruler	6
rology	6
rysler	6
▁Fifth	6
▁highs	6
Binary	6
travel	6
ampton	6
nthree	6
Social	6
▁Spons	6
aughty	6
monton	6
▁Nikon	6
violet	6
▁appre	6
▁wrink	6
rowned	6
▁Ising	6
▁hooks	6
cancel	6
minent	6
▁bliss	6
▁synth	6
ologic	6
inputs	6
▁Quite	6
▁Armed	6
athing	6
altern	6
▁Bulls	6
nesium	6
▁energ	6
strict	6
▁Belle	6
▁Sense	6
▁dolls	6
▁Owner	6
ensors	6
Append	6
▁Kenny	6
August	6
▁Ahmed	6
saving	6
posure	6
Credit	6
▁Might	6
league	6
ategor	6
▁shark	6
propag	6
forces	6
within	6
indsay	6
dating	6
▁slick	6
either	6
ypical	6
amping	6
solete	6
ntyped	6
riched	6
Period	6
▁homot	6
▁debit	6
erated	6
teenth	6
▁Annie	6
README	6
ochond	6
rogate	6
▁ounce	6
▁Ellen	6
▁Album	6
motion	6
sports	6
Camera	6
▁Britt	6
▁Wings	6
failed	6
▁Rhode	6
Kernel	6
nthose	6
omical	6
▁fluor	6
▁tails	6
enment	6
repeat	6
▁Brock	6
▁Crazy	6
ocular	6
▁Wheel	6
ricket	6
opened	6
posium	6
▁quint	6
ricing	6
▁Types	6
nbeing	6
▁overs	6
thouse	6
▁Pixel	6
cludes	6
atched	6
mcited	6
ranked	6
backed	6
▁appra	6
▁tapes	6
▁cohom	6
rotron	6
itures	6
▁Teams	6
▁horny	6
ugging	6
▁Cycle	6
stdout	6
▁slate	6
▁Shawn	6
▁Hydro	6
▁rails	6
Submit	6
▁deeds	6
▁Burke	6
▁mixes	6
Cancel	6
▁incub	6
▁daddy	6
forest	6
▁Haiti	6
During	6
▁Scene	6
gering	6
▁fries	6
attack	6
leader	6
▁coven	6
Struct	6
pragma	6
▁Floyd	6
living	6
▁yummy	6
▁sewer	6
aspect	6
pretty	6
arnish	6
▁comfy	6
Energy	6
Runner	6
▁sniff	6
ffffff	6
infect	6
lbrace	6
nspace	6
unwrap	6
stderr	6
▁Winds	6
Errorf	6
▁belts	6
▁Alert	6
erring	6
▁erupt	6
olated	6
epsfig	6
unched	6
belief	6
geries	6
▁mould	6
caling	6
metics	6
ourced	6
▁Turbo	6
School	6
▁hangs	6
chrome	6
▁rocky	6
bishop	6
credit	6
nfound	6
STRING	6
United	6
nostic	6
ischer	6
▁Leeds	6
abetic	6
▁skins	6
recogn	6
supers	6
Factor	6
Metric	6
antine	6
buster	6
▁tetra	6
rading	6
rapped	6
▁Admin	6
Shared	6
notify	6
potent	6
anyahu	6
▁hatch	6
shield	6
▁bowls	6
ecycle	6
tables	6
▁Zhang	6
tently	6
urpose	6
sizeof	6
ophren	6
▁slipp	6
Middle	6
▁Johns	6
▁nicer	6
themed	6
volved	6
uously	6
elaide	6
pieces	6
igroup	6
remely	6
Errors	6
▁Chang	6
lookup	6
Switch	6
everse	6
ichlet	6
andals	6
▁prose	6
dollar	6
hesion	6
▁Bella	6
▁panor	6
Ignore	6
iffany	6
rbrace	6
▁juicy	6
otions	6
UPDATE	6
Ubuntu	6
ophers	6
▁squat	6
ilated	6
actors	6
▁Aware	6
rocket	6
little	6
▁Tracy	6
▁basin	6
bounds	6
itcher	6
▁longe	6
▁tying	6
asmine	6
sparse	6
▁Funny	6
church	6
▁flown	6
mrroot	6
cookie	6
▁sting	6
▁Lives	6
▁refin	6
▁Patch	6
assium	6
sphere	6
urring	6
▁bloom	6
imedia	6
racuse	6
▁releg	6
▁Bound	6
▁boobs	6
forums	6
pacing	6
marked	6
ittens	6
Reddit	6
nassoc	6
Router	6
▁Usage	6
▁Facts	6
▁choir	6
▁griev	6
penter	6
▁Sally	6
Little	6
kinson	6
▁Jenny	6
marine	6
▁hubby	6
▁polyg	6
matics	6
logged	6
▁Assad	6
▁Pauli	6
Packet	6
reward	6
▁covet	6
Worker	6
igible	6
▁glued	6
nsuper	6
ouched	6
▁Tamil	6
attach	6
lantic	6
▁ether	6
Exists	6
▁Films	6
▁Clock	6
▁cured	6
▁salon	6
stated	6
▁Units	6
ighest	6
merged	6
neider	6
▁Torah	6
Contin	6
ichuan	6
▁ethic	6
cyclic	6
▁couns	6
▁Arrow	6
Export	6
amburg	6
▁Witch	6
doctor	6
levels	6
ilings	6
ordial	6
ppings	6
▁cries	6
▁rogue	6
intent	6
Styles	6
▁curry	6
Groups	6
phants	6
▁metic	6
▁Rugby	6
▁spoil	6
▁outwe	6
▁sixty	6
▁Atlas	6
▁remix	6
npower	6
▁Asset	6
piring	6
Intent	6
roduce	6
▁motto	6
Robert	6
issors	6
scenes	6
▁semif	6
▁thief	6
▁sings	6
nbound	6
▁meats	6
esteem	6
nbased	6
ablish	6
Sports	6
▁Mitch	6
▁finer	6
▁Medal	6
▁recon	6
rieved	6
ermany	6
mathds	6
Street	6
▁unint	6
ielsen	6
perate	6
marker	6
twhile	6
olphin	6
uggets	6
ISSION	6
▁paved	6
isites	6
▁veins	6
ninteg	6
things	6
▁Rapid	6
▁eater	6
tering	6
facing	6
folios	6
▁Apost	6
lectic	6
robust	6
tfloat	6
phrase	6
▁anest	6
aleigh	6
▁Limit	6
bsites	6
rising	6
Answer	6
▁baths	6
▁atten	6
nabove	6
▁famed	6
webkit	6
▁Raven	6
▁modal	6
▁undis	6
urname	6
▁recol	6
ittest	6
▁Quote	6
▁Rabbi	6
utting	6
Newton	6
▁grids	6
atches	6
▁Maver	6
matter	6
▁Views	6
▁Needs	6
▁Alexa	6
loving	6
astery	6
Listen	6
RESULT	6
Bounds	6
acency	6
quired	6
oultry	6
▁Occup	6
nblack	6
▁jihad	6
ticket	6
▁weeds	6
▁aided	6
▁cocoa	6
▁sushi	6
opathy	6
▁Baron	6
▁Blade	6
nation	6
nworld	6
▁folds	6
ennial	6
scores	6
Amazon	6
▁Ninja	6
▁tally	6
graphs	6
▁funky	6
Course	6
ousand	6
▁Penny	6
ueless	6
▁Abdul	6
▁venge	6
Cookie	6
▁Jared	6
arcode	6
manage	6
▁infin	6
listen	6
nprodu	6
▁Known	6
▁saint	6
proper	6
colsep	6
peated	6
itious	6
lorida	6
tthrow	6
▁anecd	6
▁Birds	6
▁Civic	6
SERVER	6
hammer	6
mighty	6
budget	6
nalong	6
deploy	6
Signal	6
States	6
atical	6
racell	6
▁Megan	6
▁Revel	6
racial	6
apunov	6
Canada	6
rather	6
▁fined	6
Muslim	6
▁Goals	6
▁monet	6
▁Congo	6
▁peril	6
▁hikes	6
▁pneum	6
iframe	6
▁cling	6
▁bifur	6
▁Wrong	6
ACTION	6
▁Flynn	6
▁edits	6
sunami	6
ademic	6
overty	6
inject	6
nshown	6
▁mound	6
monary	6
ngoing	6
hedron	6
mitter	6
Branch	6
ngroup	6
survey	6
nyears	6
ESSAGE	6
Market	6
▁siege	6
Shader	6
summer	6
▁cooks	6
Having	6
nphase	6
ignant	6
powers	6
▁Rings	6
▁poets	6
▁Seoul	6
multip	6
▁Hindi	6
▁raced	6
gerald	6
ogical	6
▁basil	6
▁creek	6
▁Kathy	6
stores	6
impact	6
manual	6
ffield	6
▁tiger	6
sector	6
▁bigot	6
Studio	6
ermost	6
onight	6
proton	6
recurs	6
sender	6
▁exits	6
Commit	6
illian	6
▁stunt	6
inside	6
irting	6
▁Olive	6
▁ashes	6
having	6
weekly	6
▁Fruit	6
▁hairs	6
▁Haley	6
▁Stamp	6
portal	6
▁hairc	6
crypto	6
ncross	6
▁Corey	6
arrhea	6
▁Catch	6
▁slips	6
▁caves	6
▁semic	6
finals	6
icycle	6
posted	6
igmoid	6
▁Chaos	6
avatar	6
neural	6
▁raids	6
▁cites	6
askell	6
hythms	6
Anyone	6
ituted	6
plants	6
raight	6
Planck	6
Radius	6
VERTIS	6
▁choke	6
▁diffe	6
colone	6
▁Chevy	6
worked	6
▁Omega	6
▁ticks	6
starts	6
hosted	6
▁nanop	6
skirts	6
riding	6
artist	6
▁omega	6
ntotal	6
ourtes	6
twhere	6
liquid	6
ivirus	6
ridden	6
▁Spike	6
Inject	6
RETURN	6
Tables	6
supset	6
▁Weiss	6
signed	6
syntax	6
▁Piano	6
▁hitch	6
Reason	6
▁hairy	6
higher	6
▁Kitty	6
▁shave	6
ocytes	6
nident	6
fusion	6
Circle	6
Shadow	6
▁Rails	6
velope	6
ieving	6
ealing	6
nterms	6
Linked	6
studio	6
▁eagle	6
ceptor	6
Patter	6
enburg	6
teness	6
nlight	6
▁Asked	6
▁aloud	6
▁Hitch	6
ylabel	6
▁Doyle	6
▁dehyd	6
anical	6
planet	6
▁Anglo	6
nshows	6
uities	6
Cursor	6
faster	6
▁china	6
▁grips	6
rected	6
▁weary	6
▁flair	6
Reilly	6
abouts	6
▁pores	6
eating	6
female	6
hybrid	6
nearly	6
vially	6
Origin	6
iguous	6
▁crave	6
Things	6
▁Drugs	6
▁Rooms	6
recipe	6
▁Doors	6
stakes	6
▁Songs	6
▁goats	6
▁monst	6
▁lyric	6
▁weave	6
Nature	6
nimage	6
orated	6
▁bowel	6
brance	6
ickers	6
George	6
▁Regin	6
▁Subst	6
PREFIX	6
rarian	6
▁Mercy	6
▁stalk	6
▁Watts	6
kowski	6
mazing	6
erably	6
rtimes	6
aution	6
assemb	6
▁haunt	6
inberg	6
▁Vaugh	6
▁stool	6
strate	6
ushima	6
conomy	6
▁Ricky	6
closes	6
▁Devon	6
▁Dixon	6
▁scrib	6
sheets	6
▁Sanct	6
DEVICE	6
nblock	6
nbuild	6
▁Hutch	6
Connor	6
Though	6
▁Kondo	6
sticks	6
▁Areas	6
▁yacht	6
xlabel	6
ipient	6
▁Creed	6
▁bulky	6
▁mills	6
Commun	6
LENGTH	6
quoted	6
▁heats	6
nbegin	6
verett	6
Arrays	6
finish	6
rename	6
▁Quart	6
▁recom	6
French	6
colour	6
▁sided	6
pillar	6
▁asses	6
DELETE	6
ussing	6
Thomas	6
Bucket	6
▁tease	6
intosh	6
ublish	6
unsafe	6
Sensor	6
▁Polar	6
nshort	6
claims	6
fitted	6
nthony	6
▁Trees	6
Anchor	6
Canvas	6
icants	6
▁Blanc	6
errick	6
viewer	6
▁fools	6
reload	6
▁paced	6
Invoke	6
norgan	6
walker	6
speech	6
▁Rural	6
rinsic	6
▁Valve	6
Altern	6
Former	6
Martin	6
▁Fully	6
versal	6
nABOUT	6
scapes	6
▁fused	6
udging	6
▁Ideal	6
finger	6
Travel	6
Remark	6
picker	6
▁attic	6
▁hires	6
Margin	6
orting	6
▁Rough	6
▁boils	6
▁Carey	6
ankind	6
earned	6
linger	6
owment	6
essing	6
▁incur	6
ophone	6
athlon	6
uckily	6
▁Skill	6
Toggle	6
ntable	6
uddled	6
▁defer	6
▁clamp	6
▁Lange	6
▁comma	6
▁disob	6
▁haird	6
▁piled	6
antasy	6
ariant	6
bursts	6
bigcap	6
patial	6
winter	6
▁dtype	6
▁resol	6
▁assay	6
Blocks	6
Choose	6
brahim	6
▁wafer	6
▁Mongo	6
▁forge	6
▁tyres	6
▁taxed	6
BUFFER	6
CREATE	6
▁desks	6
Bridge	6
▁fares	6
▁clown	6
passed	6
Daniel	6
ipated	6
erview	6
▁Booth	6
▁curly	6
▁batht	6
backup	6
gences	6
▁joked	6
nmeans	6
▁bunny	6
regate	6
routes	6
sensor	6
▁waved	6
parbox	6
braket	6
phonon	6
burner	6
rights	6
▁carts	6
▁binge	6
Called	6
essica	6
▁pearl	6
Locale	6
Picker	6
airobi	6
slider	6
Latest	6
checks	6
German	6
▁Clerk	6
▁flyer	6
nrange	6
ulling	6
elsius	6
▁borne	6
campus	6
iaries	6
seller	6
Motion	6
▁Goods	6
Verify	6
▁conco	6
artner	6
Syntax	6
Scalar	6
Loaded	6
▁malls	6
intell	6
▁trout	6
▁Named	6
reject	6
nanaly	6
▁dimer	6
MODULE	6
▁Tyson	6
cached	6
themes	6
volent	6
▁eaves	6
<h2/>	5
</br>	5
<li/>	5
<tr/>	5
</tr>	5
<td/>	5
</td>	5
ation	5
▁that	5
▁with	5
▁this	5
▁have	5
▁from	5
ction	5
▁will	5
▁they	5
▁comp	5
▁more	5
▁some	5
▁work	5
ition	5
▁like	5
train	5
▁part	5
▁been	5
▁also	5
▁just	5
▁them	5
▁were	5
label	5
▁over	5
▁than	5
▁year	5
ename	5
▁into	5
▁only	5
▁need	5
begin	5
vepfs	5
▁said	5
split	5
▁know	5
▁diff	5
dedup	5
round	5
▁This	5
▁cons	5
▁back	5
▁want	5
▁make	5
▁comm	5
▁most	5
ating	5
▁look	5
rough	5
right	5
▁well	5
▁very	5
▁play	5
class	5
▁even	5
ution	5
ublic	5
ility	5
▁such	5
ities	5
▁does	5
▁much	5
ollow	5
▁many	5
other	5
aking	5
ative	5
▁down	5
ident	5
▁help	5
▁used	5
ption	5
▁find	5
▁here	5
▁same	5
▁high	5
ually	5
uring	5
▁take	5
title	5
▁serv	5
▁made	5
▁real	5
atter	5
velop	5
▁both	5
▁best	5
iness	5
ering	5
ather	5
▁post	5
▁life	5
ience	5
▁feel	5
▁lead	5
▁happ	5
riend	5
ample	5
thing	5
ittle	5
chool	5
▁mark	5
▁case	5
alpha	5
ethod	5
▁home	5
▁They	5
lease	5
▁team	5
ought	5
ality	5
meric	5
▁list	5
▁week	5
▁stat	5
ional	5
▁next	5
▁open	5
▁keep	5
▁term	5
▁main	5
ively	5
ivers	5
▁seem	5
▁care	5
▁appl	5
▁pass	5
ambda	5
▁must	5
▁head	5
▁plan	5
▁sure	5
▁name	5
ately	5
▁oper	5
ision	5
▁less	5
▁give	5
ccess	5
▁sing	5
ustom	5
ology	5
vious	5
ished	5
▁able	5
ified	5
▁prob	5
▁full	5
▁grow	5
▁mean	5
https	5
angle	5
array	5
ither	5
▁didn	5
ready	5
▁four	5
▁away	5
itive	5
ember	5
▁cost	5
asure	5
ories	5
▁kind	5
▁tell	5
width	5
sigma	5
▁done	5
▁type	5
▁says	5
uthor	5
▁talk	5
error	5
indow	5
arent	5
▁ever	5
▁self	5
▁area	5
▁side	5
▁move	5
aster	5
iving	5
arget	5
const	5
▁view	5
▁hist	5
▁writ	5
ients	5
▁size	5
ising	5
gamma	5
ength	5
ended	5
igure	5
aring	5
posed	5
uture	5
▁stop	5
align	5
▁meet	5
theta	5
▁room	5
ivity	5
▁once	5
▁seen	5
conom	5
▁clos	5
▁webs	5
▁came	5
▁deal	5
ormal	5
arrow	5
▁comb	5
viron	5
▁went	5
ystem	5
▁larg	5
▁file	5
▁live	5
imate	5
ators	5
▁easy	5
times	5
▁told	5
▁Comm	5
▁took	5
omega	5
▁text	5
delta	5
umber	5
▁rele	5
▁blog	5
▁idea	5
▁fund	5
▁pain	5
wards	5
istic	5
▁city	5
epend	5
jsonl	5
iment	5
asing	5
ables	5
▁half	5
Delta	5
place	5
▁miss	5
▁rate	5
ights	5
illed	5
▁user	5
▁page	5
▁near	5
▁wond	5
▁five	5
▁stay	5
ained	5
lobal	5
ledge	5
ently	5
▁fail	5
onent	5
space	5
▁answ	5
▁John	5
▁code	5
cript	5
▁tool	5
▁loss	5
itten	5
▁http	5
itted	5
▁plac	5
tilde	5
▁step	5
▁cell	5
order	5
▁circ	5
aving	5
ected	5
infty	5
iting	5
astic	5
ports	5
▁Euro	5
▁film	5
▁host	5
inary	5
table	5
▁cult	5
starc	5
oring	5
using	5
izing	5
▁publ	5
where	5
▁card	5
▁soon	5
print	5
▁foot	5
▁cred	5
▁role	5
roups	5
▁word	5
based	5
▁York	5
hline	5
field	5
aging	5
ender	5
fully	5
▁star	5
▁City	5
▁fire	5
▁nice	5
▁ones	5
light	5
value	5
aught	5
▁kids	5
▁wasn	5
▁fast	5
▁note	5
▁deep	5
▁pair	5
▁Some	5
iddle	5
▁lost	5
ached	5
icles	5
▁sort	5
anced	5
▁risk	5
Omega	5
annel	5
▁upon	5
aches	5
ining	5
▁sequ	5
aries	5
earch	5
inter	5
▁driv	5
▁goal	5
verse	5
point	5
▁band	5
ithub	5
▁Part	5
citep	5
▁pull	5
Gamma	5
▁Here	5
asons	5
▁song	5
ening	5
ector	5
paign	5
itary	5
riday	5
▁held	5
▁draw	5
▁fair	5
state	5
itter	5
▁copy	5
▁Aust	5
itely	5
attle	5
▁dark	5
▁fine	5
board	5
netic	5
▁felt	5
arily	5
arter	5
▁gave	5
▁shop	5
views	5
anger	5
ously	5
▁vict	5
param	5
▁huge	5
atory	5
▁uses	5
unday	5
▁rout	5
color	5
▁dead	5
tered	5
onday	5
▁suff	5
inate	5
index	5
▁Sept	5
ymbol	5
iring	5
▁save	5
style	5
▁town	5
▁Also	5
▁sold	5
appro	5
▁June	5
iding	5
▁conv	5
ework	5
▁task	5
igned	5
▁hair	5
ridge	5
▁Brit	5
▁July	5
osing	5
▁Germ	5
proof	5
orage	5
▁wide	5
udget	5
pling	5
▁join	5
aling	5
works	5
ategy	5
▁teac	5
model	5
nwith	5
▁High	5
lying	5
▁wish	5
ednes	5
▁aren	5
quest	5
▁skin	5
eline	5
efore	5
▁agre	5
▁hour	5
count	5
itect	5
▁anim	5
▁wife	5
input	5
▁race	5
usion	5
ilies	5
range	5
▁poor	5
nfrom	5
under	5
▁fans	5
ounds	5
▁paid	5
iforn	5
ruary	5
inner	5
overn	5
ondon	5
▁club	5
▁sets	5
ldots	5
kappa	5
▁Cons	5
trans	5
level	5
bolds	5
▁King	5
utive	5
gress	5
▁repe	5
▁Most	5
prime	5
▁heat	5
plate	5
arant	5
idden	5
▁Post	5
which	5
Error	5
▁hous	5
State	5
known	5
▁wave	5
▁rank	5
rench	5
istry	5
abase	5
▁bill	5
apter	5
▁core	5
abled	5
while	5
▁anti	5
▁node	5
anned	5
perty	5
▁meas	5
▁tree	5
orrow	5
ipped	5
icate	5
force	5
▁rule	5
iance	5
▁kept	5
▁Paul	5
▁gold	5
gment	5
▁jobs	5
ulate	5
▁tick	5
▁Cong	5
▁cold	5
▁runs	5
phone	5
▁priv	5
▁lots	5
▁wood	5
scale	5
ellig	5
acity	5
utely	5
start	5
nthat	5
check	5
group	5
arxiv	5
ctors	5
cious	5
pping	5
uracy	5
build	5
nabla	5
local	5
antic	5
overy	5
othes	5
break	5
aming	5
venue	5
▁lock	5
▁gain	5
inese	5
urity	5
ashed	5
iling	5
Phone	5
arden	5
house	5
▁jump	5
eless	5
iency	5
amily	5
image	5
oding	5
▁born	5
▁farm	5
older	5
▁peak	5
iable	5
▁Dist	5
▁drug	5
ilton	5
akers	5
cknow	5
▁Many	5
iform	5
enses	5
poses	5
ivery	5
Class	5
vered	5
▁died	5
orial	5
Model	5
There	5
ifier	5
Sigma	5
▁Hall	5
citet	5
▁pool	5
scrib	5
anged	5
▁pros	5
cdots	5
tical	5
allel	5
ishes	5
ensor	5
▁wear	5
reate	5
Event	5
▁rain	5
itors	5
▁kick	5
block	5
▁ring	5
small	5
arian	5
▁root	5
istan	5
produ	5
▁appe	5
iliar	5
ented	5
night	5
▁flav	5
ouble	5
▁plot	5
▁hate	5
udden	5
▁Star	5
▁List	5
▁mine	5
agger	5
dered	5
▁grav	5
ython	5
equiv	5
going	5
valid	5
crete	5
rency	5
▁Thom	5
▁poll	5
lands	5
▁sust	5
ernel	5
ander	5
useum	5
▁forg	5
icago	5
▁Best	5
ponse	5
Count	5
▁ship	5
ushed	5
azine	5
grade	5
▁susp	5
olean	5
▁Plan	5
▁male	5
anges	5
▁menu	5
elled	5
▁crim	5
▁Mary	5
▁desk	5
▁whom	5
antly	5
▁fish	5
▁elim	5
ymmet	5
erent	5
write	5
rical	5
otted	5
creen	5
▁debt	5
▁fuel	5
Trans	5
buntu	5
Field	5
▁cart	5
▁Kore	5
orney	5
score	5
gence	5
rible	5
gener	5
▁mole	5
isher	5
▁subs	5
▁flux	5
widet	5
inite	5
query	5
▁apps	5
▁hunt	5
uries	5
odies	5
ATION	5
▁seek	5
asket	5
inder	5
Array	5
Index	5
▁Sing	5
claim	5
▁fell	5
ental	5
acing	5
ulous	5
apped	5
▁Club	5
▁soul	5
ittee	5
▁seat	5
Build	5
event	5
uable	5
▁Down	5
float	5
oking	5
▁beer	5
faces	5
lines	5
iller	5
Color	5
uster	5
rated	5
▁laun	5
gency	5
icken	5
nhttp	5
qquad	5
▁nine	5
▁Iraq	5
riter	5
▁loop	5
▁lawy	5
inity	5
first	5
ading	5
Table	5
Image	5
ailed	5
eries	5
▁zone	5
▁suit	5
cohol	5
graph	5
▁arms	5
icted	5
▁Last	5
▁glad	5
agram	5
atrix	5
nergy	5
▁Main	5
ifies	5
▁Long	5
ronic	5
▁Lake	5
▁Team	5
stood	5
actor	5
quare	5
▁Have	5
ograp	5
ensus	5
plete	5
Input	5
bound	5
▁grid	5
▁loan	5
agers	5
prise	5
ffect	5
rooms	5
false	5
▁thin	5
acter	5
urban	5
▁lies	5
comes	5
erest	5
final	5
▁dram	5
enced	5
inton	5
▁meat	5
allow	5
scape	5
shift	5
reens	5
▁Jose	5
▁Week	5
▁fort	5
▁acts	5
Point	5
erman	5
ensed	5
world	5
▁grew	5
▁king	5
iders	5
after	5
▁hook	5
▁swim	5
Group	5
▁Does	5
water	5
▁hang	5
iture	5
▁axis	5
▁milk	5
black	5
undle	5
alian	5
frame	5
▁clar	5
Inter	5
▁Lead	5
rence	5
scill	5
nvoid	5
▁hits	5
eller	5
▁legs	5
stack	5
uling	5
▁cuts	5
cular	5
▁gate	5
Title	5
▁disp	5
oting	5
close	5
▁adds	5
fraid	5
▁Arab	5
Theta	5
endar	5
isted	5
ictor	5
raise	5
▁meal	5
ogene	5
▁semi	5
▁dual	5
anish	5
▁Next	5
▁cycl	5
front	5
tings	5
actic	5
enger	5
▁fits	5
redit	5
▁mask	5
Query	5
adata	5
▁boat	5
click	5
river	5
▁jack	5
▁tech	5
▁View	5
store	5
hemat	5
aints	5
inals	5
types	5
craft	5
isely	5
rices	5
arest	5
adium	5
▁bowl	5
▁Town	5
nthis	5
otype	5
words	5
email	5
▁bias	5
▁sees	5
inent	5
▁fing	5
▁Term	5
issue	5
osity	5
merce	5
power	5
stone	5
clear	5
dated	5
▁Keep	5
▁keys	5
aylor	5
vider	5
parse	5
▁butt	5
▁Live	5
sters	5
amely	5
apple	5
▁bomb	5
▁narr	5
▁User	5
▁okay	5
▁Date	5
ansas	5
Block	5
▁hall	5
Start	5
Check	5
▁puts	5
▁bits	5
▁coal	5
▁elev	5
uting	5
multi	5
ontal	5
ubble	5
throw	5
▁rely	5
▁guid	5
▁Find	5
▁Hunt	5
▁nurs	5
chain	5
▁cute	5
oving	5
▁rein	5
amber	5
▁loud	5
unity	5
track	5
▁wins	5
athan	5
minus	5
child	5
▁Line	5
Gener	5
achel	5
eople	5
racle	5
gging	5
books	5
oured	5
enter	5
▁pill	5
▁Fair	5
folio	5
▁edit	5
▁cake	5
▁Prem	5
otion	5
▁ease	5
asant	5
annot	5
Token	5
▁elig	5
ested	5
razil	5
Equal	5
cases	5
endix	5
▁nerv	5
itial	5
unior	5
etary	5
xiety	5
nfunc	5
berry	5
▁entr	5
▁fold	5
ordan	5
▁hung	5
month	5
igate	5
clean	5
eting	5
ashes	5
vents	5
wered	5
stery	5
▁plas	5
onder	5
eding	5
organ	5
lower	5
▁Stan	5
ounce	5
▁batt	5
▁vice	5
▁Ford	5
▁asks	5
media	5
colum	5
argin	5
orous	5
▁guns	5
itled	5
bered	5
Right	5
worth	5
▁hadn	5
there	5
outer	5
atile	5
▁hire	5
anted	5
ockey	5
watch	5
▁intr	5
mates	5
endif	5
match	5
utter	5
▁eggs	5
Const	5
white	5
▁echo	5
admin	5
uated	5
Label	5
empty	5
First	5
Valid	5
▁Arts	5
green	5
total	5
▁rect	5
ether	5
overs	5
bsite	5
entry	5
onded	5
acher	5
isdom	5
ogram	5
iated	5
▁Holy	5
eties	5
plane	5
super	5
After	5
acent	5
erred	5
▁desc	5
about	5
alaxy	5
▁gene	5
▁bird	5
leton	5
ropic	5
▁stom	5
▁logo	5
▁tact	5
▁yeah	5
Click	5
leted	5
eling	5
bling	5
▁tang	5
backs	5
▁poet	5
found	5
nhave	5
▁golf	5
floor	5
▁soil	5
icket	5
shape	5
ainer	5
hetic	5
elect	5
▁Core	5
▁Area	5
▁thro	5
▁tube	5
▁tape	5
ncing	5
▁yard	5
▁turb	5
notes	5
allas	5
scope	5
▁gang	5
heast	5
aware	5
These	5
verty	5
▁calm	5
▁Bang	5
▁Swed	5
inson	5
Press	5
tthis	5
lined	5
iscal	5
bserv	5
▁chip	5
▁tons	5
burgh	5
▁Kent	5
Frame	5
▁wash	5
▁vess	5
ylvan	5
elesc	5
▁rice	5
▁puls	5
▁jail	5
Level	5
pared	5
▁Tony	5
Write	5
phant	5
xygen	5
items	5
scene	5
ragon	5
holds	5
never	5
icked	5
dfrac	5
▁pose	5
regon	5
▁wing	5
uming	5
vable	5
▁Mill	5
ceive	5
apore	5
orses	5
izers	5
cline	5
oning	5
cules	5
ernal	5
usive	5
chers	5
▁dipl	5
False	5
abeth	5
▁oven	5
▁wise	5
paper	5
▁Orig	5
▁Bowl	5
▁pion	5
angel	5
wedge	5
video	5
large	5
names	5
cache	5
ocket	5
▁Help	5
▁quit	5
Every	5
users	5
▁pron	5
ipher	5
cribe	5
ching	5
Style	5
▁eleg	5
nsudo	5
ntime	5
▁Dave	5
▁Give	5
orted	5
ckets	5
isons	5
raine	5
depth	5
arity	5
cycle	5
EMAIL	5
▁bass	5
opher	5
ureau	5
▁tong	5
Utils	5
Types	5
eddit	5
asion	5
speed	5
duate	5
crets	5
exper	5
andal	5
being	5
ocker	5
party	5
sized	5
arded	5
▁Come	5
▁belt	5
hyper	5
ratic	5
ishop	5
fight	5
ships	5
itzer	5
inely	5
heart	5
insic	5
▁Auto	5
uties	5
▁beta	5
riven	5
Width	5
gered	5
charg	5
cloud	5
Local	5
debug	5
stage	5
▁Kong	5
▁glob	5
matic	5
uning	5
▁coat	5
props	5
npart	5
price	5
ucket	5
pache	5
▁Pitt	5
heric	5
activ	5
oment	5
▁leaf	5
▁tune	5
sharp	5
react	5
short	5
icons	5
ifice	5
▁aged	5
▁caps	5
quote	5
▁atom	5
clock	5
cross	5
Empty	5
share	5
Param	5
▁Talk	5
phase	5
abama	5
patch	5
piece	5
ipart	5
ushes	5
▁athe	5
ordon	5
joint	5
ority	5
idity	5
cover	5
aters	5
▁Iowa	5
nwill	5
Entry	5
▁ties	5
▁drum	5
▁Sony	5
stock	5
Stack	5
▁brew	5
owers	5
Tunes	5
Store	5
▁obst	5
nthen	5
strap	5
equal	5
▁skip	5
erver	5
▁sits	5
athon	5
▁horm	5
ospel	5
ouses	5
ernet	5
alled	5
early	5
named	5
icker	5
▁euro	5
oping	5
addle	5
▁Hong	5
shell	5
tcase	5
oming	5
etter	5
▁Rome	5
atisf	5
prove	5
rying	5
▁beef	5
▁outs	5
shtml	5
▁peer	5
▁Task	5
▁Left	5
▁Hind	5
spect	5
▁dirt	5
Since	5
▁spam	5
izard	5
▁bicy	5
limit	5
ulent	5
World	5
nname	5
apsed	5
rowth	5
quiry	5
▁Deep	5
elson	5
uther	5
login	5
Photo	5
loads	5
andid	5
pread	5
▁slee	5
esian	5
▁exem	5
▁Jane	5
Order	5
hythm	5
arith	5
▁Five	5
Pages	5
ncont	5
▁slip	5
ERROR	5
▁synd	5
arial	5
colon	5
▁deny	5
STATE	5
owski	5
Child	5
arser	5
Where	5
▁lane	5
amous	5
batch	5
leans	5
▁Utah	5
Cloud	5
arlic	5
modal	5
▁dear	5
asted	5
▁Vice	5
essed	5
story	5
While	5
▁bite	5
▁demo	5
idget	5
▁pets	5
▁lazy	5
linux	5
vance	5
paces	5
annon	5
▁jury	5
Space	5
▁cure	5
owner	5
woman	5
dbcbb	5
brace	5
▁Unit	5
Async	5
stick	5
▁prev	5
▁owns	5
▁shed	5
human	5
raint	5
▁sons	5
urate	5
isode	5
otive	5
acles	5
nwhen	5
metic	5
▁pics	5
mount	5
andom	5
yalty	5
plant	5
▁obsc	5
Found	5
rator	5
agent	5
atoes	5
atted	5
isson	5
▁shoe	5
visor	5
▁Song	5
Cache	5
riger	5
ocial	5
conut	5
oples	5
▁Easy	5
ndist	5
Exper	5
blank	5
▁cave	5
nsuch	5
▁cups	5
▁nick	5
▁Poly	5
inned	5
▁nons	5
▁Prob	5
▁temp	5
Range	5
upper	5
igger	5
▁Save	5
storm	5
MNBVC	5
▁Jess	5
andra	5
▁pitc	5
owned	5
▁pond	5
ppers	5
ookie	5
brane	5
ugust	5
await	5
neath	5
chiat	5
atern	5
Print	5
▁tire	5
ipper	5
nthey	5
Graph	5
▁disg	5
▁holy	5
tools	5
endor	5
arcel	5
nmore	5
▁beds	5
▁doub	5
aping	5
belie	5
shirt	5
Panel	5
three	5
sight	5
optim	5
itual	5
async	5
▁ward	5
every	5
CTION	5
About	5
plain	5
rogen	5
maker	5
oline	5
shops	5
rison	5
telse	5
▁nail	5
adays	5
reach	5
bbing	5
marks	5
retty	5
Video	5
itics	5
setup	5
xious	5
▁soap	5
doors	5
topic	5
pless	5
ijing	5
panel	5
chell	5
rared	5
atics	5
erved	5
omers	5
nonym	5
pired	5
▁enjo	5
▁Lock	5
forms	5
nover	5
slant	5
▁clue	5
pered	5
liter	5
focus	5
learn	5
▁Pope	5
ields	5
▁bind	5
annah	5
▁Kate	5
oscow	5
noise	5
ntype	5
Track	5
▁curl	5
asses	5
senal	5
ringe	5
isite	5
▁folk	5
Email	5
since	5
reset	5
▁toll	5
▁verb	5
▁ware	5
inery	5
Users	5
ratio	5
Float	5
Files	5
Total	5
heres	5
legal	5
▁poem	5
Other	5
bytes	5
nalso	5
▁sail	5
PDATE	5
▁Wire	5
links	5
tfrac	5
▁html	5
catch	5
Proof	5
asury	5
▁hike	5
Black	5
Route	5
▁tile	5
comed	5
nthem	5
route	5
▁Comb	5
mouth	5
Items	5
notag	5
Power	5
emale	5
shine	5
nEDIT	5
▁Rule	5
▁jets	5
urope	5
proto	5
▁laug	5
alert	5
ollar	5
brand	5
inkle	5
chair	5
erald	5
apply	5
clude	5
bacco	5
ribly	5
▁Hung	5
offee	5
onest	5
ravel	5
stats	5
raham	5
▁Ward	5
▁reun	5
think	5
rolog	5
photo	5
▁Race	5
analy	5
isure	5
Close	5
▁Soul	5
Debug	5
tests	5
pires	5
ideos	5
separ	5
▁Drop	5
vskip	5
▁earl	5
▁toug	5
hfill	5
ucker	5
▁gods	5
igers	5
Props	5
panic	5
▁wont	5
Ident	5
utors	5
solid	5
Thank	5
ILITY	5
▁bins	5
gmail	5
zilla	5
▁lawn	5
▁medi	5
steps	5
ivals	5
Queue	5
▁Mall	5
lando	5
Media	5
ninst	5
shore	5
▁Cape	5
▁Want	5
rames	5
esity	5
nthan	5
▁deer	5
▁Drug	5
▁oils	5
pload	5
quire	5
erals	5
umper	5
▁bree	5
manif	5
▁Penn	5
aniel	5
Price	5
nwere	5
▁Coul	5
udson	5
obert	5
▁tops	5
efits	5
nonly	5
again	5
onomy	5
intro	5
ocity	5
nsome	5
emade	5
sheet	5
ysics	5
ivari	5
ighed	5
unted	5
built	5
nprov	5
chart	5
opard	5
great	5
▁slim	5
▁succ	5
bands	5
▁surg	5
▁Golf	5
glass	5
▁Ring	5
orate	5
nsign	5
rates	5
Multi	5
ucked	5
Hello	5
owing	5
cedes	5
borne	5
Layer	5
alone	5
▁stub	5
▁glue	5
peror	5
▁Heat	5
radio	5
edges	5
nyour	5
elong	5
nshow	5
Getty	5
Share	5
vdots	5
jamin	5
▁fled	5
Apple	5
aders	5
ecess	5
acked	5
iners	5
Light	5
Today	5
▁mall	5
maybe	5
asive	5
iquid	5
relax	5
ieval	5
▁cram	5
ninto	5
▁fict	5
urred	5
lists	5
▁kits	5
nvari	5
oidal	5
flags	5
shire	5
lette	5
forum	5
▁bend	5
omaly	5
ethyl	5
ublin	5
▁noon	5
EMENT	5
actly	5
nodes	5
audio	5
anean	5
arium	5
▁Doug	5
creat	5
LEASE	5
▁Pete	5
basic	5
irate	5
guide	5
heads	5
▁boil	5
rived	5
renew	5
keley	5
hesis	5
ungle	5
shots	5
theme	5
▁foul	5
urers	5
▁raid	5
drive	5
pathy	5
Green	5
elian	5
ounge	5
usage	5
nwell	5
eking	5
White	5
igher	5
▁Thai	5
posts	5
Great	5
fluid	5
▁pads	5
rites	5
▁pean	5
ibles	5
trace	5
isive	5
▁Zero	5
▁scra	5
omore	5
▁evac	5
Trace	5
thick	5
orthy	5
otics	5
▁Beng	5
lades	5
azure	5
arten	5
Match	5
Lemma	5
▁vegg	5
eward	5
▁bees	5
Short	5
Using	5
egree	5
nwork	5
▁tilt	5
▁Bird	5
▁plur	5
bench	5
ndiff	5
brief	5
races	5
rella	5
▁gluc	5
atest	5
▁kidn	5
rypto	5
aying	5
▁dull	5
erial	5
inear	5
merge	5
assoc	5
Under	5
extra	5
arcia	5
oshop	5
Admin	5
impse	5
above	5
swing	5
▁taxi	5
▁adap	5
astro	5
▁Used	5
nbeen	5
igion	5
rules	5
fetch	5
▁Hair	5
anity	5
witch	5
aphor	5
ploys	5
fixed	5
epoch	5
icode	5
nform	5
▁yarn	5
▁Finn	5
Forms	5
Super	5
Linux	5
third	5
▁loos	5
archy	5
retch	5
polar	5
smith	5
Parse	5
ritis	5
techn	5
▁Kath	5
arthy	5
Shell	5
David	5
▁nort	5
vidia	5
wheel	5
udent	5
poral	5
slide	5
imits	5
armed	5
below	5
▁Ruby	5
▁assh	5
Scale	5
imgur	5
ighty	5
rians	5
clone	5
etric	5
▁Okay	5
Works	5
ndisc	5
amped	5
stars	5
Watch	5
icals	5
sleep	5
▁thru	5
burst	5
Speed	5
rives	5
pancy	5
roots	5
▁cube	5
nswer	5
anium	5
micro	5
Enter	5
▁aunt	5
anyon	5
▁Were	5
▁pear	5
plots	5
erval	5
orbit	5
notin	5
nsure	5
▁Fact	5
truth	5
years	5
▁Lang	5
tvoid	5
Month	5
ochem	5
aways	5
afety	5
opath	5
quark	5
Agent	5
baidu	5
antom	5
nchar	5
atten	5
brain	5
▁dawn	5
smart	5
Scope	5
ooter	5
ntest	5
ensen	5
enson	5
strom	5
adian	5
azing	5
strip	5
falls	5
relim	5
eered	5
bolic	5
flash	5
rophy	5
mazon	5
bread	5
ustin	5
compl	5
▁Yang	5
hydro	5
▁poke	5
cence	5
ramid	5
Force	5
embed	5
money	5
isors	5
▁nude	5
▁herb	5
Proxy	5
proxy	5
Maybe	5
▁Wang	5
verts	5
▁axes	5
▁epit	5
Tests	5
becca	5
Basic	5
boxes	5
▁moms	5
▁stun	5
nimpl	5
usher	5
▁unin	5
ergus	5
eches	5
ncase	5
artha	5
cards	5
erick	5
until	5
ritic	5
ncomp	5
inema	5
asset	5
▁foil	5
ivate	5
▁punk	5
nings	5
junit	5
ronts	5
▁Fitz	5
Based	5
ilogy	5
given	5
logic	5
Shape	5
nmake	5
rants	5
asets	5
olics	5
lings	5
brook	5
inars	5
▁sang	5
▁hats	5
semin	5
rance	5
▁flee	5
neach	5
njust	5
▁lang	5
anson	5
parts	5
▁bore	5
▁Apps	5
calib	5
ienna	5
ecome	5
uncan	5
pound	5
Stats	5
ussia	5
occup	5
birth	5
aning	5
asser	5
still	5
ussed	5
bucks	5
▁Wave	5
games	5
▁Dawn	5
Creat	5
▁adul	5
along	5
meter	5
sided	5
▁LSTM	5
nhigh	5
appen	5
edged	5
▁coil	5
pollo	5
Score	5
opsis	5
▁gaze	5
algia	5
DEBUG	5
would	5
nlink	5
Tools	5
pixel	5
curve	5
Cross	5
delay	5
▁wifi	5
Lower	5
ieves	5
matht	5
▁Mitt	5
▁sket	5
ovich	5
▁jerk	5
hskip	5
▁ally	5
mouse	5
arker	5
▁ling	5
osion	5
▁plea	5
imuth	5
balls	5
▁Wing	5
hello	5
typed	5
grand	5
▁Pure	5
erers	5
Place	5
March	5
Three	5
agnet	5
▁Mull	5
ocide	5
yield	5
asper	5
ctive	5
tails	5
▁maid	5
assis	5
iotic	5
boost	5
▁Kerr	5
zhang	5
adder	5
Bound	5
fonts	5
touch	5
drawn	5
music	5
nmass	5
▁Earl	5
major	5
stant	5
▁peek	5
inski	5
nused	5
utton	5
acial	5
slice	5
▁Wiki	5
nlike	5
Reply	5
aurus	5
Timer	5
▁Batt	5
itime	5
alter	5
spons	5
▁Ship	5
▁Chad	5
ceans	5
▁ethn	5
Stage	5
nsaid	5
neven	5
plier	5
batim	5
nhere	5
hered	5
▁pave	5
coins	5
Mouse	5
itous	5
atial	5
poons	5
ardon	5
Chain	5
Split	5
eeper	5
Times	5
Posts	5
their	5
Would	5
itles	5
itian	5
pherd	5
▁geek	5
roads	5
▁quir	5
Books	5
ndoes	5
these	5
duino	5
acies	5
▁eats	5
▁hull	5
▁sadd	5
absol	5
eenth	5
omial	5
plays	5
Focus	5
raits	5
units	5
cause	5
chief	5
tuint	5
posal	5
visit	5
north	5
insky	5
Audio	5
Modal	5
USPTO	5
arrie	5
vised	5
▁Rico	5
▁Zion	5
timer	5
biggl	5
biggr	5
exual	5
ifdef	5
▁muon	5
[...]
