▁characteristics	16
▁recommendations	16
▁representations	16
▁straightforward	16
▁representatives	16
▁transformations	16
▁electromagnetic	16
▁internationally	16
▁implementations	16
▁Representatives	16
▁superconducting	16
▁renormalization	16
Acknowledgements	16
▁accomplishments	16
▁interpretations	16
▁environmentally	16
▁vulnerabilities	16
▁differentiation	16
▁computationally	16
▁synchronization	16
▁professionalism	16
▁experimentation	16
▁entrepreneurial	16
▁confidentiality	16
nCongratulations	16
acknowledgements	16
addEventListener	16
▁Congratulations	16
▁troubleshooting	16
▁competitiveness	16
▁congratulations	16
▁extraordinarily	16
<|startoftext|>	15
<issue_comment>	15
<commit_before>	15
includegraphics	15
▁representation	15
▁administration	15
▁responsibility	15
▁implementation	15
▁transformation	15
▁classification	15
▁infrastructure	15
▁representative	15
▁communications	15
▁characteristic	15
▁transportation	15
▁simultaneously	15
▁Administration	15
▁configurations	15
▁identification	15
▁reconstruction	15
▁recommendation	15
▁discrimination	15
▁administrative	15
▁generalization	15
▁investigations	15
▁correspondence	15
▁constitutional	15
▁considerations	15
▁Communications	15
▁specifications	15
springframework	15
▁authentication	15
▁aforementioned	15
▁sustainability	15
▁regularization	15
▁Transportation	15
▁concentrations	15
▁experimentally	15
▁disappointment	15
▁pharmaceutical	15
▁administrators	15
▁accountability	15
▁multiplication	15
▁advertisements	15
▁approximations	15
▁professionally	15
▁organizational	15
▁demonstrations	15
▁cryptocurrency	15
▁understandable	15
▁qualifications	15
▁Representative	15
▁systematically	15
▁susceptibility	15
▁rehabilitation	15
▁asymptotically	15
acknowledgments	15
▁initialization	15
Acknowledgments	15
▁accomplishment	15
▁accommodations	15
▁establishments	15
▁reconciliation	15
▁dimensionality	15
▁Infrastructure	15
▁Constitutional	15
▁differentiable	15
▁groundbreaking	15
▁overwhelmingly	15
▁electronically	15
▁collaborations	15
▁municipalities	15
businessinsider	15
▁distinguishing	15
▁supersymmetric	15
▁unconventional	15
▁Superintendent	15
▁Classification	15
▁discretization	15
▁multiplicative	15
▁thermodynamics	15
▁quantitatively	15
▁interferometer	15
▁interconnected	15
▁scientifically	15
▁superintendent	15
▁Implementation	15
▁simplification	15
▁Pharmaceutical	15
▁characterizing	15
▁Administrative	15
▁archaeological	15
<issue_closed>	14
<jupyter_text>	14
<jupyter_code>	14
<empty_output>	14
<commit_after>	14
▁corresponding	14
▁international	14
▁understanding	14
▁International	14
▁communication	14
▁significantly	14
▁opportunities	14
▁configuration	14
▁organizations	14
▁approximately	14
▁relationships	14
▁investigation	14
▁environmental	14
▁contributions	14
▁approximation	14
▁professionals	14
▁distributions	14
▁circumstances	14
▁entertainment	14
▁comprehensive	14
▁Unfortunately	14
▁consideration	14
▁manufacturing	14
▁functionality	14
▁collaboration	14
▁concentration	14
▁computational	14
▁possibilities	14
▁conversations	14
▁manufacturers	14
▁determination	14
▁characterized	14
▁participating	14
▁effectiveness	14
▁gravitational	14
▁independently	14
▁unfortunately	14
▁uncertainties	14
▁Massachusetts	14
▁sophisticated	14
▁controversial	14
▁extraordinary	14
▁decomposition	14
▁psychological	14
▁establishment	14
▁uncomfortable	14
▁substantially	14
▁consciousness	14
▁probabilities	14
▁investigating	14
nUnfortunately	14
▁accommodation	14
▁normalization	14
▁organisations	14
▁Environmental	14
▁certification	14
▁Entertainment	14
▁technological	14
▁modifications	14
▁perturbations	14
▁inappropriate	14
▁demonstration	14
▁contradiction	14
longrightarrow	14
▁neighborhoods	14
▁collaborative	14
▁presentations	14
▁institutional	14
▁specification	14
▁unprecedented	14
nAdvertisement	14
▁notifications	14
▁convolutional	14
▁traditionally	14
▁investigators	14
▁appropriately	14
▁architectures	14
▁distinguished	14
▁compatibility	14
▁disappointing	14
▁administrator	14
▁perpendicular	14
▁exponentially	14
▁semiconductor	14
▁revolutionary	14
▁observational	14
▁knowledgeable	14
▁complications	14
▁reconstructed	14
▁conservatives	14
▁magnetization	14
▁neighbourhood	14
▁statistically	14
▁practitioners	14
▁undergraduate	14
▁contamination	14
▁architectural	14
▁complementary	14
▁demonstrating	14
▁vulnerability	14
▁incorporating	14
▁photographers	14
▁intentionally	14
▁communicating	14
▁encouragement	14
▁visualization	14
representation	14
▁interpolation	14
▁Communication	14
▁congressional	14
▁personalities	14
▁thermodynamic	14
▁theoretically	14
▁fundamentally	14
▁philosophical	14
▁Congressional	14
▁complimentary	14
▁illustrations	14
▁Mediterranean	14
▁Alternatively	14
▁interventions	14
▁justification	14
▁advertisement	14
communications	14
▁Championships	14
▁accessibility	14
▁exceptionally	14
▁Interestingly	14
▁Configuration	14
▁grandchildren	14
▁predominantly	14
▁strengthening	14
ncorresponding	14
▁announcements	14
▁authorization	14
▁installations	14
▁informational	14
▁differentiate	14
▁probabilistic	14
▁dimensionless	14
▁spectroscopic	14
▁reinforcement	14
▁singularities	14
▁championships	14
▁Understanding	14
▁qualitatively	14
▁fragmentation	14
▁qualification	14
▁homosexuality	14
▁instantaneous	14
▁inspirational	14
▁parliamentary	14
▁Administrator	14
▁experimenting	14
▁developmental	14
▁transcription	14
▁factorization	14
▁heterogeneous	14
▁unforgettable	14
▁correspondent	14
▁confrontation	14
nInternational	14
▁compassionate	14
▁supplementary	14
▁consolidation	14
classification	14
▁assassination	14
overrightarrow	14
▁disappearance	14
▁jurisdictions	14
▁customization	14
▁profitability	14
▁clarification	14
▁inconvenience	14
▁combinatorial	14
▁proliferation	14
nInterestingly	14
▁embarrassment	14
▁superposition	14
▁physiological	14
▁progressively	14
▁disadvantages	14
▁investigative	14
▁breastfeeding	14
▁Investigation	14
▁comprehension	14
▁Manufacturing	14
▁manifestation	14
▁ferromagnetic	14
▁acknowledging	14
▁amplification	14
▁instructional	14
▁precipitation	14
▁stabilization	14
▁righteousness	14
Authentication	14
▁subscriptions	14
▁irresponsible	14
▁extrapolation	14
▁constructions	14
▁insignificant	14
▁Conservatives	14
▁supersymmetry	14
▁strategically	14
▁restructuring	14
▁intersections	14
▁prescriptions	14
▁misunderstood	14
▁commissioners	14
▁underestimate	14
▁astrophysical	14
▁recombination	14
▁parameterized	14
▁spontaneously	14
▁methodologies	14
▁comparatively	14
▁electrostatic	14
▁accommodating	14
▁alternatively	14
nAlternatively	14
▁concentrating	14
▁applicability	14
▁beneficiaries	14
▁Certification	14
▁inhomogeneous	14
▁contemplating	14
▁discrepancies	14
Implementation	14
▁inadvertently	14
▁Documentation	14
▁interceptions	14
▁contradictory	14
▁authoritative	14
▁unconditional	14
▁cybersecurity	14
▁Revolutionary	14
▁reimbursement	14
▁realistically	14
▁collaborating	14
▁transmissions	14
▁Collaboration	14
▁monotonically	14
▁deterioration	14
▁Professionals	14
▁documentaries	14
▁instabilities	14
▁headquartered	14
▁magnification	14
▁inexperienced	14
▁multinational	14
<|endoftext|>	13
<issue_start>	13
▁relationship	13
▁distribution	13
▁professional	13
stackexchange	13
▁respectively	13
▁applications	13
▁particularly	13
▁organization	13
▁construction	13
▁requirements	13
▁observations	13
▁conversation	13
▁contribution	13
▁specifically	13
▁experimental	13
▁measurements	13
▁neighborhood	13
▁interactions	13
▁architecture	13
▁successfully	13
▁instructions	13
▁technologies	13
▁calculations	13
▁installation	13
▁temperatures	13
▁intelligence	13
▁transmission	13
▁expectations	13
▁optimization	13
▁presentation	13
▁increasingly	13
▁institutions	13
▁consequences	13
▁conventional	13
▁conservative	13
▁introduction	13
▁improvements	13
▁demonstrated	13
▁registration	13
subsubsection	13
▁representing	13
▁differential	13
▁capabilities	13
▁environments	13
▁contemporary	13
▁consistently	13
▁availability	13
▁Additionally	13
▁Championship	13
▁championship	13
▁performances	13
▁presidential	13
▁announcement	13
▁investigated	13
▁manufacturer	13
▁restrictions	13
▁fluctuations	13
▁sufficiently	13
▁intermediate	13
▁compensation	13
▁transactions	13
▁polarization	13
▁occasionally	13
▁disappointed	13
▁Constitution	13
▁conservation	13
▁significance	13
▁overwhelming	13
▁considerable	13
▁Pennsylvania	13
▁subscription	13
▁correlations	13
▁Philadelphia	13
Configuration	13
▁experiencing	13
▁satisfaction	13
▁implications	13
▁independence	13
▁proportional	13
▁accomplished	13
▁perturbation	13
▁intervention	13
▁developments	13
▁intersection	13
▁universities	13
▁combinations	13
▁interference	13
▁difficulties	13
▁prescription	13
▁productivity	13
▁entertaining	13
▁segmentation	13
▁alternatives	13
▁corporations	13
▁contributing	13
▁demonstrates	13
▁unemployment	13
▁photographer	13
▁implementing	13
▁surprisingly	13
▁dramatically	13
▁acceleration	13
▁subsequently	13
▁continuously	13
▁incorporated	13
▁mathematical	13
▁entrepreneur	13
▁considerably	13
▁confirmation	13
▁Professional	13
▁modification	13
▁publications	13
▁negotiations	13
▁arrangements	13
▁Nevertheless	13
▁cosmological	13
▁Christianity	13
▁Specifically	13
▁descriptions	13
▁individually	13
▁dependencies	13
▁connectivity	13
▁notification	13
▁acknowledged	13
▁participated	13
▁entanglement	13
▁agricultural	13
▁conditioning	13
▁headquarters	13
▁constitution	13
▁establishing	13
▁manufactured	13
▁Organization	13
▁superconduct	13
▁verification	13
▁appreciation	13
▁Thanksgiving	13
▁jurisdiction	13
▁quantitative	13
▁transparency	13
▁Intelligence	13
▁personalized	13
configuration	13
▁illustration	13
▁Commissioner	13
▁evolutionary	13
▁oscillations	13
▁Consequently	13
▁localization	13
▁counterparts	13
▁confidential	13
▁concentrated	13
▁additionally	13
▁accidentally	13
▁achievements	13
▁explanations	13
▁relativistic	13
▁perspectives	13
▁associations	13
▁manipulation	13
▁destinations	13
▁cancellation	13
▁surroundings	13
▁displacement	13
▁disabilities	13
▁stakeholders	13
▁nevertheless	13
▁Construction	13
▁historically	13
▁deliberately	13
▁contributors	13
▁coordination	13
▁similarities	13
▁Introduction	13
▁Technologies	13
▁characterize	13
▁accompanying	13
▁consequently	13
▁acknowledges	13
▁civilization	13
▁partnerships	13
▁constructing	13
▁highlighting	13
nAdditionally	13
▁inflammation	13
▁inconsistent	13
▁conductivity	13
▁recreational	13
▁shareholders	13
▁certificates	13
▁appointments	13
▁breakthrough	13
▁hierarchical	13
▁inequalities	13
▁completeness	13
▁simultaneous	13
▁spokesperson	13
▁conveniently	13
▁Applications	13
▁Conservative	13
▁preservation	13
▁reproduction	13
▁refrigerator	13
▁questionable	13
▁administered	13
▁approximated	13
▁competitions	13
▁Registration	13
▁constructive	13
▁Architecture	13
▁embarrassing	13
▁storytelling	13
▁continuation	13
▁transforming	13
▁computations	13
▁Commonwealth	13
▁collectively	13
nrespectively	13
▁reservations	13
▁periodically	13
▁augmentation	13
▁annihilation	13
▁accumulation	13
▁perturbative	13
▁anticipation	13
▁commissioned	13
▁incorporates	13
▁substitution	13
▁disadvantage	13
▁Independence	13
▁translations	13
▁unacceptable	13
▁satisfactory	13
▁quantization	13
▁transferring	13
▁economically	13
▁unsupervised	13
ndistribution	13
▁compositions	13
▁Metropolitan	13
▁standardized	13
▁disconnected	13
▁commissioner	13
▁spectroscopy	13
▁multiplicity	13
▁celebrations	13
▁Conservation	13
▁unbelievable	13
▁supernatural	13
▁constituents	13
▁Distribution	13
▁congregation	13
▁preparations	13
▁reproductive	13
nNevertheless	13
EventListener	13
▁geographical	13
▁analytically	13
▁Presidential	13
communication	13
▁breathtaking	13
▁practitioner	13
▁illumination	13
▁contaminated	13
▁dissertation	13
▁unsuccessful	13
▁commercially	13
▁equivalently	13
▁broadcasting	13
▁disagreement	13
▁Installation	13
▁Requirements	13
▁firefighters	13
▁circumstance	13
▁scholarships	13
nIntroduction	13
▁aggressively	13
▁authenticity	13
▁unreasonable	13
▁investigator	13
▁unexpectedly	13
▁ridiculously	13
▁metropolitan	13
▁minimization	13
nSpecifically	13
▁psychologist	13
▁photographed	13
▁catastrophic	13
▁Participants	13
▁governmental	13
▁incompatible	13
▁enhancements	13
▁hypothetical	13
▁specializing	13
▁distributing	13
▁interstellar	13
▁photographic	13
▁imprisonment	13
▁volunteering	13
▁Jacksonville	13
▁efficiencies	13
▁communicated	13
▁neighbouring	13
▁accelerating	13
▁kindergarten	13
▁recommending	13
▁advantageous	13
▁condensation	13
▁transmitting	13
▁expenditures	13
▁strengthened	13
▁interviewing	13
▁homomorphism	13
▁indefinitely	13
▁intimidating	13
▁repositories	13
▁acquisitions	13
▁permutations	13
▁partitioning	13
▁resurrection	13
International	13
▁irrespective	13
nConsequently	13
▁chemotherapy	13
▁Optimization	13
▁hydrodynamic	13
▁realizations	13
▁substituting	13
▁shortcomings	13
▁illustrating	13
▁supplemental	13
▁tremendously	13
▁synchronized	13
▁Contemporary	13
▁facilitating	13
▁fluorescence	13
▁distributors	13
▁demographics	13
▁eccentricity	13
▁replacements	13
▁spirituality	13
▁Universities	13
▁commentators	13
▁coordinating	13
▁eigenvectors	13
▁distractions	13
▁strawberries	13
▁complexities	13
▁discontinued	13
▁disappearing	13
▁orientations	13
▁luminosities	13
▁laboratories	13
▁automorphism	13
▁artificially	13
▁effortlessly	13
▁horizontally	13
▁manipulating	13
▁transporting	13
▁prostitution	13
▁multivariate	13
▁compromising	13
▁unparalleled	13
▁regeneration	13
▁Agricultural	13
▁Neighborhood	13
▁consolidated	13
▁Experimental	13
▁sequentially	13
▁disciplinary	13
textsubscript	13
▁Particularly	13
▁Northwestern	13
▁examinations	13
nProfessional	13
Unfortunately	13
▁transitional	13
▁formulations	13
▁deficiencies	13
▁Notification	13
▁psychiatrist	13
▁astronomical	13
▁neurological	13
▁electrically	13
▁undocumented	13
ustainability	13
▁distillation	13
▁deformations	13
▁redistribute	13
▁interception	13
▁hypertension	13
▁intermittent	13
▁Relationship	13
corresponding	13
▁renormalized	13
▁homelessness	13
▁wavefunction	13
▁quarterbacks	13
▁downloadable	13
▁advancements	13
▁nonlinearity	13
▁predecessors	13
▁philosophers	13
▁supermarkets	13
▁illustrative	13
▁legalization	13
▁fermentation	13
▁collaborated	13
<fim_middle>	12
▁information	12
▁performance	12
▁significant	12
▁development	12
▁environment	12
▁temperature	12
▁interesting	12
▁application	12
▁opportunity	12
▁independent	12
▁immediately	12
▁individuals	12
▁probability	12
▁traditional	12
▁responsible	12
▁interaction	12
▁description	12
▁combination	12
▁established	12
▁comfortable	12
▁considering	12
▁alternative	12
▁experienced	12
▁experiments	12
▁competition	12
▁experiences	12
▁communities	12
▁Association	12
▁differences	12
▁perspective	12
▁manufacture	12
▁possibility	12
▁distributed	12
▁correlation	12
▁Information	12
▁effectively	12
▁simulations	12
▁advertising	12
▁improvement	12
▁measurement	12
▁recommended	12
▁represented	12
▁Development	12
▁researchers	12
▁implemented	12
▁corresponds	12
▁challenging	12
▁essentially	12
▁competitive	12
▁potentially	12
▁constraints	12
▁integration	12
▁surrounding	12
Introduction	12
▁maintenance	12
▁programming	12
▁observation	12
▁engineering	12
▁uncertainty	12
▁authorities	12
▁complicated	12
▁demonstrate	12
▁participate	12
▁investigate	12
▁educational	12
▁theoretical	12
▁suggestions	12
▁replacement	12
▁calculation	12
▁discussions	12
▁connections	12
▁legislation	12
▁recognition	12
▁Hamiltonian	12
▁explanation	12
▁partnership	12
▁Furthermore	12
▁Republicans	12
operatorname	12
▁consumption	12
▁restaurants	12
▁constructed	12
▁destination	12
▁requirement	12
▁predictions	12
▁statistical	12
▁regulations	12
▁inspiration	12
▁personality	12
▁computation	12
▁composition	12
▁transaction	12
▁publication	12
▁translation	12
▁association	12
▁substantial	12
▁electricity	12
▁outstanding	12
▁communicate	12
▁governments	12
▁sensitivity	12
▁convergence	12
▁consequence	12
▁limitations	12
▁preparation	12
displaystyle	12
▁orientation	12
▁equilibrium	12
▁maintaining	12
▁Environment	12
▁acknowledge	12
▁importantly	12
▁assumptions	12
▁frequencies	12
▁politicians	12
▁differently	12
▁appreciated	12
▁immigration	12
▁instruction	12
▁expressions	12
▁photography	12
▁appointment	12
▁sustainable	12
▁Description	12
▁anniversary	12
▁transitions	12
▁populations	12
▁Afghanistan	12
▁corrections	12
▁Corporation	12
▁illustrated	12
▁residential	12
▁generations	12
nDescription	12
▁flexibility	12
▁dimensional	12
▁interactive	12
▁expectation	12
▁institution	12
▁efficiently	12
▁generalized	12
▁approximate	12
▁certificate	12
▁exploration	12
▁consistency	12
▁counterpart	12
▁convolution	12
▁intelligent	12
▁destruction	12
▁celebration	12
▁determining	12
▁contributed	12
▁consecutive	12
▁instruments	12
▁exceptional	12
▁Engineering	12
▁conclusions	12
▁Proposition	12
▁acquisition	12
▁photographs	12
▁investments	12
▁encouraging	12
▁transferred	12
▁identifying	12
▁introducing	12
▁exclusively	12
▁involvement	12
▁distinguish	12
▁fascinating	12
▁quarterback	12
▁definitions	12
▁reconstruct	12
▁topological	12
▁cooperation	12
nfortunately	12
▁arrangement	12
▁transparent	12
▁accessories	12
▁Application	12
▁transformed	12
▁incorporate	12
▁documentary	12
▁exponential	12
▁preferences	12
▁examination	12
▁spectacular	12
▁progressive	12
▁compression	12
▁controlling	12
▁imagination	12
▁operational	12
▁accompanied	12
▁collections	12
assertEquals	12
▁formulation	12
▁competitors	12
▁interpreted	12
▁encountered	12
▁accommodate	12
▁practically	12
▁reliability	12
▁propagation	12
▁achievement	12
▁initiatives	12
▁journalists	12
▁permissions	12
▁derivatives	12
▁departments	12
▁underground	12
▁Performance	12
▁allegations	12
▁restriction	12
▁anticipated	12
▁approaching	12
nFurthermore	12
▁accordingly	12
▁specialized	12
▁homogeneous	12
▁interacting	12
▁distinction	12
▁electronics	12
▁beautifully	12
▁preliminary	12
▁conditional	12
footnotesize	12
▁enhancement	12
▁transmitted	12
▁frustrating	12
▁appearances	12
▁backgrounds	12
▁celebrating	12
▁frustration	12
▁medications	12
▁Mississippi	12
▁methodology	12
▁threatening	12
▁lightweight	12
▁instability	12
▁informative	12
▁thermodynam	12
▁calibration	12
▁technically	12
▁marketplace	12
▁polynomials	12
▁controversy	12
▁constrained	12
▁legislative	12
bibliography	12
▁understands	12
▁agriculture	12
▁concentrate	12
▁conjunction	12
▁participant	12
▁realization	12
▁scholarship	12
▁illustrates	12
▁Philippines	12
▁Connecticut	12
▁disappeared	12
▁functioning	12
▁assignments	12
▁subscribers	12
▁continually	12
▁emotionally	12
▁adversarial	12
▁corporation	12
▁Independent	12
▁comparisons	12
plementation	12
▁variability	12
▁Netherlands	12
▁proposition	12
▁unfortunate	12
▁interviewed	12
▁supplements	12
▁influential	12
▁extensively	12
▁Christopher	12
▁complaining	12
▁politically	12
▁grandmother	12
▁permanently	12
▁numerically	12
▁temporarily	12
▁neighboring	12
▁credentials	12
▁calculating	12
▁distinctive	12
▁restoration	12
▁equivalence	12
▁obligations	12
▁contributes	12
▁contractors	12
▁supervision	12
▁prospective	12
▁speculation	12
▁atmospheric	12
▁projections	12
▁downloading	12
▁financially	12
▁specialists	12
▁progression	12
▁integrating	12
▁grandfather	12
▁Switzerland	12
▁devastating	12
▁conferences	12
▁promotional	12
▁resolutions	12
▁accountable	12
subequations	12
▁attractions	12
▁deformation	12
▁qualitative	12
▁submissions	12
▁questioning	12
▁mathematics	12
▁credibility	12
▁desperately	12
▁coordinator	12
▁singularity	12
▁Fortunately	12
▁irreducible	12
▁isomorphism	12
▁respondents	12
▁declaration	12
▁eliminating	12
▁metallicity	12
▁circulation	12
▁reservation	12
▁dysfunction	12
▁nonetheless	12
▁proprietary	12
▁prosecution	12
▁recruitment	12
▁inexpensive	12
▁hospitality	12
▁undoubtedly	12
▁discovering	12
▁magnificent	12
▁demographic	12
▁researching	12
▁spontaneous	12
▁willingness	12
▁observables	12
▁positioning	12
▁celebrities	12
▁merchandise	12
▁prestigious	12
▁coincidence	12
▁constitutes	12
▁citizenship	12
▁contributor	12
▁enterprises	12
▁accelerated	12
▁drastically	12
▁fundraising	12
▁oscillation	12
▁permutation	12
▁variational	12
▁destructive	12
▁Considering	12
▁transported	12
▁cholesterol	12
▁logarithmic	12
▁assessments	12
▁innovations	12
▁Shakespeare	12
▁cooperative	12
▁Agriculture	12
▁comfortably	12
▁outperforms	12
▁accumulated	12
▁forthcoming	12
▁nutritional	12
▁degradation	12
▁compilation	12
▁discrepancy	12
construction	12
▁foundations	12
▁legislature	12
▁dynamically	12
▁commitments	12
▁PlayStation	12
▁controllers	12
▁prosecutors	12
▁wavelengths	12
ninformation	12
▁photometric	12
▁elimination	12
▁conventions	12
renewcommand	12
distribution	12
▁recognizing	12
▁disciplines	12
▁susceptible	12
▁trafficking	12
▁unavailable	12
▁multiplayer	12
▁excitations	12
▁territories	12
▁TripAdvisor	12
▁termination	12
▁remembering	12
▁advertisers	12
▁directories	12
▁tournaments	12
▁compromised	12
▁fluctuation	12
▁penetration	12
Notification	12
▁inhabitants	12
▁placeholder	12
▁respiratory	12
▁accusations	12
▁overlapping	12
ntemperature	12
▁aggregation	12
▁specializes	12
▁eligibility	12
▁Certificate	12
▁dissipation	12
▁unconscious	12
▁evaluations	12
▁annotations	12
▁countryside	12
▁transformer	12
▁embarrassed	12
▁supermarket	12
▁spokeswoman	12
▁forgiveness	12
▁antibiotics	12
▁consultants	12
▁utilization	12
▁alternating	12
▁terminology	12
▁Legislature	12
▁discoveries	12
▁initialized	12
▁predecessor	12
▁collaborate	12
▁coordinated	12
▁Observatory	12
▁Photography	12
▁protections	12
▁interchange	12
▁persistence	12
▁conditioned	12
▁legislators	12
▁rectangular	12
▁interrupted	12
▁Competition	12
▁reflections	12
▁intentional	12
▁wonderfully	12
▁impressions	12
▁Accordingly	12
▁advancement	12
▁stimulation	12
▁attachments	12
▁Minneapolis	12
▁proportions	12
▁protagonist	12
▁conductance	12
▁overlooking	12
▁technicians	12
▁commercials	12
▁compartment	12
▁negotiating	12
▁transgender	12
▁meaningless	12
▁contraction	12
▁resignation	12
▁sponsorship	12
▁incorrectly	12
▁distraction	12
▁productions	12
▁Nonetheless	12
▁denominator	12
▁businessman	12
nInformation	12
▁ideological	12
▁perceptions	12
Experimental	12
▁astonishing	12
▁registering	12
▁compensated	12
▁fingerprint	12
▁undertaking	12
▁decorations	12
▁pornography	12
▁implication	12
▁programmers	12
organization	12
▁Partnership	12
▁expenditure	12
▁frightening	12
▁Enforcement	12
▁correctness	12
disciplinary	12
▁diffraction	12
▁ineffective	12
nConsidering	12
▁Electronics	12
▁battlefield	12
▁cylindrical	12
▁commutative	12
introduction	12
▁sympathetic	12
▁classifiers	12
▁commissions	12
▁descriptive	12
▁transmitter	12
relativistic	12
▁friendships	12
▁Interactive	12
▁eigenstates	12
notification	12
▁negotiation	12
▁settlements	12
▁stereotypes	12
▁designation	12
▁restrictive	12
▁trustworthy	12
▁Programming	12
▁Immigration	12
▁possessions	12
▁centralized	12
▁inheritance	12
▁comparative	12
▁nominations	12
▁Transformer	12
▁Traditional	12
perturbative	12
▁Declaration	12
▁manipulated	12
▁Anniversary	12
▁establishes	12
▁conflicting	12
▁stimulating	12
▁contracting	12
▁Kickstarter	12
▁genetically	12
▁screenshots	12
▁masterpiece	12
▁commodities	12
▁unrealistic	12
▁conversions	12
▁restricting	12
▁intensities	12
▁feasibility	12
▁entertained	12
▁Westminster	12
▁aspirations	12
▁embodiments	12
withstanding	12
▁originating	12
▁Renaissance	12
▁substituted	12
▁Springfield	12
professional	12
▁distributor	12
▁indications	12
▁fabrication	12
▁unsubscribe	12
▁forecasting	12
▁Mathematics	12
▁convictions	12
▁geometrical	12
▁Educational	12
▁fashionable	12
▁psychiatric	12
nPerformance	12
▁exhibitions	12
▁adventurous	12
▁continental	12
▁newsletters	12
▁versatility	12
▁replication	12
DoxyCodeLine	12
▁Alternative	12
▁pedestrians	12
▁Advertising	12
▁propagating	12
▁affiliation	12
▁subtraction	12
▁philosopher	12
▁disturbance	12
▁Brotherhood	12
▁universally	12
▁ventilation	12
▁spreadsheet	12
ndescription	12
▁nonnegative	12
▁Preferences	12
▁superiority	12
▁constituent	12
▁holomorphic	12
▁Translation	12
▁Maintenance	12
▁discouraged	12
▁voluntarily	12
▁furthermore	12
▁Coordinator	12
▁Temperature	12
▁procurement	12
▁Integration	12
▁empirically	12
architecture	12
▁encompasses	12
▁vaccination	12
▁circulating	12
dependencies	12
▁coronavirus	12
▁persecution	12
▁tablespoons	12
Registration	12
▁motivations	12
▁theological	12
▁Communities	12
▁Researchers	12
▁abstraction	12
▁Underground	12
▁Productions	12
▁insensitive	12
▁Progressive	12
▁shareholder	12
▁attenuation	12
▁prohibition	12
▁libertarian	12
▁directional	12
▁synthesized	12
▁consciously	12
▁Opportunity	12
▁adolescents	12
▁motherboard	12
▁Scholarship	12
▁inspections	12
▁territorial	12
▁cardinality	12
▁Continental	12
▁outsourcing	12
▁holographic	12
▁Sustainable	12
▁percentages	12
▁entitlement	12
nFortunately	12
▁scalability	12
▁billionaire	12
▁Interesting	12
▁multiplying	12
▁undesirable	12
relationship	12
▁influencing	12
▁Confederate	12
▁documenting	12
▁campaigning	12
▁obstruction	12
▁Australians	12
▁electroweak	12
▁Congressman	12
▁landscaping	12
▁precautions	12
ographically	12
▁facilitated	12
▁exaggerated	12
▁ultraviolet	12
▁occurrences	12
▁accelerator	12
▁unsupported	12
▁INFORMATION	12
▁sensational	12
▁translating	12
▁festivities	12
▁householder	12
▁Essentially	12
▁emergencies	12
▁revelations	12
▁illuminated	12
▁contradicts	12
▁alterations	12
▁contestants	12
▁resistivity	12
▁sacrificing	12
▁selectively	12
particularly	12
▁unanimously	12
▁identically	12
▁bestselling	12
Distribution	12
Availability	12
▁familiarity	12
▁provocative	12
▁foreclosure	12
▁furnishings	12
▁distortions	12
▁butterflies	12
▁desperation	12
▁speculative	12
▁contrasting	12
▁renovations	12
Applications	12
▁imaginative	12
▁volunteered	12
▁Improvement	12
nInteresting	12
OutputStream	12
▁referencing	12
▁concessions	12
▁disciplined	12
▁liabilities	12
▁confidently	12
▁Collections	12
▁invitations	12
▁fascination	12
▁Regulations	12
▁Transaction	12
▁supervisors	12
ninteraction	12
▁professions	12
nResearchers	12
registration	12
▁bureaucracy	12
▁diagnostics	12
▁existential	12
reliminaries	12
EventHandler	12
▁cultivation	12
▁distracting	12
▁progressing	12
▁brilliantly	12
▁Recognition	12
▁motorcycles	12
▁spiritually	12
▁constituted	12
▁Institution	12
▁decoherence	12
▁retaliation	12
▁Statistical	12
JsonProperty	12
▁substantive	12
▁blockbuster	12
▁transcripts	12
▁intolerance	12
▁fluorescent	12
▁seriousness	12
nprobability	12
▁incompetent	12
▁manuscripts	12
▁Individuals	12
nRecommended	12
▁broadcaster	12
▁crystalline	12
▁heavyweight	12
▁girlfriends	12
▁streamlined	12
respectively	12
▁diminishing	12
▁interfering	12
▁earthquakes	12
▁prominently	12
▁Corinthians	12
▁Marketplace	12
▁consultancy	12
▁emphasizing	12
▁affirmative	12
▁criticizing	12
▁contentious	12
▁Celebration	12
▁surrendered	12
▁periodicity	12
▁enlightened	12
▁empowerment	12
▁Southampton	12
nApplication	12
▁commentator	12
▁commemorate	12
▁evangelical	12
▁activations	12
▁understand	11
▁experience	11
▁particular	11
▁government	11
▁individual	11
▁everything	11
▁University	11
▁correspond	11
▁especially	11
▁conditions	11
▁considered	11
▁difference	11
▁technology	11
▁additional	11
▁themselves	11
▁completely	11
▁production	11
▁experiment	11
▁associated	11
▁management	11
▁background	11
▁throughout	11
▁properties	11
▁increasing	11
▁interested	11
▁definitely	11
▁collection	11
▁characters	11
▁activities	11
▁Department	11
▁successful	11
▁connection	11
▁components	11
▁Washington	11
▁California	11
▁transition	11
▁discussion	11
▁determined	11
▁generation	11
▁introduced	11
▁previously	11
▁commercial	11
▁investment	11
▁definition	11
▁businesses	11
▁expression	11
▁eventually	11
▁comparison	11
▁resolution	11
▁absolutely	11
▁operations	11
▁techniques	11
▁consistent	11
▁relatively	11
▁conference	11
▁represents	11
multicolumn	11
▁protection	11
▁equivalent	11
▁processing	11
dimensional	11
▁calculated	11
▁developing	11
▁identified	11
▁confidence	11
▁importance	11
▁Commission	11
▁discovered	11
▁approaches	11
▁department	11
▁structures	11
▁Foundation	11
▁efficiency	11
▁impossible	11
▁Government	11
▁reasonable	11
▁leadership	11
▁restaurant	11
▁appearance	11
▁Republican	11
▁candidates	11
▁television	11
▁continuous	11
▁appreciate	11
▁electronic	11
▁containing	11
▁simulation	11
▁disappoint	11
▁scientific	11
rastructure	11
▁facilities	11
▁Management	11
▁literature	11
▁functional	11
▁university	11
▁situations	11
▁supporting	11
▁apparently	11
▁personally	11
▁registered	11
▁prediction	11
▁dependence	11
▁constantly	11
▁comprehens	11
▁originally	11
▁frequently	11
▁historical	11
▁assistance	11
▁polynomial	11
▁commission	11
▁evaluation	11
▁surprising	11
▁algorithms	11
▁integrated	11
▁statistics	11
▁percentage	11
▁contribute	11
▁understood	11
▁developers	11
▁statements	11
▁assumption	11
▁conclusion	11
▁ultimately	11
▁incredible	11
description	11
▁categories	11
▁controlled	11
▁performing	11
▁everywhere	11
▁commitment	11
▁scattering	11
▁resistance	11
▁atmosphere	11
▁industrial	11
▁instrument	11
▁Australian	11
▁permission	11
▁complexity	11
▁impressive	11
▁photograph	11
▁recognized	11
▁underlying	11
▁Technology	11
▁scientists	11
▁directions	11
▁incredibly	11
▁continuing	11
▁accessible	11
▁procedures	11
▁Democratic	11
▁Conference	11
▁principles	11
▁employment	11
▁controvers	11
▁attractive	11
▁applicable	11
▁respective	11
▁opposition	11
▁foundation	11
▁affordable	11
▁revolution	11
▁monitoring	11
▁references	11
▁inequality	11
▁assessment	11
▁healthcare	11
▁innovative	11
▁tournament	11
▁controller	11
▁reputation	11
▁subsequent	11
▁supplement	11
▁derivative	11
▁difficulty	11
▁basketball	11
▁guidelines	11
▁membership	11
▁innovation	11
▁compatible	11
▁constraint	11
▁variations	11
▁separation	11
▁correction	11
▁conversion	11
▁concerning	11
▁coordinate	11
▁girlfriend	11
▁explicitly	11
▁physically	11
▁generating	11
columnwidth	11
▁entreprene	11
▁electrical	11
▁unexpected	11
▁struggling	11
▁satisfying	11
▁quantities	11
▁accomplish	11
▁colleagues	11
▁depression	11
▁Christians	11
▁compliance	11
▁philosophy	11
▁projection	11
▁navigation	11
▁complement	11
▁boundaries	11
▁guaranteed	11
▁officially	11
▁maintained	11
▁retirement	11
▁encouraged	11
▁collective	11
▁mechanical	11
▁reflection	11
▁engagement	11
▁comparable	11
▁attributes	11
▁meaningful	11
▁interviews	11
▁advantages	11
▁impression	11
▁connecting	11
resentation	11
▁wavelength	11
▁restricted	11
▁hypothesis	11
▁supporters	11
▁completion	11
▁enterprise	11
▁phenomenon	11
▁acceptable	11
▁mechanisms	11
▁absorption	11
▁highlights	11
▁likelihood	11
▁aggressive	11
▁initiative	11
▁industries	11
▁validation	11
▁describing	11
▁purchasing	11
▁remarkable	11
▁assignment	11
▁Everything	11
▁structural	11
▁indicating	11
Description	11
▁horizontal	11
▁separately	11
▁accordance	11
▁suggesting	11
▁attempting	11
▁luminosity	11
▁motivation	11
pecifically	11
▁treatments	11
▁beneficial	11
▁regulation	11
▁capability	11
▁convention	11
▁artificial	11
▁volunteers	11
▁regression	11
▁mainstream	11
▁vegetables	11
▁discussing	11
▁installing	11
▁surrounded	11
▁normalized	11
▁publishing	11
▁households	11
▁smartphone	11
▁classified	11
▁possession	11
▁proportion	11
▁repeatedly	11
▁similarity	11
▁simplicity	11
▁consisting	11
▁systematic	11
▁JavaScript	11
▁activation	11
▁popularity	11
▁accurately	11
▁passionate	11
▁accounting	11
▁medication	11
▁Collection	11
▁protecting	11
▁complaints	11
▁biological	11
▁suggestion	11
▁acceptance	11
nOriginally	11
▁networking	11
▁dispersion	11
▁corruption	11
Application	11
▁regulatory	11
▁delivering	11
▁creativity	11
▁productive	11
▁exhibition	11
▁objectives	11
▁explaining	11
▁thoroughly	11
▁settlement	11
▁specialist	11
▁perception	11
▁downloaded	11
▁Parliament	11
▁relaxation	11
▁elementary	11
▁collecting	11
▁preference	11
▁influenced	11
▁Protection	11
▁threatened	11
▁passengers	11
▁decreasing	11
▁analytical	11
▁celebrated	11
proposition	11
▁repository	11
▁extensions	11
▁immigrants	11
▁tremendous	11
▁illustrate	11
application	11
▁remembered	11
▁parliament	11
▁determines	11
▁reasonably	11
▁substitute	11
▁Revolution	11
▁submission	11
▁provisions	11
▁friendship	11
▁outperform	11
▁compelling	11
▁compassion	11
▁inspection	11
▁journalist	11
▁approached	11
▁adaptation	11
▁discipline	11
▁configured	11
▁laboratory	11
▁collisions	11
▁suspension	11
▁designated	11
▁extraction	11
▁structured	11
▁occasional	11
▁correlated	11
▁widespread	11
▁newsletter	11
▁addressing	11
▁Especially	11
▁preventing	11
▁indication	11
▁stationary	11
▁punishment	11
▁Experience	11
▁implements	11
▁curriculum	11
▁compromise	11
▁mysterious	11
▁deployment	11
▁completing	11
▁excitation	11
▁commentary	11
▁clustering	11
▁attributed	11
▁afterwards	11
▁frustrated	11
▁attraction	11
▁presenting	11
▁dependency	11
▁classifier	11
▁authorized	11
▁disability	11
▁adventures	11
▁strengthen	11
▁Convention	11
▁manuscript	11
▁inevitable	11
▁brightness	11
▁prevention	11
▁translated	11
▁newspapers	11
▁iterations	11
▁travelling	11
▁underneath	11
▁agreements	11
▁challenged	11
▁democratic	11
▁Pittsburgh	11
▁introduces	11
▁amplitudes	11
▁violations	11
▁conspiracy	11
▁guarantees	11
▁occupation	11
▁comprising	11
▁attendance	11
▁exceptions	11
▁traditions	11
▁embeddings	11
▁meditation	11
▁terrorists	11
▁generators	11
▁dictionary	11
▁consultant	11
▁velocities	11
▁influences	11
▁executives	11
▁priorities	11
▁limitation	11
▁documented	11
▁altogether	11
▁Enterprise	11
▁disclosure	11
▁embodiment	11
▁visibility	11
▁consulting	11
performance	11
▁conducting	11
▁supportive	11
▁eliminated	11
▁obligation	11
▁irrelevant	11
▁protective	11
▁infections	11
▁responding	11
▁containers	11
▁psychology	11
▁constitute	11
▁evaluating	11
▁Lagrangian	11
▁potentials	11
▁invitation	11
▁nationwide	11
▁submitting	11
▁persistent	11
▁signatures	11
▁interfaces	11
▁journalism	11
▁Apparently	11
▁practicing	11
▁distribute	11
▁politician	11
▁prescribed	11
▁simplified	11
▁attachment	11
▁allocation	11
▁questioned	11
▁supposedly	11
▁profitable	11
▁prohibited	11
▁affiliated	11
▁discretion	11
▁recordings	11
▁Federation	11
▁partitions	11
▁intentions	11
▁enthusiasm	11
▁extinction	11
▁blockchain	11
▁positioned	11
▁conviction	11
▁convincing	11
information	11
▁customized	11
▁applicants	11
▁contractor	11
Collections	11
▁pronounced	11
▁refreshing	11
▁excellence	11
▁occurrence	11
▁publishers	11
independent	11
▁recruiting	11
▁supervised	11
▁suppressed	11
▁suspicious	11
▁apartments	11
▁dedication	11
▁intriguing	11
▁graduation	11
▁responsive	11
▁nomination	11
▁transcript	11
▁automation	11
▁covariance	11
▁observable	11
▁organizing	11
▁summarized	11
▁expressing	11
▁divergence	11
▁Associated	11
▁governance	11
▁physicians	11
▁distortion	11
▁Additional	11
▁securities	11
▁propaganda	11
▁reflecting	11
▁scheduling	11
▁identities	11
▁presumably	11
hentication	11
▁rotational	11
▁noticeable	11
▁subjective	11
▁researcher	11
▁withdrawal	11
▁incentives	11
Transaction	11
▁motorcycle	11
▁Eventually	11
▁encounters	11
▁encryption	11
▁disturbing	11
▁positively	11
▁preserving	11
▁conjecture	11
▁incomplete	11
▁harassment	11
scriptstyle	11
▁thoughtful	11
temperature	11
▁continuity	11
Conclusions	11
▁destroying	11
▁perfection	11
▁vocabulary	11
▁formulated	11
▁inevitably	11
▁headphones	11
▁appliances	11
▁modulation	11
▁displaying	11
▁substances	11
▁predicting	11
▁fractional	11
▁commenting	11
▁diagnostic	11
▁Investment	11
▁protesters	11
▁compressed	11
▁soundtrack	11
▁automotive	11
▁worthwhile	11
▁preferably	11
▁Industrial	11
▁stretching	11
▁downstream	11
▁Laboratory	11
▁recovering	11
▁deviations	11
▁recommends	11
▁Operations	11
▁nationally	11
▁counseling	11
development	11
▁complained	11
▁behavioral	11
▁Generation	11
▁Leadership	11
▁predictive	11
▁mentioning	11
▁cumulative	11
▁autonomous	11
▁litigation	11
▁converting	11
▁minimizing	11
▁promotions	11
▁turbulence	11
▁Cincinnati	11
▁Controller	11
▁misleading	11
▁earthquake	11
▁WARRANTIES	11
▁qualifying	11
▁Properties	11
▁identifies	11
▁derivation	11
▁referendum	11
▁critically	11
▁Statistics	11
▁identifier	11
▁Individual	11
▁Elementary	11
▁processors	11
▁criticized	11
▁greenhouse	11
▁sequential	11
▁Commercial	11
▁companions	11
▁accelerate	11
nReferences	11
▁cigarettes	11
▁diplomatic	11
▁saturation	11
▁Definition	11
▁conceptual	11
usercontent	11
▁overlooked	11
▁subsection	11
▁discomfort	11
▁Associates	11
▁transforms	11
▁Conditions	11
nAdditional	11
▁translates	11
▁Scientific	11
▁infinitely	11
▁Innovation	11
assertEqual	11
ratulations	11
▁homeowners	11
▁selections	11
▁referenced	11
▁foreground	11
▁annotation	11
▁reproduced	11
▁trademarks	11
▁contacting	11
▁degenerate	11
▁ionization	11
▁Tournament	11
▁capitalism	11
▁respectful	11
▁Birmingham	11
▁homosexual	11
▁performers	11
▁generality	11
▁recognised	11
environment	11
▁Restaurant	11
▁isomorphic	11
▁microphone	11
▁projective	11
▁announcing	11
▁Connection	11
▁enrollment	11
▁competitor	11
▁remarkably	11
▁weaknesses	11
▁touchdowns	11
▁vegetarian	11
▁recipients	11
Environment	11
▁frameworks	11
▁professors	11
▁Initiative	11
▁pedestrian	11
▁anticipate	11
▁internally	11
▁presidency	11
▁initialize	11
▁supervisor	11
▁instanceof	11
▁originated	11
▁proceeding	11
▁Throughout	11
▁asymmetric	11
▁successive	11
▁measurable	11
▁durability	11
▁revelation	11
▁recognizes	11
▁playground	11
▁regulators	11
▁symmetries	11
▁delightful	11
▁neighbours	11
▁privileges	11
▁committing	11
▁inherently	11
▁associates	11
▁undertaken	11
Information	11
▁separating	11
▁transplant	11
▁confronted	11
▁fulfilling	11
displaymath	11
▁emphasized	11
▁requesting	11
▁negatively	11
correlation	11
▁magnitudes	11
▁conscience	11
▁provincial	11
▁adequately	11
▁metabolism	11
▁underwater	11
▁advertised	11
▁Historical	11
▁resonances	11
▁affiliates	11
▁Prevention	11
▁Publishing	11
▁prosperity	11
probability	11
▁disconnect	11
▁satellites	11
▁unemployed	11
algorithmic	11
▁Personally	11
▁contextual	11
▁distracted	11
▁imperative	11
▁Supplement	11
▁prosecutor	11
▁defendants	11
▁organizers	11
▁minorities	11
▁instructed	11
▁prevalence	11
▁generalize	11
▁spacecraft	11
▁definitive	11
▁disruption	11
▁Electronic	11
▁Healthcare	11
▁screenshot	11
▁Portuguese	11
▁abundances	11
conditional	11
▁recreation	11
▁undergoing	11
▁Television	11
▁throughput	11
▁Bangladesh	11
▁Discussion	11
▁attracting	11
▁comprehend	11
▁volatility	11
▁concurrent	11
▁Sacramento	11
▁terrifying	11
▁thereafter	11
Backgrounds	11
transaction	11
▁ambassador	11
▁discounted	11
▁reductions	11
▁wilderness	11
▁formatting	11
▁peripheral	11
▁hyperbolic	11
▁renovation	11
▁exercising	11
▁benchmarks	11
▁graduating	11
▁confirming	11
▁indirectly	11
▁engineered	11
▁standpoint	11
▁deliberate	11
▁charitable	11
▁inaccurate	11
nUniversity	11
▁unpleasant	11
▁currencies	11
▁generative	11
▁pertaining	11
▁triangular	11
▁landscapes	11
▁subscriber	11
▁geographic	11
▁Montgomery	11
nThroughout	11
▁kilometers	11
▁dealership	11
responsible	11
▁subsidiary	11
▁CONDITIONS	11
▁Securities	11
▁aggression	11
▁committees	11
▁optimizing	11
▁solidarity	11
▁celebrates	11
▁disgusting	11
▁amendments	11
▁programmer	11
▁irrational	11
▁photometry	11
▁dielectric	11
▁infectious	11
▁Processing	11
▁overweight	11
translation	11
▁insulation	11
▁Depression	11
▁insightful	11
▁reflective	11
▁thresholds	11
▁Assessment	11
▁forgetting	11
▁congestion	11
▁economists	11
▁pretending	11
▁yourselves	11
▁linebacker	11
▁paragraphs	11
▁privileged	11
Proposition	11
▁disappears	11
▁classrooms	11
▁deposition	11
▁Louisville	11
▁decorating	11
▁beforehand	11
▁researched	11
▁contention	11
▁Industries	11
▁architects	11
▁extracting	11
▁Background	11
▁combinator	11
▁disrespect	11
▁Ambassador	11
▁ecological	11
▁morphology	11
▁Evaluation	11
▁exploiting	11
▁randomized	11
▁relativity	11
▁dominating	11
▁Queensland	11
▁contracted	11
nConclusion	11
▁Psychology	11
▁administer	11
▁ammunition	11
▁collectors	11
▁specialize	11
▁multiplied	11
InputStream	11
▁arithmetic	11
▁conduction	11
▁sandwiches	11
nEverything	11
combination	11
▁decorative	11
▁Illuminate	11
▁Excellence	11
▁internship	11
▁Richardson	11
▁Affordable	11
▁Definitely	11
▁fellowship	11
▁wheelchair	11
▁implicitly	11
▁terminated	11
▁foreigners	11
▁conception	11
▁indicative	11
Performance	11
▁Basketball	11
▁multimedia	11
▁Ultimately	11
▁delegation	11
▁degeneracy	11
▁propagator	11
▁Thankfully	11
▁isinstance	11
▁animations	11
▁linguistic	11
▁repetitive	11
▁phenomenal	11
▁eliminates	11
otechnology	11
▁repetition	11
▁deficiency	11
▁admissions	11
▁succession	11
▁maximizing	11
▁Fellowship	11
▁midfielder	11
▁executable	11
▁technician	11
▁presidents	11
nparameters	11
▁achievable	11
▁Vietnamese	11
established	11
▁Newsletter	11
▁assortment	11
▁postseason	11
▁rebuilding	11
▁Absolutely	11
▁economical	11
▁vertically	11
▁historians	11
▁programmed	11
▁negotiated	11
▁disastrous	11
▁fascinated	11
▁Javascript	11
▁calibrated	11
▁accumulate	11
▁filmmakers	11
▁calculator	11
▁Employment	11
▁seamlessly	11
▁Resolution	11
▁accredited	11
▁domination	11
nWashington	11
▁reinforced	11
nPersonally	11
▁redemption	11
▁accidental	11
getInstance	11
▁advocating	11
▁endangered	11
▁Literature	11
composition	11
equilibrium	11
▁leveraging	11
▁resilience	11
▁Specialist	11
▁electrodes	11
▁temptation	11
▁diminished	11
▁descending	11
▁ubiquitous	11
▁standalone	11
▁expedition	11
▁Adventures	11
▁plaintiffs	11
▁sunglasses	11
▁disclaimer	11
DoxyCompact	11
▁classmates	11
integration	11
▁Originally	11
▁preferable	11
▁casualties	11
▁regularity	11
▁combustion	11
▁staggering	11
▁ultrasound	11
▁Parameters	11
▁vegetation	11
▁filesystem	11
▁deliveries	11
▁capacities	11
▁bargaining	11
▁moderately	11
▁expansions	11
destination	11
▁articulate	11
▁dishwasher	11
▁depressing	11
▁triggering	11
▁BlackBerry	11
▁travellers	11
▁objections	11
▁broadening	11
▁noteworthy	11
▁fundraiser	11
▁generosity	11
▁cohomology	11
▁favourites	11
▁sacrifices	11
▁devastated	11
▁Guidelines	11
▁capitalist	11
▁javascript	11
▁progressed	11
▁convection	11
▁censorship	11
▁collateral	11
▁Chancellor	11
▁Navigation	11
▁detections	11
Controllers	11
ancellation	11
▁decoration	11
▁emphasizes	11
ncorrespond	11
▁fabricated	11
▁navigating	11
▁recurrence	11
▁moderation	11
▁Activities	11
nWASHINGTON	11
▁ceremonies	11
▁compressor	11
▁mitigation	11
▁Experiment	11
▁sentencing	11
▁theatrical	11
▁multiplier	11
▁symplectic	11
▁telescopes	11
▁misconduct	11
▁progresses	11
▁comforting	11
▁Consulting	11
▁filtration	11
▁Comparison	11
▁Charleston	11
▁indictment	11
▁bipartisan	11
placeholder	11
nApparently	11
▁discourage	11
nBackground	11
▁Population	11
▁aggregated	11
▁permitting	11
▁tendencies	11
▁homeschool	11
▁narratives	11
▁Petersburg	11
▁aesthetics	11
▁insulating	11
▁explosions	11
▁redundancy	11
▁assistants	11
▁Accounting	11
▁competence	11
▁kinematics	11
▁connectors	11
▁Regulation	11
represented	11
▁relentless	11
▁Membership	11
▁Philosophy	11
▁prevailing	11
▁manageable	11
annotations	11
▁beginnings	11
▁concluding	11
outheastern	11
▁Conversely	11
▁regulating	11
▁kilometres	11
▁constructs	11
▁Recreation	11
▁liberation	11
▁relational	11
▁usefulness	11
▁irrigation	11
▁imprisoned	11
Constraints	11
Experiments	11
▁contingent	11
▁empowering	11
▁thankfully	11
▁harvesting	11
▁Scientists	11
▁reconsider	11
▁turnaround	11
▁summarizes	11
▁pioneering	11
▁belongings	11
▁culturally	11
▁disordered	11
▁negligence	11
▁exhibiting	11
▁transistor	11
▁correcting	11
▁invertible	11
▁modalities	11
▁microscope	11
▁pesticides	11
▁Registered	11
▁PARTICULAR	11
▁unreliable	11
▁disruptive	11
▁Previously	11
▁showcasing	11
▁livelihood	11
commutative	11
▁unresolved	11
experienced	11
▁Integrated	11
▁translator	11
▁Electrical	11
▁exhaustive	11
▁tightening	11
distributed	11
▁Interstate	11
experiments	11
▁frightened	11
▁protesting	11
▁Expression	11
▁confession	11
▁enrichment	11
▁reciprocal	11
▁ecosystems	11
▁deprecated	11
▁positivity	11
▁fingertips	11
▁positional	11
engineering	11
▁scratching	11
▁heightened	11
▁expiration	11
threatening	11
▁vibrations	11
▁portfolios	11
▁decomposed	11
▁possessing	11
nparticular	11
▁proclaimed	11
▁randomness	11
▁checkpoint	11
▁formidable	11
▁workaround	11
▁impairment	11
▁missionary	11
interacting	11
▁simplifies	11
▁broadcasts	11
▁partnering	11
▁witnessing	11
▁prioritize	11
▁elliptical	11
▁geometries	11
traditional	11
▁expressive	11
▁legitimacy	11
▁profoundly	11
▁behaviours	11
▁relocation	11
▁projecting	11
▁Providence	11
▁originates	11
▁procedural	11
▁mathematic	11
▁predefined	11
nconditions	11
▁hesitation	11
▁unofficial	11
▁pleasantly	11
▁gatherings	11
▁overcoming	11
▁Philippine	11
▁antibodies	11
▁injections	11
▁veterinary	11
nCalifornia	11
▁skepticism	11
nExperience	11
▁calculates	11
▁prototypes	11
▁sequencing	11
▁Monitoring	11
▁remodeling	11
▁Protestant	11
▁hemisphere	11
▁subtracted	11
▁contenders	11
nproperties	11
▁collapsing	11
▁unfinished	11
▁marginally	11
▁envisioned	11
▁electorate	11
▁Initialize	11
▁Georgetown	11
▁criticisms	11
orientation	11
▁Resistance	11
▁explosives	11
▁initiation	11
▁Wellington	11
▁negativity	11
▁admittedly	11
▁PowerPoint	11
▁goalkeeper	11
▁Lieutenant	11
▁sacrificed	11
▁spectators	11
▁lifestyles	11
nassociated	11
▁sculptures	11
▁dispatched	11
▁Parenthood	11
▁Developers	11
conditioned	11
▁distinctly	11
▁neutrality	11
convolution	11
▁irritation	11
▁continents	11
▁covariates	11
▁viewpoints	11
▁apologized	11
constraints	11
▁exchanging	11
▁therapists	11
interaction	11
connections	11
▁Alexandria	11
▁Fitzgerald	11
▁respecting	11
▁astounding	11
▁substrates	11
▁demolition	11
▁extremists	11
▁incoherent	11
nEventually	11
▁quantified	11
▁refractive	11
▁franchises	11
▁waterfront	11
▁prosecuted	11
▁kidnapping	11
▁courageous	11
▁truncation	11
nbackground	11
▁assertions	11
Preferences	11
nGovernment	11
▁stabilized	11
▁admiration	11
▁capitalize	11
▁compulsory	11
▁externally	11
▁prominence	11
▁neglecting	11
▁strawberry	11
▁exhausting	11
▁motivating	11
▁adolescent	11
▁exhaustion	11
▁unaffected	11
▁invariably	11
▁Geographic	11
collections	11
consciously	11
▁subscribed	11
▁caregivers	11
▁Chronicles	11
▁Highlights	11
persistence	11
▁noticeably	11
▁stereotype	11
▁convective	11
▁horsepower	11
▁impurities	11
▁resentment	11
▁synonymous	11
▁peacefully	11
▁Increasing	11
▁scrambling	11
▁Consultant	11
calculation	11
▁dependable	11
▁preventive	11
ntransition	11
▁Simulation	11
▁Performing	11
▁warranties	11
atisfaction	11
▁irritating	11
▁resembling	11
▁cultivated	11
▁nutritious	11
▁brainstorm	11
▁forwarding	11
▁Validation	11
▁accountant	11
▁undercover	11
▁credential	11
VERTISEMENT	11
▁Correspond	11
▁Principles	11
▁screenplay	11
▁smoothness	11
▁deductible	11
nconsidered	11
▁atrocities	11
▁formations	11
▁prosperous	11
▁minimalist	11
▁superfluid	11
▁retrospect	11
▁cartridges	11
▁Disclosure	11
▁loneliness	11
▁playwright	11
▁distressed	11
▁Collective	11
▁reversible	11
▁Understand	11
▁paranormal	11
▁detectives	11
nDepartment	11
▁succeeding	11
▁Journalism	11
nUltimately	11
▁generously	11
▁simulating	11
▁nightmares	11
▁commanding	11
▁evacuation	11
▁Artificial	11
▁cumbersome	11
▁Mechanical	11
▁clinically	11
▁Huffington	11
▁windshield	11
▁streamline	11
▁powerhouse	11
▁manifested	11
▁replicated	11
▁PowerShell	11
▁cornerback	11
▁chromosome	11
<|im_end|>	10
<filename>	10
<gh_stars>	10
<!DOCTYPE>	10
▁different	10
▁something	10
▁following	10
▁important	10
▁including	10
▁available	10
▁represent	10
▁character	10
▁community	10
▁relations	10
▁potential	10
▁according	10
▁difficult	10
subsection	10
▁questions	10
▁structure	10
▁companies	10
▁condition	10
▁implement	10
▁knowledge	10
▁political	10
▁currently	10
▁effective	10
▁attention	10
▁President	10
▁situation	10
▁functions	10
▁beautiful	10
▁described	10
▁financial	10
▁sometimes	10
▁customers	10
▁recommend	10
▁president	10
▁education	10
▁direction	10
▁countries	10
▁treatment	10
▁therefore	10
▁contribut	10
▁solutions	10
varepsilon	10
▁distribut	10
▁published	10
▁certainly	10
▁developed	10
▁statement	10
▁presented	10
▁resources	10
▁beginning	10
▁September	10
▁algorithm	10
boldsymbol	10
▁mentioned	10
▁increased	10
▁generally	10
▁providing	10
▁construct	10
▁transform	10
▁constrain	10
▁reference	10
▁insurance	10
▁connected	10
▁challenge	10
▁announced	10
▁marketing	10
▁selection	10
▁determine	10
▁generated	10
▁otherwise	10
ortunately	10
▁component	10
▁interview	10
▁extremely	10
▁materials	10
▁performed	10
▁evolution	10
▁advantage	10
▁transport	10
▁excellent	10
▁frequency	10
▁supported	10
▁architect	10
▁wonderful	10
▁Christian	10
▁operation	10
▁employees	10
▁Christmas	10
▁Wednesday	10
▁agreement	10
▁Therefore	10
▁regarding	10
▁officials	10
▁discussed	10
▁equipment	10
▁continued	10
▁increases	10
▁processes	10
▁installed	10
▁thousands	10
▁interface	10
▁influence	10
▁entertain	10
▁uncertain	10
▁resulting	10
▁variables	10
▁Americans	10
▁procedure	10
▁expensive	10
▁equations	10
▁completed	10
▁continues	10
▁exception	10
▁framework	10
▁typically	10
▁dimension	10
▁Australia	10
▁estimated	10
▁decisions	10
▁technical	10
▁standards	10
▁explained	10
▁depending	10
▁remaining	10
▁positions	10
ifications	10
▁religious	10
▁operating	10
▁Microsoft	10
▁candidate	10
▁expansion	10
▁yesterday	10
▁particles	10
▁According	10
▁concerned	10
▁establish	10
▁existence	10
▁suggested	10
▁ourselves	10
▁expressed	10
▁residents	10
▁basically	10
▁detection	10
▁documents	10
▁dedicated	10
▁Institute	10
▁technique	10
nAccording	10
▁highlight	10
▁obviously	10
▁happening	10
▁extension	10
▁locations	10
▁introduce	10
ampionship	10
▁seriously	10
▁formation	10
▁interests	10
▁somewhere	10
▁mechanism	10
▁committed	10
▁operators	10
▁perfectly	10
▁afternoon	10
▁surprised	10
▁reduction	10
▁Committee	10
▁dangerous	10
▁classical	10
▁confirmed	10
▁confident	10
▁indicates	10
▁corporate	10
▁consumers	10
▁Education	10
▁executive	10
▁partition	10
▁receiving	10
▁emotional	10
▁directory	10
▁Community	10
▁authority	10
▁contained	10
▁objective	10
▁conducted	10
▁delivered	10
▁apartment	10
▁purchased	10
▁sensitive	10
▁threshold	10
▁protected	10
pplication	10
▁collected	10
▁listening	10
▁buildings	10
▁guarantee	10
▁calculate	10
▁organized	10
▁stability	10
▁correctly	10
▁principle	10
▁emergency	10
▁wondering	10
▁describes	10
▁magnitude	10
▁intensity	10
▁predicted	10
▁recognize	10
▁administr	10
▁carefully	10
▁investors	10
▁scheduled	10
▁behaviour	10
▁regularly	10
▁radiation	10
▁naturally	10
▁reporting	10
▁committee	10
▁literally	10
▁immediate	10
▁copyright	10
▁initially	10
▁involving	10
▁extensive	10
ailability	10
▁breakfast	10
▁Sometimes	10
▁Francisco	10
▁recording	10
▁indicated	10
▁variation	10
▁suffering	10
▁everybody	10
▁satisfied	10
Controller	10
▁worldwide	10
▁household	10
▁searching	10
▁offensive	10
▁exclusive	10
▁invention	10
▁delicious	10
▁improving	10
▁languages	10
▁adventure	10
▁dependent	10
▁secondary	10
▁broadcast	10
▁providers	10
▁chocolate	10
▁amplitude	10
▁awareness	10
▁producing	10
▁responses	10
▁instances	10
▁preferred	10
▁spiritual	10
▁computing	10
▁computers	10
▁professor	10
▁lifestyle	10
▁celebrate	10
▁container	10
▁newspaper	10
▁identical	10
▁featuring	10
▁permanent	10
javascript	10
▁addresses	10
▁developer	10
▁signature	10
▁platforms	10
▁expertise	10
▁photograp	10
▁returning	10
vironments	10
▁defensive	10
▁favourite	10
▁tradition	10
▁submitted	10
▁intention	10
▁Secretary	10
background	10
▁hopefully	10
▁symmetric	10
▁landscape	10
▁acknowled	10
▁realistic	10
▁universal	10
▁configure	10
▁conscious	10
▁execution	10
▁Hollywood	10
▁precisely	10
▁elections	10
▁inflation	10
▁intellect	10
definition	10
▁addressed	10
▁neighbors	10
▁evaluated	10
nTherefore	10
▁satisfies	10
▁discovery	10
▁qualified	10
▁alongside	10
▁principal	10
▁requested	10
▁traveling	10
▁furniture	10
▁diversity	10
▁sequences	10
▁destroyed	10
▁temporary	10
▁separated	10
▁responded	10
▁encounter	10
▁benchmark	10
▁strategic	10
▁embedding	10
▁electrons	10
▁childhood	10
newcommand	10
▁molecular	10
▁assistant	10
romagnetic	10
▁abilities	10
▁comparing	10
▁preparing	10
▁contracts	10
▁infection	10
structured	10
▁programme	10
▁violation	10
▁Executive	10
▁ownership	10
▁Minnesota	10
▁attempted	10
▁generator	10
▁impressed	10
▁personnel	10
▁partially	10
▁dominated	10
▁decreases	10
▁boyfriend	10
▁pregnancy	10
▁extracted	10
▁eliminate	10
▁franchise	10
▁Professor	10
▁portfolio	10
▁Financial	10
▁Copyright	10
▁attribute	10
▁Instagram	10
▁expanding	10
▁happiness	10
▁prominent	10
▁nonlinear	10
▁virtually	10
▁criticism	10
▁convinced	10
▁paragraph	10
▁classroom	10
▁complaint	10
▁exploring	10
▁processed	10
▁distances	10
▁processor	10
▁expecting	10
▁democracy	10
▁movements	10
▁attending	10
▁requiring	10
▁territory	10
▁converted	10
▁promising	10
▁telephone	10
▁replacing	10
▁promoting	10
▁motivated	10
▁incorrect	10
▁embarrass	10
▁deviation	10
▁satellite	10
▁dynamical	10
▁promotion	10
▁Marketing	10
▁narrative	10
▁streaming	10
▁concluded	10
▁libraries	10
▁referring	10
nWednesday	10
▁instantly	10
▁curvature	10
Connection	10
▁substance	10
▁emissions	10
▁mountains	10
▁appointed	10
▁Singapore	10
▁reactions	10
▁constants	10
▁measuring	10
▁abundance	10
▁volunteer	10
▁opponents	10
▁forgotten	10
▁similarly	10
▁diagnosis	10
▁finishing	10
▁integrity	10
▁seemingly	10
▁switching	10
▁associate	10
▁confusion	10
▁thickness	10
▁sentences	10
▁campaigns	10
▁projected	10
▁gathering	10
▁provision	10
▁affiliate	10
▁reflected	10
▁resonance	10
▁employers	10
▁appearing	10
▁screening	10
▁inclusion	10
▁designers	10
▁competing	10
▁collision	10
▁neighbour	10
▁terrorist	10
▁densities	10
▁followers	10
▁synthetic	10
▁Wisconsin	10
connection	10
▁spokesman	10
▁simulated	10
▁continuum	10
▁certified	10
▁Following	10
▁molecules	10
▁producers	10
▁selecting	10
▁investing	10
▁mechanics	10
▁gradually	10
▁overnight	10
▁alignment	10
▁animation	10
▁exercises	10
▁generates	10
▁purchases	10
▁uncomfort	10
▁hospitals	10
▁engineers	10
▁inventory	10
▁creatures	10
▁demanding	10
▁residence	10
▁touchdown	10
▁consensus	10
ertainment	10
▁breathing	10
▁disappear	10
▁reception	10
▁geometric	10
▁Elizabeth	10
consistent	10
▁centuries	10
▁Transport	10
▁packaging	10
▁attracted	10
▁obtaining	10
▁Similarly	10
▁companion	10
▁intervals	10
▁bandwidth	10
nFollowing	10
▁occasions	10
▁recovered	10
Collection	10
▁reporters	10
▁Otherwise	10
▁combining	10
▁allegedly	10
▁inference	10
▁designing	10
▁abandoned	10
▁className	10
▁Meanwhile	10
▁behaviors	10
ologically	10
▁secretary	10
▁Alexander	10
▁apparatus	10
▁physician	10
▁achieving	10
▁permitted	10
▁automated	10
▁reproduce	10
▁prospects	10
▁Represent	10
▁perceived	10
▁reasoning	10
▁addiction	10
▁chemicals	10
▁Exception	10
▁nutrition	10
▁Insurance	10
▁anonymous	10
▁enjoyable	10
▁migration	10
▁batteries	10
▁shoulders	10
▁authentic	10
▁empirical	10
▁substrate	10
nMeanwhile	10
▁canonical	10
▁contacted	10
▁suspended	10
▁Something	10
▁governing	10
Properties	10
▁strengths	10
▁extending	10
▁Halloween	10
▁favorites	10
▁Tennessee	10
▁accepting	10
▁passenger	10
▁liability	10
▁graduated	10
▁accompany	10
▁remainder	10
▁placement	10
▁sacrifice	10
▁Authority	10
▁diagnosed	10
▁publisher	10
▁WordPress	10
▁donations	10
▁excessive	10
Background	10
▁countless	10
▁splitting	10
▁Amendment	10
▁Resources	10
▁disorders	10
▁sponsored	10
▁decreased	10
Parameters	10
▁economics	10
components	10
▁musicians	10
▁compounds	10
▁pollution	10
▁activists	10
▁Cleveland	10
▁composite	10
processing	10
▁Challenge	10
▁considers	10
Repository	10
▁Obviously	10
▁affecting	10
▁alternate	10
▁undefined	10
▁chemistry	10
▁qualities	10
▁confusing	10
▁desirable	10
▁retailers	10
▁admission	10
▁spreading	10
▁accretion	10
▁subscribe	10
▁districts	10
controller	10
▁disadvant	10
▁occurring	10
▁attacking	10
▁ecosystem	10
supervised	10
▁Baltimore	10
▁workplace	10
▁unlimited	10
▁terrorism	10
▁phenomena	10
▁directors	10
▁convicted	10
▁inspiring	10
▁departure	10
▁injection	10
especially	10
▁Hopefully	10
▁audiences	10
▁struggles	10
▁financing	10
▁Relations	10
▁cognitive	10
▁testimony	10
▁rendering	10
▁Assistant	10
▁targeting	10
▁conflicts	10
Definition	10
▁Jerusalem	10
▁strengthe	10
▁appealing	10
▁memorable	10
▁suspected	10
▁Currently	10
▁incidents	10
▁explosion	10
▁comprises	10
▁magazines	10
▁utilizing	10
▁Available	10
▁daughters	10
▁breakdown	10
▁respected	10
▁spherical	10
▁commented	10
▁defending	10
▁privilege	10
▁spectrosc	10
▁corrected	10
▁couplings	10
properties	10
▁paintings	10
▁scientist	10
▁legendary	10
▁relatives	10
▁spacetime	10
▁workshops	10
▁uniformly	10
▁Algorithm	10
▁releasing	10
▁Wikipedia	10
▁scattered	10
▁launching	10
▁suppliers	10
▁amendment	10
▁strongest	10
▁offerings	10
▁reinforce	10
▁activated	10
▁Solutions	10
▁Different	10
▁observing	10
▁analytics	10
▁celebrity	10
▁Agreement	10
▁algebraic	10
▁sustained	10
▁varieties	10
▁criterion	10
▁averaging	10
ndifferent	10
▁belonging	10
▁screaming	10
▁tolerance	10
▁induction	10
▁triggered	10
▁Louisiana	10
▁microwave	10
Conclusion	10
nSometimes	10
typescript	10
▁discounts	10
▁dismissed	10
ographical	10
▁filtering	10
▁lawmakers	10
▁believing	10
▁analyzing	10
▁revealing	10
▁Questions	10
▁necessity	10
▁Charlotte	10
▁answering	10
centerline	10
▁witnessed	10
annotation	10
▁Liverpool	10
▁versatile	10
▁advocates	10
▁workforce	10
▁neglected	10
▁hilarious	10
resolution	10
▁Melbourne	10
collection	10
▁isolation	10
▁consuming	10
▁defendant	10
▁obstacles	10
▁prototype	10
▁maintains	10
▁prisoners	10
▁protocols	10
▁witnesses	10
▁fortunate	10
▁penalties	10
▁invisible	10
responding	10
▁justified	10
▁databases	10
▁discusses	10
▁proximity	10
productive	10
▁amenities	10
▁accidents	10
▁genuinely	10
▁preserved	10
▁intuitive	10
▁specially	10
▁exchanges	10
▁Universal	10
▁reviewing	10
▁recession	10
▁initiated	10
▁localized	10
▁emphasize	10
▁recipient	10
production	10
▁renewable	10
▁inclusive	10
▁elaborate	10
▁sanctions	10
▁discontin	10
▁synthesis	10
▁succeeded	10
▁incentive	10
▁nominated	10
▁transfers	10
▁conformal	10
▁ambitious	10
▁intensive	10
▁teammates	10
▁aggregate	10
▁apologize	10
▁headlines	10
▁relevance	10
▁Basically	10
▁prevented	10
▁nutrients	10
▁cancelled	10
▁criminals	10
▁auxiliary	10
▁backwards	10
nSubscribe	10
▁specialty	10
pendicular	10
▁trademark	10
Comparison	10
▁welcoming	10
▁rejection	10
▁inability	10
▁attitudes	10
▁economies	10
▁telescope	10
▁travelers	10
stylesheet	10
▁ignorance	10
▁sentenced	10
▁taxpayers	10
▁formalism	10
▁resistant	10
▁Champions	10
▁assembled	10
▁rewarding	10
▁Jefferson	10
▁vegetable	10
▁civilians	10
▁Bluetooth	10
▁primitive	10
nSimilarly	10
▁comprised	10
▁retrieval	10
▁pressures	10
▁Valentine	10
▁Caribbean	10
▁champions	10
▁wrestling	10
▁graduates	10
▁Barcelona	10
▁allocated	10
▁disclosed	10
▁unchanged	10
▁Euclidean	10
Expression	10
▁intersect	10
▁societies	10
▁supermark	10
management	10
▁artifacts	10
▁stainless	10
▁energetic	10
▁capturing	10
▁realizing	10
▁depressed	10
▁predecess	10
creational	10
▁regulated	10
controlled	10
▁asymmetry	10
▁employing	10
▁Hampshire	10
▁licensing	10
▁aesthetic	10
▁accessing	10
generation	10
▁decorated	10
▁mortality	10
validation	10
▁analogous	10
▁converges	10
▁survivors	10
▁curiosity	10
▁strangers	10
ernational	10
▁reservoir	10
▁nightmare	10
nSeptember	10
▁Technical	10
bottomrule	10
▁organised	10
▁detecting	10
▁Beautiful	10
▁adjusting	10
▁Companies	10
compatible	10
▁attendees	10
▁colleague	10
▁customize	10
▁recycling	10
▁connector	10
nPresident	10
▁concludes	10
▁summarize	10
▁statistic	10
▁affection	10
▁exhausted	10
▁Depending	10
▁downloads	10
▁repeating	10
Discussion	10
▁modelling	10
▁utilities	10
▁polarized	10
▁assertion	10
▁retention	10
▁continent	10
▁intercept	10
▁Seriously	10
▁histogram	10
▁firefight	10
▁sexuality	10
▁commander	10
▁broadband	10
▁examining	10
▁lightning	10
▁Statement	10
▁subjected	10
▁righteous	10
▁Political	10
▁coherence	10
▁stretched	10
▁negotiate	10
▁Operation	10
▁fulfilled	10
▁therapist	10
nPublished	10
▁messaging	10
▁triangles	10
▁spotlight	10
▁vanishing	10
▁Standards	10
▁stressful	10
▁warehouse	10
▁Nashville	10
conditions	10
▁preceding	10
▁cigarette	10
▁sensation	10
▁religions	10
acceptable	10
▁duplicate	10
▁Corollary	10
▁competent	10
▁Reference	10
▁irregular	10
▁balancing	10
▁Brazilian	10
▁privately	10
attributes	10
▁enjoyment	10
▁voluntary	10
▁Framework	10
▁collapsed	10
▁ministers	10
▁graphical	10
▁explosive	10
▁schedules	10
scriptions	10
▁encrypted	10
▁machinery	10
▁Emergency	10
▁malicious	10
▁accounted	10
▁integrals	10
▁ancestors	10
▁surviving	10
▁receivers	10
nCurrently	10
▁Knowledge	10
▁medicines	10
▁Bloomberg	10
▁neutrinos	10
government	10
▁Argentina	10
▁Northwest	10
raditional	10
▁transient	10
▁Hurricane	10
▁Treatment	10
▁practiced	10
▁teachings	10
▁upgrading	10
▁enhancing	10
▁meanwhile	10
▁additions	10
▁plurality	10
▁clearance	10
▁applicant	10
▁completes	10
▁imperfect	10
▁emergence	10
▁Analytics	10
▁surprises	10
▁violating	10
▁festivals	10
▁passwords	10
▁forbidden	10
▁oversight	10
▁municipal	10
▁routinely	10
▁fictional	10
▁judgement	10
▁paperwork	10
▁divisions	10
▁acquiring	10
▁Condition	10
Identifier	10
▁consisted	10
▁parenting	10
▁executing	10
▁incidence	10
▁populated	10
▁salvation	10
▁educators	10
▁Directory	10
▁turbulent	10
▁Component	10
▁inherited	10
▁premature	10
▁superhero	10
nCopyright	10
▁Pinterest	10
▁selective	10
▁Coalition	10
▁Generally	10
▁skeptical	10
▁freelance	10
▁unrelated	10
▁mentality	10
▁saturated	10
▁Corporate	10
▁bathrooms	10
▁Character	10
▁Adventure	10
▁Photoshop	10
▁listeners	10
▁ArrayList	10
▁observers	10
▁retaining	10
▁Milwaukee	10
▁interfere	10
▁discourse	10
mabaochang	10
▁radiative	10
▁dominance	10
▁Armstrong	10
▁Canadians	10
▁luxurious	10
▁footprint	10
repository	10
▁publicity	10
▁logistics	10
▁Mountains	10
▁vibration	10
▁declining	10
▁immigrant	10
▁offseason	10
identified	10
▁recognise	10
▁elevation	10
▁proceeded	10
▁collector	10
▁successor	10
▁portrayed	10
▁detention	10
▁branching	10
▁commodity	10
▁Calculate	10
▁wholesale	10
▁prevalent	10
▁viewpoint	10
▁fractions	10
textnormal	10
▁coincides	10
successful	10
▁reluctant	10
Validation	10
▁Certified	10
▁Obamacare	10
▁cartridge	10
▁aftermath	10
▁spatially	10
▁augmented	10
▁exploited	10
▁Evolution	10
▁catalogue	10
▁believers	10
▁Typically	10
▁rectangle	10
▁Economics	10
reasonable	10
▁electrode	10
▁obsession	10
▁subsidies	10
▁plaintiff	10
▁iterative	10
▁Transform	10
▁rewritten	10
▁organisms	10
▁successes	10
authorized	10
▁Holocaust	10
▁electoral	10
▁Discovery	10
▁installer	10
▁Materials	10
nObviously	10
▁Cardinals	10
▁conserved	10
ighborhood	10
transition	10
▁reinstall	10
▁excluding	10
▁supporter	10
▁presently	10
▁detective	10
▁marketers	10
▁Developer	10
nYesterday	10
▁Amsterdam	10
▁Associate	10
▁Southeast	10
▁factories	10
▁fireplace	10
▁exhibited	10
▁dominates	10
▁creations	10
▁inversion	10
▁directing	10
▁planetary	10
▁historian	10
▁illegally	10
comparison	10
▁Communist	10
▁exchanged	10
▁milestone	10
▁forecasts	10
▁acclaimed	10
▁beginners	10
▁semantics	10
▁victories	10
▁Victorian	10
▁advancing	10
▁displaced	10
▁assessing	10
▁retrieved	10
▁storyline	10
▁uncovered	10
▁testified	10
▁Rodriguez	10
▁Certainly	10
ensitivity	10
▁Southwest	10
▁Breakfast	10
▁Catherine	10
▁mushrooms	10
categories	10
▁Architect	10
▁remembers	10
▁surrender	10
▁Edinburgh	10
nfollowing	10
▁travelled	10
▁institute	10
▁viscosity	10
▁timestamp	10
▁Pakistani	10
▁converter	10
▁gentleman	10
▁Venezuela	10
▁possesses	10
▁recurrent	10
▁valuation	10
expression	10
▁Chocolate	10
▁discarded	10
▁Newcastle	10
▁furnished	10
▁Commander	10
▁beverages	10
▁defenders	10
▁tunneling	10
▁Equipment	10
▁Catholics	10
▁objection	10
▁smoothing	10
onlinecite	10
▁Extension	10
▁formulate	10
▁intuition	10
▁illnesses	10
▁multitude	10
nCalculate	10
▁alleviate	10
▁Directors	10
▁dashboard	10
▁stimulate	10
▁deposited	10
▁subsystem	10
▁socialist	10
▁fireworks	10
▁condemned	10
▁performer	10
▁disasters	10
▁unwilling	10
▁galleries	10
▁validated	10
▁uninstall	10
▁cardboard	10
▁notorious	10
▁assisting	10
▁Ukrainian	10
▁academics	10
▁conceived	10
▁terminals	10
▁Excellent	10
▁merchants	10
▁offenders	10
▁disciples	10
▁quarterly	10
▁gardening	10
▁undertake	10
▁advertise	10
▁detailing	10
▁compelled	10
▁manifolds	10
▁realities	10
▁hurricane	10
▁metabolic	10
▁pointless	10
▁Structure	10
commercial	10
▁modifying	10
▁regulator	10
▁assurance	10
▁Telescope	10
▁complexes	10
▁delegates	10
▁Programme	10
▁prolonged	10
▁slideshow	10
▁blessings	10
▁Interface	10
▁Customers	10
▁insertion	10
▁sculpture	10
▁wandering	10
restricted	10
▁supplying	10
▁geography	10
▁preserves	10
▁annotated	10
▁biography	10
▁subreddit	10
University	10
▁fertility	10
▁recruited	10
▁accessory	10
▁inquiries	10
▁signaling	10
▁resolving	10
▁provinces	10
continuous	10
▁declaring	10
▁visualize	10
▁amazingly	10
▁recurring	10
Permission	10
▁restoring	10
▁Norwegian	10
▁histories	10
▁conductor	10
▁afterward	10
nAnonymous	10
▁alcoholic	10
▁deadlines	10
▁forefront	10
▁exceeding	10
▁specifics	10
▁allergies	10
▁marriages	10
▁Boulevard	10
nforcement	10
▁replicate	10
assertTrue	10
▁prejudice	10
▁Selection	10
▁economist	10
responsive	10
▁Roosevelt	10
▁intricate	10
ncharacter	10
▁Anonymous	10
▁mutations	10
▁pediatric	10
▁Everybody	10
▁preseason	10
▁hazardous	10
▁guitarist	10
▁ordinance	10
▁proposing	10
▁Northeast	10
▁inconsist	10
▁differing	10
▁summation	10
▁Nutrition	10
nparameter	10
▁corrupted	10
▁charities	10
▁underwear	10
▁borrowing	10
▁discovers	10
▁distorted	10
▁Henderson	10
▁northeast	10
▁bacterial	10
▁therapies	10
▁imbalance	10
▁exemption	10
▁livestock	10
nExcellent	10
▁possessed	10
▁Computing	10
▁proactive	10
▁truncated	10
▁undermine	10
assertThat	10
▁withstand	10
▁registers	10
▁terrified	10
▁Scripture	10
▁specifies	10
nBasically	10
▁simulator	10
▁threatens	10
▁terminate	10
▁thrilling	10
▁residuals	10
▁Operating	10
positories	10
▁Christine	10
▁compliant	10
▁admitting	10
▁offspring	10
nMicrosoft	10
▁absorbing	10
▁amplifier	10
▁cooperate	10
liferation	10
▁timescale	10
▁cosmology	10
conclusion	10
▁arthritis	10
▁jurisdict	10
▁reimburse	10
dependency	10
▁Chronicle	10
▁worthless	10
▁concealed	10
▁astronaut	10
▁Frederick	10
▁exponents	10
cyclopedia	10
▁benefited	10
▁reviewers	10
▁columnist	10
▁probation	10
▁residency	10
▁fragrance	10
▁Interview	10
▁formatted	10
▁citations	10
▁adiabatic	10
▁portraits	10
nrepresent	10
▁mythology	10
▁filmmaker	10
▁southwest	10
confidence	10
▁incumbent	10
▁recursive	10
functional	10
dependence	10
▁Europeans	10
▁northwest	10
▁perimeter	10
▁addictive	10
▁covariant	10
▁Chevrolet	10
▁attackers	10
▁butterfly	10
▁Principal	10
▁intrigued	10
nRegarding	10
▁southeast	10
▁statewide	10
▁inception	10
▁inaugural	10
▁rationale	10
▁counselor	10
▁Princeton	10
▁ambiguity	10
▁immensely	10
▁kinematic	10
▁ambiguous	10
▁announces	10
▁Democracy	10
identifier	10
▁reminding	10
▁receptors	10
▁Lightning	10
▁sweetness	10
▁expresses	10
irectional	10
▁inserting	10
nstructure	10
▁disturbed	10
▁sincerely	10
omorphisms	10
nDifferent	10
▁dividends	10
▁positives	10
constraint	10
▁whichever	10
▁sanctuary	10
▁communist	10
▁occupancy	10
▁stringent	10
▁Cathedral	10
▁mysteries	10
▁appliance	10
▁subgroups	10
▁Peninsula	10
▁Rochester	10
nincluding	10
▁lucrative	10
▁rotations	10
▁contender	10
▁exquisite	10
▁Stephanie	10
▁bootstrap	10
▁stiffness	10
▁digestive	10
Extensions	10
nSomething	10
npotential	10
▁incapable	10
▁Subscribe	10
▁Yesterday	10
▁Orchestra	10
▁debugging	10
▁Robertson	10
▁slightest	10
Evaluation	10
▁innocence	10
ionization	10
▁cocktails	10
nEducation	10
▁groceries	10
prehensive	10
▁unusually	10
▁shrinking	10
containing	10
▁workspace	10
initialize	10
▁orchestra	10
▁dictators	10
▁poisoning	10
▁removable	10
▁ambitions	10
▁scrolling	10
▁propagate	10
▁dissolved	10
discussion	10
Additional	10
▁educating	10
correlated	10
▁ambulance	10
▁Naturally	10
▁Chemistry	10
▁condensed	10
▁assaulted	10
▁scripture	10
▁judgments	10
▁liquidity	10
▁longevity	10
▁criticize	10
▁organizer	10
▁pertinent	10
▁wallpaper	10
▁usability	10
▁projector	10
▁renovated	10
▁assigning	10
▁withdrawn	10
▁preaching	10
▁slaughter	10
▁abortions	10
▁cleansing	10
performing	10
▁hydraulic	10
▁depicting	10
▁rebellion	10
▁greatness	10
▁Initially	10
▁Strategic	10
▁shootings	10
▁Furniture	10
Everything	10
▁Container	10
▁treasures	10
▁messenger	10
▁speculate	10
▁corollary	10
▁traumatic	10
▁electroly	10
▁troubling	10
▁Parameter	10
▁endpoints	10
▁normalize	10
▁originate	10
▁shattered	10
▁textbooks	10
nfunctions	10
▁radically	10
▁anonymity	10
▁Published	10
▁weighting	10
underbrace	10
▁Functions	10
▁underwent	10
getMessage	10
▁superstar	10
▁Nationals	10
▁astronomy	10
uggestions	10
▁notations	10
▁scholarly	10
▁stabilize	10
▁Engineers	10
Serializer	10
▁snapshots	10
▁optically	10
▁christian	10
▁shortcuts	10
▁Employees	10
▁evidenced	10
▁Important	10
▁kidnapped	10
▁squeezing	10
▁surgeries	10
▁uploading	10
▁massively	10
▁apologies	10
rimination	10
▁defective	10
▁defeating	10
▁Bangalore	10
Components	10
▁expansive	10
▁undergone	10
▁empowered	10
▁sparkling	10
▁liberties	10
▁adversary	10
▁socialism	10
▁deploying	10
▁Arlington	10
▁downright	10
▁preschool	10
▁directive	10
▁wellbeing	10
▁Boltzmann	10
▁mitochond	10
▁prompting	10
Management	10
▁exemplary	10
ncondition	10
tprotected	10
▁magnesium	10
conference	10
Constraint	10
permission	10
nAvailable	10
▁Messenger	10
▁impending	10
kernelspec	10
▁landmarks	10
▁Hungarian	10
▁multiplex	10
nSeriously	10
▁diligence	10
▁Unlimited	10
extensions	10
▁digitally	10
▁schooling	10
registered	10
▁penetrate	10
Annotation	10
▁exposures	10
▁lingering	10
▁revisions	10
▁Yorkshire	10
▁Churchill	10
▁Recommend	10
▁negatives	10
▁PropTypes	10
▁interplay	10
▁intervene	10
▁Methodist	10
▁harvested	10
▁commuting	10
▁abdominal	10
▁Telegraph	10
▁ascending	10
▁courtroom	10
▁notebooks	10
▁Minecraft	10
▁insulting	10
▁creditors	10
▁Animation	10
▁homeowner	10
▁colourful	10
▁avoidance	10
▁ensembles	10
▁receptive	10
▁perturbed	10
▁Effective	10
nsupported	10
▁ethnicity	10
▁enforcing	10
▁vacations	10
experiment	10
▁crossings	10
▁Patterson	10
activation	10
▁Malaysian	10
▁inelastic	10
▁unfolding	10
▁commanded	10
▁attentive	10
▁expressly	10
associated	10
▁nostalgia	10
▁surrogate	10
▁minimizes	10
Initialize	10
StackTrace	10
▁stupidity	10
▁logarithm	10
interfaces	10
▁moderator	10
▁Religious	10
▁shipments	10
▁Awareness	10
▁Hernandez	10
▁Worldwide	10
▁Responses	10
▁petroleum	10
▁Generator	10
▁immersion	10
▁informing	10
▁viability	10
▁cinematic	10
likelihood	10
reditation	10
▁Laplacian	10
Statistics	10
blockquote	10
nCommunity	10
▁showcases	10
accessible	10
▁ascertain	10
▁forwarded	10
▁pronounce	10
▁Inspector	10
▁borrowers	10
▁depletion	10
▁potassium	10
▁Sebastian	10
horizontal	10
▁contested	10
▁reconnect	10
efficiency	10
▁inspected	10
▁consulted	10
nGenerally	10
plementary	10
Simulation	10
normalized	10
▁Featuring	10
▁inspector	10
▁supernova	10
▁imagining	10
▁compiling	10
▁insisting	10
npublished	10
▁corrosion	10
▁dismissal	10
▁Construct	10
prediction	10
▁deception	10
increasing	10
▁sidelines	10
experience	10
setcounter	10
▁gentlemen	10
▁Hezbollah	10
▁adulthood	10
▁disrupted	10
▁injective	10
▁reminders	10
▁resultant	10
▁Beginning	10
▁tolerated	10
▁artillery	10
▁surrounds	10
▁oversized	10
▁azimuthal	10
▁intensely	10
▁mediation	10
▁Reporting	10
▁Secondary	10
▁amplified	10
▁Detection	10
▁ballistic	10
▁medicinal	10
▁rejecting	10
▁waterfall	10
regulation	10
reliminary	10
▁Potential	10
additional	10
▁Fantastic	10
▁Zimmerman	10
▁repairing	10
▁Christina	10
▁heartbeat	10
▁cylinders	10
▁drawbacks	10
▁dinosaurs	10
▁profiling	10
▁Saturdays	10
Transition	10
concurrent	10
▁interacts	10
▁Municipal	10
▁cellphone	10
▁Documents	10
nDepending	10
▁Automatic	10
▁Classical	10
▁Detective	10
▁postponed	10
▁servicing	10
▁recalling	10
▁relocated	10
▁stitching	10
▁safeguard	10
▁Including	10
▁advocated	10
▁Scandinav	10
▁vacancies	10
Navigation	10
▁magically	10
▁bluetooth	10
▁cultivate	10
▁Socialist	10
▁deserving	10
▁clarified	10
▁impacting	10
▁intermedi	10
▁restraint	10
▁willingly	10
▁scratches	10
▁publishes	10
▁unlabeled	10
▁Dirichlet	10
▁repulsive	10
vitational	10
▁evidently	10
▁nationals	10
▁centrally	10
▁immersive	10
evaluation	10
▁staircase	10
nImportant	10
▁shortened	10
▁insulator	10
▁unanimous	10
▁courtyard	10
coordinate	10
▁misguided	10
employment	10
naccording	10
▁Promotion	10
▁reconcile	10
▁advisable	10
▁deduction	10
everything	10
▁obligated	10
References	10
▁standings	10
nProfessor	10
▁athletics	10
▁composing	10
▁attaching	10
▁elephants	10
▁motivates	10
nCombining	10
▁McConnell	10
▁paramount	10
▁readiness	10
▁swallowed	10
▁aluminium	10
▁disparity	10
▁logically	10
integrated	10
▁mentoring	10
Foundation	10
▁prohibits	10
▁recursion	10
▁Attention	10
▁christmas	10
▁newcomers	10
classified	10
▁Leicester	10
individual	10
▁pipelines	10
▁Guarantee	10
▁startling	10
▁Stockholm	10
Illuminate	10
▁importing	10
▁keyboards	10
▁quotation	10
▁construed	10
▁coworkers	10
▁unpopular	10
nequations	10
equivalent	10
preserving	10
▁warranted	10
▁referrals	10
▁Signature	10
ndescribed	10
▁occupying	10
▁portrayal	10
▁pleasures	10
▁stripping	10
▁Migration	10
▁villagers	10
▁Hermitian	10
▁moderated	10
▁Investors	10
▁austerity	10
▁painfully	10
▁patiently	10
▁arranging	10
▁diplomacy	10
▁hostility	10
▁composers	10
▁elongated	10
▁exercised	10
▁maximally	10
▁purported	10
▁strangely	10
▁surpassed	10
▁stationed	10
▁Essential	10
▁brokerage	10
▁finalists	10
▁undergoes	10
difference	10
▁Lancaster	10
▁disabling	10
▁marvelous	10
compressed	10
▁Parkinson	10
▁hypocrisy	10
▁persuaded	10
nHopefully	10
▁Astronomy	10
▁depiction	10
▁Libraries	10
▁Officials	10
▁refreshed	10
reversible	10
▁shortages	10
▁treadmill	10
lstlisting	10
▁Sheffield	10
▁glamorous	10
▁parallels	10
▁Riverside	10
▁offending	10
▁summaries	10
▁customary	10
▁Procedure	10
▁outskirts	10
▁erroneous	10
▁digestion	10
▁leftovers	10
▁lifetimes	10
▁arrogance	10
▁Regarding	10
▁infinites	10
▁verifying	10
▁Newtonian	10
▁linewidth	10
assumption	10
▁pragmatic	10
▁Territory	10
neffective	10
▁Schneider	10
▁clustered	10
▁maternity	10
ninterface	10
▁scripting	10
▁Tottenham	10
▁priceless	10
▁Residents	10
▁honeymoon	10
projection	10
▁Diversity	10
▁Admission	10
▁Presbyter	10
▁commenced	10
▁presenter	10
statistics	10
▁giveaways	10
▁primaries	10
▁tentative	10
▁Brunswick	10
▁everytime	10
▁Satellite	10
nQuestions	10
▁Islanders	10
▁inductive	10
▁unbounded	10
▁confessed	10
▁Katherine	10
▁unnatural	10
nChristian	10
▁Carpenter	10
ablishment	10
operations	10
▁blueprint	10
▁extremist	10
▁nurturing	10
Department	10
▁guideline	10
▁cosmetics	10
▁parabolic	10
▁cherished	10
▁Wrestling	10
▁minimally	10
▁apprehens	10
▁disagreed	10
▁worldview	10
centration	10
▁Hyderabad	10
degenerate	10
▁Volunteer	10
▁profanity	10
nBeautiful	10
▁exploding	10
▁pervasive	10
Washington	10
submission	10
▁anthology	10
▁bothering	10
▁Bollywood	10
▁Wonderful	10
▁awakening	10
▁contrasts	10
▁decidedly	10
▁airplanes	10
▁Worcester	10
▁Publisher	10
▁televised	10
▁unleashed	10
navigation	10
▁vengeance	10
▁leveraged	10
JavaScript	10
▁Practices	10
▁sidewalks	10
enterprise	10
nOtherwise	10
▁disparate	10
▁Dominican	10
▁headphone	10
<strong/>	9
</strong>	9
processed	9
redpajama	9
formation	9
▁function	9
▁interest	9
▁business	9
▁possible	9
▁addition	9
▁actually	9
▁together	9
▁consider	9
▁children	9
▁anything	9
▁question	9
▁specific	9
▁American	9
ification	9
▁students	9
▁probably	9
▁research	9
▁previous	9
▁features	9
vironment	9
▁position	9
▁training	9
▁services	9
▁signific	9
▁material	9
▁personal	9
▁everyone	9
▁approach	9
egraphics	9
▁products	9
▁problems	9
▁opportun	9
▁solution	9
▁required	9
▁learning	9
▁original	9
▁expected	9
starcoder	9
▁complete	9
▁standard	9
▁provided	9
▁increase	9
▁property	9
▁building	9
▁analysis	9
▁continue	9
▁industry	9
▁constant	9
▁investig	9
▁recently	9
▁software	9
▁yourself	9
▁official	9
▁provides	9
▁positive	9
▁multiple	9
▁response	9
▁National	9
▁remember	9
▁obtained	9
▁experien	9
▁includes	9
▁decision	9
▁security	9
▁computer	9
▁received	9
▁reported	9
▁thinking	9
▁language	9
▁included	9
▁comments	9
▁designed	9
▁directly	9
▁document	9
▁download	9
▁starting	9
▁physical	9
▁national	9
▁contract	9
▁practice	9
▁proposed	9
▁compared	9
▁involved	9
centering	9
▁location	9
kexchange	9
▁maintain	9
▁campaign	9
▁distance	9
▁approxim	9
▁challeng	9
▁evidence	9
▁favorite	9
▁straight	9
▁progress	9
▁released	9
▁pressure	9
▁observed	9
▁elements	9
▁behavior	9
▁equation	9
▁instance	9
▁although	9
▁platform	9
▁Republic	9
▁happened	9
▁electron	9
▁critical	9
▁projects	9
▁programs	9
▁contains	9
▁manufact	9
▁demonstr	9
▁administ	9
▁economic	9
▁transfer	9
▁November	9
ashington	9
▁military	9
▁activity	9
▁December	9
▁negative	9
▁strength	9
▁requires	9
▁customer	9
▁Facebook	9
RedPajama	9
▁Saturday	9
▁controll	9
▁magnetic	9
▁existing	9
▁creating	9
▁purchase	9
▁strategy	9
textwidth	9
▁followed	9
Exception	9
▁families	9
▁sequence	9
▁restrict	9
▁February	9
▁electric	9
▁presence	9
▁powerful	9
▁planning	9
▁selected	9
▁produced	9
▁relevant	9
▁Internet	9
▁European	9
▁movement	9
▁watching	9
▁director	9
▁surround	9
▁slightly	9
▁pictures	9
▁finished	9
▁majority	9
▁Thursday	9
▁spectrum	9
▁partners	9
▁relative	9
▁operator	9
▁examples	9
abilities	9
▁neighbor	9
▁daughter	9
▁supposed	9
▁Congress	9
▁changing	9
▁networks	9
▁thoughts	9
▁football	9
▁Although	9
▁spending	9
▁internal	9
▁relation	9
▁estimate	9
▁Research	9
▁exchange	9
▁accuracy	9
▁settings	9
▁describe	9
▁identify	9
▁possibly	9
▁audience	9
▁contrast	9
▁generate	9
▁measured	9
▁velocity	9
▁variable	9
▁election	9
▁district	9
▁becoming	9
▁offering	9
▁hospital	9
▁coverage	9
▁external	9
roduction	9
▁capacity	9
▁returned	9
▁allowing	9
▁combined	9
▁Business	9
▁properly	9
▁prepared	9
▁detailed	9
▁extended	9
▁collabor	9
▁boundary	9
▁conflict	9
▁articles	9
▁creative	9
▁exercise	9
▁measures	9
▁improved	9
▁delivery	9
▁Services	9
▁identity	9
▁accurate	9
▁category	9
▁chemical	9
▁teaching	9
▁feedback	9
▁violence	9
▁intended	9
▁concerns	9
▁momentum	9
▁register	9
▁resource	9
▁citizens	9
▁particle	9
▁marriage	9
▁discover	9
▁entirely	9
▁appeared	9
▁emission	9
▁dynamics	9
▁purposes	9
▁explicit	9
linewidth	9
▁anywhere	9
▁numerous	9
▁standing	9
▁schedule	9
▁distinct	9
▁Hamilton	9
▁affected	9
▁coupling	9
▁advanced	9
▁incorpor	9
▁shopping	9
▁friendly	9
▁creation	9
▁accounts	9
▁realized	9
▁password	9
▁teachers	9
▁incident	9
▁exciting	9
▁fighting	9
▁speaking	9
▁patterns	9
▁suggests	9
▁hundreds	9
▁accident	9
▁substant	9
▁opposite	9
▁strongly	9
▁Japanese	9
▁hardware	9
▁announce	9
▁Minister	9
▁reaction	9
▁District	9
▁phenomen	9
▁shooting	9
▁achieved	9
▁somewhat	9
▁channels	9
▁bringing	9
▁fraction	9
▁politics	9
▁indicate	9
▁versions	9
▁Security	9
▁consists	9
▁scenario	9
▁revealed	9
▁symmetry	9
▁surprise	9
▁vehicles	9
▁circumst	9
▁replaced	9
▁Director	9
▁recorded	9
▁suitable	9
▁religion	9
ibilities	9
timestamp	9
▁believed	9
▁occasion	9
▁breaking	9
▁cultural	9
▁repeated	9
▁inspired	9
▁accepted	9
▁officers	9
▁consumer	9
▁parallel	9
▁interact	9
▁websites	9
▁resident	9
▁universe	9
questions	9
▁absolute	9
▁criminal	9
▁discount	9
▁galaxies	9
▁recovery	9
▁supports	9
▁tomorrow	9
▁accommod	9
▁approved	9
▁spectral	9
subfigure	9
▁sentence	9
▁independ	9
ventional	9
▁reliable	9
▁facility	9
▁referred	9
▁provider	9
▁sections	9
avascript	9
▁protocol	9
▁feelings	9
▁normally	9
nAlthough	9
▁stronger	9
▁Canadian	9
▁directed	9
▁whenever	9
▁attached	9
▁applying	9
▁symptoms	9
▁visitors	9
▁academic	9
▁shipping	9
▁agencies	9
▁magazine	9
▁modified	9
▁upcoming	9
▁domestic	9
▁proposal	9
▁birthday	9
▁requests	9
▁believes	9
▁cleaning	9
▁involves	9
▁detected	9
▁employee	9
▁occurred	9
▁machines	9
▁integral	9
▁exposure	9
▁controls	9
▁prospect	9
▁struggle	9
▁suddenly	9
▁explains	9
▁featured	9
▁assuming	9
▁computed	9
▁presents	9
▁visiting	9
▁Administ	9
Component	9
▁drinking	9
▁distingu	9
▁attempts	9
▁Williams	9
▁Carolina	9
▁matching	9
▁decrease	9
structure	9
▁Michigan	9
including	9
▁interior	9
▁Virginia	9
▁everyday	9
▁vertices	9
▁Catholic	9
▁informed	9
▁mountain	9
▁arrested	9
▁choosing	9
▁tracking	9
▁packages	9
▁wireless	9
▁interval	9
▁clinical	9
▁Gaussian	9
▁commonly	9
▁covering	9
▁clusters	9
▁employed	9
nfunction	9
▁hypothes	9
▁pleasure	9
▁Pakistan	9
▁singular	9
▁priority	9
▁assigned	9
▁regional	9
▁vertical	9
▁reducing	9
▁checking	9
▁division	9
▁Software	9
▁rational	9
▁criteria	9
▁thorough	9
▁terminal	9
▁carrying	9
▁instruct	9
▁subjects	9
▁meetings	9
▁medicine	9
protected	9
▁sampling	9
▁energies	9
▁remained	9
▁injuries	9
scription	9
▁bathroom	9
▁conclude	9
▁quantity	9
▁payments	9
▁minister	9
▁memories	9
▁painting	9
▁handling	9
ustration	9
▁approval	9
▁sessions	9
▁attitude	9
▁vacation	9
▁profiles	9
▁Colorado	9
▁graphics	9
▁matrices	9
▁infinite	9
▁graduate	9
ictionary	9
▁concepts	9
▁ultimate	9
▁studying	9
▁thousand	9
▁baseball	9
▁lifetime	9
▁attended	9
▁Southern	9
▁clicking	9
▁somebody	9
▁flexible	9
▁forecast	9
▁clothing	9
▁produces	9
▁entering	9
▁geometry	9
▁aircraft	9
▁shoulder	9
avelength	9
▁mathemat	9
▁unlikely	9
▁designer	9
▁captured	9
▁ordinary	9
▁soldiers	9
▁disorder	9
▁keyboard	9
▁concrete	9
▁guidance	9
▁reaching	9
▁duration	9
▁suffered	9
▁Festival	9
▁supplies	9
▁enjoying	9
▁stations	9
▁theories	9
▁downtown	9
▁historic	9
▁admitted	9
▁focusing	9
▁lighting	9
▁managing	9
▁randomly	9
▁mistakes	9
▁Hospital	9
▁removing	9
▁Children	9
▁contents	9
▁dominant	9
▁overcome	9
▁Division	9
container	9
▁outcomes	9
▁festival	9
▁grateful	9
▁Standard	9
underline	9
▁speakers	9
▁southern	9
▁receiver	9
▁displays	9
▁resulted	9
▁assembly	9
▁expanded	9
▁surfaces	9
▁episodes	9
▁emotions	9
▁Download	9
▁enhanced	9
▁Northern	9
▁expenses	9
▁confused	9
▁acquired	9
▁answered	9
connected	9
dependent	9
▁discrete	9
▁declared	9
▁commands	9
▁diseases	9
▁targeted	9
▁stunning	9
▁Continue	9
▁managers	9
▁Illinois	9
▁disabled	9
▁collapse	9
▁eligible	9
▁Everyone	9
▁composed	9
▁reserved	9
▁releases	9
▁sleeping	9
▁survival	9
▁modeling	9
▁abstract	9
▁publicly	9
▁calendar	9
▁variance	9
▁withdraw	9
▁northern	9
▁equality	9
▁disaster	9
▁champion	9
paragraph	9
▁advertis	9
▁talented	9
▁gorgeous	9
▁Remember	9
▁Learning	9
component	9
▁entitled	9
▁opponent	9
▁brothers	9
▁printing	9
▁frequent	9
▁promised	9
▁throwing	9
▁judgment	9
▁emerging	9
▁pointing	9
▁dramatic	9
▁Training	9
mentation	9
▁isolated	9
▁Mountain	9
▁producer	9
▁stopping	9
eleration	9
▁embedded	9
▁exponent	9
istically	9
▁gathered	9
▁balanced	9
▁insights	9
▁reviewed	9
▁strictly	9
▁accompan	9
▁smallest	9
▁engaging	9
omorphism	9
▁employer	9
framework	9
algorithm	9
▁adjacent	9
nsylvania	9
▁entrance	9
▁ceremony	9
▁disagree	9
▁pipeline	9
▁residual	9
▁entities	9
condition	9
▁rejected	9
▁Ministry	9
▁diagonal	9
▁manually	9
▁swimming	9
▁actively	9
▁confront	9
▁diameter	9
▁ordering	9
▁manifest	9
▁holidays	9
▁Building	9
▁romantic	9
▁resolved	9
▁periodic	9
▁operated	9
▁preserve	9
▁governor	9
achusetts	9
construct	9
▁workshop	9
▁humanity	9
▁notation	9
▁abortion	9
▁weakness	9
▁performs	9
▁moderate	9
▁ensuring	9
reference	9
▁Interest	9
▁licensed	9
▁counting	9
▁branches	9
▁Columbia	9
▁Students	9
▁contacts	9
▁analyzed	9
▁inherent	9
▁crossing	9
▁claiming	9
▁Anderson	9
isticated	9
▁executed	9
▁relating	9
▁receives	9
nThursday	9
▁coaching	9
▁Medicine	9
▁promises	9
▁contrary	9
▁Appendix	9
▁precious	9
▁striking	9
transform	9
▁charging	9
▁Scotland	9
▁Analysis	9
▁adoption	9
▁enormous	9
▁overview	9
Interface	9
▁subscrib	9
▁warranty	9
downarrow	9
▁defining	9
arliament	9
▁athletes	9
▁ensemble	9
▁attacked	9
Parameter	9
▁circular	9
▁Magazine	9
▁chairman	9
▁petition	9
▁innocent	9
▁manifold	9
▁earnings	9
▁regarded	9
▁reporter	9
▁adequate	9
▁Governor	9
▁deadline	9
▁averaged	9
▁annoying	9
ependence	9
▁reminded	9
Container	9
▁Consider	9
▁segments	9
▁Archives	9
available	9
▁engineer	9
▁declined	9
istration	9
▁Assembly	9
▁dropping	9
▁minority	9
▁arranged	9
▁Maryland	9
▁neutrino	9
▁Exchange	9
nComments	9
▁complain	9
▁homeless	9
overnment	9
placement	9
▁province	9
▁hydrogen	9
▁convince	9
▁Atlantic	9
▁Football	9
▁Universe	9
▁adjusted	9
▁pleasant	9
▁synchron	9
▁treating	9
▁calories	9
mentioned	9
▁congress	9
▁bacteria	9
▁compound	9
▁examined	9
anglement	9
▁override	9
▁centered	9
sequently	9
▁ministry	9
▁supplied	9
▁explored	9
liography	9
▁diagrams	9
▁operates	9
▁marginal	9
▁transmit	9
nSaturday	9
▁cultures	9
▁limiting	9
▁peaceful	9
▁Comments	9
▁weighted	9
▁coherent	9
▁verified	9
nConsider	9
▁overseas	9
▁encoding	9
▁occupied	9
▁searches	9
▁floating	9
conscious	9
▁delivers	9
▁Memorial	9
▁Oklahoma	9
▁navigate	9
▁churches	9
▁blogging	9
▁Property	9
▁Language	9
attribute	9
▁leverage	9
▁Function	9
▁troubles	9
▁Computer	9
▁enabling	9
ividually	9
▁Sciences	9
▁wondered	9
▁deciding	9
▁Victoria	9
▁Kentucky	9
▁switched	9
▁Material	9
▁profound	9
▁darkness	9
▁Partners	9
▁constitu	9
▁artistic	9
▁updating	9
▁Portland	9
▁veterans	9
▁incoming	9
▁Brooklyn	9
Reference	9
▁pressing	9
▁overhead	9
▁survived	9
▁playoffs	9
▁Features	9
▁depicted	9
▁advocate	9
▁heritage	9
effective	9
▁indirect	9
▁Economic	9
▁proteins	9
▁avoiding	9
▁athletic	9
▁Missouri	9
▁treasure	9
▁aluminum	9
▁interpol	9
▁donation	9
▁Democrat	9
▁rotating	9
▁triangle	9
▁invested	9
▁blocking	9
▁Customer	9
▁deployed	9
▁reminder	9
▁climbing	9
▁implicit	9
▁Personal	9
▁portable	9
▁maximize	9
▁creature	9
▁defeated	9
▁laughing	9
▁overlook	9
▁Advanced	9
▁infected	9
▁tendency	9
▁username	9
interface	9
ationally	9
ledgments	9
astically	9
▁cannabis	9
▁portions	9
functions	9
▁mobility	9
aceutical	9
▁Alliance	9
▁wildlife	9
▁excluded	9
▁combines	9
▁feasible	9
▁stressed	9
▁educated	9
▁Chairman	9
▁Thompson	9
▁Jonathan	9
▁relaxing	9
▁Response	9
valuation	9
▁courtesy	9
▁advances	9
▁missions	9
▁situated	9
▁colleges	9
▁consolid	9
▁Actually	9
▁compiled	9
▁counties	9
▁compress	9
Operation	9
▁gameplay	9
▁carriers	9
▁callback	9
▁organize	9
▁sometime	9
▁redirect	9
▁Document	9
▁simplest	9
▁annually	9
▁semester	9
▁literary	9
▁Nintendo	9
▁Medicare	9
▁globally	9
▁goodness	9
▁exhibits	9
▁Register	9
▁reserves	9
▁Electric	9
▁revenues	9
▁Creative	9
▁refriger	9
▁Regional	9
▁outlined	9
▁meantime	9
▁protests	9
▁browsing	9
▁traveled	9
▁analytic	9
▁Olympics	9
▁logarith	9
▁prevents	9
▁promoted	9
▁renormal	9
▁barriers	9
▁listened	9
▁mentally	9
▁gambling	9
▁catching	9
▁topology	9
▁proceeds	9
▁tourists	9
ributions	9
▁formally	9
▁thankful	9
▁validate	9
▁animated	9
▁sexually	9
▁upgraded	9
▁analysts	9
relations	9
▁Lawrence	9
▁oriented	9
▁touching	9
▁basement	9
▁workflow	9
▁searched	9
ropolitan	9
▁Scottish	9
▁Robinson	9
▁Industry	9
▁shifting	9
▁instinct	9
▁thrilled	9
▁validity	9
nRecently	9
Microsoft	9
▁chapters	9
▁monetary	9
▁intimate	9
▁investor	9
▁failures	9
▁achieves	9
▁inserted	9
▁dumpster	9
▁definite	9
▁keywords	9
▁fighters	9
▁variants	9
corollary	9
▁homework	9
direction	9
▁sacrific	9
gregation	9
▁Products	9
▁syndrome	9
▁welcomed	9
▁Baseball	9
important	9
▁connects	9
▁harmonic	9
▁arriving	9
▁scholars	9
▁faithful	9
▁Progress	9
▁Malaysia	9
▁sticking	9
▁Recently	9
▁dominate	9
extension	9
▁smoothly	9
▁ignoring	9
▁Explorer	9
▁Equation	9
▁weekends	9
▁opposing	9
nRemember	9
▁dressing	9
▁midnight	9
▁Franklin	9
▁rendered	9
frequency	9
▁colorful	9
▁mattress	9
▁linearly	9
▁refugees	9
▁Planning	9
▁adaptive	9
▁trillion	9
▁evolving	9
▁subgroup	9
equations	9
▁pursuing	9
itzerland	9
▁bedrooms	9
▁Commerce	9
▁outdoors	9
▁drawings	9
wikipedia	9
▁metallic	9
▁infinity	9
▁Together	9
▁earliest	9
▁showcase	9
▁freshman	9
▁Settings	9
▁steering	9
▁Campbell	9
▁activist	9
▁switches	9
▁captures	9
▁upgrades	9
▁Resource	9
▁cellular	9
▁bloggers	9
▁guessing	9
▁blessing	9
▁charming	9
▁billions	9
▁Thailand	9
generated	9
▁retrieve	9
▁tropical	9
▁observer	9
microsoft	9
▁molecule	9
▁severely	9
▁accessed	9
nInterest	9
▁Jennifer	9
▁spinning	9
▁invasion	9
▁rankings	9
▁Marshall	9
▁mounting	9
smallskip	9
▁psychiat	9
▁spacious	9
▁supplier	9
something	9
▁Practice	9
▁portrait	9
▁Question	9
▁Military	9
▁absorbed	9
▁cylinder	9
▁seasonal	9
prototype	9
fessional	9
resources	9
▁scanning	9
▁demanded	9
▁backpack	9
▁stranger	9
▁delicate	9
subscribe	9
▁activate	9
▁Stanford	9
▁misunder	9
▁elevated	9
▁mentions	9
character	9
▁Probably	9
▁insisted	9
▁Princess	9
▁imported	9
▁Broadway	9
▁backward	9
▁Montreal	9
▁musician	9
▁peripher	9
expensive	9
▁Michelle	9
▁governed	9
▁confined	9
▁notebook	9
▁invented	9
▁midfield	9
▁headline	9
▁develops	9
▁vanishes	9
▁formulas	9
configure	9
nLocation	9
▁listings	9
▁Heritage	9
▁renowned	9
▁civilian	9
▁finishes	9
▁founding	9
▁unwanted	9
▁sporting	9
▁realised	9
▁quarters	9
▁outbreak	9
▁merchand	9
Directory	9
▁murdered	9
▁Arkansas	9
▁Galactic	9
exception	9
▁graphene	9
nSpeaking	9
▁backyard	9
▁Brothers	9
▁warnings	9
▁violated	9
▁timeline	9
operation	9
▁currents	9
▁worrying	9
▁assessed	9
▁simulate	9
▁villages	9
▁stepping	9
▁Platform	9
▁defender	9
▁bleeding	9
▁recalled	9
▁simplify	9
▁notified	9
directory	9
▁Guardian	9
▁formerly	9
▁mistaken	9
▁youngest	9
▁Mitchell	9
▁tailored	9
▁licenses	9
▁infrared	9
▁surgical	9
▁remotely	9
▁imprison	9
▁suspects	9
▁nonsense	9
▁visually	9
▁tomatoes	9
▁monitors	9
▁terrific	9
▁assisted	9
▁shocking	9
incinnati	9
▁Columbus	9
▁deterior	9
▁memorial	9
▁monsters	9
▁filename	9
▁Campaign	9
▁Consumer	9
▁Starting	9
▁Manufact	9
▁Original	9
▁Treasury	9
▁unsigned	9
community	9
▁judicial	9
▁premiere	9
▁firmware	9
▁paradigm	9
▁Egyptian	9
▁uploaded	9
▁republic	9
▁bothered	9
represent	9
▁alliance	9
▁sandwich	9
▁retailer	9
nDecember	9
urability	9
▁damaging	9
▁sensible	9
▁doctrine	9
different	9
▁friction	9
fficiency	9
▁listener	9
bootstrap	9
▁shutdown	9
▁revision	9
▁freezing	9
▁referend	9
▁Location	9
▁arguably	9
▁symbolic	9
▁ignorant	9
▁Transfer	9
▁retained	9
▁outgoing	9
▁clearing	9
▁Patriots	9
▁Venezuel	9
▁ideology	9
▁shortage	9
nFebruary	9
▁compares	9
▁advocacy	9
▁underest	9
▁deposits	9
▁filtered	9
▁attacker	9
claration	9
nNovember	9
▁rebounds	9
▁sciences	9
▁siblings	9
▁obsessed	9
supported	9
▁Networks	9
▁Examples	9
▁promotes	9
▁sponsors	9
▁registry	9
akespeare	9
▁overtime	9
▁vicinity	9
▁Ultimate	9
▁interven	9
▁stealing	9
▁creators	9
nAmerican	9
▁adopting	9
hyperlink	9
▁inviting	9
▁pitching	9
▁inconven	9
positions	9
▁starters	9
▁likewise	9
▁regulate	9
▁Richmond	9
▁finances	9
irmingham	9
▁Strategy	9
▁crystals	9
Wednesday	9
▁McDonald	9
▁triggers	9
▁enrolled	9
▁Harrison	9
▁confirms	9
▁Official	9
▁hardcore	9
▁reversed	9
▁rigorous	9
▁Airlines	9
▁premises	9
▁socially	9
▁bullshit	9
▁probable	9
▁compiler	9
▁stimulus	9
▁underway	9
▁Nebraska	9
▁fairness	9
ographics	9
▁kindness	9
▁textures	9
▁Hispanic	9
▁converge	9
▁glorious	9
▁starring	9
▁concaten	9
commended	9
▁Pictures	9
▁contexts	9
iological	9
▁sunlight	9
▁Multiple	9
▁coloring	9
▁composer	9
▁Recovery	9
▁archives	9
nActually	9
Resources	9
resizebox	9
bsolutely	9
▁Shipping	9
▁Benjamin	9
▁snapshot	9
▁Berkeley	9
▁impacted	9
▁laughter	9
▁readings	9
Statement	9
▁disclose	9
▁journals	9
▁abnormal	9
▁endpoint	9
▁spanning	9
▁breeding	9
▁flooding	9
▁Solution	9
▁cheating	9
selection	9
▁protagon	9
▁spelling	9
▁Warriors	9
▁Veterans	9
▁outdated	9
▁backbone	9
▁Anything	9
▁alphabet	9
▁brighter	9
▁Bayesian	9
▁firearms	9
▁minerals	9
Generator	9
▁cocktail	9
▁coincide	9
▁drilling	9
▁obstacle	9
▁credible	9
nEveryone	9
▁averages	9
▁wellness	9
▁peculiar	9
▁deserved	9
▁endorsed	9
published	9
ordinates	9
nBusiness	9
▁envision	9
▁terribly	9
Selection	9
▁inferred	9
▁longtime	9
vertising	9
▁Protocol	9
▁algebras	9
▁Terminal	9
▁downward	9
▁binaries	9
▁Movement	9
▁Contract	9
▁Margaret	9
▁lowering	9
▁hometown	9
▁Abstract	9
highlight	9
▁figuring	9
▁Optional	9
▁unveiled	9
▁Articles	9
▁salaries	9
setlength	9
ciplinary	9
▁interfer	9
▁Phillips	9
Constants	9
▁lectures	9
▁additive	9
▁overflow	9
▁credited	9
▁landmark	9
▁colonial	9
Transform	9
▁gasoline	9
▁quantify	9
▁informal	9
▁taxpayer	9
▁vitamins	9
▁monument	9
▁Whenever	9
▁Champion	9
▁advisory	9
▁decoding	9
▁plumbing	9
▁Mercedes	9
statement	9
nQuestion	9
▁securing	9
▁Internal	9
irections	9
▁stripped	9
▁resonant	9
▁scrutiny	9
▁workouts	9
▁illusion	9
▁perceive	9
▁steadily	9
▁labeling	9
▁refusing	9
▁Delivery	9
▁Township	9
▁mutually	9
intendent	9
▁troubled	9
nDownload	9
▁Licensed	9
▁threaten	9
▁fidelity	9
▁junction	9
▁lineback	9
▁Wireless	9
▁morality	9
▁princess	9
▁Reynolds	9
▁writings	9
▁sweeping	9
▁responds	9
▁learners	9
asketball	9
▁concerts	9
▁imposing	9
▁offshore	9
▁Election	9
▁planting	9
▁Orthodox	9
▁sounding	9
▁Programs	9
▁Wildlife	9
▁crystall	9
▁efficacy	9
▁stumbled	9
▁injected	9
▁Portugal	9
nNational	9
▁bounding	9
▁Superman	9
▁polished	9
attention	9
▁proposes	9
▁infamous	9
▁launches	9
velopment	9
▁dividing	9
▁finitely	9
▁respects	9
▁bullying	9
▁wardrobe	9
▁severity	9
▁classify	9
▁Citizens	9
▁uncommon	9
▁branding	9
▁exceeded	9
▁grounded	9
▁Russians	9
▁Mathemat	9
▁Physical	9
▁routines	9
▁defended	9
▁Delaware	9
▁medieval	9
▁commerce	9
▁discoura	9
▁Engineer	9
▁airports	9
▁brackets	9
portation	9
▁comprise	9
Extension	9
potential	9
▁shortest	9
▁Assuming	9
▁Clinical	9
▁initiate	9
▁Constant	9
▁LinkedIn	9
▁contours	9
▁nitrogen	9
prisingly	9
▁elliptic	9
▁Interior	9
▁tactical	9
▁Imperial	9
▁aviation	9
▁Activity	9
▁merchant	9
nFeatures	9
▁Category	9
▁rewarded	9
▁Buddhist	9
▁humidity	9
▁Politics	9
▁offended	9
▁Shanghai	9
▁geodesic	9
▁cautious	9
▁downside	9
▁flooring	9
▁secretly	9
▁sunshine	9
▁resigned	9
className	9
▁battling	9
▁comeback	9
nStudents	9
▁canceled	9
▁recycled	9
▁eventual	9
▁speeches	9
▁immunity	9
▁missiles	9
▁Overview	9
▁disputes	9
▁traction	9
▁beginner	9
cellcolor	9
Construct	9
▁lifelong	9
andidates	9
▁airplane	9
▁beverage	9
imensions	9
▁upstream	9
▁Workshop	9
▁crafting	9
▁motivate	9
nResearch	9
▁giveaway	9
▁pictured	9
▁Calendar	9
▁chickens	9
▁liberals	9
▁exposing	9
▁tensions	9
nAbstract	9
▁realizes	9
mediately	9
▁Advisory	9
▁flagship	9
▁elevator	9
▁galactic	9
▁awaiting	9
▁Schedule	9
▁Criminal	9
getString	9
▁bachelor	9
▁Historic	9
▁literacy	9
▁examines	9
▁railroad	9
▁tolerate	9
▁quotient	9
▁interrog	9
▁packaged	9
▁shortcut	9
▁Likewise	9
▁Sullivan	9
nexpected	9
▁shoppers	9
▁contests	9
▁mutation	9
▁backdrop	9
▁theology	9
criptions	9
▁pharmacy	9
▁labelled	9
▁Birthday	9
▁utilizes	9
▁Bachelor	9
▁mechanic	9
▁Brussels	9
▁Compared	9
▁wrapping	9
▁cosmetic	9
▁Collabor	9
▁punished	9
▁sympathy	9
ASHINGTON	9
processor	9
▁Nicholas	9
▁addicted	9
▁Panthers	9
▁premiums	9
▁theaters	9
▁enclosed	9
▁agreeing	9
▁imperial	9
▁maturity	9
▁Peterson	9
▁yielding	9
▁counters	9
operative	9
▁implying	9
partition	9
▁Ferguson	9
▁Ethernet	9
▁cinnamon	9
▁dreaming	9
▁Cultural	9
▁chatting	9
▁Muhammad	9
▁enhances	9
▁feminine	9
▁morphism	9
▁classics	9
▁stubborn	9
▁Projects	9
▁Steelers	9
generator	9
Copyright	9
Christian	9
▁appendix	9
▁driveway	9
▁suburban	9
▁Downtown	9
▁stirring	9
sociation	9
▁dividend	9
▁seasoned	9
Character	9
▁horrific	9
▁diagnose	9
▁Position	9
classical	9
▁borrowed	9
▁weighing	9
▁enforced	9
▁Benefits	9
▁umbrella	9
▁settling	9
▁deceased	9
▁tangible	9
nStarting	9
▁noticing	9
▁assemble	9
▁reversal	9
identally	9
▁caffeine	9
plemented	9
▁knocking	9
▁meanings	9
▁senators	9
▁residing	9
▁pathways	9
sensitive	9
▁multiply	9
▁editions	9
symmetric	9
▁startups	9
▁converts	9
▁crashing	9
▁Teachers	9
cientific	9
▁bookmark	9
▁Designer	9
▁reliably	9
▁atheists	9
▁fixtures	9
▁dissemin	9
▁stickers	9
undefined	9
▁helpless	9
▁systemic	9
▁pandemic	9
▁prostate	9
▁unbiased	9
▁Speaking	9
▁cabinets	9
▁trainers	9
Condition	9
▁catalyst	9
▁relieved	9
▁Required	9
▁thriller	9
▁ambition	9
▁seamless	9
▁dragging	9
▁incompet	9
▁massless	9
Framework	9
▁Purchase	9
▁hearings	9
▁exploded	9
▁believer	9
▁biblical	9
▁culinary	9
▁prisoner	9
▁sidewalk	9
▁grinding	9
mercially	9
▁evenings	9
▁township	9
secondary	9
▁pleasing	9
Direction	9
nExternal	9
▁handmade	9
evolution	9
▁founders	9
▁Confeder	9
▁boarding	9
▁grabbing	9
▁Creating	9
▁Password	9
▁pathetic	9
▁playlist	9
▁detained	9
▁screened	9
▁replaces	9
▁belonged	9
▁freaking	9
▁defenses	9
▁receptor	9
▁boosting	9
▁Graduate	9
▁divorced	9
▁citation	9
▁textbook	9
▁proclaim	9
ArrayList	9
▁shouting	9
▁stresses	9
▁deleting	9
▁referral	9
▁disposed	9
▁crushing	9
▁elephant	9
▁outlines	9
▁Secondly	9
▁Discover	9
▁impurity	9
▁surveyed	9
nCustomer	9
▁dispatch	9
▁thriving	9
nobtained	9
▁coloured	9
▁suffices	9
▁builders	9
radiation	9
▁balances	9
Therefore	9
▁allergic	9
▁swelling	9
▁McCarthy	9
▁teammate	9
▁paradise	9
▁prepares	9
clamation	9
▁Academic	9
▁Martinez	9
▁invasive	9
▁attained	9
▁contempt	9
Processor	9
napproxim	9
qualified	9
threshold	9
▁securely	9
▁Includes	9
▁forwards	9
▁migrants	9
Structure	9
versation	9
▁juvenile	9
According	9
orescence	9
othetical	9
▁daunting	9
WriteLine	9
▁playback	9
▁trailing	9
▁repaired	9
▁remedies	9
▁vaccines	9
▁subgraph	9
President	9
▁consoles	9
▁knitting	9
Algorithm	9
▁Seahawks	9
▁Teaching	9
▁catering	9
Available	9
▁Christie	9
▁destined	9
▁timeless	9
▁Province	9
▁mornings	9
ninterest	9
▁attracts	9
▁skeleton	9
requently	9
▁Shopping	9
▁collects	9
▁tempting	9
▁Marriage	9
▁openings	9
▁Americas	9
▁advisors	9
▁nickname	9
▁numbered	9
sometimes	9
▁cracking	9
▁delegate	9
▁squeezed	9
▁inverted	9
▁Colombia	9
▁outfield	9
▁tackling	9
▁optimism	9
▁Behavior	9
▁allocate	9
▁incurred	9
▁roommate	9
Converter	9
otherwise	9
▁sanction	9
▁landlord	9
▁mainland	9
▁orbitals	9
▁warriors	9
▁extracts	9
▁reliance	9
▁pitchers	9
▁welcomes	9
resistant	9
Animation	9
▁SOFTWARE	9
▁Brisbane	9
▁sickness	9
▁swinging	9
▁holistic	9
▁sketches	9
▁unlocked	9
▁printers	9
▁firewall	9
▁Identity	9
▁distract	9
▁devotion	9
▁calculus	9
▁harmless	9
▁shelters	9
existence	9
▁genocide	9
▁cartoons	9
▁forehead	9
▁nutrient	9
September	9
▁american	9
▁speeding	9
▁Thinking	9
▁colonies	9
icultural	9
▁passions	9
▁Managing	9
▁scalable	9
▁workload	9
▁recharge	9
▁smoother	9
▁uniforms	9
▁Buddhism	9
▁unlawful	9
▁chambers	9
▁analysed	9
▁trailers	9
▁Crawford	9
▁comedian	9
▁Previous	9
▁blending	9
▁enduring	9
▁Religion	9
▁partisan	9
▁seminars	9
▁flashing	9
dimension	9
▁Marathon	9
▁Zimbabwe	9
consuming	9
▁exported	9
▁Gonzalez	9
nBuilding	9
▁Chrysler	9
▁Dolphins	9
▁doubling	9
▁survivor	9
▁persuade	9
variables	9
▁flipping	9
▁daylight	9
▁imminent	9
▁organism	9
nequation	9
▁Athletic	9
▁overhaul	9
▁pointers	9
political	9
▁Creation	9
▁cyclists	9
▁analogue	9
▁Benedict	9
▁homepage	9
▁Tomorrow	9
▁Vladimir	9
nconsider	9
▁Paradise	9
▁Graphics	9
nProperty	9
nChildren	9
▁toughest	9
▁eternity	9
▁impaired	9
▁shipment	9
▁Sterling	9
▁reactive	9
▁podcasts	9
▁offenses	9
▁Problems	9
▁inspires	9
▁Homeland	9
▁aspiring	9
nPersonal	9
Execution	9
▁Officers	9
▁genetics	9
▁necklace	9
▁stacking	9
▁taxation	9
▁humorous	9
▁insurers	9
FORMATION	9
▁Thoughts	9
canonical	9
▁adapting	9
▁narrator	9
▁Facility	9
▁communal	9
Sometimes	9
▁appealed	9
▁Normally	9
▁Twilight	9
▁campuses	9
▁cemetery	9
▁declines	9
▁freedoms	9
▁fountain	9
▁detached	9
alignment	9
checkmark	9
matically	9
▁Senators	9
▁drafting	9
▁Cardinal	9
▁Israelis	9
▁killings	9
▁Hawaiian	9
▁Dynamics	9
▁bouncing	9
▁Sessions	9
▁plethora	9
▁Designed	9
ructuring	9
organized	9
ViewModel	9
▁Edmonton	9
▁husbands	9
▁lobbying	9
▁Chemical	9
▁dwelling	9
▁decaying	9
▁rainfall	9
▁muscular	9
DataFrame	9
▁DateTime	9
▁carriage	9
▁decorate	9
quisition	9
▁weakened	9
▁philanth	9
▁activism	9
▁obsolete	9
▁trapping	9
▁plotting	9
▁retiring	9
▁redesign	9
▁Reporter	9
Signature	9
▁Avengers	9
▁autonomy	9
▁hardwood	9
▁orchestr	9
nAssuming	9
▁granting	9
▁homeland	9
▁deformed	9
▁artifact	9
▁highways	9
sponsored	9
▁Morrison	9
▁soothing	9
▁Decision	9
▁Dumpster	9
▁Redskins	9
▁monopoly	9
▁affinity	9
▁reviewer	9
▁Cleaning	9
ndescribe	9
▁altering	9
▁marketed	9
openhagen	9
▁throttle	9
cientists	9
▁Suddenly	9
▁Strength	9
▁computes	9
▁greeting	9
ymmetries	9
▁escaping	9
▁Mohammed	9
▁Symphony	9
locations	9
▁Critical	9
▁inactive	9
nOverview	9
▁offender	9
▁screamed	9
▁shutting	9
vanishing	9
▁massacre	9
▁intermit	9
▁educator	9
▁donating	9
▁feathers	9
▁prohibit	9
▁fruitful	9
▁follower	9
▁drainage	9
▁Employee	9
▁elegance	9
▁solitary	9
▁Provider	9
▁gigantic	9
minecraft	9
▁Hardware	9
▁Matthews	9
▁ImageNet	9
▁competed	9
developer	9
▁immersed	9
▁Violence	9
▁asserted	9
▁remnants	9
▁patented	9
▁barbecue	9
▁theorems	9
▁Cemetery	9
▁Aviation	9
aporation	9
▁launcher	9
▁slipping	9
▁emitting	9
▁youthful	9
▁Austrian	9
▁Richards	9
▁trusting	9
▁intimacy	9
Americans	9
asionally	9
▁maternal	9
▁preceded	9
▁silicone	9
▁thirteen	9
▁traveler	9
▁homotopy	9
Alignment	9
developed	9
ellington	9
▁Changing	9
▁Nigerian	9
▁Standing	9
essionals	9
▁Caroline	9
▁ignition	9
Threading	9
▁famously	9
nSecondly	9
▁cheering	9
unciation	9
▁remarked	9
▁Distance	9
▁alarming	9
▁grouping	9
▁specials	9
▁tortured	9
▁Approach	9
stituting	9
▁downhill	9
▁Adelaide	9
▁Auckland	9
▁suspense	9
Timestamp	9
stringify	9
▁silently	9
▁audition	9
▁prolific	9
▁retarded	9
Something	9
▁archived	9
▁Treasure	9
▁handheld	9
▁insecure	9
▁Biblical	9
▁leftover	9
▁warrants	9
▁Syracuse	9
committee	9
▁Extended	9
▁breakout	9
▁striving	9
▁drawback	9
▁skipping	9
▁ornament	9
described	9
▁Needless	9
▁obstruct	9
▁paycheck	9
▁enriched	9
▁flawless	9
▁sparsity	9
▁councils	9
▁imperson	9
▁Included	9
▁outliers	9
▁Breaking	9
▁grandson	9
calculate	9
▁Ethiopia	9
constants	9
▁selector	9
dominated	9
▁Criteria	9
installed	9
▁Winnipeg	9
▁footwear	9
Numerical	9
nStandard	9
▁Phillies	9
▁paranoid	9
ocumented	9
subscript	9
▁factions	9
▁Platinum	9
▁deficits	9
▁recruits	9
nPrevious	9
quartered	9
conductor	9
▁flourish	9
▁pavement	9
▁debating	9
▁modelled	9
copyright	9
▁neutrons	9
▁stitches	9
▁overload	9
transport	9
▁extraord	9
▁Davidson	9
agination	9
▁holdings	9
▁fracture	9
▁logistic	9
▁extremes	9
▁feminism	9
▁Chargers	9
▁adhesive	9
▁Inspired	9
▁Positive	9
▁robotics	9
▁Emirates	9
▁horribly	9
detection	9
▁infantry	9
▁declares	9
▁deprived	9
▁promoter	9
▁External	9
▁shooters	9
▁Exercise	9
▁Evidence	9
▁marching	9
▁Straight	9
▁Holdings	9
objective	9
▁nominees	9
▁receipts	9
dashboard	9
▁Tracking	9
▁planners	9
▁ablation	9
ermediate	9
ificially	9
planation	9
▁steroids	9
converted	9
▁eyebrows	9
▁ventures	9
ochemical	9
▁diminish	9
▁postings	9
▁enlarged	9
▁humility	9
agnostics	9
nobserved	9
nFeatured	9
▁standout	9
notations	9
▁Savannah	9
▁advising	9
▁staffing	9
▁mandated	9
▁deletion	9
▁pensions	9
▁maritime	9
▁advisers	9
▁Possible	9
▁afforded	9
▁settlers	9
▁garments	9
▁Shepherd	9
▁Reserved	9
oelectric	9
▁disputed	9
▁mushroom	9
▁Motorola	9
▁inertial	9
▁chilling	9
▁openness	9
▁Sunshine	9
▁ancestor	9
▁miracles	9
universal	9
▁bicycles	9
▁succeeds	9
▁Brighton	9
▁Contents	9
▁Yourself	9
▁financed	9
▁Discount	9
▁forgiven	9
activated	9
ographers	9
addresses	9
▁fourteen	9
▁deferred	9
▁destroys	9
sequences	9
▁locality	9
▁takeover	9
nconstant	9
nsolution	9
▁Observer	9
▁Sections	9
tfunction	9
▁casually	9
▁heavenly	9
▁wrinkles	9
uminosity	9
▁WARRANTY	9
▁mastered	9
ographies	9
▁bearings	9
▁stranded	9
▁hardship	9
▁Cambodia	9
▁Fighting	9
▁departed	9
▁halftime	9
contained	9
instagram	9
▁cavities	9
▁prophecy	9
Subscribe	9
▁homicide	9
▁academia	9
▁Istanbul	9
▁pounding	9
▁Schwartz	9
religious	9
▁swapping	9
▁bisexual	9
endregion	9
▁deputies	9
▁testimon	9
▁kitchens	9
▁whopping	9
▁nuisance	9
Documents	9
nInternet	9
▁Packages	9
▁converse	9
▁observes	9
▁Chandler	9
▁Lebanese	9
▁eclectic	9
▁homology	9
▁vanished	9
nWhenever	9
▁closures	9
nRepublic	9
▁voltages	9
education	9
struments	9
▁smoothed	9
▁Spectrum	9
▁Expected	9
▁Filipino	9
▁twisting	9
nmagnetic	9
▁hardness	9
regulated	9
▁Clifford	9
▁Specific	9
▁bracelet	9
Formatter	9
reciation	9
animation	9
getLogger	9
▁cupcakes	9
▁persists	9
▁locating	9
▁Majorana	9
Functions	9
▁covenant	9
▁thinkers	9
▁spoilers	9
polarized	9
▁Registry	9
▁extremal	9
▁helicity	9
Transport	9
appointed	9
ificantly	9
▁Majority	9
according	9
▁Mortgage	9
▁Keyboard	9
▁antibody	9
▁cruising	9
▁enlisted	9
▁erection	9
geometric	9
▁horizons	9
▁scouting	9
financial	9
▁vomiting	9
▁waveform	9
▁Domestic	9
▁downturn	9
signature	9
▁Generate	9
▁reactors	9
▁inventor	9
Community	9
hetically	9
▁depleted	9
▁excludes	9
▁nicotine	9
▁vampires	9
▁reacting	9
▁cookbook	9
▁insanity	9
▁Highland	9
nSecurity	9
▁lifespan	9
▁outweigh	9
knowledge	9
▁watering	9
nSimplify	9
▁outburst	9
▁splendid	9
▁inflated	9
▁bilinear	9
itsubishi	9
▁Combined	9
▁mediated	9
execution	9
inventory	9
▁explorer	9
▁charcoal	9
▁handlers	9
president	9
▁starving	9
▁quitting	9
▁formulae	9
▁Friedman	9
▁Snapchat	9
▁modifier	9
nCreating	9
▁Prospect	9
▁crawling	9
nanalysis	9
substring	9
▁Lighting	9
▁Salvador	9
▁Samantha	9
▁gracious	9
▁Accuracy	9
▁Applying	9
▁honoring	9
▁authored	9
▁Africans	9
▁surfaced	9
migration	9
▁cheerful	9
▁clueless	9
forcement	9
▁Holidays	9
▁Variable	9
versarial	9
▁dictated	9
▁Coverage	9
▁recorder	9
▁Messages	9
▁hovering	9
▁snippets	9
▁Accounts	9
▁Infinity	9
▁Liberals	9
▁conserve	9
▁toxicity	9
▁platinum	9
▁strained	9
Supported	9
▁Watching	9
▁balloons	9
▁bursting	9
▁markings	9
▁aquarium	9
confirmed	9
▁Visitors	9
▁dictator	9
▁Kingston	9
▁Lutheran	9
nExamples	9
Configure	9
▁installs	9
▁wandered	9
hopefully	9
▁Railroad	9
▁murderer	9
▁pancakes	9
▁downtime	9
▁mystical	9
▁titanium	9
▁Bradford	9
▁tolerant	9
▁withdrew	9
▁destabil	9
publisher	9
▁diarrhea	9
▁sinister	9
▁Friendly	9
▁Pleasant	9
▁narrowly	9
▁playable	9
▁Midnight	9
▁diabetic	9
▁dictates	9
▁punching	9
▁bookings	9
▁discreet	9
ClassName	9
iparticle	9
▁isotopes	9
▁Sherlock	9
▁surgeons	9
▁trousers	9
▁Operator	9
▁traverse	9
Corollary	9
currently	9
▁broccoli	9
▁novelist	9
▁Machines	9
▁Patricia	9
▁assaults	9
▁polymers	9
depending	9
▁ruthless	9
▁stocking	9
▁applause	9
typically	9
▁deriving	9
▁plastics	9
▁conceded	9
▁modality	9
▁politely	9
▁scissors	9
▁sideways	9
▁dinosaur	9
▁Producer	9
Variables	9
nCompared	9
▁Bulgaria	9
▁denoting	9
▁lightest	9
▁scandals	9
▁capsules	9
▁disappro	9
▁trustees	9
▁brushing	9
▁Survival	9
expansion	9
▁sneakers	9
▁trending	9
▁tutoring	9
ntogether	9
▁excerpts	9
▁policing	9
▁Islamist	9
▁Lifetime	9
▁populate	9
ifference	9
▁shredded	9
napproach	9
▁Chambers	9
▁watchdog	9
▁ancestry	9
▁oversees	9
intensity	9
▁Pressure	9
▁haunting	9
▁drowning	9
▁survives	9
▁toroidal	9
completed	9
▁polarity	9
▁Triangle	9
▁breaches	9
▁Darkness	9
▁Increase	9
▁aromatic	9
unningham	9
▁cohesive	9
▁subtract	9
▁indexing	9
nLearning	9
▁asteroid	9
▁narrower	9
Obviously	9
▁migrated	9
▁shedding	9
Completed	9
▁offences	9
▁recovers	9
nApplying	9
ributable	9
▁monotone	9
terrorism	9
▁Pipeline	9
▁cervical	9
▁prophets	9
▁resisted	9
▁coronary	9
▁gripping	9
▁sweating	9
▁brutally	9
▁frosting	9
▁suitably	9
▁inducing	9
▁melodies	9
Generated	9
▁insanely	9
▁stuffing	9
▁dripping	9
▁fortunes	9
▁immature	9
▁volcanic	9
Candidate	9
▁Speedway	9
▁bindings	9
▁conducts	9
▁Hartford	9
▁agnostic	9
▁Pavilion	9
▁anchored	9
▁embodied	9
▁trolling	9
LowerCase	9
portfolio	9
▁grooming	9
nintegral	9
nstandard	9
▁Priority	9
▁Printing	9
▁dissolve	9
Relations	9
▁Incorpor	9
▁slowdown	9
▁Jennings	9
<strong>	8
</table>	8
</tbody>	8
filename	8
▁because	8
▁differe	8
▁through	8
equation	8
▁between	8
▁support	8
▁process	8
▁develop	8
▁without	8
▁perform	8
▁another	8
▁product	8
▁program	8
▁current	8
▁feature	8
▁against	8
▁project	8
▁present	8
▁problem	8
▁results	8
▁thought	8
▁charact	8
▁example	8
▁already	8
▁company	8
▁working	8
▁looking	8
▁provide	8
▁respect	8
▁getting	8
▁service	8
▁control	8
iversity	8
▁several	8
▁account	8
▁success	8
▁special	8
▁However	8
▁general	8
▁someone	8
ribution	8
▁country	8
▁content	8
▁similar	8
▁started	8
▁measure	8
▁describ	8
▁suggest	8
▁believe	8
▁complet	8
▁install	8
▁connect	8
ncomment	8
▁include	8
▁million	8
▁network	8
▁require	8
▁whether	8
▁members	8
▁profess	8
▁percent	8
▁further	8
▁version	8
▁website	8
▁quality	8
pecially	8
ications	8
▁friends	8
▁address	8
▁express	8
▁nothing	8
▁perfect	8
▁however	8
cription	8
▁running	8
▁section	8
▁minutes	8
▁contact	8
perature	8
▁systems	8
▁respons	8
▁history	8
▁instead	8
▁various	8
▁average	8
▁changes	8
▁request	8
▁subject	8
▁players	8
▁forward	8
▁reading	8
▁outside	8
▁mention	8
▁complex	8
▁regular	8
▁usually	8
▁writing	8
▁created	8
▁article	8
ological	8
▁comment	8
▁details	8
▁correct	8
▁initial	8
▁playing	8
▁consist	8
ependent	8
▁natural	8
▁related	8
▁written	8
▁attempt	8
▁methods	8
▁popular	8
▁collect	8
▁America	8
▁serious	8
▁decided	8
▁options	8
▁density	8
▁follows	8
▁display	8
▁effects	8
▁surface	8
▁ability	8
ulations	8
▁morning	8
▁exactly	8
▁private	8
▁release	8
position	8
▁numbers	8
▁quickly	8
▁receive	8
▁continu	8
▁comfort	8
▁parents	8
▁leading	8
▁finally	8
▁leaders	8
ccording	8
▁prevent	8
▁himself	8
▁towards	8
▁talking	8
username	8
▁convers	8
▁medical	8
▁meeting	8
▁limited	8
▁element	8
▁obvious	8
▁amazing	8
▁allowed	8
▁picture	8
▁student	8
▁conduct	8
▁concept	8
▁English	8
▁setting	8
▁contain	8
nonumber	8
▁changed	8
▁January	8
▁feeling	8
▁becomes	8
▁command	8
▁stories	8
▁smaller	8
▁concern	8
▁brought	8
ednesday	8
▁located	8
▁achieve	8
▁machine	8
▁variety	8
▁overall	8
▁meaning	8
▁college	8
▁Austral	8
▁sources	8
▁studies	8
overline	8
▁October	8
▁purpose	8
▁applied	8
▁reasons	8
▁growing	8
▁devices	8
entially	8
▁Windows	8
▁learned	8
▁maximum	8
atically	8
function	8
▁greater	8
▁science	8
▁central	8
▁clearly	8
▁happens	8
▁perhaps	8
▁appears	8
▁produce	8
▁weekend	8
▁digital	8
▁reports	8
▁billion	8
▁quantum	8
▁culture	8
▁classes	8
▁largest	8
▁remains	8
▁federal	8
▁channel	8
ensional	8
▁finding	8
▁hundred	8
▁quarter	8
icrosoft	8
▁attract	8
▁society	8
▁clients	8
▁schools	8
▁Section	8
▁factors	8
▁primary	8
▁restaur	8
▁opinion	8
▁husband	8
▁reality	8
▁brother	8
▁objects	8
▁healthy	8
▁showing	8
▁economy	8
▁counter	8
▁station	8
▁vehicle	8
▁package	8
▁biggest	8
nHowever	8
▁minimum	8
▁actions	8
▁equival	8
▁Because	8
▁testing	8
▁driving	8
▁highest	8
▁Tuesday	8
▁Service	8
▁explain	8
▁disease	8
▁waiting	8
▁guarant	8
▁respond	8
▁opening	8
▁conserv	8
▁missing	8
▁willing	8
▁offered	8
▁traffic	8
▁efforts	8
▁deliver	8
▁British	8
▁workers	8
▁profile	8
▁pattern	8
▁reduced	8
▁excited	8
▁manager	8
▁keeping	8
▁samples	8
▁foreign	8
▁General	8
▁Council	8
▁storage	8
▁leaving	8
▁removed	8
▁balance	8
▁helping	8
▁College	8
▁century	8
▁session	8
▁covered	8
▁defense	8
▁consult	8
▁putting	8
▁weather	8
▁partner	8
▁monitor	8
▁massive	8
▁seconds	8
▁totally	8
▁freedom	8
▁concent	8
▁illustr	8
▁regions	8
▁Chinese	8
▁extract	8
▁mission	8
▁Twitter	8
▁awesome	8
▁helpful	8
▁Michael	8
▁reached	8
▁Program	8
▁proceed	8
▁realize	8
▁reviews	8
▁Theorem	8
standing	8
▁conclud	8
▁library	8
▁depends	8
▁sharing	8
▁managed	8
possible	8
▁calling	8
▁fashion	8
▁parties	8
▁England	8
▁compare	8
▁authors	8
▁sitting	8
▁Florida	8
▁Develop	8
▁trained	8
▁records	8
▁animals	8
▁researc	8
▁focused	8
▁evening	8
▁readers	8
▁typical	8
▁walking	8
▁telling	8
▁holding	8
▁kitchen	8
▁Science	8
▁attacks	8
▁stopped	8
▁teacher	8
▁advance	8
▁passion	8
▁noticed	8
▁updated	8
language	8
ometimes	8
▁nuclear	8
▁welcome	8
▁charged	8
▁hearing	8
ructions	8
▁episode	8
▁appoint	8
▁univers	8
▁married	8
▁charges	8
▁updates	8
▁winning	8
▁failure	8
▁trouble	8
inations	8
▁accompl	8
▁Further	8
▁Company	8
▁dollars	8
▁formula	8
▁uniform	8
▁Project	8
▁studied	8
▁Chicago	8
▁selling	8
▁funding	8
▁carried	8
▁classic	8
▁enjoyed	8
question	8
▁destroy	8
▁degrees	8
▁markets	8
▁cluster	8
▁climate	8
▁payment	8
▁encount	8
operator	8
▁confirm	8
▁housing	8
▁moments	8
▁implies	8
▁figures	8
▁segment	8
▁portion	8
▁virtual	8
▁Instead	8
▁choices	8
▁knowing	8
▁aspects	8
▁holiday	8
attering	8
▁diagram	8
▁treated	8
▁answers	8
▁derived	8
▁windows	8
▁enhance	8
▁arrived	8
▁battery	8
▁optical	8
▁experts	8
▁Germany	8
▁wearing	8
ployment	8
▁Russian	8
▁herself	8
▁plastic	8
▁Central	8
▁wedding	8
▁African	8
▁witness	8
▁artists	8
▁anymore	8
▁capable	8
▁ordered	8
ollowing	8
▁dynamic	8
▁officer	8
▁Western	8
▁license	8
▁planned	8
▁involve	8
▁seeking	8
▁Network	8
▁passing	8
Response	8
▁shouldn	8
filtered	8
▁compact	8
ifferent	8
▁capture	8
▁turning	8
▁perturb	8
▁suspect	8
nAnother	8
gorithms	8
▁extends	8
▁unknown	8
▁weapons	8
▁proport	8
▁sustain	8
▁trading	8
▁matters	8
▁drivers	8
▁cookies	8
response	8
▁Another	8
ographic	8
▁desired	8
missions	8
▁algebra	8
▁victory	8
▁minimal	8
▁arrange	8
▁assumed	8
▁promote	8
▁privacy	8
▁serving	8
▁Finally	8
▁surgery	8
▁revenue	8
▁Angeles	8
▁neither	8
▁spatial	8
▁reconst	8
▁Johnson	8
itutions	8
expected	8
▁observe	8
▁prepare	8
▁justice	8
▁dealing	8
▁parking	8
opyright	8
culation	8
▁extreme	8
▁alcohol	8
pression	8
▁illegal	8
▁watched	8
lections	8
▁closely	8
▁signals	8
▁Richard	8
▁clothes	8
▁compens	8
▁younger	8
▁claimed	8
▁Profess	8
▁compute	8
▁designs	8
▁protein	8
▁alleged	8
anguages	8
clusions	8
▁Special	8
▁theorem	8
▁posting	8
▁cutting	8
▁succeed	8
▁largely	8
Property	8
▁entered	8
nFinally	8
▁strange	8
▁spectra	8
▁pointed	8
▁William	8
▁warrant	8
Override	8
▁disappe	8
▁Society	8
▁somehow	8
▁promise	8
▁whereas	8
▁authent	8
idelines	8
omething	8
▁contest	8
▁checked	8
▁Federal	8
▁physics	8
▁sending	8
▁tonight	8
ramework	8
▁amounts	8
▁courses	8
▁causing	8
▁instant	8
▁killing	8
▁stellar	8
▁recover	8
▁adopted	8
▁village	8
▁creates	8
▁preserv	8
▁matches	8
▁circuit	8
▁writers	8
▁aggress	8
▁upgrade	8
▁tickets	8
▁cooking	8
▁edition	8
▁drawing	8
▁streets	8
▁victims	8
▁electro	8
▁outcome	8
▁chapter	8
document	8
▁divided	8
▁inspect	8
▁Clinton	8
▁warning	8
▁Jackson	8
▁chicken	8
▁Manager	8
▁monthly	8
▁ongoing	8
▁multipl	8
▁weights	8
▁opposed	8
▁ancient	8
▁falling	8
▁suppose	8
▁Library	8
▁History	8
▁insight	8
▁Spanish	8
▁Control	8
▁mistake	8
▁operate	8
▁therapy	8
▁assault	8
▁Italian	8
▁careful	8
▁satisfy	8
▁roughly	8
▁seasons	8
▁Justice	8
▁musical	8
▁propose	8
▁organic	8
location	8
▁Whether	8
▁bedroom	8
▁possess	8
unctions	8
▁targets	8
▁equally	8
▁angular	8
▁greatly	8
▁partial	8
▁absence	8
▁Supreme	8
▁premium	8
▁chances	8
▁exposed	8
▁Perhaps	8
▁council	8
▁summary	8
▁Medical	8
▁visited	8
▁wanting	8
▁routine	8
▁rapidly	8
▁YouTube	8
▁delight	8
▁Product	8
▁vectors	8
▁elected	8
▁offense	8
▁fitting	8
▁doctors	8
▁fucking	8
▁Support	8
▁Academy	8
▁worried	8
▁entries	8
▁pleased	8
▁scaling	8
▁desktop	8
▁persons	8
Instance	8
▁Connect	8
▁acceler	8
▁discipl	8
▁Britain	8
▁illness	8
▁Through	8
irection	8
▁airport	8
▁heavily	8
▁lessons	8
▁counsel	8
▁speaker	8
urations	8
plements	8
▁gravity	8
▁generic	8
▁Charles	8
▁letting	8
▁neutral	8
▁trigger	8
property	8
▁accused	8
▁viewing	8
▁mapping	8
▁survive	8
▁invited	8
▁fitness	8
▁staying	8
▁locally	8
▁Ireland	8
▁boolean	8
▁coupled	8
▁flowers	8
▁outdoor	8
iversary	8
▁granted	8
▁pushing	8
▁heading	8
▁engaged	8
▁closing	8
nBecause	8
▁hitting	8
Resource	8
▁cameras	8
▁applies	8
▁ceremon	8
ublished	8
▁induced	8
▁Pacific	8
▁emotion	8
▁voltage	8
▁printed	8
markdown	8
▁screens	8
ogeneous	8
▁injured	8
▁penalty	8
▁combine	8
▁Georgia	8
▁factory	8
▁reverse	8
▁protest	8
▁nations	8
▁founded	8
▁joining	8
▁fingers	8
▁reduces	8
▁savings	8
▁anxiety	8
▁fiction	8
▁demands	8
▁contrad	8
▁centers	8
▁servers	8
▁columns	8
▁Digital	8
▁decline	8
▁hosting	8
▁Without	8
▁entropy	8
▁Despite	8
▁nearest	8
▁Seattle	8
▁bounded	8
▁precise	8
▁curious	8
▁utility	8
▁consent	8
▁intense	8
▁filling	8
▁figured	8
▁recipes	8
▁resolve	8
▁finance	8
formance	8
▁metrics	8
▁raising	8
▁Arizona	8
▁analyze	8
nFurther	8
American	8
▁compete	8
▁picking	8
ensities	8
▁Current	8
Listener	8
▁Zealand	8
▁examine	8
▁beliefs	8
▁fantasy	8
▁Houston	8
olutions	8
▁console	8
▁removal	8
instance	8
▁refused	8
▁disturb	8
▁scoring	8
▁Kingdom	8
▁texture	8
▁anybody	8
▁signing	8
▁hanging	8
▁solving	8
▁smoking	8
▁offices	8
▁arrival	8
▁Toronto	8
▁burning	8
▁Israeli	8
▁liberal	8
itations	8
▁fishing	8
▁leather	8
▁couples	8
▁exhibit	8
▁Account	8
▁western	8
specific	8
▁varying	8
▁healing	8
▁scholar	8
▁heating	8
▁concert	8
▁violent	8
▁conform	8
▁Process	8
▁Islamic	8
▁Eastern	8
complete	8
interest	8
▁farmers	8
▁cooling	8
▁focuses	8
Function	8
▁ignored	8
▁Content	8
friendly	8
▁faculty	8
▁strings	8
relation	8
▁cancell	8
▁affects	8
▁editing	8
▁threats	8
▁Version	8
▁inverse	8
▁Nothing	8
▁closest	8
▁circles	8
▁denoted	8
▁enthusi	8
Provider	8
▁crystal	8
▁rolling	8
▁engines	8
▁scratch	8
adelphia	8
▁Bitcoin	8
children	8
▁veteran	8
category	8
▁evident	8
▁awarded	8
▁stomach	8
▁founder	8
▁reveals	8
▁Stephen	8
▁binding	8
tprivate	8
▁pulling	8
▁genetic	8
▁shorter	8
▁horizon	8
▁radical	8
▁shortly	8
security	8
password	8
▁buttons	8
▁reaches	8
onential	8
▁Atlanta	8
▁publish	8
ordinary	8
▁damaged	8
▁singing	8
▁carrier	8
▁genuine	8
▁Systems	8
▁filters	8
▁Express	8
▁Conserv	8
▁Brother	8
▁mystery	8
▁symbols	8
▁synthes	8
▁briefly	8
▁retired	8
learning	8
▁ranging	8
▁graphic	8
▁pricing	8
▁tension	8
▁podcast	8
▁Detroit	8
required	8
▁labeled	8
▁execute	8
▁trailer	8
▁Capital	8
▁logical	8
▁listing	8
▁hunting	8
▁grounds	8
▁suicide	8
nSuppose	8
▁Country	8
▁settled	8
▁thereby	8
▁Suppose	8
▁defines	8
nDespite	8
Position	8
▁forming	8
▁carries	8
ensively	8
▁ranking	8
nTuesday	8
▁loading	8
▁imaging	8
▁Studies	8
ractions	8
requency	8
▁muscles	8
▁expense	8
▁ratings	8
▁coaches	8
▁Natural	8
▁trivial	8
omorphic	8
▁Contact	8
▁handled	8
▁barrier	8
▁Airport	8
▁failing	8
ologists	8
▁chronic	8
▁reserve	8
▁lawyers	8
▁charity	8
▁painful	8
▁Station	8
▁discret	8
▁citizen	8
▁acquire	8
▁mounted	8
register	8
▁Results	8
▁deliber	8
▁Reading	8
▁worship	8
▁handful	8
▁belongs	8
▁deposit	8
▁Philipp	8
▁Muslims	8
Location	8
parallel	8
▁Defense	8
▁Nations	8
▁orbital	8
▁Channel	8
▁trusted	8
multirow	8
internal	8
▁justify	8
▁recruit	8
training	8
▁degener	8
▁banking	8
▁Besides	8
▁deleted	8
▁photons	8
▁courage	8
▁blocked	8
▁painted	8
▁Details	8
▁feeding	8
▁Command	8
▁gallery	8
comments	8
▁dancing	8
building	8
▁winners	8
▁Privacy	8
▁sectors	8
▁welfare	8
▁Officer	8
▁threads	8
quarters	8
▁Indiana	8
▁dressed	8
▁landing	8
▁theater	8
▁portray	8
▁captain	8
▁viewers	8
▁neutron	8
▁maximal	8
▁Patrick	8
▁Mexican	8
▁Edition	8
▁implied	8
Settings	8
▁colours	8
▁forcing	8
npackage	8
selected	8
▁harvest	8
▁placing	8
▁actress	8
together	8
▁devoted	8
▁outputs	8
etheless	8
▁Alabama	8
▁workout	8
▁affairs	8
elescope	8
standard	8
▁sensors	8
▁venture	8
nRelated	8
▁Vietnam	8
▁Stadium	8
▁restart	8
▁readily	8
▁females	8
▁Olympic	8
resident	8
unsigned	8
▁credits	8
▁endless	8
Document	8
▁rewards	8
▁stepped	8
▁Members	8
ventions	8
resource	8
▁evolved	8
▁Machine	8
▁lawsuit	8
▁matched	8
▁chamber	8
▁Student	8
▁transit	8
▁ceiling	8
▁crossed	8
▁remarks	8
settings	8
▁Lincoln	8
▁nowhere	8
although	8
▁replied	8
▁bottles	8
▁divorce	8
breaking	8
▁relates	8
▁qualify	8
negative	8
▁Foreign	8
ceptions	8
▁skilled	8
▁magical	8
▁beating	8
▁colored	8
▁imposed	8
▁powered	8
▁shelter	8
▁emerged	8
▁overlap	8
▁nursing	8
▁relaxed	8
▁adapted	8
▁Fourier	8
▁singles	8
▁Several	8
Category	8
leveland	8
▁impacts	8
▁shocked	8
▁volumes	8
▁shifted	8
creation	8
▁fastest	8
▁encoder	8
▁Anthony	8
▁invalid	8
▁Theatre	8
▁footage	8
▁Village	8
▁closure	8
▁plotted	8
▁patches	8
▁flights	8
▁warming	8
▁monster	8
▁Premier	8
▁corners	8
▁Quality	8
▁Looking	8
▁planets	8
▁deficit	8
▁Captain	8
▁strikes	8
▁critics	8
▁booking	8
▁Senator	8
▁lighter	8
▁Orleans	8
▁stadium	8
▁queries	8
▁grocery	8
relevant	8
▁Affairs	8
▁starter	8
▁anytime	8
▁eastern	8
cosystem	8
▁romance	8
▁decides	8
business	8
▁lengths	8
▁elegant	8
▁broader	8
▁simpler	8
▁touched	8
▁glasses	8
▁vintage	8
▁auction	8
toString	8
▁notable	8
▁inspire	8
▁Chapter	8
▁Friends	8
stration	8
▁kinetic	8
▁assured	8
▁Gallery	8
▁Hillary	8
▁distant	8
▁beloved	8
▁expects	8
▁advised	8
ensitive	8
▁clarity	8
▁suscept	8
▁Kennedy	8
original	8
▁blessed	8
▁reminds	8
nOverall	8
▁Ukraine	8
▁useless	8
▁Install	8
platform	8
▁existed	8
▁Example	8
▁printer	8
▁trapped	8
▁Phoenix	8
▁preview	8
▁stating	8
▁highway	8
▁Charlie	8
▁disable	8
▁tactics	8
▁sisters	8
▁Records	8
▁longest	8
▁delayed	8
▁Message	8
▁Reviews	8
▁secrets	8
▁shipped	8
▁logging	8
▁Reserve	8
▁artwork	8
▁legally	8
▁mothers	8
▁lasting	8
itecture	8
▁Ontario	8
▁defence	8
▁Article	8
▁aligned	8
▁Limited	8
creasing	8
▁Website	8
▁battles	8
▁Russell	8
▁jumping	8
particle	8
nCurrent	8
▁garbage	8
▁streams	8
▁secured	8
blogspot	8
▁variant	8
▁kingdom	8
▁assumes	8
▁cabinet	8
▁passive	8
▁bearing	8
graduate	8
chnology	8
nComment	8
▁condens	8
▁handles	8
nThrough	8
▁Harvard	8
▁gaining	8
nbetween	8
▁Private	8
▁avoided	8
▁earning	8
continue	8
▁harmful	8
▁Matthew	8
▁pressed	8
▁Consult	8
▁Highway	8
▁Finance	8
▁scripts	8
▁unclear	8
▁receipt	8
▁dispute	8
▁lacking	8
▁squares	8
▁assists	8
▁pension	8
▁archive	8
▁Address	8
▁backing	8
▁Mission	8
▁careers	8
▁damages	8
▁islands	8
▁Working	8
nWhether	8
▁permits	8
▁tourist	8
▁Classic	8
oriented	8
▁washing	8
▁Freedom	8
▁teaches	8
▁ethical	8
▁innings	8
▁elderly	8
▁borders	8
▁antenna	8
▁homosex	8
nLooking	8
▁cleared	8
▁Francis	8
Activity	8
▁analyst	8
services	8
▁Antonio	8
▁Virtual	8
distance	8
▁outline	8
▁comprom	8
▁Firefox	8
▁consume	8
▁wealthy	8
▁playoff	8
▁caution	8
▁Writing	8
▁needing	8
nProduct	8
▁pointer	8
▁linking	8
▁Release	8
contains	8
▁sampled	8
▁pockets	8
▁empower	8
Callback	8
▁seventh	8
boldmath	8
▁declare	8
▁creator	8
▁pending	8
outheast	8
nInstead	8
▁repairs	8
▁scandal	8
▁arguing	8
▁offline	8
▁fighter	8
▁Overall	8
▁bitcoin	8
▁durable	8
▁cleaned	8
▁retreat	8
pectives	8
▁theatre	8
Abstract	8
▁tourism	8
▁custody	8
▁vitamin	8
▁manages	8
sequence	8
ortunate	8
▁arrives	8
▁undergo	8
▁prosper	8
▁corrupt	8
▁Success	8
rational	8
▁peoples	8
nPerhaps	8
▁Perfect	8
▁soldier	8
▁Century	8
activity	8
▁blogger	8
▁Problem	8
▁prayers	8
▁WARRANT	8
▁vanilla	8
consider	8
▁travels	8
▁Default	8
curities	8
▁defects	8
▁lifting	8
▁proving	8
▁vibrant	8
commerce	8
uclidean	8
atherine	8
▁editors	8
▁Getting	8
▁betting	8
▁Turkish	8
emptyset	8
products	8
▁semicon	8
▁cycling	8
▁casting	8
▁coconut	8
▁laundry	8
▁intimid	8
▁happily	8
▁shallow	8
▁Beijing	8
▁lecture	8
▁Stewart	8
positive	8
▁Thunder	8
▁Options	8
▁refresh	8
▁Returns	8
Password	8
▁Similar	8
▁spotted	8
callback	8
▁Cameron	8
▁flowing	8
▁energet	8
▁tobacco	8
articles	8
nonymous	8
nContact	8
▁quietly	8
▁outlets	8
▁thereof	8
▁Usually	8
▁stylish	8
sections	8
▁outlook	8
▁Someone	8
cedented	8
▁Islands	8
triangle	8
▁packing	8
analysis	8
▁Request	8
ordinate	8
▁arising	8
▁Indians	8
▁cartoon	8
▁Springs	8
▁beaches	8
▁decoder	8
▁Between	8
▁torture	8
▁hardest	8
▁Chamber	8
▁clarify	8
▁phrases	8
▁counted	8
features	8
▁honored	8
▁inquiry	8
▁Schools	8
▁altered	8
▁airline	8
▁sounded	8
▁polymer	8
▁Culture	8
▁liberty	8
▁bicycle	8
▁Promise	8
▁Welcome	8
▁kilomet	8
▁revised	8
otherapy	8
▁gardens	8
▁disrupt	8
▁pursuit	8
▁Oakland	8
▁terrain	8
▁educate	8
▁approve	8
▁microsc	8
▁Chelsea	8
▁twisted	8
▁donated	8
▁Madison	8
approxim	8
▁visitor	8
▁Stanley	8
▁vessels	8
arcelona	8
▁Hilbert	8
nSeveral	8
▁knocked	8
▁builder	8
▁eternal	8
▁Respons	8
▁reforms	8
▁pairing	8
download	8
▁refined	8
▁Sheriff	8
ificates	8
▁Initial	8
▁neurons	8
▁descent	8
▁farming	8
ertainly	8
▁keyword	8
▁Iranian	8
▁lightly	8
progress	8
▁Kitchen	8
▁tribute	8
packages	8
▁sponsor	8
▁exports	8
▁Collins	8
▁Display	8
▁watches	8
▁Barbara	8
▁breathe	8
▁Roberts	8
▁metabol	8
▁secular	8
▁wounded	8
▁Buffalo	8
▁Circuit	8
nbecause	8
▁Swedish	8
▁motions	8
▁spirits	8
▁Liberty	8
▁sliding	8
▁modular	8
▁Morning	8
▁biology	8
▁worries	8
volution	8
▁amateur	8
▁touches	8
▁camping	8
▁Yankees	8
▁handler	8
▁compile	8
▁Collect	8
▁Lorentz	8
▁unitary	8
▁runtime	8
▁Clearly	8
▁rushing	8
▁Storage	8
▁modeled	8
▁athlete	8
▁bracket	8
▁packets	8
includes	8
▁notably	8
▁relying	8
▁Speaker	8
▁Douglas	8
subfloat	8
▁Rangers	8
▁quicker	8
Selected	8
restrict	8
▁Fantasy	8
▁Diamond	8
▁frankly	8
▁Nigeria	8
▁mindset	8
▁abandon	8
▁crowded	8
▁fortune	8
▁dresses	8
▁Orlando	8
▁planted	8
▁storing	8
▁selfish	8
▁adapter	8
validate	8
▁tuition	8
▁coating	8
▁wonders	8
▁Monitor	8
▁happier	8
▁MacBook	8
▁lengthy	8
▁Imagine	8
▁premise	8
▁shelves	8
nMichael	8
▁kicking	8
▁Stories	8
nrespect	8
▁inhabit	8
▁vaccine	8
▁slavery	8
▁forgive	8
▁fifteen	8
▁pitcher	8
▁seniors	8
▁Brandon	8
ographer	8
icularly	8
▁adverse	8
▁analogy	8
material	8
▁differs	8
nrequire	8
▁interns	8
nthrough	8
▁posters	8
▁unbelie	8
▁smiling	8
▁staring	8
▁crafted	8
▁anxious	8
▁harness	8
▁seating	8
▁coastal	8
nJanuary	8
▁blowing	8
▁origins	8
▁headers	8
▁markers	8
▁Meeting	8
physical	8
changing	8
▁subsets	8
▁Housing	8
▁obesity	8
▁rebuild	8
▁Physics	8
▁exclude	8
velocity	8
▁encoded	8
▁Studios	8
▁Feature	8
▁forests	8
Services	8
andidate	8
▁shadows	8
▁chooses	8
▁nucleus	8
▁hopeful	8
▁traders	8
licenses	8
▁Against	8
▁runners	8
stackrel	8
▁advisor	8
nGeneral	8
▁Holiday	8
ablished	8
▁scatter	8
▁surpass	8
▁folders	8
▁accepts	8
Download	8
▁priorit	8
▁sensing	8
Selector	8
▁missile	8
▁renewed	8
▁Thought	8
▁prolong	8
▁Baptist	8
▁Poisson	8
▁insulin	8
Security	8
▁dealers	8
▁Arsenal	8
▁spacing	8
timately	8
▁appeals	8
▁Methods	8
▁lending	8
▁outflow	8
nOctober	8
▁doubled	8
▁Players	8
▁glimpse	8
ritional	8
▁acclaim	8
▁shooter	8
▁nonzero	8
▁Abraham	8
▁breasts	8
▁tightly	8
▁Jessica	8
▁exceeds	8
critical	8
▁Stevens	8
▁routing	8
▁crashed	8
▁leisure	8
▁Fashion	8
▁bridges	8
▁Picture	8
personal	8
▁squared	8
nSection	8
▁removes	8
nBesides	8
▁cricket	8
▁Coulomb	8
▁dispers	8
▁charter	8
▁lesbian	8
▁mailing	8
▁Invoice	8
▁revenge	8
▁pharmac	8
Thursday	8
▁rewrite	8
▁Summary	8
▁jointly	8
▁imagery	8
▁squeeze	8
aternity	8
election	8
▁caption	8
relative	8
▁halfway	8
irements	8
▁Climate	8
▁latency	8
▁bubbles	8
▁Edwards	8
▁Theater	8
chanical	8
▁regimes	8
▁Belgium	8
▁abusive	8
▁Weather	8
abstract	8
▁drafted	8
▁congrat	8
▁masters	8
▁suffers	8
Progress	8
▁lowered	8
▁feather	8
variable	8
▁Inspect	8
duration	8
▁Profile	8
▁bonuses	8
▁habitat	8
▁Taliban	8
▁sellers	8
Register	8
▁digging	8
▁Holland	8
▁Sanders	8
▁literal	8
▁Pokemon	8
▁dignity	8
▁catches	8
▁chopped	8
▁Premium	8
▁heights	8
ToString	8
▁Session	8
▁crashes	8
▁budgets	8
▁wasting	8
▁customs	8
▁debates	8
▁exagger	8
▁mineral	8
Iterator	8
▁malware	8
▁Lebanon	8
▁Liberal	8
▁marking	8
▁chasing	8
▁Running	8
▁margins	8
▁martial	8
jupytext	8
▁Greater	8
▁Luckily	8
earchers	8
▁drought	8
▁hurting	8
▁unified	8
nWithout	8
▁fathers	8
constant	8
▁tasting	8
examples	8
▁Episode	8
▁miracle	8
acterial	8
▁Crystal	8
▁praying	8
▁regener	8
▁mirrors	8
▁contour	8
otically	8
▁crosses	8
▁silicon	8
▁unaware	8
▁chaotic	8
▁doubles	8
▁Manning	8
▁dangers	8
▁pumping	8
protocol	8
▁congest	8
▁dietary	8
▁replies	8
▁hostile	8
▁anomaly	8
▁crushed	8
▁imports	8
▁evangel	8
▁triumph	8
nSpecial	8
resolved	8
▁emitted	8
contents	8
▁reminis	8
official	8
▁tissues	8
Although	8
heastern	8
▁hormone	8
▁payload	8
▁judging	8
▁hottest	8
▁locking	8
DateTime	8
▁shaking	8
▁immense	8
idential	8
▁obtains	8
▁stacked	8
▁shaping	8
▁refuses	8
▁Boolean	8
▁viruses	8
probably	8
▁stuffed	8
Facebook	8
▁Complex	8
▁wishing	8
▁filming	8
▁clicked	8
notation	8
▁foolish	8
▁tangent	8
▁induces	8
▁plugins	8
▁laptops	8
reatment	8
▁Montana	8
▁glucose	8
▁infring	8
▁timeout	8
▁cuisine	8
Saturday	8
▁Vermont	8
▁Scholar	8
▁Tickets	8
▁optimum	8
▁harmony	8
illation	8
▁tracked	8
▁employs	8
▁showers	8
▁lenders	8
▁resting	8
▁insects	8
▁Factory	8
nresults	8
Internal	8
▁railway	8
existing	8
pretrain	8
redirect	8
Sequence	8
▁smarter	8
PASSWORD	8
momentum	8
nmeasure	8
▁Denmark	8
▁leagues	8
Analysis	8
▁strains	8
▁shuttle	8
▁slipped	8
ervation	8
▁confess	8
▁Alberta	8
inspired	8
▁pathway	8
▁Package	8
▁copying	8
Comments	8
balanced	8
▁momenta	8
▁Bradley	8
▁Simpson	8
ancellor	8
Variable	8
provider	8
transfer	8
generate	8
▁Present	8
▁touring	8
▁billing	8
▁kernels	8
▁Reports	8
▁interim	8
▁damping	8
▁Measure	8
Required	8
▁surgeon	8
▁vinegar	8
▁denying	8
national	8
▁Spencer	8
disabled	8
▁gateway	8
lessness	8
▁Million	8
▁praised	8
▁Univers	8
contract	8
▁Average	8
ivariate	8
▁collaps	8
▁winding	8
▁conting	8
▁Archive	8
▁Monster	8
▁whereby	8
▁Maxwell	8
▁Raiders	8
▁guiding	8
nHistory	8
▁balcony	8
▁someday	8
▁broadly	8
▁condemn	8
▁obscure	8
▁greeted	8
▁thunder	8
nprocess	8
▁bending	8
▁Formula	8
▁bargain	8
▁tackles	8
▁pumpkin	8
▁swallow	8
customer	8
▁Chicken	8
▁bombing	8
▁warrior	8
▁Improve	8
▁invites	8
▁renewal	8
▁nucleon	8
▁kidding	8
▁screwed	8
▁dentist	8
▁scenery	8
▁slowing	8
▁Bernard	8
▁Austria	8
▁dioxide	8
nGetting	8
▁masturb	8
▁Walmart	8
▁climbed	8
aspberry	8
▁omitted	8
▁bullets	8
ertation	8
▁warfare	8
projects	8
▁Outlook	8
describe	8
▁studios	8
▁freezer	8
▁hopping	8
▁folding	8
▁anthrop	8
▁notices	8
▁tempted	8
Material	8
strument	8
▁Pokémon	8
ogeneity	8
▁Vincent	8
▁proudly	8
software	8
▁Quarter	8
▁DEFAULT	8
▁fabrics	8
▁cracked	8
▁denomin	8
▁Verizon	8
▁balloon	8
▁Wallace	8
ernandez	8
▁merging	8
▁sandwic	8
external	8
ducation	8
▁Testing	8
▁nominee	8
▁Counsel	8
Standard	8
▁payroll	8
▁Heights	8
▁persist	8
nolimits	8
▁clearer	8
underset	8
pressure	8
▁replica	8
▁statute	8
▁futures	8
iltonian	8
pleasant	8
▁Primary	8
▁lottery	8
Business	8
ergarten	8
etically	8
electron	8
▁excuses	8
▁sailing	8
▁sorting	8
▁outward	8
▁Amazing	8
▁dragged	8
ognition	8
▁Related	8
▁goodbye	8
Language	8
▁Bennett	8
▁pitched	8
▁hacking	8
▁Trading	8
▁museums	8
▁adviser	8
nSimilar	8
▁sadness	8
▁depicts	8
▁Traffic	8
boarding	8
▁cottage	8
▁veggies	8
substack	8
ublisher	8
▁Wedding	8
▁Griffin	8
▁referee	8
nSummary	8
▁Calgary	8
▁leaning	8
▁sharply	8
▁hunters	8
▁Gardens	8
▁Figures	8
▁clinics	8
▁Surface	8
▁sincere	8
▁Carroll	8
▁coupons	8
▁polling	8
▁Finland	8
▁ashamed	8
▁Centers	8
neapolis	8
▁popping	8
▁Memphis	8
▁vicious	8
▁backend	8
▁Packers	8
▁Cowboys	8
▁scanner	8
▁Teacher	8
oretical	8
research	8
cellence	8
solution	8
▁notions	8
Continue	8
▁Concept	8
▁Genesis	8
centered	8
▁firearm	8
▁batting	8
▁pitches	8
▁diffuse	8
ructures	8
npresent	8
vertical	8
▁casinos	8
▁Created	8
▁licence	8
▁alright	8
▁outfits	8
▁Trinity	8
Optional	8
▁Iceland	8
▁spreads	8
▁melting	8
sampling	8
▁seminar	8
interval	8
nSupport	8
▁paradox	8
▁Workers	8
Learning	8
identity	8
▁anyways	8
▁sleeves	8
▁bonding	8
▁unconst	8
▁refugee	8
▁parsing	8
▁reactor	8
▁Germans	8
▁vampire	8
possibly	8
Duration	8
▁shining	8
diagonal	8
ithmetic	8
nExample	8
▁relieve	8
division	8
▁recount	8
▁insists	8
▁Therapy	8
▁boiling	8
▁expired	8
▁inflict	8
▁intends	8
▁candles	8
▁plugged	8
▁Changes	8
▁puzzles	8
▁expands	8
▁whistle	8
Interval	8
▁ideally	8
▁sparked	8
▁emerges	8
▁upwards	8
▁torrent	8
weighted	8
▁sucking	8
aneously	8
▁Setting	8
elements	8
otiation	8
▁sheriff	8
▁Payment	8
Platform	8
▁Forward	8
periodic	8
▁monoton	8
▁yelling	8
▁freight	8
▁Parents	8
dynamics	8
▁Emperor	8
ractical	8
vertible	8
▁tougher	8
modified	8
▁renamed	8
▁surfing	8
emporary	8
▁Quantum	8
▁apology	8
▁styling	8
▁Bristol	8
▁Finding	8
▁Leonard	8
▁pursued	8
nContent	8
▁issuing	8
▁Midwest	8
▁english	8
Registry	8
dispatch	8
▁Journey	8
National	8
▁protons	8
AAAAAAAA	8
▁dispens	8
vergence	8
▁Vatican	8
▁cushion	8
▁Mercury	8
initions	8
▁Revenue	8
▁scanned	8
actually	8
▁brewing	8
▁abelian	8
▁posture	8
Contract	8
▁procure	8
▁travers	8
paration	8
▁asshole	8
nClearly	8
▁stripes	8
hibition	8
Question	8
channels	8
versions	8
▁Creator	8
▁robbery	8
▁fixture	8
▁Cabinet	8
▁explode	8
▁entitle	8
▁snapped	8
▁Partner	8
▁brokers	8
ilateral	8
nConnect	8
requires	8
▁freshly	8
▁guessed	8
▁rainbow	8
▁pleaded	8
appiness	8
▁painter	8
▁Podcast	8
▁robotic	8
Identity	8
▁deepest	8
▁rehears	8
▁Nuclear	8
▁planner	8
collapse	8
▁Gilbert	8
▁enacted	8
▁applaud	8
▁Include	8
▁lensing	8
▁duality	8
▁spheres	8
▁Belgian	8
▁dancers	8
▁upright	8
▁gradual	8
▁cocaine	8
▁Vehicle	8
▁renting	8
▁Awesome	8
▁mileage	8
▁Rebecca	8
▁Walking	8
▁solicit	8
thinking	8
▁roasted	8
nCollect	8
▁ceramic	8
▁murders	8
Children	8
▁amusing	8
▁Knowing	8
▁Prophet	8
rections	8
▁dilemma	8
▁branded	8
▁resides	8
▁Falcons	8
▁seafood	8
▁Reality	8
▁refusal	8
▁Opening	8
CRIPTION	8
▁Guarant	8
▁suburbs	8
▁Faculty	8
▁lithium	8
▁emailed	8
▁rentals	8
▁arrests	8
▁combust	8
keywords	8
▁Regular	8
graphics	8
overview	8
Training	8
Contents	8
▁cardiac	8
nNothing	8
▁uncover	8
▁chromos	8
economic	8
▁excerpt	8
▁strokes	8
Constant	8
▁Fitness	8
▁Shannon	8
▁Timothy	8
▁triplet	8
Protocol	8
▁offence	8
▁Hopkins	8
▁Ancient	8
▁Alexand	8
▁cleanup	8
closures	8
▁terrace	8
NotFound	8
multiple	8
▁Heather	8
approved	8
▁Melissa	8
▁Outside	8
▁webpage	8
computer	8
▁Protest	8
▁Silicon	8
▁selects	8
nWritten	8
▁Healthy	8
▁kissing	8
▁madness	8
nDetails	8
▁torsion	8
▁Knights	8
archives	8
Original	8
▁Solomon	8
assuming	8
▁patrons	8
▁residue	8
▁handing	8
nwithout	8
roducing	8
▁Updates	8
▁dreamed	8
▁stamped	8
▁azimuth	8
▁bidding	8
▁cousins	8
▁charset	8
▁gallons	8
▁solvent	8
▁charger	8
▁revival	8
▁Dynamic	8
▁evolves	8
▁Jupiter	8
▁newborn	8
DoxyCode	8
previous	8
▁buddies	8
▁thicker	8
▁valence	8
▁costing	8
▁bundles	8
▁chassis	8
▁rebound	8
ordering	8
▁Tonight	8
FileName	8
approach	8
▁Economy	8
▁begging	8
▁prefers	8
▁Contest	8
▁recipro	8
▁tracker	8
▁Counter	8
electric	8
▁pruning	8
▁oneself	8
▁shutter	8
▁learner	8
▁insured	8
terminal	8
ndensity	8
▁symptom	8
Gaussian	8
Operator	8
oltzmann	8
▁peppers	8
▁pioneer	8
▁Gabriel	8
▁sticker	8
Customer	8
▁goodies	8
nWindows	8
▁Located	8
harmonic	8
▁layered	8
Transfer	8
▁flooded	8
▁cancers	8
▁flipped	8
▁motives	8
▁shouted	8
▁retains	8
▁Appeals	8
▁skipped	8
nRichard	8
▁infants	8
▁Gateway	8
▁illumin	8
▁tracing	8
nWorking	8
▁Defence	8
▁hallway	8
▁trilogy	8
▁Dodgers	8
▁headset	8
TestCase	8
▁Schmidt	8
▁compost	8
▁invoice	8
▁Fiction	8
▁Charter	8
▁Markets	8
Strategy	8
▁Builder	8
▁sensory	8
ensation	8
exchange	8
▁furnish	8
External	8
▁dialect	8
affected	8
▁functor	8
Features	8
nResults	8
▁Believe	8
▁compose	8
▁sharpen	8
geometry	8
▁thyroid	8
▁caramel	8
▁yielded	8
nAverage	8
▁glowing	8
▁Instant	8
▁Popular	8
▁indoors	8
▁rightly	8
Controls	8
artments	8
▁Goldman	8
▁Keeping	8
▁stunned	8
▁capsule	8
▁ignores	8
daughter	8
▁thinner	8
entation	8
▁Jeffrey	8
▁Coleman	8
ruitment	8
ntypedef	8
▁Effects	8
▁Preview	8
▁tighter	8
aggering	8
▁cascade	8
▁isolate	8
▁Fortune	8
▁Playing	8
▁rubbing	8
▁Balance	8
▁nursery	8
Messages	8
nUpdated	8
▁Glasgow	8
▁Various	8
▁pyramid	8
▁sourced	8
ttfamily	8
▁drastic	8
▁morally	8
Software	8
nProject	8
▁Malcolm	8
▁carrots	8
▁eclipse	8
▁tapping	8
agnostic	8
▁rotated	8
▁tearing	8
Distance	8
▁Weekend	8
▁suspend	8
▁Sanchez	8
▁Firstly	8
▁shotgun	8
▁Gregory	8
▁Pradesh	8
▁guitars	8
atterson	8
▁Console	8
▁dictate	8
manifold	8
▁Updated	8
▁sidebar	8
Endpoint	8
▁Writers	8
▁migrate	8
▁rubbish	8
▁blaming	8
irically	8
checkbox	8
▁confuse	8
▁drummer	8
▁Hungary	8
▁skating	8
▁Written	8
▁invoked	8
nService	8
▁craving	8
▁playful	8
Internet	8
ncurrent	8
▁Convert	8
▁Cookies	8
ninclude	8
override	8
▁Minimum	8
▁dropout	8
released	8
assembly	8
▁visuals	8
▁academy	8
▁opacity	8
▁faction	8
▁pooling	8
restrial	8
▁festive	8
▁Illustr	8
nDevelop	8
▁loosely	8
▁Railway	8
encoding	8
▁visions	8
▁Pirates	8
▁Rainbow	8
▁banning	8
▁concise	8
spectrum	8
▁legends	8
nMembers	8
Everyone	8
erential	8
▁contend	8
▁insider	8
▁ensured	8
▁thanked	8
▁skeptic	8
▁matchup	8
nImagine	8
subtitle	8
▁Sundays	8
▁Warning	8
▁Numbers	8
▁Wyoming	8
endpoint	8
nArticle	8
▁Whereas	8
▁panties	8
▁psychic	8
▁Tourism	8
▁dismant	8
▁incomes	8
designed	8
▁singers	8
nReading	8
▁onboard	8
nEnglish	8
▁Organic	8
tracking	8
▁revisit	8
▁surrend	8
▁Kashmir	8
▁jupyter	8
▁commits	8
▁leaking	8
▁Marines	8
▁Rolling	8
Graphics	8
▁texting	8
priority	8
▁stealth	8
Executor	8
▁Eclipse	8
strategy	8
▁Raymond	8
nWarning	8
▁prophet	8
variance	8
▁Nursing	8
▁earnest	8
▁Maximum	8
▁berries	8
▁enzymes	8
▁grilled	8
nexample	8
▁Freeman	8
boundary	8
selector	8
▁fingert	8
▁sweater	8
nTwitter	8
▁Persian	8
▁embassy	8
▁Conduct	8
▁debated	8
accuracy	8
journals	8
▁foresee	8
AreEqual	8
commands	8
speaking	8
▁Biology	8
▁pledged	8
▁Embassy	8
▁Receipt	8
▁haunted	8
Expected	8
ffffffff	8
▁acrylic	8
Contains	8
Delegate	8
ogenesis	8
pipeline	8
▁Elliott	8
▁mindful	8
▁Started	8
▁Fighter	8
▁Winston	8
▁exacerb	8
▁resorts	8
activate	8
▁urgency	8
▁webinar	8
▁backups	8
▁Utility	8
▁rocking	8
▁garment	8
December	8
nQuality	8
▁Horizon	8
agnitude	8
magnetic	8
▁Warrior	8
▁divides	8
▁popcorn	8
nCompany	8
▁Leaders	8
▁Spotify	8
▁layouts	8
▁spinach	8
▁clutter	8
▁testify	8
▁Answers	8
▁Compare	8
▁endured	8
▁jackets	8
▁Comcast	8
nChapter	8
▁ballots	8
▁Comfort	8
▁Unknown	8
▁rivalry	8
▁persona	8
▁brushes	8
▁burgers	8
▁Experts	8
ributing	8
▁Advance	8
▁mergers	8
▁bosonic	8
▁Andrews	8
▁Gardner	8
bfseries	8
▁Sherman	8
▁inherit	8
▁rituals	8
▁sausage	8
MenuItem	8
▁entails	8
▁brewery	8
▁whipped	8
▁paraphr	8
▁admired	8
▁noodles	8
▁Battery	8
schedule	8
absolute	8
scalebox	8
▁diapers	8
bigoplus	8
▁Letters	8
▁Transit	8
overflow	8
produced	8
▁prisons	8
▁batches	8
▁Catalog	8
ellation	8
nInstall	8
▁sixteen	8
chemical	8
capacity	8
nLocated	8
▁expires	8
▁rockets	8
▁Vitamin	8
▁Goodman	8
▁bowling	8
▁Subject	8
occupied	8
▁grading	8
▁tariffs	8
nSubject	8
releases	8
▁Citizen	8
▁novelty	8
▁percept	8
▁erosion	8
▁Killing	8
▁Beverly	8
▁elusive	8
coupling	8
vertices	8
▁Alcohol	8
▁fasting	8
▁shampoo	8
isitions	8
▁liquids	8
directed	8
▁Authors	8
▁Sharing	8
▁curated	8
Encoding	8
Nullable	8
▁Readers	8
Resolver	8
▁mansion	8
▁Phillip	8
nBetween	8
▁congreg	8
▁furious	8
▁boosted	8
▁spoiled	8
▁Boulder	8
▁allergy	8
▁punches	8
appendix	8
shipping	8
▁Kenneth	8
▁Banking	8
nprivate	8
nproblem	8
▁Romania	8
▁killers	8
▁mundane	8
▁sinking	8
▁Driving	8
▁drunken	8
▁Sources	8
▁antifer	8
▁discard	8
▁narciss	8
▁bankers	8
▁upfront	8
registry	8
▁cynical	8
Commerce	8
ributors	8
▁Meaning	8
▁renders	8
▁needles	8
February	8
▁Cornell	8
▁cruelty	8
▁Surgery	8
▁compuls	8
▁rebuilt	8
▁borough	8
▁tensors	8
nReviews	8
othermal	8
▁adrenal	8
cmidrule	8
▁jerseys	8
networks	8
▁thieves	8
▁bladder	8
nWilliam	8
orescent	8
practice	8
ertility	8
▁devised	8
▁eagerly	8
▁obliged	8
November	8
▁Frances	8
ognitive	8
▁equilib	8
▁caliber	8
▁Newport	8
▁turmoil	8
▁puppies	8
▁Brewing	8
▁overest	8
▁shuffle	8
▁messing	8
▁turbine	8
nTheorem	8
▁Victory	8
▁temples	8
▁realism	8
▁coolest	8
▁Already	8
isheries	8
ypically	8
▁Leather	8
▁seekers	8
controls	8
▁Extreme	8
▁Neumann	8
▁slammed	8
▁Doctors	8
▁Founder	8
▁LICENSE	8
▁Finnish	8
▁HashMap	8
▁Chester	8
▁magnets	8
artifact	8
▁wording	8
▁repeats	8
▁bottled	8
▁granite	8
▁inadver	8
▁pillows	8
▁topping	8
▁Corinth	8
▁bothers	8
▁firstly	8
▁screams	8
▁Provide	8
▁abbrevi	8
orgetown	8
▁stained	8
▁Outdoor	8
▁bipolar	8
▁flashes	8
Pipeline	8
▁Whitney	8
▁catcher	8
▁Pearson	8
▁framing	8
▁sibling	8
▁textual	8
▁keynote	8
▁dumping	8
quantity	8
▁inhibit	8
▁tunnels	8
▁reacted	8
▁Insider	8
▁baskets	8
▁ethanol	8
ximately	8
▁Evangel	8
▁polygon	8
cultural	8
▁dragons	8
▁drained	8
▁Colonel	8
cheduled	8
Remember	8
▁Jamaica	8
▁coronal	8
▁nipples	8
▁Baldwin	8
▁topical	8
▁craftsm	8
▁Hussein	8
Criteria	8
European	8
▁Judaism	8
▁banners	8
▁Legends	8
ablation	8
▁debuted	8
▁Witness	8
▁asserts	8
▁smokers	8
▁staging	8
▁Devices	8
TextView	8
arations	8
▁Growing	8
educated	8
neighbor	8
▁Thomson	8
orations	8
▁Designs	8
▁getaway	8
omedical	8
remember	8
▁buckets	8
▁arsenal	8
▁fearful	8
▁Minutes	8
▁Sisters	8
▁dinners	8
▁pokemon	8
▁grandma	8
▁hostage	8
▁regimen	8
▁Lindsay	8
▁naughty	8
▁Granted	8
▁telecom	8
▁Celtics	8
▁Somehow	8
▁widgets	8
▁brushed	8
▁tagging	8
reported	8
▁braking	8
▁ringing	8
▁vacancy	8
imentary	8
▁strands	8
▁Artists	8
charging	8
▁Purpose	8
▁cheated	8
Relative	8
Username	8
reements	8
▁booting	8
cessions	8
▁coached	8
▁Funeral	8
▁hashtag	8
▁remnant	8
▁Strange	8
▁revital	8
▁Simmons	8
▁rampant	8
▁sealing	8
▁Katrina	8
uplicate	8
▁summers	8
▁smashed	8
▁Dragons	8
▁Parking	8
▁commend	8
▁suffice	8
▁unravel	8
▁richest	8
▁trimmed	8
Examples	8
ibernate	8
▁Mustang	8
▁mustard	8
▁quoting	8
▁dubious	8
▁snippet	8
Validate	8
setState	8
▁mammals	8
▁Classes	8
finished	8
▁Daniels	8
▁Invalid	8
nanother	8
▁punched	8
▁Pattern	8
▁manners	8
▁perfume	8
▁plagued	8
▁veterin	8
▁Hampton	8
▁Talking	8
▁fleeing	8
▁tighten	8
nsection	8
▁Forever	8
nProcess	8
received	8
campaign	8
▁Applied	8
families	8
▁looming	8
▁monkeys	8
Generate	8
▁strides	8
▁Monthly	8
averaged	8
compress	8
▁Parties	8
FilePath	8
▁FITNESS	8
▁Webster	8
▁reclaim	8
▁Ideally	8
▁bishops	8
Geometry	8
nproduct	8
▁growers	8
▁stocked	8
▁diploma	8
Overview	8
▁Garrett	8
workflow	8
▁Rodgers	8
▁oversee	8
▁bullpen	8
▁avenues	8
▁Compute	8
▁Cricket	8
▁Planned	8
▁bounced	8
▁hobbies	8
uggested	8
▁Concert	8
▁textile	8
▁Achieve	8
ractable	8
▁furnace	8
▁spiders	8
▁payable	8
▁burdens	8
▁Generic	8
answered	8
▁Advisor	8
Appendix	8
▁invaded	8
▁conceal	8
matching	8
▁Matters	8
provided	8
▁Replace	8
▁regrets	8
▁Perform	8
▁dynasty	8
Commands	8
▁informs	8
▁insurer	8
▁Hoffman	8
▁clauses	8
▁nurture	8
gressive	8
▁colspan	8
iability	8
▁baryons	8
Calendar	8
▁Farmers	8
feedback	8
▁Missing	8
▁Objects	8
▁prevail	8
▁psyched	8
Previous	8
Research	8
▁statues	8
▁swiftly	8
▁Phantom	8
▁monarch	8
▁tornado	8
▁Customs	8
cccccccc	8
nsystems	8
romagnet	8
▁Concord	8
▁baseman	8
▁emulate	8
▁pirates	8
▁pulsars	8
ustering	8
Observer	8
▁presume	8
aliation	8
▁onwards	8
▁spouses	8
employee	8
▁caching	8
nPrivate	8
▁assigns	8
Multiple	8
actively	8
galactic	8
▁lineage	8
▁Vintage	8
▁endowed	8
▁insults	8
▁soliton	8
▁volcano	8
▁tractor	8
Consumer	8
Modified	8
infrared	8
▁captive	8
▁Respond	8
▁anatomy	8
▁inserts	8
▁skillet	8
Solution	8
informed	8
nFirstly	8
▁nightly	8
sentence	8
nWebsite	8
upstream	8
consumer	8
▁steward	8
nSetting	8
▁Evening	8
▁mailbox	8
▁heavens	8
▁raining	8
nSomeone	8
▁chilled	8
nFinding	8
▁baptism	8
▁discord	8
▁pillars	8
viewport	8
nWriting	8
ndevelop	8
▁blatant	8
▁Croatia	8
coverage	8
▁Hawking	8
starting	8
▁phantom	8
symmetry	8
▁imprint	8
▁inquire	8
▁derives	8
▁Morocco	8
▁emperor	8
▁rallies	8
▁Plastic	8
clerosis	8
▁listens	8
▁Norfolk	8
regation	8
uttering	8
▁virtues	8
▁deduced	8
▁Powered	8
▁probing	8
▁Creates	8
▁bananas	8
otypical	8
▁presses	8
▁mastery	8
▁Musical	8
▁lesions	8
▁mercury	8
▁compass	8
▁scalars	8
Assembly	8
director	8
▁drawers	8
▁footing	8
▁Feynman	8
erialize	8
Building	8
▁Clayton	8
Behavior	8
▁conject	8
▁marched	8
ninitial	8
▁Flowers	8
nsupport	8
▁proverb	8
▁stabbed	8
▁strives	8
formerly	8
▁policym	8
▁Himself	8
▁bedding	8
▁longing	8
▁offsets	8
▁swollen	8
xxxxxxxx	8
▁Streets	8
existent	8
included	8
▁Laplace	8
▁clashes	8
▁soaking	8
▁Healing	8
▁coveted	8
▁microbi	8
▁abdomen	8
▁Tibetan	8
▁handgun	8
▁sunrise	8
vantages	8
▁condoms	8
protobuf	8
▁Belarus	8
requests	8
▁Natalie	8
▁Lambert	8
citation	8
▁engages	8
▁Imaging	8
▁Prepare	8
nPrivacy	8
nMessage	8
▁exiting	8
▁LIMITED	8
▁Myanmar	8
nProgram	8
▁Listing	8
▁Miranda	8
▁imposes	8
▁routers	8
▁Poincar	8
▁Raleigh	8
▁avocado	8
▁biomass	8
▁wallets	8
addClass	8
integral	8
▁Actions	8
▁affidav	8
▁roofing	8
▁tackled	8
▁Billion	8
▁sampler	8
▁Tiffany	8
▁leasing	8
▁fission	8
▁welding	8
▁atheism	8
▁soaring	8
rocities	8
▁Chapman	8
▁diluted	8
▁fullest	8
▁Compact	8
▁vaguely	8
▁valleys	8
▁perplex	8
▁whining	8
▁Bengals	8
▁vaginal	8
▁exposes	8
football	8
▁Preston	8
▁Romance	8
▁unnamed	8
▁darling	8
▁hateful	8
▁confisc	8
Employee	8
▁luckily	8
▁rejuven	8
▁bathing	8
▁hurdles	8
nRunning	8
Exchange	8
allocate	8
▁marital	8
▁recycle	8
▁viscous	8
▁Barrett	8
▁Vampire	8
xymatrix	8
▁Chennai	8
▁boycott	8
▁intertw	8
Advanced	8
fileName	8
▁lookout	8
reaction	8
▁Drivers	8
▁shields	8
nhowever	8
Snapshot	8
▁Herbert	8
▁Wheeler	8
▁Lawyers	8
ViewById	8
creative	8
nUsually	8
▁Combine	8
▁spilled	8
clusters	8
▁pastors	8
▁upscale	8
adaptive	8
▁genital	8
▁Leading	8
▁bolster	8
▁Benefit	8
▁spectro	8
ermanent	8
▁Bedroom	8
▁agility	8
▁Kurdish	8
▁Pandora	8
▁bundled	8
administ	8
indsight	8
▁Ecuador	8
▁Patriot	8
nConvert	8
▁Passion	8
▁methane	8
▁obscene	8
Vertical	8
▁hitters	8
bringing	8
reetings	8
▁fallout	8
energies	8
▁hadrons	8
▁directs	8
▁isospin	8
▁rooftop	8
▁bedtime	8
▁ripping	8
combined	8
strength	8
fighting	8
ivalence	8
▁Orioles	8
▁abusing	8
▁humming	8
▁rumored	8
▁Angular	8
entities	8
▁darkest	8
▁advises	8
▁fractal	8
▁rhythms	8
nagainst	8
▁poorest	8
▁turtles	8
▁Babylon	8
▁Brendan	8
▁Clients	8
▁stamina	8
Interest	8
▁Windsor	8
▁Messiah	8
▁subsidy	8
▁undersc	8
▁Grandma	8
▁lurking	8
▁winters	8
extended	8
▁Airways	8
▁malaria	8
▁masking	8
▁attends	8
▁Rockets	8
▁chewing	8
nprogram	8
▁battled	8
▁tossing	8
manifest	8
▁Parkway	8
▁teasing	8
▁Rewards	8
▁roaming	8
antastic	8
▁Cooking	8
▁migrant	8
▁stalled	8
▁infused	8
▁rejects	8
observed	8
▁Graphic	8
▁Partial	8
▁drilled	8
▁extinct	8
historic	8
▁Prairie	8
algebras	8
▁Fridays	8
▁tipping	8
implicit	8
▁erupted	8
▁Unified	8
▁Rockies	8
▁breakup	8
▁slapped	8
▁Mandela	8
▁booming	8
politics	8
▁Shirley	8
▁elevate	8
embedded	8
erencing	8
▁Shortly	8
▁militia	8
Schedule	8
▁defeats	8
▁dipping	8
▁rabbits	8
mutation	8
nStephen	8
nCharles	8
▁Belfast	8
▁ejected	8
▁Funding	8
▁ecology	8
▁revived	8
nScience	8
▁Holding	8
▁alleges	8
▁glaring	8
▁illicit	8
andering	8
▁cherish	8
▁Calling	8
▁rethink	8
▁smelled	8
problems	8
▁Somalia	8
cylinder	8
imbledon	8
▁Allison	8
▁Lithuan	8
▁Pioneer	8
▁blasted	8
▁scrutin	8
▁slaught	8
▁Caption	8
▁Waiting	8
▁regrett	8
▁spoiler	8
ariances	8
calendar	8
▁erected	8
▁triples	8
▁Forrest	8
▁harbour	8
▁tyranny	8
nFederal	8
nMatthew	8
▁Harbour	8
▁patriot	8
captions	8
▁Deborah	8
▁overdue	8
▁Chandra	8
▁tsunami	8
reaching	8
▁Drawing	8
▁cumbers	8
gregated	8
▁Analyst	8
reviewed	8
▁Anaheim	8
▁seminal	8
Accessor	8
baichuan	8
▁backers	8
▁sailors	8
▁calming	8
▁diction	8
▁onClick	8
▁spawned	8
▁peanuts	8
straight	8
▁Dropbox	8
▁resumes	8
▁wrongly	8
featured	8
▁Hamburg	8
▁dreaded	8
▁grating	8
▁weaving	8
inctions	8
▁stirred	8
patterns	8
▁cockpit	8
▁Charity	8
▁nesting	8
▁regress	8
▁seeming	8
NSString	8
▁kittens	8
nperform	8
sociated	8
▁Boehner	8
▁Clemson	8
assisted	8
▁Cardiff	8
▁natives	8
listener	8
pecified	8
▁broaden	8
▁sandbox	8
▁shorten	8
<tbody>	7
content	7
▁people	7
process	7
▁should	7
▁includ	7
▁system	7
▁result	7
▁follow	7
ational	7
▁really	7
▁before	7
▁around	7
▁number	7
▁person	7
▁proble	7
▁partic	7
▁things	7
▁effect	7
▁better	7
▁second	7
▁little	7
section	7
mathcal	7
▁design	7
▁always	7
▁contin	7
▁during	7
▁commun	7
▁Americ	7
▁provid	7
▁report	7
▁friend	7
▁direct	7
▁method	7
▁proper	7
ability	7
ailable	7
ication	7
▁expect	7
▁school	7
▁change	7
▁comple	7
▁public	7
▁family	7
▁health	7
▁invest	7
▁within	7
ulation	7
▁enough	7
▁market	7
▁having	7
▁return	7
▁energy	7
▁recent	7
▁though	7
▁making	7
▁called	7
▁custom	7
lection	7
▁course	7
ination	7
▁access	7
▁comput	7
▁reason	7
olution	7
▁obtain	7
▁single	7
▁strong	7
▁object	7
▁happen	7
▁season	7
ructure	7
▁become	7
▁online	7
▁others	7
▁appear	7
▁either	7
raphics	7
▁matter	7
▁observ	7
ividual	7
▁record	7
▁points	7
▁future	7
▁across	7
▁employ	7
▁trying	7
▁pretty	7
▁months	7
partial	7
▁social	7
ception	7
▁almost	7
▁simple	7
▁econom	7
respond	7
ibility	7
▁rather	7
▁amount	7
▁taking	7
▁indust	7
plement	7
▁series	7
anguage	7
▁period	7
▁action	7
▁common	7
caption	7
▁entire	7
▁target	7
▁moment	7
▁higher	7
▁cannot	7
▁models	7
▁author	7
agement	7
ilities	7
▁likely	7
▁wanted	7
▁source	7
▁issues	7
▁search	7
▁states	7
▁compet	7
▁attack	7
▁select	7
▁United	7
▁simply	7
▁anyone	7
unction	7
tention	7
▁needed	7
▁associ	7
▁coming	7
▁compan	7
▁ground	7
ruction	7
▁recomm	7
▁review	7
▁please	7
▁behind	7
▁accept	7
▁effort	7
▁couple	7
▁living	7
▁Intern	7
▁longer	7
▁myself	7
▁events	7
▁normal	7
uration	7
▁inside	7
▁travel	7
▁Europe	7
▁weight	7
▁States	7
▁images	7
▁saying	7
epsilon	7
▁wonder	7
▁length	7
▁option	7
▁choose	7
▁impact	7
▁former	7
▁depend	7
▁choice	7
▁screen	7
▁random	7
▁engine	7
▁office	7
▁satisf	7
▁policy	7
▁figure	7
▁easily	7
▁recogn	7
▁player	7
▁answer	7
▁device	7
gorithm	7
nection	7
▁groups	7
▁worked	7
▁allows	7
▁chance	7
▁center	7
▁neighb	7
▁global	7
▁member	7
▁police	7
mission	7
▁mother	7
▁growth	7
▁theory	7
▁detail	7
▁larger	7
▁immedi	7
▁levels	7
▁offers	7
▁played	7
▁intern	7
▁County	7
▁System	7
atively	7
▁patter	7
xchange	7
▁streng	7
▁giving	7
▁rights	7
▁mechan	7
▁assist	7
▁School	7
▁became	7
▁Google	7
▁factor	7
▁turned	7
▁matrix	7
▁compar	7
▁nature	7
▁Center	7
▁charge	7
▁looked	7
▁double	7
▁summer	7
actions	7
▁career	7
▁candid	7
▁update	7
▁commit	7
artment	7
▁highly	7
ovember	7
▁sample	7
▁altern	7
▁moving	7
▁degree	7
▁nearly	7
▁useful	7
▁credit	7
▁threat	7
▁static	7
private	7
▁wouldn	7
▁couldn	7
▁modern	7
▁consum	7
ography	7
▁father	7
▁middle	7
▁Friday	7
raction	7
▁advant	7
▁slight	7
▁memory	7
▁bottom	7
▁beyond	7
▁places	7
▁extrem	7
include	7
▁Please	7
▁proced	7
▁skills	7
▁active	7
▁remain	7
▁nation	7
▁August	7
▁struct	7
▁signal	7
▁fields	7
▁assume	7
▁server	7
▁affect	7
▁Sunday	7
▁prefer	7
▁demand	7
ifornia	7
▁except	7
clusion	7
▁inform	7
▁Israel	7
▁vector	7
▁advice	7
▁safety	7
▁window	7
▁expand	7
usiness	7
▁budget	7
▁scient	7
▁aspect	7
mercial	7
▁String	7
▁mobile	7
▁stream	7
▁reduce	7
▁client	7
▁seeing	7
▁camera	7
▁Figure	7
▁compos	7
▁Monday	7
▁histor	7
▁status	7
▁photos	7
▁strugg	7
▁closed	7
▁damage	7
▁advert	7
▁showed	7
▁prices	7
ensions	7
▁symmet	7
ression	7
▁daught	7
▁Health	7
▁celebr	7
▁Associ	7
▁Street	7
▁concer	7
idering	7
▁passed	7
▁define	7
▁helped	7
▁thanks	7
▁income	7
▁handle	7
▁spirit	7
▁adding	7
pective	7
▁thread	7
article	7
▁smooth	7
▁regist	7
▁bright	7
▁secret	7
▁owners	7
▁Thanks	7
▁unless	7
▁volume	7
▁Commun	7
▁domain	7
▁posted	7
▁mostly	7
▁church	7
▁Indian	7
▁motion	7
▁invent	7
▁script	7
▁visual	7
▁starts	7
▁corpor	7
▁expert	7
▁Canada	7
▁Direct	7
▁bought	7
▁finite	7
▁switch	7
▁toward	7
▁assess	7
▁button	7
▁shared	7
▁sexual	7
▁resist	7
▁finish	7
uations	7
▁caused	7
eration	7
▁letter	7
▁Govern	7
▁danger	7
▁conver	7
▁batter	7
▁remind	7
▁failed	7
▁seemed	7
▁supply	7
version	7
▁afford	7
▁sounds	7
ervices	7
▁incred	7
Service	7
▁victim	7
▁driver	7
▁asking	7
▁master	7
▁videos	7
▁killed	7
▁People	7
▁forget	7
▁street	7
▁French	7
▁placed	7
ampions	7
▁chosen	7
▁height	7
▁cancer	7
▁sports	7
resents	7
vention	7
▁pieces	7
▁battle	7
▁attend	7
▁decide	7
▁column	7
▁forces	7
display	7
▁launch	7
▁opened	7
▁annual	7
▁Church	7
▁square	7
▁filter	7
▁corner	7
ference	7
▁promot	7
▁female	7
▁conven	7
▁served	7
▁listed	7
▁minute	7
▁listen	7
▁dating	7
▁belong	7
connect	7
ocation	7
current	7
▁reserv	7
▁errors	7
▁faster	7
▁speech	7
▁propos	7
Request	7
▁Office	7
▁doctor	7
▁arrest	7
▁raised	7
▁manage	7
▁League	7
▁terror	7
▁Public	7
Message	7
▁buying	7
▁spring	7
▁broken	7
▁medium	7
▁stated	7
clusive	7
request	7
▁eating	7
▁forced	7
tpublic	7
summary	7
▁sector	7
related	7
▁coffee	7
▁filled	7
▁signed	7
▁movies	7
▁leaves	7
▁manner	7
command	7
▁symbol	7
▁survey	7
▁writer	7
inating	7
▁retail	7
▁bigger	7
package	7
▁colors	7
▁secure	7
▁vision	7
▁senior	7
▁agency	7
▁behavi	7
▁caught	7
▁George	7
outhern	7
▁advent	7
▁prepar	7
▁editor	7
▁closer	7
▁assign	7
▁fourth	7
▁transl	7
▁German	7
▁sudden	7
▁planet	7
▁famous	7
▁academ	7
▁brings	7
▁winter	7
oration	7
▁Amazon	7
▁applic	7
▁appeal	7
▁iPhone	7
▁stable	7
pecific	7
▁paying	7
▁anyway	7
▁cities	7
▁layers	7
▁Market	7
appoint	7
▁agreed	7
▁acknow	7
product	7
nPlease	7
▁formed	7
▁hidden	7
▁artist	7
▁dinner	7
▁league	7
▁reject	7
▁Africa	7
▁picked	7
▁causes	7
iveness	7
▁breath	7
▁fellow	7
contain	7
nThanks	7
▁stores	7
▁injury	7
▁Design	7
▁joined	7
▁debate	7
▁fairly	7
▁Island	7
▁theore	7
▁Robert	7
▁plants	7
theorem	7
▁orders	7
▁repair	7
▁animal	7
▁border	7
▁missed	7
▁sister	7
▁beauty	7
▁defend	7
Manager	7
▁limits	7
▁Social	7
▁losing	7
▁radius	7
▁France	7
▁Senate	7
▁mainly	7
▁excess	7
▁Russia	7
▁begins	7
▁During	7
▁reader	7
▁binary	7
▁explan	7
▁Muslim	7
▁slowly	7
▁tested	7
▁flight	7
▁spaces	7
▁topics	7
tenance	7
▁reward	7
▁regime	7
ameters	7
iration	7
▁favour	7
▁stands	7
▁branch	7
▁reform	7
▁recipe	7
▁origin	7
▁wealth	7
▁estate	7
▁crisis	7
▁strict	7
▁amplit	7
▁pulled	7
▁garden	7
▁remark	7
▁gather	7
essions	7
▁Second	7
▁formal	7
▁hoping	7
project	7
▁intent	7
▁county	7
imately	7
▁philos	7
▁blocks	7
ributes	7
▁liquid	7
▁carbon	7
▁affili	7
▁stupid	7
istical	7
▁humans	7
service	7
▁Secret	7
▁Virgin	7
▁narrow	7
▁occurs	7
▁centre	7
▁Police	7
▁Thomas	7
▁guests	7
▁perman	7
ulating	7
perform	7
▁lovely	7
▁native	7
▁talked	7
▁adults	7
▁remote	7
▁taught	7
▁issued	7
▁proved	7
▁contem	7
▁Engine	7
▁walked	7
▁colour	7
▁decade	7
raining	7
▁retain	7
widehat	7
▁widely	7
results	7
perties	7
▁extent	7
▁covers	7
▁island	7
▁fabric	7
▁acting	7
▁Mexico	7
▁curves	7
▁Valley	7
▁linked	7
▁kernel	7
▁basket	7
▁bodies	7
▁murder	7
▁inject	7
▁facing	7
install	7
▁lights	7
▁analog	7
▁Online	7
▁Policy	7
▁Custom	7
▁extend	7
▁nearby	7
▁driven	7
Content	7
▁vertex	7
▁Series	7
▁gotten	7
▁harder	7
▁Martin	7
▁superv	7
options	7
▁Boston	7
agnetic	7
▁scores	7
▁robust	7
▁Jewish	7
▁afraid	7
▁Academ	7
▁thinks	7
▁exceed	7
forward	7
▁papers	7
▁lowest	7
▁shares	7
▁Review	7
▁folder	7
▁cooper	7
npublic	7
▁dialog	7
▁assets	7
▁marked	7
control	7
▁Before	7
▁butter	7
▁powers	7
▁negoti	7
▁tracks	7
▁labels	7
akistan	7
▁Family	7
▁athlet	7
viously	7
▁Author	7
▁bottle	7
▁Master	7
itative	7
▁retire	7
▁Energy	7
▁masses	7
▁yellow	7
▁Middle	7
▁studio	7
blogger	7
▁proven	7
▁scenes	7
▁campus	7
▁scalar	7
▁upload	7
▁versus	7
nexport	7
▁ending	7
▁gender	7
▁Spring	7
▁bridge	7
▁ticket	7
▁finger	7
▁belief	7
▁spokes	7
▁earned	7
example	7
▁guitar	7
▁houses	7
Handler	7
▁strike	7
▁engage	7
▁Person	7
▁galaxy	7
▁convin	7
ificate	7
ipeline	7
▁orient	7
▁scored	7
▁yields	7
▁serves	7
▁laptop	7
▁enthus	7
▁exclud	7
▁ignore	7
▁Object	7
▁severe	7
▁delete	7
▁prosec	7
▁tensor	7
profile	7
▁Museum	7
▁submit	7
▁deploy	7
elihood	7
reprene	7
▁Global	7
▁writes	7
▁brands	7
▁rating	7
ruption	7
▁Invest	7
comment	7
▁territ	7
▁neural	7
▁Corpor	7
▁manual	7
▁cheese	7
▁frustr	7
▁gaming	7
▁magnet	7
▁legisl	7
ishment	7
▁combat	7
Builder	7
▁entity	7
illiant	7
▁merely	7
aligned	7
▁Sports	7
Default	7
▁dollar	7
▁Econom	7
ilation	7
▁strain	7
theless	7
issions	7
▁refere	7
▁pounds	7
ircraft	7
▁offset	7
ultural	7
▁arrive	7
▁silver	7
▁Little	7
▁pushed	7
▁sensor	7
nDuring	7
▁Comput	7
▁retrie	7
▁reveal	7
▁losses	7
▁suffer	7
▁throws	7
▁vacuum	7
▁Report	7
▁weapon	7
▁saving	7
▁flying	7
▁Columb	7
▁Victor	7
ologist	7
▁Should	7
▁relief	7
▁inches	7
▁headed	7
▁dreams	7
▁deeper	7
▁muscle	7
▁Though	7
▁attach	7
▁summar	7
▁rising	7
▁lawyer	7
▁stages	7
▁suppor	7
▁repeat	7
▁weekly	7
▁Daniel	7
▁assert	7
▁breast	7
quality	7
▁mirror	7
▁Andrew	7
closure	7
session	7
▁loving	7
▁passes	7
▁Afghan	7
▁titles	7
▁panels	7
▁photon	7
▁breaks	7
▁stayed	7
▁forest	7
▁twenty	7
▁Centre	7
▁voting	7
success	7
▁Create	7
mediate	7
Command	7
▁guilty	7
endment	7
▁rarely	7
▁resort	7
▁prohib	7
▁deeply	7
▁frames	7
▁nobody	7
▁accord	7
ributed	7
nFigure	7
▁Search	7
▁shower	7
▁scream	7
▁hybrid	7
▁aggreg	7
▁drives	7
▁mixing	7
inction	7
▁subset	7
▁Spirit	7
▁Server	7
▁verify	7
▁graphs	7
▁lesson	7
▁defect	7
▁barely	7
comfort	7
▁Taylor	7
▁Jersey	7
▁notion	7
▁Indust	7
▁satell	7
athered	7
address	7
ificial	7
▁unlike	7
▁Joseph	7
Options	7
nBefore	7
▁counts	7
▁hardly	7
▁gained	7
▁Method	7
▁namely	7
▁Friend	7
▁nights	7
▁franch	7
▁Donald	7
▁Brazil	7
▁emails	7
▁median	7
▁Wilson	7
Factory	7
onymous	7
▁Access	7
▁Python	7
▁steady	7
limited	7
▁Rights	7
▁borrow	7
▁hospit	7
▁riding	7
▁viewed	7
▁Father	7
Version	7
▁surely	7
through	7
▁Number	7
▁museum	7
▁pocket	7
▁cancel	7
▁solved	7
▁layout	7
▁Having	7
▁dining	7
▁sought	7
▁approx	7
orgeous	7
require	7
Control	7
channel	7
▁backup	7
▁Action	7
▁struck	7
▁troops	7
▁margin	7
▁casual	7
▁subsid	7
▁checks	7
istence	7
mitting	7
▁orange	7
isition	7
angular	7
▁refers	7
console	7
nthetic	7
▁advers	7
▁worker	7
▁buffer	7
▁phases	7
▁thrown	7
▁luxury	7
▁Images	7
▁Jordan	7
parison	7
▁analys	7
looking	7
Project	7
element	7
▁Common	7
▁rental	7
▁preced	7
▁Silver	7
instein	7
▁modify	7
▁python	7
▁Mobile	7
▁phrase	7
Results	7
▁revers	7
▁timing	7
▁mining	7
▁shapes	7
▁Miller	7
▁solely	7
▁plasma	7
▁salary	7
Windows	7
entials	7
▁bounds	7
▁drinks	7
▁crimes	7
▁locked	7
▁argued	7
▁Avenue	7
▁racing	7
▁pixels	7
▁packed	7
▁tissue	7
nPosted	7
▁header	7
▁differ	7
▁courts	7
pmatrix	7
▁boards	7
▁refuge	7
▁Agency	7
▁permit	7
▁settle	7
Process	7
ounding	7
ymmetry	7
▁deaths	7
▁Source	7
develop	7
▁incent	7
▁metall	7
alities	7
▁consec	7
▁whilst	7
▁prayer	7
▁casino	7
▁apolog	7
▁infect	7
▁hearts	7
▁shadow	7
▁ruling	7
▁actors	7
▁tackle	7
▁hosted	7
▁Square	7
eddings	7
▁radial	7
conduct	7
initely	7
▁awards	7
▁undert	7
ritical	7
▁singer	7
▁dashed	7
reement	7
▁bother	7
▁Update	7
cession	7
▁horror	7
▁defeat	7
▁export	7
network	7
variant	7
regular	7
▁comedy	7
Address	7
▁forums	7
▁Things	7
▁Golden	7
▁garage	7
▁visits	7
▁babies	7
▁derive	7
▁Travel	7
▁myster	7
▁overse	7
▁lately	7
▁stabil	7
▁ranked	7
▁inputs	7
sampled	7
▁rounds	7
▁Dallas	7
▁oxygen	7
▁barrel	7
▁Change	7
▁angles	7
figures	7
▁sevent	7
▁gentle	7
▁fitted	7
nMonday	7
▁Oregon	7
▁plugin	7
attered	7
▁pursue	7
▁Korean	7
rations	7
▁substr	7
▁Summer	7
ocratic	7
▁quotes	7
▁waters	7
leading	7
▁Garden	7
Product	7
foreach	7
aration	7
Current	7
▁rescue	7
▁Bridge	7
▁scared	7
▁stocks	7
▁Season	7
▁buyers	7
▁fiscal	7
▁render	7
▁trials	7
▁Kansas	7
▁subtle	7
▁cycles	7
▁Galaxy	7
▁Turkey	7
▁fallen	7
▁golden	7
▁refund	7
▁speaks	7
▁Prince	7
▁handed	7
nstatic	7
▁relate	7
nFriday	7
▁Nation	7
▁spoken	7
midrule	7
▁convex	7
▁fought	7
▁themes	7
▁dishes	7
▁invite	7
▁Player	7
▁execut	7
▁funded	7
▁ladies	7
account	7
▁unlock	7
▁frozen	7
▁excuse	7
▁makeup	7
▁upgrad	7
▁bundle	7
▁packet	7
▁Austin	7
▁boring	7
▁clouds	7
▁Awards	7
▁Studio	7
▁recept	7
▁Doctor	7
▁mutual	7
▁Battle	7
▁mature	7
▁testim	7
▁warned	7
▁scroll	7
▁Includ	7
feature	7
▁legacy	7
▁Living	7
▁ranges	7
▁edited	7
▁ratios	7
acteria	7
initial	7
However	7
iversal	7
rection	7
▁wheels	7
claimer	7
▁Forest	7
▁Future	7
▁Mother	7
icating	7
nSecond	7
▁triple	7
▁chains	7
▁nicely	7
▁beings	7
▁Howard	7
▁Cooper	7
▁Option	7
▁voices	7
▁hiring	7
written	7
▁Denver	7
▁assemb	7
ogether	7
▁hotels	7
▁alumin	7
Section	7
▁Credit	7
▁burden	7
▁racial	7
▁wishes	7
▁shifts	7
▁tunnel	7
ictions	7
▁recycl	7
▁Safety	7
▁tradem	7
▁Senior	7
▁presum	7
▁devast	7
▁Select	7
▁perpet	7
▁soccer	7
▁cookie	7
▁oldest	7
picture	7
▁coding	7
▁sphere	7
herence	7
▁Chrome	7
nPeople	7
▁taxpay	7
tically	7
▁Effect	7
▁stolen	7
▁Soviet	7
▁bubble	7
▁shield	7
▁ancest	7
ambling	7
▁meters	7
▁rolled	7
▁baking	7
▁Member	7
▁therap	7
▁horses	7
winning	7
▁roster	7
▁backed	7
▁tongue	7
▁Scient	7
▁forgot	7
herical	7
▁Native	7
▁rubber	7
nFollow	7
▁duties	7
ulative	7
▁Sydney	7
▁astron	7
arently	7
▁Histor	7
▁Editor	7
▁Harris	7
▁routes	7
▁poison	7
Session	7
▁Posted	7
▁noting	7
ervised	7
▁Winter	7
▁builds	7
▁worthy	7
▁varied	7
▁resume	7
ativity	7
created	7
▁judges	7
▁dozens	7
▁harass	7
▁newest	7
viation	7
bmatrix	7
ignment	7
▁refuse	7
▁flower	7
Theorem	7
▁Malays	7
▁google	7
▁multip	7
▁cannab	7
▁speeds	7
▁sculpt	7
▁condem	7
▁sheets	7
▁quoted	7
▁Follow	7
because	7
▁desert	7
▁equity	7
▁divide	7
▁Empire	7
▁poster	7
▁slower	7
▁wooden	7
▁iTunes	7
▁regret	7
▁pepper	7
liament	7
▁supers	7
▁Unless	7
▁accret	7
▁Rather	7
nSunday	7
▁hockey	7
▁contam	7
▁killer	7
▁jumped	7
▁banned	7
counter	7
▁anisot	7
▁stroke	7
▁Modern	7
▁poorly	7
▁bullet	7
▁hungry	7
▁tennis	7
▁Return	7
trained	7
ristian	7
▁Barack	7
irlines	7
general	7
writing	7
nHaving	7
respons	7
lectric	7
▁covari	7
atching	7
working	7
▁Hallow	7
▁Parent	7
▁Simple	7
illance	7
Account	7
▁Advent	7
ordered	7
▁partly	7
▁fruits	7
▁sketch	7
▁prelim	7
▁cavity	7
▁convey	7
▁purple	7
▁refres	7
▁caring	7
support	7
▁titled	7
▁Altern	7
▁Simply	7
▁Orange	7
▁cooked	7
▁varies	7
Channel	7
▁clever	7
▁grants	7
▁Morgan	7
▁Double	7
▁Nature	7
▁Really	7
program	7
▁surviv	7
▁buried	7
▁viable	7
▁poetry	7
▁dealer	7
▁elabor	7
▁shaped	7
ardless	7
▁plates	7
▁guides	7
▁worlds	7
manager	7
ptember	7
▁discre	7
ropical	7
▁proves	7
▁slides	7
parency	7
▁makers	7
intendo	7
▁raises	7
▁Unlike	7
rangian	7
▁novels	7
forming	7
▁Reddit	7
▁cotton	7
cellent	7
▁fusion	7
▁pseudo	7
▁census	7
▁Target	7
changed	7
ressing	7
▁thirty	7
ryption	7
▁Newton	7
▁Walker	7
▁kicked	7
▁Anyone	7
▁Greece	7
▁crying	7
▁ethnic	7
▁hiding	7
▁Observ	7
▁sooner	7
▁modest	7
▁Better	7
Connect	7
▁burned	7
▁lyrics	7
nAnyway	7
ivities	7
virtual	7
▁comics	7
▁praise	7
▁waited	7
▁relies	7
jecture	7
println	7
▁albums	7
boolean	7
▁jacket	7
▁chiral	7
▁deemed	7
issippi	7
Storage	7
▁Within	7
▁intake	7
▁Dragon	7
▁Edward	7
▁outfit	7
▁intend	7
▁Labour	7
▁cosmic	7
▁Script	7
▁enroll	7
Network	7
achelor	7
▁dental	7
▁fortun	7
▁Justin	7
▁params	7
▁transf	7
▁locate	7
▁planes	7
▁gently	7
olation	7
newline	7
▁pedest	7
▁traged	7
▁finest	7
▁unfair	7
lesssim	7
lements	7
▁garlic	7
▁priest	7
▁absent	7
▁fundra	7
▁suited	7
▁router	7
▁agrees	7
▁Apache	7
etition	7
▁Record	7
▁racist	7
cluster	7
▁Either	7
reating	7
▁landed	7
subject	7
▁Anyway	7
release	7
▁preval	7
present	7
▁advise	7
▁insect	7
▁deadly	7
▁throat	7
▁fights	7
Display	7
▁Notice	7
▁Alaska	7
▁admits	7
▁Annual	7
▁carpet	7
nThough	7
▁cruise	7
diction	7
▁heroes	7
▁Contin	7
fulness	7
▁arises	7
▁trucks	7
▁wallet	7
▁trains	7
▁tricks	7
cleaned	7
▁charts	7
▁fixing	7
▁Visual	7
▁proton	7
▁Estate	7
▁Carter	7
station	7
General	7
commits	7
▁evolve	7
▁broker	7
▁firing	7
loading	7
▁Gordon	7
▁Hunter	7
▁floors	7
▁indoor	7
▁treats	7
nSearch	7
▁Marine	7
▁asleep	7
▁Syrian	7
primary	7
▁Always	7
▁Valent	7
▁robots	7
nAmeric	7
▁allies	7
▁iconic	7
▁heated	7
▁destro	7
▁filing	7
▁infant	7
▁commod	7
▁temple	7
▁unions	7
▁basics	7
urchase	7
▁timely	7
▁guided	7
ebruary	7
country	7
▁Wright	7
▁equals	7
▁sparse	7
nsystem	7
▁chairs	7
▁tender	7
idelity	7
▁Temple	7
aughter	7
century	7
▁clinic	7
▁valued	7
handler	7
without	7
▁Hawaii	7
▁permut	7
▁rhythm	7
▁priced	7
medskip	7
▁enjoys	7
▁vessel	7
▁impose	7
▁superb	7
▁provin	7
▁Others	7
▁Employ	7
▁Cancer	7
▁allerg	7
▁supern	7
▁valley	7
▁Wonder	7
▁costly	7
▁outlet	7
▁comply	7
assador	7
jection	7
fficial	7
ictures	7
▁bucket	7
▁essays	7
▁traded	7
▁lifted	7
special	7
imation	7
▁recurs	7
▁ritual	7
builder	7
▁reddit	7
balance	7
▁grades	7
▁Client	7
▁labour	7
▁Easter	7
▁Active	7
▁Choose	7
▁tuning	7
▁Sweden	7
▁lenses	7
pressed	7
phantom	7
Example	7
▁puzzle	7
rolling	7
▁lovers	7
▁Stream	7
▁affair	7
atility	7
▁grains	7
▁Murray	7
Initial	7
▁rocket	7
▁Making	7
▁Fellow	7
▁Graham	7
Enabled	7
▁ballot	7
compare	7
▁seller	7
▁resign	7
▁Leader	7
▁emerge	7
noreply	7
▁Marvel	7
ascular	7
▁Import	7
▁trails	7
▁Nether	7
duction	7
▁Steven	7
▁sequel	7
arriage	7
achment	7
▁prints	7
abulary	7
induced	7
▁Events	7
▁delays	7
▁fright	7
▁weaker	7
▁typing	7
parents	7
columns	7
nReview	7
▁Remove	7
▁Warren	7
▁freeze	7
nAuthor	7
▁donate	7
▁Nelson	7
▁canvas	7
▁vendor	7
▁enters	7
▁insane	7
▁Moscow	7
▁assass	7
▁insult	7
details	7
▁Oxford	7
▁sorted	7
▁Knight	7
western	7
▁closet	7
▁sticks	7
dynamic	7
▁plaint	7
▁degrad	7
generic	7
▁lesser	7
▁Queens	7
▁Batman	7
▁spiral	7
▁Single	7
ixtures	7
respect	7
▁racism	7
▁Castle	7
▁streak	7
▁cousin	7
▁runner	7
▁Course	7
riteria	7
▁unders	7
▁Giants	7
▁ubuntu	7
nPerson	7
▁cooler	7
▁divine	7
Changed	7
▁redund	7
▁tricky	7
▁landsc	7
▁fridge	7
rencies	7
▁excell	7
▁logged	7
ificant	7
▁overly	7
claimed	7
▁reluct	7
prising	7
classes	7
▁Region	7
▁Fisher	7
▁expend	7
▁cables	7
▁thesis	7
▁openly	7
nCustom	7
▁disput	7
▁nuclei	7
▁socket	7
umption	7
berries	7
onomous	7
▁Taking	7
▁ethics	7
storage	7
▁wholes	7
natural	7
Invalid	7
▁Parker	7
▁strive	7
▁McCain	7
▁Taiwan	7
execute	7
▁portal	7
▁riders	7
▁argues	7
▁trauma	7
▁stance	7
history	7
testing	7
▁Vector	7
contact	7
▁booked	7
algebra	7
correct	7
▁learns	7
density	7
nGoogle	7
conomic	7
▁rookie	7
Details	7
▁Oracle	7
headers	7
▁absurd	7
running	7
▁reconc	7
▁laying	7
equence	7
▁dotted	7
▁marker	7
problem	7
▁spouse	7
▁Poland	7
▁marine	7
Generic	7
Profile	7
▁Random	7
▁summit	7
Feature	7
taining	7
▁renown	7
▁sealed	7
keeping	7
Summary	7
Success	7
naments	7
umbling	7
scripts	7
▁brutal	7
▁strand	7
▁Morris	7
nbefore	7
ructive	7
archive	7
▁weaken	7
▁Status	7
plugins	7
▁crowds	7
racting	7
▁locals	7
▁Rachel	7
▁Heaven	7
pletion	7
▁attain	7
▁Linked	7
▁Eagles	7
▁genius	7
allowed	7
▁merger	7
▁awhile	7
▁cataly	7
similar	7
▁Arthur	7
between	7
▁wasted	7
scriber	7
Station	7
▁Nevada	7
▁absorb	7
▁orbits	7
▁syntax	7
▁eighth	7
▁hiking	7
logging	7
▁affirm	7
itching	7
ulously	7
▁bipart	7
▁upside	7
Program	7
▁sizeof	7
trivial	7
powered	7
▁harmon	7
Related	7
▁glance	7
citealt	7
▁Result	7
▁multim	7
iblical	7
ivation	7
▁amazed	7
▁biased	7
ringing	7
▁Device	7
othered	7
selling	7
versely	7
consist	7
reading	7
▁Albert	7
▁deputy	7
▁Weight	7
urities	7
▁Casino	7
▁Luther	7
▁expose	7
arettes	7
▁scaled	7
earning	7
Because	7
library	7
▁Dakota	7
▁Interv	7
▁dispar	7
▁encomp	7
▁Animal	7
▁bounce	7
charged	7
million	7
▁nurses	7
▁lasted	7
ificent	7
▁humble	7
▁Beyond	7
▁spends	7
▁cleans	7
▁Johnny	7
▁Junior	7
▁Markov	7
nobserv	7
▁prizes	7
▁Bright	7
ractive	7
▁gluten	7
▁assure	7
▁cinema	7
▁Saints	7
▁dipole	7
▁washed	7
▁hatred	7
enezuel	7
▁clause	7
▁Ground	7
▁smiled	7
▁debris	7
▁Arabia	7
▁Madrid	7
Package	7
▁rushed	7
▁brains	7
▁admire	7
▁weakly	7
checked	7
▁redist	7
▁coupon	7
iblings	7
▁bloody	7
▁metals	7
▁fucked	7
Welcome	7
▁Potter	7
▁venues	7
ountain	7
▁Volume	7
▁viewer	7
ventory	7
▁Almost	7
▁rivers	7
Adapter	7
collect	7
▁parity	7
▁Hitler	7
▁Memory	7
▁banner	7
▁roller	7
▁Yellow	7
Library	7
▁Legisl	7
▁hammer	7
iencies	7
commend	7
▁Theory	7
▁phosph	7
▁Inside	7
▁pickup	7
▁Budget	7
▁Murphy	7
▁extrap	7
ressive	7
▁hunger	7
entropy	7
Timeout	7
▁Palace	7
▁breach	7
▁catast	7
▁joints	7
complex	7
measure	7
toprule	7
▁reboot	7
▁shirts	7
▁denial	7
▁geodes	7
▁hooked	7
▁Jeremy	7
▁ladder	7
▁inning	7
▁Polish	7
factory	7
nChrist	7
healthy	7
central	7
▁rotate	7
▁Strong	7
▁fossil	7
▁Watson	7
▁Planet	7
essment	7
▁Warner	7
Support	7
nPolice	7
neffect	7
▁virtue	7
▁intact	7
▁Peters	7
▁Reagan	7
▁Bishop	7
resolve	7
▁whites	7
overing	7
▁Rogers	7
▁strips	7
rollers	7
▁Tigers	7
fitting	7
average	7
▁aiming	7
▁arrows	7
▁Summit	7
▁enrich	7
quantum	7
▁senses	7
▁farmer	7
▁epochs	7
▁helmet	7
issance	7
ivalent	7
▁Legend	7
▁prejud	7
Advisor	7
▁notify	7
▁Pretty	7
▁Letter	7
objects	7
▁bypass	7
▁gloves	7
▁upward	7
playing	7
perturb	7
▁diplom	7
▁abused	7
▁dragon	7
▁adoles	7
▁cylind	7
▁temper	7
▁needle	7
▁cutoff	7
▁united	7
▁darker	7
▁insist	7
▁Toyota	7
nAugust	7
emetery	7
▁Mumbai	7
▁parade	7
▁Matrix	7
▁slices	7
▁oppose	7
▁Screen	7
▁rivals	7
▁lonely	7
▁addict	7
jective	7
▁rooted	7
▁traces	7
▁Coffee	7
uristic	7
▁Athlet	7
▁pulses	7
▁cattle	7
updated	7
pattern	7
▁Walter	7
▁referr	7
▁punish	7
▁merged	7
▁pastor	7
▁Points	7
▁gamers	7
▁slaves	7
▁castle	7
▁immers	7
▁donors	7
▁apples	7
▁urgent	7
▁wished	7
quiries	7
▁Philip	7
▁Oliver	7
runtime	7
samples	7
▁lining	7
▁Safari	7
▁arrays	7
Contact	7
vectors	7
science	7
▁induce	7
▁Deputy	7
VERSION	7
ometown	7
▁balcon	7
▁append	7
Console	7
▁collar	7
exports	7
nNotice	7
nSource	7
▁thrust	7
ortions	7
▁Turner	7
▁volcan	7
▁Vision	7
▁Samuel	7
atories	7
▁Beauty	7
▁Harper	7
▁Shadow	7
▁sewing	7
▁Hudson	7
▁remedy	7
keyword	7
Wrapper	7
percent	7
▁snacks	7
▁Normal	7
▁Nathan	7
▁allevi	7
▁boasts	7
▁widget	7
amation	7
▁geomet	7
Tuesday	7
▁fibers	7
▁Circle	7
▁Driver	7
▁Hebrew	7
▁Camera	7
▁Puerto	7
workers	7
▁anonym	7
▁ideals	7
▁warmth	7
iratory	7
▁Rivers	7
▁Nobody	7
founder	7
▁sights	7
▁honour	7
members	7
windows	7
▁topped	7
emption	7
▁organs	7
▁Dublin	7
redited	7
▁induct	7
ourcing	7
▁sticky	7
borough	7
▁Weekly	7
Texture	7
ullivan	7
▁Switch	7
▁pillow	7
nstruct	7
▁hassle	7
▁citing	7
▁opener	7
▁patrol	7
uniform	7
▁coarse	7
nshould	7
▁deduct	7
▁Period	7
starter	7
▁Around	7
▁precip	7
▁diesel	7
▁wounds	7
▁Norway	7
ussions	7
orption	7
▁vocals	7
▁thrive	7
▁shrink	7
nSelect	7
▁Higher	7
▁Census	7
payload	7
inology	7
▁Button	7
▁turkey	7
▁sender	7
▁Forces	7
▁causal	7
▁ribbon	7
▁Sounds	7
▁evenly	7
▁commem	7
LICENSE	7
▁Rating	7
▁Harbor	7
nnumber	7
Boolean	7
▁diving	7
▁Brooks	7
nAnyone	7
nTaking	7
nenergy	7
▁disreg	7
▁doesnt	7
Returns	7
▁alerts	7
▁depths	7
▁intric	7
osition	7
▁Racing	7
▁liable	7
▁kidney	7
metrics	7
▁lounge	7
▁Dennis	7
▁naming	7
▁qubits	7
▁vanish	7
▁candle	7
▁crunch	7
ulatory	7
▁onions	7
▁polish	7
atorial	7
▁aboard	7
recated	7
▁encode	7
ordable	7
▁potent	7
attices	7
▁corpus	7
▁finals	7
▁learnt	7
▁Carlos	7
fiction	7
nselect	7
usually	7
▁unsure	7
▁cursor	7
▁Flight	7
ragment	7
▁clicks	7
amacare	7
ularity	7
encoder	7
olphins	7
▁Angels	7
▁marvel	7
▁theirs	7
▁persec	7
▁Arabic	7
ulators	7
▁planar	7
ciously	7
portion	7
History	7
▁Impact	7
▁judged	7
▁endeav	7
binding	7
justice	7
▁ginger	7
sterdam	7
▁liking	7
▁Spider	7
▁parked	7
▁Dating	7
nShould	7
thernet	7
▁sleeve	7
▁cherry	7
▁curved	7
▁genres	7
▁blamed	7
nUpdate	7
▁shells	7
▁Thread	7
▁tenure	7
▁Gospel	7
▁sucked	7
▁saddle	7
owntown	7
▁polite	7
▁Filter	7
▁waking	7
disable	7
▁Reader	7
▁Sacram	7
▁closes	7
logical	7
▁splash	7
▁stereo	7
nPublic	7
payment	7
▁autism	7
▁pissed	7
▁lively	7
DEFAULT	7
nUnlike	7
irement	7
▁mighty	7
weights	7
stellar	7
▁Colomb	7
timeout	7
▁Marcus	7
▁Sample	7
▁honors	7
▁safegu	7
▁unreal	7
▁jersey	7
ractice	7
setting	7
▁Holmes	7
▁unanim	7
forcing	7
▁Schwar	7
▁tribal	7
▁Butter	7
▁Expert	7
▁Growth	7
Article	7
▁cement	7
▁Harvey	7
confirm	7
nCreate	7
▁proofs	7
▁autumn	7
company	7
▁Fourth	7
▁archae	7
▁clutch	7
cluding	7
nextern	7
▁Branch	7
listing	7
otional	7
▁salmon	7
▁warmer	7
▁towers	7
▁Recent	7
▁inspir	7
▁shoots	7
PhysRev	7
▁Border	7
▁greedy	7
▁cracks	7
▁parish	7
Drawing	7
▁eleven	7
▁Latino	7
▁Quebec	7
Release	7
▁Window	7
▁culmin	7
atterns	7
▁Canyon	7
▁statue	7
labeled	7
▁patron	7
▁Except	7
▁Planck	7
▁baryon	7
▁pushes	7
▁flames	7
▁Foster	7
Special	7
▁tribes	7
▁crypto	7
▁fluxes	7
▁awaken	7
▁pledge	7
▁storms	7
nSocial	7
▁smells	7
▁virgin	7
▁owning	7
▁Writer	7
▁chunks	7
▁breeze	7
nDirect	7
▁impair	7
▁yearly	7
▁Ottawa	7
▁metres	7
racking	7
inburgh	7
centric	7
machine	7
▁blacks	7
▁kindly	7
▁sunset	7
Created	7
colhead	7
▁Butler	7
nFormer	7
▁locker	7
▁Hubble	7
▁wicked	7
▁tossed	7
▁reside	7
▁Listen	7
▁folded	7
▁splits	7
▁Alfred	7
▁Attack	7
▁Coming	7
heading	7
▁hollow	7
▁ruined	7
lington	7
▁tagged	7
English	7
pointer	7
▁Motion	7
invalid	7
bigskip	7
▁Artist	7
▁strang	7
coholic	7
▁Carbon	7
▁Buddha	7
▁parser	7
▁Output	7
forEach	7
erguson	7
▁Motors	7
autiful	7
▁Hockey	7
meaning	7
▁hypers	7
warning	7
license	7
▁boxing	7
perfect	7
▁bursts	7
▁Norman	7
▁flawed	7
▁alumni	7
▁creamy	7
desktop	7
rainian	7
Methods	7
▁Hughes	7
▁graded	7
▁cyclic	7
unknown	7
strings	7
▁ResNet	7
▁gifted	7
▁deform	7
arnings	7
▁spices	7
weather	7
▁slopes	7
▁Assume	7
▁Darwin	7
nresult	7
▁motors	7
▁relent	7
ubernet	7
▁stamps	7
NotNull	7
verages	7
▁christ	7
tration	7
nWithin	7
▁nerves	7
▁treaty	7
feeding	7
▁sodium	7
▁GitHub	7
surface	7
▁occupy	7
nHealth	7
Objects	7
▁wholly	7
▁bosons	7
▁REALLY	7
▁CONDIT	7
▁leaked	7
▁conced	7
▁promin	7
uropean	7
▁Chiefs	7
▁Campus	7
▁feared	7
▁fluids	7
Private	7
▁purity	7
fashion	7
▁greens	7
▁rebell	7
Pointer	7
▁affine	7
creased	7
▁Ashley	7
Figures	7
▁fisher	7
▁Gibson	7
▁Julian	7
▁deduce	7
▁screws	7
▁doping	7
▁intest	7
lasting	7
▁Brexit	7
▁trophy	7
▁liquor	7
express	7
▁resent	7
▁thresh	7
▁Skills	7
▁drying	7
student	7
▁Arnold	7
▁sturdy	7
Loading	7
compact	7
▁Volunt	7
▁Former	7
▁almond	7
▁Arctic	7
▁unused	7
▁Triple	7
▁Bryant	7
nOnline	7
▁recess	7
▁PayPal	7
▁adhere	7
▁throne	7
bounded	7
▁livest	7
▁Income	7
▁embark	7
ceptive	7
▁lender	7
▁Ethiop	7
▁tactic	7
▁rebels	7
tString	7
▁fierce	7
▁melted	7
▁incumb	7
nRobert	7
ichever	7
pletely	7
angered	7
▁framed	7
▁Astron	7
▁smoked	7
inality	7
▁Palmer	7
▁Ronald	7
▁Repair	7
▁Clinic	7
rington	7
▁unsafe	7
maximum	7
nNumber	7
eclipse	7
nUnited	7
▁devote	7
▁Mormon	7
▁noises	7
▁slowed	7
Binding	7
▁hunter	7
▁thrill	7
▁colony	7
▁peanut	7
▁Garcia	7
▁Format	7
setText	7
▁gallon	7
gravity	7
athetic	7
nChoose	7
▁pupils	7
▁seated	7
▁Herald	7
▁tasted	7
▁attent	7
▁Superv	7
Install	7
▁Retail	7
appings	7
isional	7
▁Duncan	7
▁laughs	7
sources	7
▁heater	7
▁monkey	7
America	7
Counter	7
▁traced	7
▁Define	7
▁Bottom	7
▁felony	7
▁stakes	7
nAssume	7
▁Answer	7
overset	7
▁Angela	7
▁verses	7
▁fading	7
orphism	7
▁Amanda	7
nauthor	7
▁banana	7
▁bronze	7
▁Accept	7
npeople	7
▁Travis	7
conserv	7
▁wildly	7
▁coated	7
▁Bailey	7
▁floral	7
▁Ravens	7
▁Powell	7
▁truths	7
▁Barnes	7
▁solves	7
pairing	7
▁Issues	7
▁skinny	7
▁Remark	7
seconds	7
Another	7
▁widths	7
▁rented	7
▁nested	7
▁hugely	7
▁Prices	7
Michael	7
▁demons	7
destroy	7
▁Comics	7
▁underm	7
▁lepton	7
hematic	7
▁bosses	7
▁libert	7
▁dumped	7
▁Lakers	7
▁Matter	7
▁chrome	7
▁themed	7
▁jungle	7
htaking	7
ousands	7
Unknown	7
casting	7
▁towels	7
quarter	7
hearted	7
▁Celebr	7
Compact	7
▁misses	7
▁burger	7
▁stride	7
▁Shield	7
▁Remote	7
▁intens	7
Setting	7
noalign	7
compile	7
▁Adding	7
▁rabbit	7
holding	7
matched	7
▁thirst	7
▁Launch	7
▁Reform	7
▁Factor	7
▁wander	7
▁Recall	7
▁nodded	7
chester	7
growing	7
ornings	7
▁Philos	7
▁orgasm	7
itating	7
▁aerial	7
diagram	7
▁Athens	7
▁Boeing	7
▁thrott	7
roduced	7
▁Moving	7
isphere	7
popular	7
▁replay	7
nmethod	7
segment	7
▁phonon	7
▁herbal	7
nAltern	7
▁Stuart	7
▁Dayton	7
nInvest	7
▁wizard	7
ncomput	7
▁Reason	7
▁typeof	7
▁physic	7
nImport	7
▁capita	7
▁Danish	7
▁Serial	7
▁Joshua	7
▁Cities	7
methods	7
▁memoir	7
incipal	7
▁stitch	7
minimum	7
minster	7
neutral	7
icative	7
▁sliced	7
▁spider	7
▁Career	7
▁Lauren	7
▁Soccer	7
▁newcom	7
▁Hannah	7
▁Gaming	7
inarily	7
▁Adrian	7
henever	7
▁messed	7
thought	7
▁caller	7
▁urging	7
▁indict	7
nThings	7
▁merits	7
▁Romans	7
colored	7
nthesis	7
▁Terror	7
compute	7
plectic	7
▁VALUES	7
▁Clarke	7
▁reflex	7
▁Apollo	7
▁Legacy	7
▁skiing	7
▁Porter	7
▁Docker	7
backend	7
▁geared	7
hooting	7
▁assort	7
▁richer	7
Warning	7
▁regain	7
▁helium	7
▁Fields	7
▁orphan	7
▁Delete	7
▁Martha	7
▁Vienna	7
changes	7
▁solver	7
▁subway	7
▁Nicole	7
▁ghosts	7
▁Medium	7
▁handic	7
▁obsess	7
▁cowork	7
ropolis	7
▁yogurt	7
▁Behind	7
trigger	7
▁vastly	7
sharing	7
eworthy	7
▁Carson	7
▁ranged	7
▁redeem	7
▁crappy	7
literal	7
▁straps	7
▁Divine	7
▁tended	7
▁Calvin	7
▁drawer	7
▁Speech	7
focused	7
▁masked	7
▁optics	7
▁weighs	7
ogenous	7
▁probes	7
Actions	7
▁Dollar	7
▁carved	7
enstein	7
▁shaded	7
▁Adjust	7
Subject	7
typedef	7
▁marble	7
▁stared	7
quisite	7
▁Greens	7
▁progen	7
▁vacant	7
imbabwe	7
▁Geneva	7
▁spaced	7
▁Entity	7
▁iCloud	7
▁shitty	7
▁telesc	7
Average	7
website	7
▁Browns	7
▁slated	7
nvalues	7
▁Groups	7
quently	7
bsolute	7
▁Supply	7
▁helper	7
▁stacks	7
chapter	7
▁asthma	7
nfollow	7
▁extras	7
▁Morocc	7
▁enzyme	7
ndirect	7
ivating	7
tstruct	7
Problem	7
▁Mental	7
▁Zimmer	7
▁ironic	7
▁tailor	7
▁meteor	7
▁Fusion	7
digital	7
istries	7
monitor	7
ocative	7
▁cooled	7
▁Cruise	7
missing	7
crafted	7
Further	7
▁housed	7
▁Rescue	7
▁pumped	7
▁Lights	7
Measure	7
▁slider	7
manship	7
▁Strike	7
January	7
ourable	7
Finally	7
Machine	7
▁paints	7
inished	7
▁termed	7
refresh	7
▁Female	7
▁Heroes	7
▁avoids	7
▁linger	7
opening	7
▁Secure	7
▁Corner	7
reverse	7
▁Monica	7
nMethod	7
▁humour	7
▁Sprint	7
▁grocer	7
▁hereby	7
Connell	7
nRecall	7
▁Degree	7
undreds	7
nReport	7
▁silhou	7
nSchool	7
creases	7
▁NASCAR	7
▁Topics	7
urgical	7
▁Neural	7
▁spinal	7
▁dwarfs	7
jupyter	7
▁motive	7
▁rugged	7
▁timber	7
orously	7
▁lacked	7
▁twists	7
lifting	7
astrous	7
▁Andrea	7
Without	7
filters	7
▁seldom	7
getting	7
▁knives	7
▁pulsar	7
inaries	7
uggling	7
ICATION	7
▁biking	7
ipation	7
nFamily	7
▁kissed	7
▁repeal	7
▁minors	7
scaling	7
▁refine	7
closing	7
Nothing	7
▁Linear	7
▁barbec	7
▁Ticket	7
nothing	7
▁Sister	7
▁majors	7
answers	7
▁chorus	7
▁styled	7
angling	7
▁appell	7
▁extern	7
mathbbm	7
▁Twenty	7
▁Waters	7
▁insign	7
▁priori	7
whether	7
verting	7
▁Seeing	7
sidered	7
▁Titans	7
draulic	7
located	7
friends	7
nMaking	7
purpose	7
visions	7
▁Logger	7
▁Sharon	7
nTravel	7
thereum	7
▁minima	7
▁palace	7
another	7
eliness	7
▁Tables	7
▁loudly	7
▁rifles	7
Updated	7
▁Places	7
nRating	7
▁Portal	7
renched	7
▁aggrav	7
▁Hilton	7
arcraft	7
October	7
▁shrimp	7
▁softer	7
Present	7
▁Dental	7
Collect	7
Pattern	7
▁Munich	7
ographs	7
▁dancer	7
▁Papers	7
▁Saturn	7
▁keeper	7
concept	7
▁swings	7
▁incarn	7
indexOf	7
▁prince	7
▁Bernie	7
nwithin	7
▁Cherry	7
printed	7
▁tucked	7
▁Stokes	7
elocity	7
placian	7
▁Dinner	7
▁Mining	7
▁Auburn	7
▁Cookie	7
▁Territ	7
▁lookup	7
▁Eugene	7
dirname	7
nDesign	7
▁Castro	7
parable	7
▁Desert	7
▁Length	7
▁Cambod	7
▁staged	7
porters	7
▁docker	7
▁Mirror	7
▁outing	7
▁trader	7
▁Prison	7
Headers	7
estions	7
▁poised	7
▁Column	7
▁mesons	7
▁spikes	7
▁squash	7
▁yelled	7
iracles	7
▁Surely	7
uploads	7
mapping	7
managed	7
uckland	7
▁wolves	7
▁Gandhi	7
▁hyster	7
▁Comedy	7
▁insurg	7
▁abuses	7
nUnless	7
▁Binary	7
Execute	7
Twitter	7
gallery	7
nUPDATE	7
routine	7
nLastly	7
rupting	7
▁Hotels	7
proving	7
▁Cotton	7
nposted	7
usement	7
▁posing	7
ighbors	7
cribing	7
▁clocks	7
▁scarce	7
▁Pierce	7
▁Chapel	7
nReally	7
▁Powers	7
▁armies	7
▁cheeks	7
▁preach	7
▁fringe	7
legiate	7
lightly	7
▁Nearly	7
▁summed	7
uncture	7
▁Trying	7
newpage	7
kernels	7
texture	7
▁oceans	7
▁facets	7
▁PLEASE	7
▁Jackie	7
orative	7
▁Purple	7
▁diaper	7
▁plural	7
nAlmost	7
▁Treaty	7
▁runway	7
sembles	7
▁hourly	7
nAccess	7
▁Texans	7
▁tonnes	7
chnical	7
▁Viagra	7
▁hacked	7
Virtual	7
▁grapes	7
▁Vander	7
▁pirate	7
Archive	7
▁bricks	7
▁expire	7
▁prayed	7
▁steals	7
▁depict	7
▁Rental	7
enguins	7
▁remake	7
▁Sebast	7
▁Albany	7
▁Legion	7
▁Parish	7
Dynamic	7
▁quirky	7
nDaniel	7
▁Wizard	7
grained	7
nGeorge	7
started	7
uracies	7
▁Burton	7
threads	7
▁Aurora	7
▁hairst	7
▁rapper	7
scribed	7
▁Curtis	7
▁metast	7
▁neuron	7
▁miners	7
▁Devils	7
▁french	7
▁Jacobs	7
▁Mechan	7
nLatest	7
▁leaned	7
▁Mickey	7
▁incarc	7
▁Charge	7
▁toxins	7
▁citrus	7
decoder	7
players	7
Compare	7
writers	7
▁hypert	7
▁repent	7
▁bishop	7
▁wisely	7
Running	7
nReturn	7
nSystem	7
▁sorrow	7
▁melody	7
ometers	7
nCredit	7
▁Crisis	7
▁Pastor	7
▁suburb	7
▁juices	7
▁thighs	7
ricanes	7
prepare	7
Chapter	7
makebox	7
vantage	7
▁Compet	7
▁louder	7
▁gravel	7
▁lambda	7
patcher	7
▁Latest	7
▁funnel	7
▁ounces	7
▁stroll	7
tswitch	7
▁Patrol	7
▁timest	7
▁gladly	7
culture	7
▁Hidden	7
▁fronts	7
▁suites	7
▁waiver	7
▁Finder	7
▁Caesar	7
▁decode	7
▁grease	7
▁vagina	7
nChange	7
insider	7
perhaps	7
ributor	7
ninvest	7
▁Bullet	7
▁Mostly	7
▁Hybrid	7
casters	7
▁Rocket	7
▁healed	7
▁misery	7
nAndrew	7
▁Bruins	7
▁cohort	7
optical	7
screens	7
haviour	7
▁Repeat	7
osities	7
▁Nvidia	7
▁Cinema	7
▁Monroe	7
▁loader	7
helpers	7
nThomas	7
HashMap	7
▁Flickr	7
▁PARTIC	7
▁Snyder	7
Payment	7
defense	7
publish	7
▁miscon	7
pending	7
▁Prayer	7
▁bodily	7
▁Signal	7
Through	7
systems	7
Primary	7
▁methyl	7
▁thumbs	7
▁Cheese	7
▁Ranger	7
▁mantra	7
▁Advice	7
▁harbor	7
onestly	7
▁canned	7
▁detain	7
▁teamed	7
arrings	7
Digital	7
▁Flying	7
Columns	7
earance	7
▁breeds	7
nsatisf	7
▁Harold	7
▁sanity	7
▁tasked	7
comings	7
▁skelet	7
▁toggle	7
CLUDING	7
▁nephew	7
Company	7
▁Symbol	7
autions	7
▁Lastly	7
▁coping	7
Science	7
▁amazon	7
▁cardio	7
numbers	7
▁bumper	7
▁medals	7
nExpand	7
▁Philly	7
▁ballet	7
▁peaked	7
nstrong	7
▁Newman	7
inverse	7
nLogged	7
▁boiler	7
▁rename	7
igslist	7
▁superm	7
Percent	7
▁Commit	7
▁daring	7
alaxies	7
▁hitter	7
nAlways	7
▁multic	7
▁suffix	7
▁cereal	7
▁puppet	7
▁reload	7
▁Hammer	7
arrison	7
keepers	7
▁slogan	7
▁Celtic	7
▁avatar	7
▁forged	7
nstates	7
▁shines	7
naround	7
▁crises	7
▁triang	7
▁capped	7
Testing	7
physics	7
▁anarch	7
inspace	7
▁iphone	7
Surface	7
DOCTYPE	7
▁finely	7
▁fluffy	7
▁parton	7
▁Hospit	7
▁Rapids	7
▁violin	7
bibitem	7
▁unrest	7
minimal	7
Looking	7
extract	7
▁Guitar	7
▁locale	7
▁Ladies	7
preview	7
▁mouths	7
▁taller	7
▁washer	7
gencies	7
nEditor	7
▁Relief	7
Encoder	7
ilitary	7
kswagen	7
nduring	7
zbollah	7
▁Dreams	7
▁Guests	7
▁Panama	7
formula	7
orating	7
▁Export	7
Classes	7
Monitor	7
▁floods	7
▁fueled	7
nAnswer	7
▁Ethics	7
▁payday	7
▁concur	7
▁unfold	7
▁burial	7
▁valves	7
▁Handle	7
egative	7
▁circus	7
▁recoil	7
ostream	7
▁Pepper	7
▁Rising	7
▁petrol	7
▁Stalin	7
▁Trevor	7
tAssert	7
▁voiced	7
Pacific	7
REQUEST	7
alleled	7
▁zoning	7
stanbul	7
▁Scroll	7
entries	7
Develop	7
erville	7
▁rulers	7
▁Abbott	7
▁Finals	7
▁Highly	7
▁neatly	7
▁stripe	7
authent	7
▁classy	7
▁Trophy	7
▁arcade	7
▁chords	7
Student	7
▁Sexual	7
▁soaked	7
medical	7
bearing	7
▁payoff	7
Replace	7
▁softly	7
requent	7
▁barred	7
icester	7
matches	7
▁Darren	7
▁influx	7
▁Singer	7
▁Leslie	7
▁shovel	7
▁cosine	7
▁psycho	7
▁quests	7
▁brides	7
breaker	7
▁homage	7
▁Atomic	7
▁outage	7
billion	7
ontally	7
▁cached	7
rometer	7
▁Tennis	7
▁impart	7
largest	7
derived	7
▁robbed	7
nmoment	7
▁embell	7
▁premie	7
▁Giving	7
▁Lounge	7
▁stains	7
▁Moment	7
ricular	7
▁Orders	7
▁Knicks	7
▁Louise	7
matical	7
nSimply	7
▁Damage	7
▁Winner	7
▁unbeat	7
ictured	7
Convert	7
scatter	7
nAmazon	7
▁Chance	7
▁Marina	7
▁Bengal	7
▁Carrie	7
▁nickel	7
▁novice	7
▁priors	7
Country	7
▁cannon	7
Members	7
▁ponder	7
▁Greene	7
venture	7
andinav	7
cerning	7
inherit	7
▁elders	7
▁Ginger	7
▁Horror	7
▁sharks	7
nsource	7
ntheory	7
▁Scheme	7
devices	7
▁drills	7
bracket	7
▁Maggie	7
▁hotter	7
▁joking	7
▁Quotes	7
▁Falcon	7
Express	7
▁mildly	7
▁opaque	7
▁Tehran	7
▁Kepler	7
▁Uganda	7
▁vanity	7
raising	7
iliated	7
▁Dialog	7
▁easing	7
▁resize	7
insured	7
nFriend	7
▁Combat	7
▁Cyprus	7
effects	7
▁shores	7
▁Gender	7
▁revive	7
Forward	7
nCommon	7
▁paused	7
▁Tensor	7
Central	7
▁Forums	7
▁bonded	7
▁chicks	7
▁sermon	7
▁unpaid	7
nBeyond	7
▁Origin	7
▁Scouts	7
▁Milton	7
▁Occupy	7
▁dances	7
ronting	7
▁Prosec	7
▁waving	7
▁Across	7
▁Durham	7
▁Danger	7
▁palate	7
▁saints	7
reviews	7
mounted	7
▁pastry	7
▁Wolver	7
▁anthem	7
▁Gerald	7
▁Willie	7
nRather	7
toEqual	7
▁Cannot	7
▁multin	7
ranking	7
▁Hearts	7
▁Recipe	7
imposed	7
aghetti	7
▁Sandra	7
▁Savage	7
rescent	7
charges	7
letcher	7
nWeight	7
▁Agents	7
▁disent	7
▁chores	7
pancies	7
finance	7
▁Miguel	7
▁postal	7
encoded	7
▁Forget	7
▁Guatem	7
▁parsed	7
licates	7
neither	7
▁speedy	7
▁Plaint	7
instead	7
otyping	7
nIsrael	7
▁Enough	7
▁Sketch	7
▁biting	7
nParent	7
▁poorer	7
▁stigma	7
▁PEOPLE	7
▁Ramsey	7
foreign	7
▁births	7
▁mounts	7
▁coales	7
nOption	7
▁nausea	7
▁Whilst	7
▁armour	7
▁blinds	7
▁mutant	7
▁setups	7
▁Eating	7
nDefine	7
placing	7
▁Rabbit	7
▁gastro	7
▁clergy	7
Caption	7
derabad	7
valueOf	7
▁billed	7
▁Savior	7
▁insure	7
▁losers	7
▁scorer	7
nsingle	7
upgrade	7
▁Debbie	7
▁boiled	7
▁rested	7
▁Finish	7
nAround	7
organic	7
aternal	7
ennifer	7
heating	7
nLittle	7
▁Holder	7
nComput	7
updates	7
venting	7
nCommun	7
▁shakes	7
▁pricey	7
▁burner	7
▁revert	7
▁drafts	7
▁pillar	7
▁Hollow	7
▁Tucker	7
▁poetic	7
▁goalie	7
outputs	7
▁Wesley	7
▁Harley	7
▁Manila	7
rawling	7
riction	7
▁chased	7
Changes	7
▁coward	7
astings	7
▁BEFORE	7
▁Threat	7
▁indisp	7
▁artery	7
▁malign	7
▁ALWAYS	7
▁Olivia	7
▁Rhodes	7
▁ceased	7
▁jQuery	7
▁domest	7
violent	7
▁Poetry	7
▁elites	7
nContin	7
▁Flower	7
▁Trends	7
▁Yukawa	7
▁halluc	7
▁bakery	7
▁Failed	7
▁outlaw	7
Getting	7
Payload	7
▁Pocket	7
nInside	7
▁Banach	7
▁doubly	7
Pending	7
▁avenue	7
▁gamble	7
▁knight	7
▁trolls	7
▁Parade	7
▁colder	7
▁kisses	7
▁muslim	7
Donnell	7
nMobile	7
▁Garage	7
▁cutter	7
▁Liquid	7
▁Sector	7
▁Acknow	7
▁carcin	7
nHistor	7
widgets	7
▁ransom	7
▁Autumn	7
busters	7
nperson	7
authors	7
buttons	7
▁bounty	7
▁edible	7
▁tandem	7
nAdding	7
▁Timber	7
▁Niches	7
▁trusty	7
▁unpack	7
teacher	7
▁Kuwait	7
▁badges	7
failure	7
▁raging	7
extends	7
retched	7
ncontin	7
▁misdem	7
▁SHOULD	7
minutes	7
covered	7
▁VMware	7
▁totals	7
nchange	7
▁Worlds	7
▁thwart	7
Trigger	7
awesome	7
nPhotos	7
▁lumber	7
▁Plains	7
▁Irving	7
▁Vernon	7
nGlobal	7
nSimple	7
▁unsett	7
Promise	7
▁swords	7
ourtesy	7
▁Connor	7
▁reacts	7
antiago	7
▁Cheney	7
▁Sirius	7
▁Refuge	7
▁Wealth	7
partner	7
▁Priest	7
▁bamboo	7
Segment	7
ichigan	7
▁Equity	7
inspect	7
▁rustic	7
Metrics	7
USINESS	7
▁Gather	7
▁kitten	7
aurants	7
▁joyful	7
▁Breast	7
▁Suites	7
nSenior	7
▁Sacred	7
▁uncont	7
▁Serbia	7
patrick	7
▁piracy	7
Picture	7
▁solids	7
▁Suzuki	7
▁stalls	7
Refresh	7
nModern	7
▁Broken	7
▁glossy	7
adapter	7
ouncing	7
▁rubbed	7
▁voyage	7
Include	7
rieving	7
▁Layout	7
voltage	7
bedroom	7
▁sleeps	7
helpful	7
▁ACTION	7
▁indent	7
▁hostel	7
▁Hansen	7
Confirm	7
Working	7
▁Nights	7
▁Worker	7
planned	7
▁Herman	7
▁attire	7
anguard	7
capture	7
tSystem	7
▁Drupal	7
opacity	7
illions	7
▁Grammy	7
▁Spread	7
▁morals	7
▁Smooth	7
▁corona	7
▁fluent	7
nLondon	7
▁Killer	7
▁Talent	7
▁condom	7
▁harmed	7
▁multil	7
grounds	7
records	7
▁Grants	7
▁Ensure	7
ampling	7
WARNING	7
Whether	7
driving	7
nComing	7
ployees	7
nlayout	7
▁lowers	7
▁tariff	7
▁Ernest	7
▁Incred	7
▁Torres	7
▁Plugin	7
▁uphill	7
Instead	7
nMartin	7
▁Prague	7
▁exting	7
▁upheld	7
nMember	7
nSpring	7
▁Sharks	7
filling	7
elected	7
othesis	7
▁sponge	7
▁sugars	7
cutting	7
▁Pelosi	7
▁Sunset	7
▁Buffer	7
▁occult	7
▁tweaks	7
▁Chavez	7
▁Franco	7
▁Shelby	7
▁cheesy	7
▁cloudy	7
nMoving	7
▁Fraser	7
▁devoid	7
▁Header	7
▁canopy	7
▁filthy	7
▁trusts	7
cipline	7
uctions	7
▁decree	7
▁dermat	7
▁Called	7
▁Upload	7
▁nailed	7
▁trough	7
Checked	7
vehicle	7
▁cooker	7
▁Rafael	7
Concept	7
EqualTo	7
Suppose	7
▁Shared	7
▁lawful	7
▁mailed	7
▁Lenovo	7
▁Theore	7
Decoder	7
ighting	7
missive	7
nEffect	7
▁Wisdom	7
nnormal	7
▁Yorker	7
▁corpse	7
▁flakes	7
▁Frozen	7
▁Courts	7
lymouth	7
▁bushes	7
▁danced	7
▁pantry	7
▁Braves	7
nListen	7
▁Depend	7
nExcept	7
▁hypnot	7
▁spinor	7
prevent	7
Missing	7
▁skirts	7
▁skewed	7
Entries	7
Overall	7
upsilon	7
▁Essays	7
Complex	7
provide	7
▁Escape	7
▁warmed	7
Chinese	7
▁LeBron	7
▁Offers	7
▁Buying	7
nRemove	7
▁Runner	7
▁accuse	7
▁cialis	7
nSingle	7
tresult	7
Richard	7
▁Libert	7
▁crispy	7
▁Become	7
▁Dining	7
▁Isaiah	7
▁Kerala	7
▁hectic	7
▁PUBLIC	7
▁carrot	7
▁Punjab	7
▁chilly	7
Maximum	7
▁fooled	7
booking	7
▁Wouldn	7
▁rocked	7
▁youths	7
opoulos	7
nLength	7
▁Fabric	7
▁Brands	7
▁hinted	7
▁dipped	7
▁lessen	7
▁robber	7
▁vandal	7
▁Intent	7
▁erased	7
▁opting	7
▁Inform	7
▁scouts	7
▁wrench	7
sidebar	7
▁maxima	7
founded	7
▁Enable	7
▁Willow	7
▁airing	7
▁jumper	7
▁shaken	7
nCREATE	7
regions	7
compose	7
idences	7
reduced	7
▁eclips	7
▁inflow	7
▁cheers	7
against	7
webpack	7
▁Postal	7
▁hailed	7
▁photoc	7
▁fences	7
▁Appeal	7
▁jailed	7
ethical	7
nJoined	7
nmatrix	7
▁daemon	7
▁Salmon	7
▁catchy	7
nBottom	7
animate	7
exclude	7
▁echoes	7
Helpers	7
Quality	7
▁glitch	7
unching	7
▁Newark	7
▁mosaic	7
▁touted	7
▁turtle	7
▁Bolton	7
Balance	7
nSounds	7
tingham	7
▁dismay	7
▁Rivera	7
NonNull	7
▁Murder	7
▁sleepy	7
▁toured	7
finding	7
utation	7
reports	7
▁Wester	7
▁unplug	7
targets	7
▁floats	7
outside	7
▁exited	7
undance	7
▁Hunger	7
▁Static	7
▁UPDATE	7
▁Monkey	7
ivering	7
spatial	7
▁percol	7
▁Caucas	7
▁covert	7
▁outset	7
▁Tumblr	7
▁alarms	7
SESSION	7
Tracker	7
▁Guinea	7
ranging	7
lovakia	7
▁Schema	7
▁Unable	7
▁Willis	7
▁Keller	7
▁PROVID	7
▁Lauder	7
▁impecc	7
▁reopen	7
▁Luxury	7
▁Santos	7
▁hiatus	7
▁Humans	7
ceiving	7
▁selves	7
henomen	7
squared	7
▁Height	7
▁clumps	7
▁scraps	7
lecting	7
arriers	7
▁Dawson	7
▁Farmer	7
▁Flyers	7
pecting	7
▁Lesson	7
▁Yankee	7
▁soften	7
Records	7
▁Claims	7
▁Sloven	7
Privacy	7
asuring	7
nLiving	7
nucleon	7
▁adopts	7
noticed	7
▁Attend	7
▁Finger	7
▁nebula	7
▁Barber	7
▁SELECT	7
▁walker	7
▁tilted	7
shields	7
▁Denote	7
▁barbar	7
▁coined	7
▁sizing	7
▁sulfur	7
cedures	7
▁onsite	7
episode	7
▁Cannon	7
▁Royals	7
drivers	7
ickness	7
▁Archae	7
▁Somers	7
▁beasts	7
gateway	7
▁Reserv	7
▁Teresa	7
▁chocol	7
▁interl	7
Destroy	7
serving	7
▁purpos	7
tprintf	7
▁Backup	7
▁sitcom	7
<img/>	6
<0x00>	6
<0x01>	6
<0x02>	6
<0x03>	6
<0x04>	6
<0x05>	6
<0x06>	6
<0x07>	6
<0x09>	6
<0x0B>	6
<0x0C>	6
<0x0E>	6
<0x0F>	6
<0x10>	6
<0x11>	6
<0x12>	6
<0x13>	6
<0x15>	6
<0x16>	6
<0x17>	6
<0x18>	6
<0x19>	6
<0x1A>	6
<0x1B>	6
<0x1C>	6
<0x1D>	6
<0x1E>	6
<0x1F>	6
<0x21>	6
<0x22>	6
<0x23>	6
<0x24>	6
<0x25>	6
<0x26>	6
<0x27>	6
<0x28>	6
<0x29>	6
<0x2A>	6
<0x2B>	6
<0x2C>	6
<0x2D>	6
<0x30>	6
<0x31>	6
<0x32>	6
<0x33>	6
<0x34>	6
<0x35>	6
<0x36>	6
<0x37>	6
<0x38>	6
<0x39>	6
<0x3A>	6
<0x3C>	6
<0x3D>	6
<0x3E>	6
<0x3F>	6
<0x40>	6
<0x41>	6
<0x42>	6
<0x43>	6
<0x45>	6
<0x46>	6
<0x47>	6
<0x48>	6
<0x49>	6
<0x4A>	6
<0x4D>	6
<0x4E>	6
<0x4F>	6
<0x50>	6
<0x51>	6
<0x52>	6
<0x54>	6
<0x55>	6
<0x56>	6
<0x57>	6
<0x58>	6
<0x59>	6
<0x5B>	6
<0x5C>	6
<0x5F>	6
<0x60>	6
<0x61>	6
<0x62>	6
<0x63>	6
<0x64>	6
<0x65>	6
<0x66>	6
<0x67>	6
<0x68>	6
<0x69>	6
<0x6A>	6
<0x6B>	6
<0x6C>	6
<0x6D>	6
<0x6E>	6
<0x6F>	6
<0x70>	6
<0x71>	6
<0x72>	6
<0x73>	6
<0x74>	6
<0x75>	6
<0x76>	6
<0x77>	6
<0x78>	6
<0x7A>	6
<0x7B>	6
<0x7C>	6
<0x7D>	6
<0x7E>	6
<0x7F>	6
<0x80>	6
<0x82>	6
<0x83>	6
<0x84>	6
<0x85>	6
<0x86>	6
<0x87>	6
<0x88>	6
<0x89>	6
<0x8A>	6
<0x8B>	6
<0x8C>	6
<0x8D>	6
<0x8E>	6
<0x8F>	6
<0x90>	6
<0x91>	6
<0x92>	6
<0x93>	6
<0x94>	6
<0x95>	6
<0x96>	6
<0x98>	6
<0x9A>	6
<0x9C>	6
<0x9D>	6
<0x9E>	6
<0x9F>	6
<0xA0>	6
<0xA1>	6
<0xA2>	6
<0xA3>	6
<0xA4>	6
<0xA5>	6
<0xA6>	6
<0xA7>	6
<0xA8>	6
<0xA9>	6
<0xAA>	6
<0xAC>	6
<0xAD>	6
<0xAE>	6
<0xB0>	6
<0xB1>	6
<0xB2>	6
<0xB3>	6
<0xB4>	6
<0xB5>	6
<0xB7>	6
<0xB8>	6
<0xB9>	6
<0xBA>	6
<0xBB>	6
<0xBC>	6
<0xBD>	6
<0xBE>	6
<0xBF>	6
<0xC0>	6
<0xC1>	6
<0xC2>	6
<0xC3>	6
<0xC4>	6
<0xC5>	6
<0xC6>	6
<0xC9>	6
<0xCB>	6
<0xCC>	6
<0xCD>	6
<0xCE>	6
<0xCF>	6
<0xD0>	6
<0xD2>	6
<0xD3>	6
<0xD4>	6
<0xD5>	6
<0xD6>	6
<0xD7>	6
<0xD8>	6
<0xD9>	6
<0xDA>	6
<0xDB>	6
<0xDC>	6
<0xDD>	6
<0xDE>	6
<0xDF>	6
<0xE0>	6
<0xE1>	6
<0xE2>	6
<0xE3>	6
<0xE4>	6
<0xE5>	6
<0xE6>	6
<0xE7>	6
<0xE8>	6
<0xEA>	6
<0xEB>	6
<0xEC>	6
<0xED>	6
<0xEE>	6
<0xEF>	6
<0xF0>	6
<0xF1>	6
<0xF2>	6
<0xF3>	6
<0xF4>	6
<0xF5>	6
<0xF6>	6
<0xF7>	6
<0xF8>	6
<0xF9>	6
<0xFA>	6
<0xFB>	6
<0xFC>	6
<0xFD>	6
<0xFE>	6
<0xFF>	6
▁which	6
▁their	6
▁about	6
ations	6
▁other	6
▁there	6
▁would	6
source	6
▁first	6
pajama	6
▁every	6
▁where	6
▁these	6
▁could	6
▁under	6
▁think	6
▁after	6
▁class	6
▁start	6
▁right	6
▁years	6
▁again	6
▁trans	6
▁being	6
▁point	6
▁exper	6
▁those	6
▁great	6
▁model	6
▁using	6
▁while	6
▁going	6
▁still	6
▁count	6
ection	6
▁world	6
▁const	6
▁appro	6
ically	6
▁found	6
ething	6
return	6
▁three	6
▁small	6
▁state	6
▁since	6
ctions	6
▁order	6
▁place	6
▁never	6
▁allow	6
▁child	6
▁quest	6
▁incre	6
▁might	6
▁month	6
▁power	6
▁field	6
▁level	6
▁value	6
figure	6
▁given	6
▁belie	6
▁build	6
▁There	6
▁train	6
▁thing	6
ration	6
ential	6
ission	6
▁light	6
▁gover	6
illion	6
▁large	6
resent	6
▁chang	6
includ	6
▁times	6
▁group	6
ording	6
lambda	6
▁based	6
▁elect	6
ending	6
▁least	6
▁water	6
▁check	6
▁doesn	6
▁organ	6
▁money	6
▁until	6
▁space	6
mathbf	6
▁above	6
▁along	6
mathbb	6
▁night	6
▁doing	6
▁today	6
▁short	6
▁event	6
▁means	6
▁makes	6
▁sever	6
▁often	6
verage	6
public	6
▁story	6
▁learn	6
▁ident	6
rivate	6
arning	6
▁study	6
▁house	6
▁offic	6
mathrm	6
▁major	6
▁known	6
action	6
▁focus	6
cially	6
▁creat	6
▁later	6
▁shows	6
▁women	6
▁needs	6
▁comes	6
▁exist	6
▁polit	6
change	6
▁invol	6
▁range	6
▁compa	6
▁shown	6
though	6
▁whole	6
▁young	6
▁below	6
▁image	6
▁enjoy	6
▁defin	6
uation	6
▁quick	6
▁sound	6
▁video	6
▁games	6
▁human	6
idence	6
aption	6
▁early	6
▁close	6
▁music	6
▁These	6
▁treat	6
▁final	6
▁terms	6
ground	6
▁seems	6
▁paper	6
▁issue	6
▁visit	6
▁claim	6
▁quite	6
▁works	6
▁black	6
▁break	6
▁begin	6
ograph	6
▁total	6
ension	6
▁bring	6
▁super	6
▁taken	6
▁bound	6
textbf	6
▁share	6
▁watch	6
▁hours	6
selves	6
▁offer	6
ensity	6
▁chall	6
▁among	6
▁spect	6
▁exact	6
▁block	6
String	6
▁front	6
▁clear	6
iction	6
ensive	6
▁track	6
▁media	6
▁beaut	6
▁words	6
utions	6
▁lower	6
▁price	6
▁store	6
nThere	6
▁compl	6
amples	6
▁third	6
nwhere	6
▁achie	6
▁added	6
▁After	6
▁asked	6
▁takes	6
▁clean	6
▁error	6
elling	6
▁indic	6
indows	6
▁State	6
▁style	6
▁cross	6
aining	6
▁fight	6
▁purch	6
▁Count	6
▁cases	6
▁wrong	6
▁becom	6
▁email	6
▁color	6
▁write	6
curity	6
rangle	6
▁extra	6
▁worth	6
inally	6
▁weeks	6
▁limit	6
▁party	6
ervice	6
idered	6
▁input	6
▁death	6
▁white	6
▁users	6
▁leave	6
▁cover	6
▁gives	6
▁match	6
▁lines	6
▁World	6
▁looks	6
▁stuff	6
ishing	6
▁assum	6
center	6
▁annou	6
▁drive	6
▁happy	6
▁speak	6
▁apply	6
▁prior	6
▁speed	6
▁cause	6
▁areas	6
▁click	6
minist	6
▁tried	6
ecause	6
onents	6
atform	6
▁round	6
▁phase	6
aching	6
▁South	6
▁analy	6
▁graph	6
▁surpr	6
▁woman	6
▁effic	6
▁somet	6
▁North	6
▁charg	6
▁avoid	6
▁brand	6
▁lives	6
ername	6
▁books	6
▁ready	6
▁maybe	6
illing	6
▁While	6
▁remov	6
▁accom	6
▁print	6
▁staff	6
ribute	6
ashing	6
▁dynam	6
▁parts	6
▁court	6
▁board	6
▁heard	6
▁House	6
▁built	6
▁oppos	6
▁types	6
▁hands	6
▁label	6
▁March	6
icated	6
▁multi	6
▁demon	6
atives	6
▁movie	6
▁scale	6
▁wrote	6
rought	6
▁began	6
▁force	6
▁subst	6
▁whose	6
▁influ	6
▁wants	6
▁broad	6
▁agree	6
▁title	6
langle	6
▁marri	6
psilon	6
▁occur	6
▁absol	6
lation	6
▁fully	6
▁drink	6
▁piece	6
▁April	6
▁guess	6
▁Since	6
istics	6
▁stock	6
▁touch	6
▁legal	6
▁liter	6
▁shall	6
▁sales	6
varphi	6
▁fixed	6
refore	6
▁trust	6
cember	6
▁basis	6
▁sites	6
▁prepa	6
▁rules	6
▁First	6
ternal	6
isions	6
▁spent	6
▁blood	6
▁stage	6
▁alone	6
encies	6
▁reach	6
uesday	6
▁stars	6
▁refer	6
script	6
▁index	6
▁enter	6
▁mount	6
▁carry	6
▁plans	6
inated	6
▁datas	6
▁shoot	6
ursday	6
▁costs	6
▁China	6
▁sleep	6
▁Every	6
▁Japan	6
▁haven	6
mitted	6
nAfter	6
▁Obama	6
▁clust	6
▁spend	6
▁dream	6
▁green	6
▁Afric	6
▁basic	6
▁rates	6
ulated	6
elcome	6
Lambda	6
lement	6
assert	6
▁aware	6
▁Black	6
▁steps	6
▁arriv	6
▁teams	6
▁truth	6
▁tools	6
▁solid	6
▁fresh	6
▁daily	6
▁trade	6
▁thous	6
▁thank	6
▁birth	6
▁names	6
▁somew	6
idents	6
▁nucle	6
▁brain	6
undred	6
▁equal	6
▁gradu	6
Pajama	6
▁helps	6
▁eight	6
coming	6
overed	6
cation	6
▁shape	6
Object	6
▁decre	6
ifying	6
edding	6
▁moved	6
▁knows	6
▁India	6
friend	6
▁smart	6
▁Trans	6
▁coord	6
▁evalu	6
▁micro	6
ipping	6
▁named	6
▁grand	6
▁score	6
▁White	6
▁catch	6
▁truly	6
▁photo	6
▁exerc	6
▁floor	6
reedom	6
▁David	6
▁plant	6
▁heavy	6
▁frame	6
▁novel	6
active	6
▁Apple	6
▁voice	6
▁noise	6
ipment	6
▁leads	6
▁proof	6
▁scene	6
▁dress	6
▁ahead	6
▁Court	6
▁seven	6
▁links	6
▁Other	6
▁loved	6
▁album	6
▁goals	6
▁radio	6
▁width	6
nWhile	6
▁girls	6
result	6
apping	6
▁older	6
vision	6
▁panel	6
▁stick	6
▁adopt	6
▁throw	6
▁posts	6
▁Green	6
▁Trump	6
▁array	6
anging	6
▁upper	6
▁meant	6
▁calls	6
length	6
ashion	6
iation	6
▁peace	6
▁civil	6
othing	6
stream	6
▁Great	6
▁Table	6
pected	6
▁Jesus	6
▁ratio	6
▁glass	6
▁accur	6
▁split	6
▁galax	6
▁prove	6
▁views	6
▁occas	6
ancing	6
▁cells	6
▁citiz	6
itchen	6
nSince	6
▁units	6
urrent	6
▁ended	6
ansion	6
▁Group	6
▁innov	6
▁incor	6
▁exhib	6
▁sweet	6
▁James	6
▁cards	6
▁owner	6
▁forms	6
▁miles	6
subset	6
nThese	6
▁yield	6
terday	6
ameter	6
▁relax	6
▁holid	6
▁ideal	6
▁grant	6
▁holds	6
▁hotel	6
▁award	6
▁entry	6
▁brief	6
iverse	6
otimes	6
▁coach	6
▁suppl	6
ptions	6
▁adapt	6
▁tight	6
▁therm	6
nAbout	6
▁polic	6
▁thick	6
▁worry	6
▁https	6
▁worse	6
approx	6
▁tests	6
vspace	6
▁plane	6
inding	6
▁minor	6
indent	6
▁Texas	6
height	6
▁depth	6
▁Class	6
▁topic	6
▁agent	6
select	6
▁turns	6
▁tasks	6
itness	6
▁Super	6
▁plays	6
▁Earth	6
▁colle	6
nwhich	6
▁Rober	6
▁joint	6
▁noted	6
ubuntu	6
object	6
▁feels	6
roller	6
▁metal	6
porary	6
weight	6
nusing	6
▁Maybe	6
▁chain	6
▁usual	6
▁hyper	6
▁polar	6
inates	6
▁rough	6
▁trial	6
stract	6
ildren	6
▁cloud	6
▁cheap	6
▁angle	6
▁obser	6
▁tells	6
▁Const	6
static	6
▁mouth	6
▁notes	6
annels	6
▁rapid	6
▁curve	6
▁minim	6
▁sched	6
normal	6
▁sides	6
▁liber	6
▁motor	6
▁divid	6
define	6
▁Smith	6
▁Power	6
▁Times	6
▁cycle	6
▁draft	6
▁occup	6
▁Franc	6
▁diagn	6
ometry	6
▁prote	6
▁Thank	6
▁paint	6
▁Check	6
▁raise	6
ewidth	6
▁twice	6
▁craft	6
▁Board	6
▁tough	6
▁north	6
▁funds	6
▁proud	6
▁absor	6
▁lived	6
▁south	6
status	6
▁solve	6
▁Union	6
▁judge	6
▁trees	6
▁Party	6
nFirst	6
▁delay	6
▁audio	6
actory	6
▁River	6
▁deriv	6
attice	6
efully	6
▁songs	6
▁teach	6
▁Inter	6
▁empty	6
▁labor	6
▁waste	6
▁quiet	6
search	6
ournal	6
nconst	6
▁theme	6
▁inner	6
append	6
ussian	6
▁chair	6
▁crime	6
▁Under	6
client	6
sembly	6
target	6
▁sport	6
▁crazy	6
▁nodes	6
▁Press	6
▁hence	6
▁setup	6
author	6
▁decay	6
hspace	6
▁Brown	6
▁horiz	6
▁folks	6
unning	6
▁Scott	6
▁films	6
nclass	6
agraph	6
▁Canad	6
▁solar	6
▁laugh	6
▁drugs	6
▁signs	6
▁route	6
▁Today	6
ilarly	6
▁funny	6
matrix	6
▁Frank	6
▁mixed	6
▁kinds	6
omorph	6
▁Carol	6
▁plate	6
Client	6
▁expos	6
▁modes	6
▁Grand	6
▁chief	6
images	6
▁moves	6
▁edges	6
System	6
button	6
▁keeps	6
▁prime	6
▁Those	6
▁Color	6
textrm	6
▁Mount	6
▁Stand	6
▁crack	6
uality	6
struct	6
▁sugar	6
▁youth	6
▁bench	6
ulture	6
▁query	6
▁Using	6
ciples	6
▁Louis	6
▁rooms	6
▁crowd	6
scribe	6
▁sympt	6
update	6
urally	6
▁bunch	6
▁facts	6
▁stack	6
▁beach	6
▁adult	6
herent	6
Result	6
▁veget	6
▁sizes	6
Status	6
▁reson	6
ivered	6
▁hydro	6
▁liked	6
▁veter	6
▁cream	6
nament	6
ixture	6
▁gauge	6
▁Media	6
▁newsp	6
▁abuse	6
▁advoc	6
▁Build	6
▁compr	6
▁Peter	6
▁taxes	6
▁spons	6
▁forth	6
number	6
▁dance	6
▁Right	6
▁skill	6
▁Where	6
▁sorry	6
ported	6
▁Light	6
▁finds	6
▁Chris	6
▁Start	6
▁sight	6
▁trick	6
▁fruit	6
▁lunch	6
▁grown	6
orough	6
▁stuck	6
▁Music	6
▁Model	6
▁decor	6
▁loves	6
Method	6
▁Linux	6
▁chose	6
method	6
▁saved	6
▁Jones	6
▁Exper	6
detail	6
▁likes	6
Script	6
texttt	6
▁clock	6
person	6
second	6
vector	6
▁maxim	6
▁wheel	6
▁owned	6
▁Water	6
iously	6
▁About	6
▁yards	6
orders	6
▁broke	6
▁shots	6
▁Elect	6
ortion	6
▁shoes	6
▁spoke	6
▁Lemma	6
▁storm	6
▁banks	6
▁heads	6
▁truck	6
▁faces	6
domain	6
▁talks	6
▁goods	6
▁pitch	6
gments	6
▁brown	6
▁knock	6
▁magic	6
energy	6
server	6
lywood	6
Action	6
▁Which	6
▁reput	6
▁stead	6
▁bands	6
irtual	6
called	6
▁walls	6
▁deals	6
▁Again	6
issues	6
▁resid	6
▁cryst	6
▁bread	6
▁honor	6
▁coast	6
rivial	6
▁aside	6
▁weird	6
▁Hence	6
params	6
▁Beach	6
ceived	6
limits	6
▁Human	6
ressed	6
alysis	6
Stream	6
▁drawn	6
▁Women	6
▁Click	6
▁Point	6
▁domin	6
▁moder	6
▁foods	6
▁instr	6
nEvery	6
lights	6
common	6
Americ	6
▁fluct	6
▁union	6
▁admit	6
lected	6
▁lucky	6
▁steel	6
expect	6
▁grade	6
Source	6
riting	6
▁renew	6
Button	6
▁horse	6
nThank	6
▁Olymp	6
▁alive	6
▁abund	6
nOther	6
▁Charl	6
filter	6
system	6
▁holes	6
▁smile	6
▁Never	6
▁usage	6
roduct	6
▁downt	6
season	6
▁Steve	6
bottom	6
▁doors	6
▁Gener	6
▁Offic	6
Number	6
▁essay	6
rovers	6
▁gonna	6
astern	6
header	6
▁lists	6
▁sheet	6
option	6
▁Bible	6
▁filed	6
inking	6
▁waves	6
adding	6
▁sharp	6
▁Roman	6
▁argue	6
▁river	6
▁Watch	6
▁regul	6
▁trail	6
▁disag	6
angers	6
▁Space	6
master	6
▁Young	6
▁Field	6
▁tired	6
python	6
▁scope	6
ritten	6
▁Organ	6
▁patch	6
▁Night	6
▁hopes	6
▁stood	6
▁fluid	6
▁risks	6
Create	6
romise	6
inator	6
▁Liber	6
▁Games	6
▁quote	6
▁Creat	6
google	6
icture	6
▁manip	6
uction	6
▁newly	6
ocracy	6
▁Award	6
achine	6
ounded	6
▁barri	6
▁blank	6
▁logic	6
▁grain	6
▁Still	6
▁bonus	6
▁Egypt	6
urable	6
▁urban	6
▁chart	6
▁conve	6
icular	6
▁Korea	6
▁float	6
▁Event	6
▁Chief	6
▁robot	6
▁overl	6
▁moral	6
points	6
▁outer	6
player	6
▁climb	6
▁plain	6
nUsing	6
▁Prime	6
▁grass	6
▁screw	6
likely	6
▁Cross	6
▁Hotel	6
ussion	6
▁stone	6
▁roles	6
▁marks	6
▁Brook	6
contin	6
enders	6
▁surve	6
nShare	6
▁decom	6
▁advis	6
textsc	6
double	6
▁actor	6
▁blame	6
ysical	6
▁ridic	6
▁neutr	6
▁react	6
▁smoke	6
isting	6
▁fewer	6
screen	6
▁blind	6
▁toler	6
▁Brand	6
▁celeb	6
▁batch	6
▁aband	6
others	6
▁Store	6
▁falls	6
▁searc	6
letter	6
▁Asian	6
▁fifth	6
▁Three	6
▁grate	6
direct	6
▁reply	6
▁reads	6
▁loans	6
arters	6
everal	6
cience	6
earing	6
▁embed	6
Server	6
▁Would	6
nClick	6
▁Force	6
nToday	6
▁Santa	6
rizona	6
cently	6
▁crash	6
▁vital	6
▁opens	6
ouston	6
▁faced	6
should	6
▁tries	6
▁chest	6
▁mouse	6
Search	6
Update	6
iences	6
▁Italy	6
nwidth	6
▁votes	6
outube	6
▁seats	6
▁paths	6
effect	6
▁yours	6
▁Coast	6
ifting	6
▁spots	6
lessly	6
▁Daily	6
models	6
closed	6
▁Video	6
▁Image	6
Entity	6
rivacy	6
▁voted	6
▁angry	6
delete	6
▁Trust	6
▁debut	6
▁alter	6
▁fraud	6
▁Major	6
▁spark	6
thread	6
Filter	6
▁imper	6
▁gifts	6
▁minds	6
▁Place	6
▁atoms	6
▁sauce	6
▁crypt	6
charge	6
Figure	6
▁await	6
icking	6
ulator	6
▁Royal	6
▁Given	6
rition	6
▁birds	6
▁fired	6
equate	6
▁fails	6
▁Guide	6
▁Greek	6
▁trace	6
▁agric	6
▁loose	6
rained	6
random	6
arious	6
▁innoc	6
making	6
▁Price	6
formed	6
▁Harry	6
▁races	6
Select	6
rolled	6
▁roads	6
▁ocean	6
entity	6
Buffer	6
▁Photo	6
▁pixel	6
Layout	6
▁Irish	6
▁Local	6
▁Radio	6
▁alert	6
▁Grant	6
stable	6
▁upset	6
asters	6
▁orbit	6
▁Labor	6
Output	6
▁Guard	6
▁Kevin	6
▁drama	6
▁Order	6
Assert	6
▁balls	6
except	6
Length	6
▁Medic	6
▁asset	6
▁fiber	6
ailing	6
omatic	6
efined	6
▁Enter	6
▁stake	6
▁lying	6
▁calib	6
▁pharm	6
▁meals	6
▁blogs	6
strong	6
▁colon	6
▁Miami	6
▁comic	6
▁stops	6
▁Being	6
family	6
▁Davis	6
▁shops	6
▁swing	6
▁Henry	6
▁shirt	6
▁Chair	6
render	6
▁annot	6
▁Civil	6
▁flour	6
▁pulse	6
spring	6
custom	6
reated	6
cribed	6
nprint	6
▁Spain	6
▁Brian	6
plates	6
▁Queen	6
▁squad	6
riving	6
▁walks	6
onical	6
intend	6
▁parad	6
access	6
▁Syria	6
▁meets	6
aneous	6
▁Story	6
▁pilot	6
▁smell	6
▁sorts	6
▁merch	6
▁towns	6
ounced	6
▁Latin	6
Change	6
▁Error	6
▁login	6
▁morph	6
▁rural	6
▁virus	6
device	6
printf	6
▁Broad	6
▁gains	6
nWhere	6
vature	6
▁Works	6
▁pride	6
▁grace	6
▁drops	6
▁shame	6
ninter	6
▁Vegas	6
▁inval	6
▁False	6
▁seeds	6
around	6
▁Small	6
Format	6
global	6
▁Cloud	6
▁dense	6
▁tends	6
▁cache	6
▁imply	6
▁clubs	6
▁Drive	6
▁embar	6
▁anger	6
margin	6
▁neuro	6
irable	6
▁trips	6
▁wider	6
▁dirty	6
▁weigh	6
people	6
▁synch	6
elfare	6
▁alarm	6
▁reven	6
▁enorm	6
Thread	6
▁dozen	6
▁Short	6
window	6
▁hosts	6
makers	6
▁Dream	6
▁armed	6
Equals	6
▁Learn	6
▁alleg	6
intage	6
▁drove	6
▁stere	6
▁Based	6
▁Diego	6
Vector	6
engers	6
abling	6
nhttps	6
minute	6
▁Smart	6
▁slide	6
▁drain	6
irical	6
▁Think	6
▁strip	6
▁Jason	6
alling	6
▁rings	6
nUnder	6
ensing	6
▁Chall	6
ilbert	6
owered	6
▁Intel	6
▁drunk	6
▁breat	6
▁prize	6
encing	6
▁stamp	6
▁ships	6
▁flows	6
Please	6
outing	6
handle	6
buffer	6
▁Block	6
▁Heart	6
▁probe	6
verted	6
column	6
Header	6
ourier	6
▁juice	6
▁Higgs	6
nGiven	6
▁flood	6
▁Could	6
▁threw	6
consin	6
▁admin	6
▁ghost	6
▁pursu	6
Target	6
▁Array	6
orient	6
▁embod	6
giving	6
▁arise	6
▁grows	6
▁dying	6
border	6
ifiers	6
offset	6
Direct	6
▁burst	6
▁tempt	6
health	6
▁Sarah	6
usetts	6
remark	6
rapper	6
nGreat	6
orship	6
▁Child	6
Access	6
ometer	6
attern	6
▁Hawai	6
sample	6
▁ignor	6
▁Kelly	6
▁inher	6
▁pants	6
ichael	6
▁deleg	6
assion	6
▁Death	6
▁hired	6
▁Among	6
father	6
▁squee	6
▁ought	6
vation	6
▁Clean	6
arding	6
▁steam	6
▁silly	6
Option	6
period	6
▁chips	6
▁antib	6
▁picks	6
▁pizza	6
▁Beaut	6
▁twist	6
▁Stock	6
▁lands	6
writer	6
rupted	6
▁Lewis	6
Window	6
nHello	6
igious	6
▁bonds	6
▁venue	6
culate	6
▁ruled	6
▁elder	6
▁rally	6
▁bytes	6
▁kinda	6
▁Marsh	6
▁Allen	6
▁wrest	6
▁knife	6
▁carri	6
▁juris	6
▁Trade	6
orious	6
▁recip	6
▁stats	6
urches	6
mented	6
▁peaks	6
▁Money	6
▁stays	6
engine	6
▁Jacob	6
▁Sound	6
▁badly	6
▁Fermi	6
online	6
racted	6
▁epoch	6
▁Staff	6
▁Index	6
▁naked	6
▁Anton	6
▁Break	6
▁Judge	6
boards	6
▁rival	6
▁depos	6
commun	6
elines	6
▁gross	6
accept	6
▁Treat	6
▁Stone	6
▁slope	6
▁tomat	6
▁loads	6
▁awful	6
▁punch	6
▁trash	6
▁globe	6
▁sends	6
▁alien	6
before	6
nCheck	6
▁Email	6
fields	6
▁paste	6
▁unity	6
▁Track	6
hidden	6
▁brack	6
▁Ocean	6
▁eager	6
▁Clark	6
Height	6
propto	6
clipse	6
▁Moore	6
▁Flash	6
▁Front	6
▁Analy	6
▁greet	6
▁tooth	6
Params	6
layout	6
commit	6
▁Print	6
▁appar	6
▁Enjoy	6
▁sixth	6
▁cyber	6
▁elite	6
ishers	6
mation	6
▁handy	6
▁Mayor	6
square	6
▁Final	6
ifully	6
▁Books	6
former	6
▁honey	6
▁ranks	6
advant	6
school	6
▁texts	6
▁intim	6
▁cited	6
▁renov	6
▁Terms	6
▁dough	6
▁conce	6
▁humor	6
▁inhib	6
▁thumb	6
▁Motor	6
▁cabin	6
▁sweep	6
▁apple	6
▁Creek	6
degree	6
member	6
▁boots	6
▁sweat	6
▁Delhi	6
driven	6
▁Dutch	6
mother	6
graded	6
vertis	6
▁steep	6
▁bases	6
▁penet	6
▁schol	6
assets	6
Helper	6
▁Phill	6
switch	6
▁metab	6
groups	6
rating	6
▁Share	6
▁stiff	6
▁fancy	6
▁hoped	6
Device	6
olding	6
▁Paper	6
▁wides	6
uggest	6
amount	6
angles	6
▁fears	6
▁Steel	6
▁Third	6
etooth	6
Custom	6
▁parse	6
ushing	6
bullet	6
▁rated	6
▁Study	6
nThose	6
▁tower	6
▁slice	6
▁parks	6
▁Magic	6
reddit	6
imated	6
rowing	6
▁Micro	6
▁alike	6
ointer	6
▁Angel	6
ickets	6
▁Happy	6
idding	6
▁Forum	6
Reader	6
▁beans	6
review	6
▁Azure	6
▁debug	6
▁Simon	6
Player	6
record	6
▁Peace	6
▁Month	6
market	6
nWhich	6
plugin	6
▁chrom	6
▁tuned	6
Acknow	6
▁piano	6
Logger	6
▁ports	6
▁Quick	6
▁colab	6
bourne	6
nStart	6
ousing	6
▁laund	6
▁steal	6
▁React	6
▁cheer	6
▁harsh	6
nHence	6
▁shake	6
Google	6
states	6
▁rocks	6
▁Fight	6
oustic	6
▁Speed	6
Column	6
▁Bruce	6
apolis	6
▁persu	6
▁Later	6
piracy	6
Record	6
volume	6
▁Pitts	6
▁dealt	6
▁Saint	6
▁nurse	6
umbled	6
▁glory	6
nTrans	6
▁pussy	6
ention	6
Serial	6
▁flags	6
iPhone	6
▁Wales	6
▁medic	6
ctober	6
nPhoto	6
urious	6
▁scrap	6
▁wings	6
▁mayor	6
▁Multi	6
ricane	6
▁seeks	6
rowave	6
▁capac	6
▁freak	6
shared	6
isible	6
report	6
▁lever	6
nMaybe	6
design	6
havior	6
unting	6
▁irrit	6
azines	6
▁revel	6
▁Alice	6
▁straw	6
posing	6
▁merge	6
▁peers	6
comput	6
▁Kings	6
usalem	6
▁Years	6
▁loops	6
▁Laure	6
▁loyal	6
▁maker	6
▁cents	6
ulates	6
▁chunk	6
▁lobby	6
▁stain	6
▁Andre	6
ermark	6
▁Appro	6
▁march	6
▁Saudi	6
nEmail	6
▁Hills	6
▁drift	6
▁fract	6
▁bored	6
Dialog	6
▁Liver	6
entric	6
▁chaos	6
▁Early	6
▁charm	6
▁toxic	6
iology	6
▁Title	6
▁polls	6
▁cares	6
orneys	6
forced	6
▁macro	6
arians	6
▁arrow	6
▁inhab	6
Engine	6
▁frank	6
▁liver	6
▁bikes	6
itches	6
nStill	6
▁fence	6
▁Below	6
▁sized	6
ailure	6
single	6
Matrix	6
▁Sorry	6
▁flesh	6
▁lemon	6
Author	6
nQuote	6
nTable	6
▁Blood	6
▁saves	6
irates	6
▁draws	6
course	6
simple	6
[...]
