[/AVAILABLE_TOOLS]	18
▁characteristics	16
▁recommendations	16
▁straightforward	16
▁representatives	16
ExecutionContext	16
▁representations	16
includegraphics	15
▁representation	15
springframework	15
▁responsibility	15
▁implementation	15
▁administration	15
▁transformation	15
▁infrastructure	15
▁representative	15
▁communications	15
▁classification	15
▁administrative	15
▁Administration	15
▁transportation	15
▁characteristic	15
▁simultaneously	15
▁identification	15
▁authentication	15
▁discrimination	15
▁correspondence	15
▁configurations	15
▁constitutional	15
▁recommendation	15
▁Communications	15
▁disappointment	15
▁reconstruction	15
▁initialization	15
▁International	14
▁international	14
▁understanding	14
▁configuration	14
▁corresponding	14
▁communication	14
▁opportunities	14
▁relationships	14
▁organizations	14
▁circumstances	14
▁approximately	14
▁significantly	14
▁investigation	14
▁environmental	14
▁professionals	14
▁Unfortunately	14
▁contributions	14
▁entertainment	14
▁manufacturing	14
▁consideration	14
▁comprehensive	14
▁collaboration	14
▁concentration	14
▁Massachusetts	14
▁consciousness	14
▁conversations	14
▁uncomfortable	14
▁approximation	14
▁possibilities	14
▁establishment	14
▁psychological	14
▁manufacturers	14
Authentication	14
▁Championships	14
▁determination	14
▁Configuration	14
▁Entertainment	14
▁functionality	14
▁distributions	14
▁unfortunately	14
▁StringBuilder	14
▁participating	14
▁independently	14
▁characterized	14
▁sophisticated	14
▁distinguished	14
▁effectiveness	14
▁organisations	14
ComponentModel	14
▁revolutionary	14
▁controversial	14
▁certification	14
▁accommodation	14
▁compatibility	14
▁Environmental	14
▁modifications	14
▁technological	14
eltemperaturen	14
▁decomposition	14
▁institutional	14
[control_100]	13
[control_101]	13
[control_102]	13
[control_103]	13
[control_104]	13
[control_106]	13
[control_107]	13
[control_108]	13
[control_109]	13
[control_110]	13
[control_111]	13
[control_112]	13
[control_113]	13
[control_114]	13
[control_116]	13
[control_117]	13
[control_118]	13
[control_119]	13
[control_120]	13
[control_121]	13
[control_122]	13
[control_124]	13
[control_126]	13
[control_127]	13
[control_128]	13
[control_129]	13
[control_130]	13
[control_131]	13
[control_132]	13
[control_133]	13
[control_134]	13
[control_136]	13
[control_137]	13
[control_138]	13
[control_139]	13
[control_140]	13
[control_141]	13
[control_142]	13
[control_143]	13
[control_144]	13
[control_146]	13
[control_147]	13
[control_148]	13
[control_149]	13
[control_150]	13
[control_151]	13
[control_152]	13
[control_153]	13
[control_154]	13
[control_156]	13
[control_157]	13
[control_158]	13
[control_159]	13
[control_160]	13
[control_161]	13
[control_162]	13
[control_163]	13
[control_164]	13
[control_166]	13
[control_167]	13
[control_168]	13
[control_169]	13
[control_170]	13
[control_171]	13
[control_172]	13
[control_173]	13
[control_174]	13
[control_178]	13
[control_179]	13
[control_180]	13
[control_181]	13
[control_182]	13
[control_183]	13
[control_184]	13
[control_186]	13
[control_187]	13
[control_188]	13
[control_189]	13
[control_190]	13
[control_191]	13
[control_192]	13
[control_193]	13
[control_194]	13
[control_196]	13
[control_198]	13
[control_200]	13
[control_201]	13
[control_202]	13
[control_203]	13
[control_204]	13
[control_206]	13
[control_207]	13
[control_208]	13
[control_209]	13
[control_211]	13
[control_212]	13
[control_213]	13
[control_216]	13
[control_217]	13
[control_218]	13
[control_219]	13
[control_221]	13
[control_222]	13
[control_224]	13
[control_226]	13
[control_227]	13
[control_228]	13
[control_229]	13
[control_230]	13
[control_231]	13
[control_232]	13
[control_233]	13
[control_234]	13
[control_236]	13
[control_237]	13
[control_238]	13
[control_239]	13
[control_240]	13
[control_241]	13
[control_242]	13
[control_243]	13
[control_244]	13
[control_246]	13
[control_247]	13
[control_248]	13
[control_249]	13
[control_250]	13
[control_251]	13
[control_252]	13
[control_253]	13
[control_254]	13
[control_256]	13
[control_257]	13
[control_258]	13
[control_259]	13
[control_260]	13
[control_261]	13
[control_262]	13
[control_263]	13
[control_264]	13
[control_266]	13
[control_267]	13
[control_268]	13
[control_269]	13
[control_270]	13
[control_271]	13
[control_272]	13
[control_273]	13
[control_274]	13
[control_276]	13
[control_277]	13
[control_278]	13
[control_279]	13
[control_280]	13
[control_281]	13
[control_282]	13
[control_283]	13
[control_284]	13
[control_286]	13
[control_287]	13
[control_288]	13
[control_289]	13
[control_290]	13
[control_291]	13
[control_292]	13
[control_293]	13
[control_294]	13
[control_296]	13
[control_297]	13
[control_298]	13
[control_299]	13
[control_300]	13
[control_301]	13
[control_302]	13
[control_304]	13
[control_307]	13
[control_308]	13
[control_309]	13
[control_310]	13
[control_311]	13
[control_312]	13
[control_313]	13
[control_314]	13
[control_315]	13
[control_316]	13
[control_317]	13
[control_318]	13
[control_319]	13
[control_320]	13
[control_321]	13
[control_322]	13
[control_324]	13
[control_326]	13
[control_327]	13
[control_328]	13
[control_329]	13
[control_330]	13
[control_331]	13
[control_332]	13
[control_333]	13
[control_334]	13
[control_336]	13
[control_337]	13
[control_338]	13
[control_339]	13
[control_350]	13
[control_351]	13
[control_352]	13
[control_353]	13
[control_354]	13
[control_356]	13
[control_357]	13
[control_358]	13
[control_359]	13
[control_360]	13
[control_361]	13
[control_362]	13
[control_363]	13
[control_364]	13
[control_366]	13
[control_367]	13
[control_368]	13
[control_369]	13
[control_370]	13
[control_371]	13
[control_372]	13
[control_373]	13
[control_374]	13
[control_376]	13
[control_377]	13
[control_378]	13
[control_379]	13
[control_390]	13
[control_391]	13
[control_392]	13
[control_393]	13
[control_394]	13
[control_396]	13
[control_397]	13
[control_398]	13
[control_399]	13
[control_400]	13
[control_401]	13
[control_402]	13
[control_403]	13
[control_404]	13
[control_406]	13
[control_407]	13
[control_408]	13
[control_409]	13
[control_410]	13
[control_412]	13
[control_413]	13
[control_414]	13
[control_416]	13
[control_417]	13
[control_418]	13
[control_419]	13
[control_420]	13
[control_421]	13
[control_422]	13
[control_424]	13
[control_426]	13
[control_427]	13
[control_428]	13
[control_429]	13
[control_430]	13
[control_431]	13
[control_432]	13
[control_433]	13
[control_434]	13
[control_436]	13
[control_437]	13
[control_438]	13
[control_439]	13
[control_440]	13
[control_441]	13
[control_442]	13
[control_443]	13
[control_444]	13
[control_446]	13
[control_447]	13
[control_448]	13
[control_449]	13
[control_450]	13
[control_451]	13
[control_452]	13
[control_453]	13
[control_454]	13
[control_456]	13
[control_457]	13
[control_458]	13
[control_459]	13
[control_460]	13
[control_461]	13
[control_462]	13
[control_463]	13
[control_464]	13
[control_466]	13
[control_467]	13
[control_468]	13
[control_469]	13
[control_470]	13
[control_471]	13
[control_472]	13
[control_473]	13
[control_474]	13
[control_476]	13
[control_477]	13
[control_478]	13
[control_479]	13
[control_480]	13
[control_481]	13
[control_482]	13
[control_483]	13
[control_484]	13
[control_486]	13
[control_487]	13
[control_488]	13
[control_489]	13
[control_490]	13
[control_491]	13
[control_492]	13
[control_493]	13
[control_494]	13
[control_496]	13
[control_497]	13
[control_498]	13
[control_499]	13
[control_500]	13
[control_501]	13
[control_502]	13
[control_503]	13
[control_504]	13
[control_506]	13
[control_507]	13
[control_508]	13
[control_509]	13
[control_510]	13
[control_511]	13
[control_512]	13
[control_513]	13
[control_514]	13
[control_516]	13
[control_517]	13
[control_518]	13
[control_519]	13
[control_520]	13
[control_521]	13
[control_522]	13
[control_524]	13
[control_526]	13
[control_527]	13
[control_528]	13
[control_529]	13
[control_530]	13
[control_531]	13
[control_533]	13
[control_534]	13
[control_536]	13
[control_537]	13
[control_538]	13
[control_539]	13
[control_540]	13
[control_541]	13
[control_542]	13
[control_543]	13
[control_544]	13
[control_546]	13
[control_547]	13
[control_548]	13
[control_549]	13
[control_551]	13
[control_552]	13
[control_553]	13
[control_554]	13
[control_556]	13
[control_557]	13
[control_558]	13
[control_559]	13
[control_560]	13
[control_561]	13
[control_562]	13
[control_563]	13
[control_564]	13
[control_566]	13
[control_567]	13
[control_568]	13
[control_569]	13
[control_570]	13
[control_571]	13
[control_572]	13
[control_573]	13
[control_574]	13
[control_576]	13
[control_577]	13
[control_578]	13
[control_579]	13
[control_580]	13
[control_581]	13
[control_582]	13
[control_583]	13
[control_584]	13
[control_586]	13
[control_587]	13
[control_588]	13
[control_589]	13
[control_590]	13
[control_591]	13
[control_592]	13
[control_593]	13
[control_594]	13
[control_596]	13
[control_597]	13
[control_598]	13
[control_599]	13
[control_600]	13
[control_601]	13
[control_602]	13
[control_603]	13
[control_604]	13
[control_606]	13
[control_607]	13
[control_608]	13
[control_609]	13
[control_610]	13
[control_611]	13
[control_612]	13
[control_613]	13
[control_614]	13
[control_615]	13
[control_616]	13
[control_617]	13
[control_618]	13
[control_619]	13
[control_620]	13
[control_621]	13
[control_622]	13
[control_624]	13
[control_626]	13
[control_627]	13
[control_628]	13
[control_629]	13
[control_634]	13
[control_635]	13
[control_636]	13
[control_640]	13
[control_641]	13
[control_642]	13
[control_643]	13
[control_644]	13
[control_646]	13
[control_647]	13
[control_648]	13
[control_649]	13
[control_650]	13
[control_651]	13
[control_652]	13
[control_653]	13
[control_654]	13
[control_656]	13
[control_657]	13
[control_658]	13
[control_659]	13
[control_660]	13
[control_661]	13
[control_662]	13
[control_663]	13
[control_664]	13
[control_666]	13
[control_667]	13
[control_668]	13
[control_669]	13
[control_670]	13
[control_671]	13
[control_672]	13
[control_673]	13
[control_674]	13
[control_675]	13
[control_676]	13
[control_677]	13
[control_678]	13
[control_679]	13
[control_680]	13
[control_681]	13
[control_682]	13
[control_683]	13
[control_684]	13
[control_686]	13
[control_687]	13
[control_688]	13
[control_689]	13
[control_690]	13
[control_691]	13
[control_692]	13
[control_693]	13
[control_694]	13
[control_696]	13
[control_697]	13
[control_698]	13
[control_699]	13
[control_700]	13
[control_701]	13
[control_702]	13
[control_703]	13
[control_704]	13
[control_706]	13
[control_707]	13
[control_708]	13
[control_709]	13
[control_710]	13
[control_711]	13
[control_712]	13
[control_713]	13
[control_714]	13
[control_716]	13
[control_717]	13
[control_718]	13
[control_719]	13
[control_720]	13
[control_721]	13
[control_722]	13
[control_724]	13
[control_726]	13
[control_727]	13
[control_728]	13
[control_729]	13
[control_730]	13
[control_731]	13
[control_732]	13
[control_733]	13
[control_734]	13
[control_736]	13
[control_737]	13
[control_738]	13
[control_739]	13
[control_740]	13
[control_741]	13
[control_742]	13
[control_743]	13
[control_744]	13
[control_746]	13
[control_747]	13
[control_748]	13
[control_749]	13
[control_750]	13
[control_751]	13
[control_752]	13
[control_754]	13
[control_756]	13
[control_757]	13
[control_758]	13
[control_759]	13
[control_760]	13
[control_761]	13
[control_762]	13
[control_763]	13
[control_764]	13
[control_766]	13
[control_767]	13
[control_768]	13
▁relationship	13
▁professional	13
▁distribution	13
▁particularly	13
Configuration	13
▁construction	13
▁organization	13
▁conversation	13
▁requirements	13
▁applications	13
▁respectively	13
▁Championship	13
▁specifically	13
▁successfully	13
▁neighborhood	13
▁intelligence	13
▁instructions	13
▁contribution	13
▁institutions	13
pgfpathlineto	13
▁increasingly	13
▁consequences	13
▁contemporary	13
▁architecture	13
▁observations	13
▁expectations	13
configuration	13
▁representing	13
EventListener	13
▁introduction	13
▁registration	13
▁experimental	13
▁installation	13
▁technologies	13
▁notification	13
▁presentation	13
▁interactions	13
▁subscription	13
▁Pennsylvania	13
▁Philadelphia	13
▁transactions	13
▁redistribute	13
▁conservative	13
▁occasionally	13
▁considerable	13
▁measurements	13
▁Professional	13
▁transmission	13
▁satisfaction	13
▁Additionally	13
▁capabilities	13
▁championship	13
▁restrictions	13
▁conventional	13
▁independence	13
▁performances	13
▁manufacturer	13
▁demonstrated	13
▁temperatures	13
HasColumnType	13
▁significance	13
▁subsequently	13
▁headquarters	13
▁optimization	13
▁Constitution	13
▁consistently	13
▁availability	13
▁overwhelming	13
▁disappointed	13
▁calculations	13
▁compensation	13
▁presidential	13
▁difficulties	13
▁modification	13
▁improvements	13
▁intersection	13
▁environments	13
▁accomplished	13
▁arrangements	13
▁intervention	13
▁sufficiently	13
▁announcement	13
▁experiencing	13
Serialization	13
▁conservation	13
▁universities	13
▁participated	13
▁Conservative	13
subsubsection	13
▁differential	13
▁Organization	13
▁Construction	13
▁constitution	13
▁Christianity	13
▁developments	13
▁confirmation	13
▁implications	13
▁intermediate	13
▁agricultural	13
▁Intelligence	13
▁surprisingly	13
▁entrepreneur	13
▁acknowledged	13
▁publications	13
CodeAttribute	13
▁accompanying	13
▁incorporated	13
▁prescription	13
▁negotiations	13
▁photographer	13
▁corporations	13
▁deliberately	13
▁establishing	13
▁productivity	13
▁alternatives	13
ClickListener	13
▁dependencies	13
▁considerably	13
▁concentrated	13
▁Distribution	13
▁entertaining	13
▁descriptions	13
▁synchronized	13
▁investigated	13
▁continuously	13
▁dramatically	13
▁contributing	13
▁associations	13
▁appreciation	13
▁contributors	13
▁civilization	13
▁combinations	13
Authorization	13
▁additionally	13
▁Commonwealth	13
▁verification	13
▁interference	13
▁implementing	13
▁mathematical	13
▁manufactured	13
▁accidentally	13
▁achievements	13
▁cancellation	13
▁fluctuations	13
▁surroundings	13
▁commissioned	13
elasticsearch	13
▁confidential	13
▁individually	13
▁unemployment	13
[control_10]	12
[control_11]	12
[control_12]	12
[control_13]	12
[control_14]	12
[control_16]	12
[control_17]	12
[control_18]	12
[control_19]	12
[control_20]	12
[control_21]	12
[control_22]	12
[control_24]	12
[control_26]	12
[control_27]	12
[control_28]	12
[control_29]	12
[control_30]	12
[control_31]	12
[control_32]	12
[control_33]	12
[control_36]	12
[control_37]	12
[control_39]	12
[control_40]	12
[control_41]	12
[control_42]	12
[control_43]	12
[control_44]	12
[control_46]	12
[control_47]	12
[control_48]	12
[control_49]	12
[control_50]	12
[control_51]	12
[control_52]	12
[control_53]	12
[control_54]	12
[control_56]	12
[control_57]	12
[control_58]	12
[control_59]	12
[control_60]	12
[control_61]	12
[control_62]	12
[control_64]	12
[control_66]	12
[control_67]	12
[control_68]	12
[control_69]	12
[control_71]	12
[control_72]	12
[control_73]	12
[control_74]	12
[control_76]	12
[control_77]	12
[control_78]	12
[control_79]	12
[control_80]	12
[control_81]	12
[control_82]	12
[control_83]	12
[control_84]	12
[control_86]	12
[control_87]	12
[control_89]	12
[control_90]	12
[control_91]	12
[control_92]	12
[control_93]	12
[control_94]	12
[control_96]	12
[control_97]	12
[control_98]	12
[control_99]	12
▁information	12
▁development	12
▁performance	12
▁environment	12
▁distributed	12
▁application	12
▁immediately	12
▁description	12
▁opportunity	12
▁interesting	12
▁significant	12
▁established	12
▁individuals	12
▁traditional	12
▁independent	12
▁responsible	12
▁temperature	12
▁Association	12
▁experienced	12
▁comfortable	12
▁transaction	12
▁competition	12
▁experiences	12
▁Information	12
▁alternative	12
▁combination	12
▁limitations	12
▁communities	12
▁permissions	12
▁considering	12
▁possibility	12
▁Description	12
▁destination	12
▁Development	12
▁perspective	12
▁represented	12
▁probability	12
▁differences	12
▁interaction	12
▁effectively	12
▁recommended	12
frastructure	12
▁surrounding	12
▁connections	12
▁maintenance	12
▁Corporation	12
▁Application	12
▁authorities	12
operatorname	12
▁advertising	12
▁instruction	12
▁complicated	12
▁explanation	12
▁essentially	12
▁engineering	12
▁personality	12
▁constructed	12
▁referenties	12
▁competitive	12
▁implemented	12
▁partnership	12
Notification	12
▁recognition	12
▁translation	12
▁association	12
▁replacement	12
▁potentially	12
▁participate	12
▁publication	12
▁experiments	12
▁educational	12
▁improvement	12
▁appointment	12
▁challenging	12
▁restaurants	12
▁UnityEngine	12
▁integration	12
▁disappeared	12
▁Environment	12
▁constraints	12
▁substantial	12
▁researchers	12
▁observation	12
▁composition	12
▁certificate	12
▁destruction	12
▁regulations	12
▁measurement	12
▁accompanied	12
▁requirement	12
▁transferred	12
▁communicate	12
▁programming	12
▁consumption	12
▁inspiration	12
▁demonstrate	12
▁corresponds	12
▁preparation	12
▁generations	12
▁legislation	12
▁differently	12
▁imagination	12
▁institution	12
▁expressions	12
▁Engineering	12
▁investigate	12
▁electricity	12
▁consequence	12
▁suggestions	12
▁correlation	12
▁outstanding	12
▁placeholder	12
▁governments	12
▁Christopher	12
▁photographs	12
▁internation	12
▁maintaining	12
▁instruments	12
▁calculation	12
▁uncertainty	12
▁orientation	12
▁transformed	12
▁residential	12
▁discussions	12
▁collections	12
▁theoretical	12
construction	12
▁politicians	12
▁contributed	12
▁encountered	12
▁Shakespeare	12
▁grandfather	12
▁sustainable	12
▁populations	12
▁assumptions	12
Subscription	12
▁Proposition	12
▁arrangement	12
▁photography	12
▁declaration	12
▁Performance	12
▁simulations	12
▁approaching	12
subscription	12
▁Republicans	12
▁practically	12
▁acknowledge	12
▁exceptional	12
▁definitions	12
▁Independent	12
▁involvement	12
▁Mississippi	12
▁progressive	12
notification	12
▁Netherlands	12
▁predictions	12
OutputStream	12
▁distinction	12
▁celebration	12
▁investments	12
▁examination	12
▁underground	12
▁anniversary	12
▁appearances	12
▁operational	12
▁statistical	12
▁credentials	12
▁exclusively	12
▁importantly	12
▁unconscious	12
▁interrupted	12
▁identifying	12
▁immigration	12
▁restriction	12
▁computation	12
▁cooperation	12
▁expectation	12
▁encouraging	12
▁Philippines	12
▁documentary	12
displaystyle	12
▁consecutive	12
▁achievement	12
▁appreciated	12
▁flexibility	12
▁sensitivity	12
▁Switzerland	12
▁preferences	12
▁frustration	12
▁interactive	12
▁acquisition	12
▁distinguish	12
▁contributor	12
▁threatening	12
▁fascinating	12
▁consistency	12
▁exploration	12
ByComparator	12
EventHandler	12
▁specialized	12
▁efficiently	12
▁Hamiltonian	12
▁convergence	12
▁determining	12
▁accommodate	12
▁inhabitants	12
▁spectacular	12
▁Connecticut	12
▁interpreted	12
▁initialized	12
▁controlling	12
▁illustrated	12
▁conclusions	12
▁desperately	12
▁concentrate	12
▁influential	12
▁competitors	12
▁equilibrium	12
▁agriculture	12
▁anticipated	12
istributions	12
▁initiatives	12
▁compression	12
▁temporarily	12
▁dimensional	12
▁accordingly	12
▁technically	12
Registration	12
▁introducing	12
▁scholarship	12
▁departments	12
▁accessories	12
▁Initialized	12
▁remembering	12
▁embarrassed	12
▁distinctive	12
▁journalists	12
▁proposition	12
▁emotionally	12
▁compilation	12
▁obligations	12
▁incorporate	12
▁complaining	12
▁Transaction	12
▁Fortunately	12
▁permanently	12
▁transitions	12
▁functioning	12
▁beautifully	12
▁approximate	12
▁questioning	12
Introduction	12
▁restoration	12
▁unfortunate	12
▁circulation	12
▁continually	12
▁Collections	12
▁understands	12
▁realization	12
▁magnificent	12
▁corporation	12
▁enhancement	12
▁frequencies	12
▁corrections	12
▁controversy	12
▁assignments	12
▁medications	12
▁interviewed	12
▁nonetheless	12
▁specialists	12
▁participant	12
▁countryside	12
[control_8]	11
[control_9]	11
translation	11
▁understand	11
▁experience	11
▁particular	11
▁University	11
▁everything	11
▁government	11
▁individual	11
▁themselves	11
▁especially	11
▁conditions	11
▁considered	11
▁completely	11
▁additional	11
▁production	11
▁connection	11
▁difference	11
▁associated	11
▁management	11
▁background	11
▁collection	11
▁throughout	11
▁properties	11
▁technology	11
▁expression	11
▁Washington	11
▁successful	11
▁characters	11
▁California	11
▁activities	11
▁definitely	11
▁interested	11
▁Foundation	11
▁increasing	11
description	11
▁experiment	11
▁operations	11
▁Department	11
▁eventually	11
Description	11
▁commercial	11
▁definition	11
▁absolutely	11
▁determined	11
Application	11
▁components	11
▁protection	11
▁introduced	11
▁transition	11
▁impossible	11
▁discovered	11
▁generation	11
▁previously	11
▁discussion	11
▁investment	11
▁television	11
▁businesses	11
▁containing	11
▁applicable	11
▁understood	11
▁compliance	11
application	11
▁photograph	11
▁Commission	11
▁appearance	11
▁WARRANTIES	11
▁processing	11
▁Management	11
Transaction	11
▁importance	11
fortunately	11
▁permission	11
▁attributes	11
hentication	11
▁department	11
▁leadership	11
▁techniques	11
▁equivalent	11
▁conference	11
▁restaurant	11
▁Australian	11
▁recognized	11
▁relatively	11
Collections	11
▁remembered	11
▁identified	11
▁comparison	11
▁correspond	11
▁commission	11
▁developing	11
▁scientific	11
▁implements	11
▁university	11
▁historical	11
▁apparently	11
▁instrument	11
▁represents	11
▁consistent	11
▁disappoint	11
▁originally	11
▁constantly	11
▁personally	11
▁resolution	11
▁registered	11
▁revolution	11
▁frequently	11
▁structures	11
▁reasonable	11
▁everywhere	11
▁literature	11
▁assistance	11
▁facilities	11
▁supporting	11
▁situations	11
▁appreciate	11
istribution	11
▁candidates	11
▁CONDITIONS	11
▁surprising	11
▁Republican	11
▁Technology	11
▁resistance	11
▁ultimately	11
▁continuous	11
▁unexpected	11
▁efficiency	11
▁conclusion	11
▁controlled	11
▁statements	11
▁reputation	11
▁comprehens	11
▁supplement	11
▁Collection	11
▁Everything	11
▁commitment	11
▁statistics	11
▁Conference	11
▁electronic	11
dimensional	11
▁calculated	11
▁settlement	11
▁impression	11
▁atmosphere	11
▁philosophy	11
▁performing	11
▁principles	11
▁percentage	11
▁conversion	11
▁Revolution	11
▁foundation	11
▁approaches	11
▁incredible	11
▁attractive	11
▁employment	11
▁references	11
▁surrounded	11
▁underlying	11
▁opposition	11
▁subsequent	11
▁directions	11
▁difficulty	11
▁accessible	11
transaction	11
▁functional	11
▁incredibly	11
▁approached	11
▁impressive	11
▁assumption	11
▁membership	11
▁tournament	11
▁contribute	11
▁depression	11
▁scientists	11
▁assessment	11
▁colleagues	11
▁validation	11
▁completion	11
▁evaluation	11
▁procedures	11
▁initialize	11
▁continuing	11
▁Parliament	11
▁engagement	11
▁integrated	11
▁assignment	11
▁beginnetje	11
Environment	11
▁struggling	11
▁maintained	11
▁encouraged	11
resentation	11
▁retirement	11
▁concerning	11
▁strengthen	11
InputStream	11
▁physically	11
Information	11
▁identifier	11
▁basketball	11
▁girlfriend	11
▁affordable	11
▁complement	11
▁officially	11
▁boundaries	11
▁innovative	11
▁innovation	11
▁monitoring	11
▁simulation	11
▁collective	11
▁reflection	11
▁agreements	11
▁threatened	11
▁respective	11
▁friendship	11
▁inequality	11
▁politician	11
▁complexity	11
▁isinstance	11
▁constraint	11
▁compatible	11
▁accomplish	11
▁guaranteed	11
▁electrical	11
▁indicating	11
▁developers	11
▁industries	11
▁describing	11
Instruction	11
▁horizontal	11
▁navigation	11
▁possession	11
Diagnostics	11
▁interviews	11
▁artificial	11
▁attempting	11
▁enterprise	11
▁guidelines	11
multicolumn	11
▁Lieutenant	11
▁algorithms	11
▁satisfying	11
▁acceptable	11
▁convention	11
▁discipline	11
▁Initialize	11
▁exhibition	11
▁extensions	11
▁advantages	11
▁passengers	11
▁mechanical	11
▁separation	11
▁supporters	11
▁aggressive	11
▁projection	11
▁translated	11
▁restricted	11
▁vegetables	11
Certificate	11
▁connecting	11
▁journalist	11
▁meaningful	11
▁afterwards	11
▁suggestion	11
▁prediction	11
▁initiative	11
▁Experience	11
Declaration	11
▁newspapers	11
asticsearch	11
▁variations	11
▁treatments	11
▁acceptance	11
▁thoroughly	11
▁specialist	11
▁influenced	11
▁proportion	11
▁Connection	11
▁accordance	11
▁compassion	11
▁celebrated	11
▁suggesting	11
▁repeatedly	11
destination	11
▁generating	11
annotations	11
▁explaining	11
▁punishment	11
▁designated	11
▁publishing	11
▁Additional	11
▁protecting	11
▁Especially	11
information	11
▁accounting	11
▁discussing	11
▁occasional	11
▁passionate	11
▁popularity	11
▁phenomenon	11
▁Eventually	11
▁volunteers	11
▁parliament	11
▁medication	11
▁manuscript	11
▁consisting	11
▁exceptions	11
▁perception	11
▁Protection	11
▁beneficial	11
▁repository	11
▁mysterious	11
▁purchasing	11
▁altogether	11
▁corruption	11
▁capability	11
▁structural	11
▁preference	11
▁configured	11
▁biological	11
▁allocation	11
▁motivation	11
▁scattering	11
environment	11
▁traditions	11
▁quantities	11
▁underneath	11
▁inevitable	11
▁comparable	11
▁delivering	11
▁objectives	11
▁occupation	11
▁classified	11
▁separately	11
▁creativity	11
▁provisions	11
▁attachment	11
▁inspection	11
▁regulation	11
▁immigrants	11
▁invitation	11
▁Federation	11
▁distribute	11
▁correction	11
▁Illuminate	11
▁Television	11
OwnProperty	11
▁productive	11
▁collecting	11
▁polynomial	11
▁administer	11
▁deployment	11
▁highlights	11
▁mainstream	11
▁authorized	11
▁mechanisms	11
persistence	11
▁complaints	11
▁visibility	11
Destination	11
▁submission	11
▁Throughout	11
▁hypothesis	11
▁Historical	11
▁Convention	11
▁widespread	11
▁households	11
▁Properties	11
▁psychology	11
▁completing	11
▁substitute	11
▁frightened	11
▁tremendous	11
▁serialized	11
▁meditation	11
▁propaganda	11
▁attraction	11
▁Apparently	11
▁indication	11
▁elementary	11
▁likelihood	11
▁Background	11
▁accurately	11
Permissions	11
▁expedition	11
▁Definition	11
Constraints	11
▁Commercial	11
placeholder	11
▁laboratory	11
▁reasonably	11
▁conviction	11
▁addressing	11
UnityEngine	11
▁challenged	11
▁obligation	11
▁persistent	11
▁companions	11
▁normalized	11
▁Operations	11
Initialized	11
▁travelling	11
▁Expression	11
▁complained	11
▁intentions	11
Preferences	11
▁activation	11
▁protective	11
▁suspicious	11
▁simplicity	11
▁regulatory	11
▁conspiracy	11
▁attendance	11
▁derivative	11
▁determines	11
▁compromise	11
HttpServlet	11
▁frustrated	11
▁Pittsburgh	11
▁Birmingham	11
▁adaptation	11
▁curriculum	11
▁disability	11
Translation	11
Credentials	11
▁kilometres	11
▁provincial	11
▁preventing	11
▁attributed	11
▁responding	11
▁conscience	11
▁lieutenant	11
▁systematic	11
▁JavaScript	11
▁compelling	11
▁ValueError	11
▁influences	11
▁dependency	11
▁capitalism	11
▁suspension	11
▁documented	11
scriptstyle	11
▁limitation	11
▁networking	11
▁Generation	11
▁questioned	11
proposition	11
▁absorption	11
▁Publishing	11
▁Enterprise	11
▁migrations	11
▁Portuguese	11
▁withdrawal	11
▁consulting	11
▁perfection	11
▁presenting	11
▁prevention	11
▁eliminated	11
▁encryption	11
▁relaxation	11
▁supportive	11
▁irrelevant	11
▁Individual	11
▁profitable	11
▁affiliates	11
▁presumably	11
▁adventures	11
▁homosexual	11
▁Statistics	11
▁apartments	11
▁practicing	11
▁positioned	11
▁priorities	11
▁pronounced	11
▁structured	11
▁consultant	11
▁Queensland	11
▁recognised	11
▁destroying	11
initialized	11
▁conducting	11
▁something	10
▁different	10
▁important	10
▁following	10
▁including	10
▁available	10
▁distribut	10
▁represent	10
▁relations	10
▁character	10
▁community	10
▁difficult	10
▁September	10
▁questions	10
▁political	10
▁protected	10
▁attention	10
▁situation	10
▁potential	10
▁condition	10
▁sometimes	10
▁beautiful	10
▁structure	10
▁according	10
▁published	10
▁knowledge	10
▁companies	10
▁implement	10
▁contribut	10
▁president	10
▁interface	10
▁direction	10
▁President	10
▁construct	10
▁operation	10
▁Copyright	10
▁continued	10
▁education	10
▁described	10
▁beginning	10
▁administr	10
▁currently	10
▁functions	10
▁financial	10
▁reference	10
▁component	10
▁effective	10
▁customers	10
Controller	10
▁countries	10
▁certainly	10
▁resources	10
▁treatment	10
▁exception	10
▁otherwise	10
▁interview	10
▁therefore	10
▁developed	10
▁transport	10
▁statement	10
Connection	10
varepsilon	10
Properties	10
▁recommend	10
▁According	10
▁supported	10
▁Australia	10
▁generally	10
▁attribute	10
ampionship	10
▁insurance	10
unfinished	10
rightarrow	10
▁announced	10
▁Exception	10
subsection	10
▁marketing	10
▁mentioned	10
▁equipment	10
▁generated	10
▁solutions	10
▁completed	10
▁connected	10
Parameters	10
ifications	10
▁increased	10
▁selection	10
▁providing	10
▁establish	10
▁principal	10
▁presented	10
Collection	10
▁determine	10
Definition	10
▁architect	10
▁advantage	10
▁performed	10
▁employees	10
▁explained	10
▁influence	10
boldsymbol	10
▁challenge	10
Expression	10
▁excellent	10
▁regarding	10
▁extension	10
▁literally	10
▁remaining	10
Descriptor	10
▁religious	10
▁surprised	10
▁thousands	10
▁wonderful	10
▁somewhere	10
▁Institute	10
▁afternoon	10
▁agreement	10
▁suggested	10
Repository	10
▁ourselves	10
▁variables	10
▁existence	10
components	10
▁concerned	10
▁tradition	10
▁directory	10
▁positions	10
▁expensive	10
▁dangerous	10
▁Education	10
▁algorithm	10
▁processes	10
▁carefully	10
▁decisions	10
▁typically	10
▁apartment	10
▁obviously	10
▁happening	10
▁authority	10
▁Francisco	10
▁buildings	10
▁dimension	10
connection	10
▁Sometimes	10
▁listening	10
▁standards	10
▁copyright	10
▁discussed	10
▁Committee	10
▁conscious	10
annotation	10
▁technical	10
▁depending	10
▁seriously	10
▁candidate	10
▁evolution	10
▁committed	10
▁encounter	10
▁basically	10
▁continues	10
▁dedicated	10
▁resulting	10
▁operating	10
▁emotional	10
▁governing	10
▁shoulders	10
▁procedure	10
properties	10
▁officials	10
▁framework	10
▁frequency	10
▁Community	10
▁spiritual	10
Identifier	10
▁technique	10
▁expansion	10
Background	10
▁recognize	10
▁Elizabeth	10
▁locations	10
▁residents	10
▁confirmed	10
▁immediate	10
parameters	10
▁delivered	10
▁Wednesday	10
▁formation	10
controller	10
▁installed	10
▁expressed	10
background	10
▁destroyed	10
▁returning	10
▁intellect	10
▁preferred	10
▁Administr	10
▁suffering	10
▁breakfast	10
▁emergency	10
attributes	10
▁receiving	10
▁estimated	10
▁requested	10
▁Professor	10
▁CONDITION	10
▁execution	10
▁yesterday	10
▁increases	10
▁entertain	10
▁highlight	10
▁professor	10
▁executive	10
▁corporate	10
▁appointed	10
▁regularly	10
▁furniture	10
▁organized	10
▁newspaper	10
▁collected	10
▁equations	10
▁uncertain	10
▁signature	10
▁guarantee	10
▁naturally	10
▁initially	10
▁recording	10
▁correctly	10
▁operators	10
▁intention	10
▁wondering	10
▁everybody	10
▁principle	10
▁conducted	10
▁searching	10
plications	10
ailability	10
▁permanent	10
▁introduce	10
▁childhood	10
▁Something	10
▁alongside	10
▁classical	10
▁reduction	10
▁Following	10
▁committee	10
▁temporary	10
▁secondary	10
▁purchased	10
▁sensitive	10
▁extensive	10
▁awareness	10
▁household	10
▁objective	10
▁forgotten	10
▁satisfied	10
▁mountains	10
▁convinced	10
▁scheduled	10
▁assistant	10
▁Component	10
▁calculate	10
▁partition	10
▁particles	10
▁acknowled	10
▁ownership	10
▁describes	10
▁behaviour	10
▁languages	10
▁Secretary	10
▁threshold	10
▁Hollywood	10
▁indicated	10
AspNetCore	10
▁mechanism	10
▁breathing	10
▁precisely	10
▁providers	10
Validation	10
▁exclusive	10
▁reporting	10
▁programme	10
▁addresses	10
▁universal	10
▁separated	10
▁qualified	10
▁abandoned	10
▁Meanwhile	10
▁expertise	10
▁responses	10
▁platforms	10
▁involving	10
▁centuries	10
▁discovery	10
▁movements	10
▁happiness	10
▁Transport	10
▁investors	10
▁detection	10
definition	10
▁worldwide	10
▁responded	10
▁attempted	10
▁producing	10
collection	10
▁permitted	10
▁converted	10
▁elections	10
▁narrative	10
▁municipal	10
▁expecting	10
▁prominent	10
▁commander	10
▁animation	10
▁identical	10
▁personnel	10
expression	10
Permission	10
▁Executive	10
▁adventure	10
▁delicious	10
▁favourite	10
▁strategic	10
▁traveling	10
▁stability	10
validation	10
▁instantly	10
▁lifestyle	10
▁processed	10
▁uncomfort	10
▁featuring	10
▁incorrect	10
▁preparing	10
▁concluded	10
▁Operation	10
▁Argentina	10
emperature	10
▁confusion	10
▁addressed	10
▁submitted	10
▁improving	10
▁promotion	10
▁intensity	10
▁reception	10
▁secretary	10
Components	10
▁neighbors	10
▁accompany	10
▁Marketing	10
Annotation	10
▁Financial	10
▁reflected	10
▁gathering	10
descriptor	10
▁Singapore	10
▁offensive	10
▁impressed	10
▁democracy	10
▁prisoners	10
▁criticism	10
▁virtually	10
▁succeeded	10
Dictionary	10
▁Minnesota	10
▁abilities	10
▁gradually	10
▁Represent	10
Navigation	10
▁predicted	10
Appearance	10
Management	10
▁streaming	10
▁residence	10
Constraint	10
▁Roosevelt	10
▁Insurance	10
▁boyfriend	10
▁infection	10
▁timestamp	10
Comparator	10
▁authentic	10
▁Available	10
▁defensive	10
▁occasions	10
▁creatures	10
▁provision	10
▁stretched	10
▁variation	10
▁paragraph	10
▁Jefferson	10
▁computers	10
▁associate	10
▁migration	10
▁neighbour	10
▁diversity	10
▁suspected	10
▁magnitude	10
scriptions	10
▁substance	10
▁referring	10
▁attracted	10
▁pregnancy	10
▁passenger	10
▁Wisconsin	10
▁followers	10
initialize	10
▁Similarly	10
▁graduated	10
▁daughters	10
▁radiation	10
▁companion	10
▁screaming	10
▁recovered	10
▁sacrifice	10
Visibility	10
▁satisfies	10
▁finishing	10
▁paintings	10
▁realistic	10
▁Architect	10
transition	10
▁appearing	10
▁classroom	10
▁attending	10
▁Tennessee	10
StatusCode	10
▁campaigns	10
Extensions	10
▁inventory	10
repository	10
▁partially	10
▁allocated	10
identifier	10
▁Jerusalem	10
▁dominated	10
▁seemingly	10
javascript	10
▁invisible	10
Illuminate	10
▁replacing	10
▁sophistic	10
Serializer	10
▁integrity	10
▁eliminate	10
newcommand	10
▁inflation	10
▁departure	10
▁hopefully	10
▁Authority	10
▁certified	10
▁expanding	10
▁qualities	10
▁Liverpool	10
▁processor	10
▁exercises	10
▁exhausted	10
▁scattered	10
▁symmetric	10
▁affection	10
▁computing	10
▁volunteer	10
▁reactions	10
▁promoting	10
▁suspended	10
▁exploring	10
TagHelpers	10
▁comparing	10
▁obtaining	10
▁demanding	10
▁Currently	10
▁publisher	10
ographical	10
▁Assistant	10
▁relatives	10
Transition	10
▁Political	10
▁hospitals	10
▁Wikipedia	10
▁Communist	10
▁physician	10
▁developer	10
▁placement	10
▁invention	10
▁Universal	10
▁Frederick	10
▁perceived	10
▁musicians	10
▁Cleveland	10
▁similarly	10
▁Challenge	10
▁diagnosis	10
▁Obviously	10
▁satellite	10
▁complaint	10
▁overnight	10
▁commented	10
▁triggered	10
extensions	10
▁spreading	10
▁explosion	10
▁employers	10
Unexpected	10
▁accepting	10
▁Reference	10
▁motivated	10
navigation	10
▁collapsed	10
▁investing	10
▁genuinely	10
▁promising	10
▁sequences	10
▁engineers	10
▁requiring	10
▁liability	10
▁directors	10
▁Commander	10
▁disappear	10
▁continent	10
Initialize	10
▁violation	10
▁primitive	10
▁Published	10
Horizontal	10
▁producers	10
▁magazines	10
▁curiosity	10
▁inherited	10
▁evaluated	10
▁privilege	10
▁Churchill	10
▁competing	10
▁screening	10
▁dismissed	10
▁anonymous	10
▁opponents	10
Foundation	10
▁remainder	10
▁collision	10
▁workplace	10
▁Agreement	10
▁countless	10
▁sensation	10
DataSource	10
▁respected	10
▁inclusion	10
▁Candidate	10
▁Character	10
▁admission	10
▁attacking	10
▁defending	10
▁testimony	10
ologically	10
Operations	10
compatible	10
▁sentences	10
▁Construct	10
▁addiction	10
▁registers	10
▁recipient	10
▁districts	10
▁divisions	10
▁preserved	10
▁belonging	10
▁believing	10
▁behaviors	10
▁composite	10
▁conflicts	10
▁historian	10
▁libraries	10
▁amplitude	10
▁excessive	10
▁Louisiana	10
▁suppliers	10
▁strangers	10
▁backwards	10
▁consensus	10
▁elaborate	10
▁mechanics	10
▁witnessed	10
▁answering	10
▁audiences	10
▁Champions	10
▁scientist	10
▁packaging	10
▁designers	10
▁measuring	10
▁necessity	10
▁reproduce	10
▁revealing	10
▁canonical	10
▁decorated	10
Reflection	10
permission	10
▁reasoning	10
management	10
▁consisted	10
▁hesitated	10
▁Solutions	10
▁gentleman	10
categories	10
production	10
▁molecular	10
▁chemicals	10
▁rendering	10
▁affiliate	10
conditions	10
▁Questions	10
▁cancelled	10
▁extracted	10
▁emissions	10
▁achieving	10
▁prototype	10
▁reinforce	10
▁disorders	10
▁isolation	10
▁batteries	10
▁aggregate	10
Enumerable	10
▁Venezuela	10
▁societies	10
▁economics	10
▁ancestors	10
▁switching	10
▁lightning	10
operations	10
▁september	10
▁selecting	10
▁struggles	10
▁inclusive	10
istributed	10
▁projected	10
▁detective	10
▁survivors	10
▁cognitive	10
▁extending	10
Dependency	10
▁sustained	10
▁reporters	10
▁terrorist	10
▁Municipal	10
▁Technical	10
stylesheet	10
▁nutrition	10
concurrent	10
▁Contribut	10
▁Equipment	10
▁witnesses	10
▁enjoyable	10
▁Sebastian	10
▁possessed	10
▁prospects	10
especially	10
processing	10
▁surviving	10
▁Implement	10
Middleware	10
▁assembled	10
▁workshops	10
▁legendary	10
▁Mountains	10
▁prevented	10
▁Beautiful	10
▁therapist	10
▁INCLUDING	10
▁diagnosed	10
authorized	10
▁synthetic	10
▁confusing	10
▁terrified	10
▁accidents	10
▁rectangle	10
▁Selection	10
Generation	10
Completion	10
▁breakdown	10
▁designing	10
▁activated	10
▁attitudes	10
▁predecess	10
Attachment	10
deprecated	10
▁incidents	10
constraint	10
▁Biography	10
▁appealing	10
▁nominated	10
▁commanded	10
▁champions	10
▁justified	10
▁ecosystem	10
▁nightmare	10
▁financing	10
Statistics	10
▁realizing	10
▁Different	10
▁varieties	10
▁Hampshire	10
Processing	10
horizontal	10
▁memorable	10
▁strongest	10
▁depressed	10
▁combining	10
▁pollution	10
▁automated	10
▁affecting	10
▁corrected	10
▁touchdown	10
Comparison	10
▁warehouse	10
▁aesthetic	10
▁Halloween	10
▁thickness	10
▁Statement	10
▁initiated	10
▁geometric	10
▁strengths	10
attachment	10
▁ambitious	10
▁Condition	10
▁occurring	10
▁injection	10
▁considers	10
▁contacted	10
▁sponsored	10
▁releasing	10
successful	10
▁utilizing	10
▁convicted	10
▁splitting	10
▁afterward	10
▁fortunate	10
▁PropTypes	10
▁slaughter	10
▁workspace	10
▁embedding	10
▁favorites	10
▁Extension	10
▁analytics	10
formation	9
Exception	9
▁consider	9
▁business	9
▁interest	9
▁anything	9
▁children	9
plication	9
ification	9
▁together	9
▁American	9
▁possible	9
▁actually	9
▁position	9
▁response	9
▁specific	9
▁question	9
▁required	9
▁probably	9
▁remember	9
▁personal	9
▁research	9
▁services	9
▁expected	9
▁everyone	9
▁previous	9
▁original	9
▁students	9
▁National	9
Component	9
▁building	9
▁continue	9
▁resource	9
▁signific	9
▁language	9
▁provided	9
▁received	9
▁software	9
▁yourself	9
▁opportun	9
▁products	9
▁training	9
▁complete	9
▁features	9
▁thinking	9
▁happened	9
▁returned	9
▁national	9
▁filename	9
▁November	9
▁problems	9
▁approach	9
▁addition	9
▁register	9
▁included	9
▁location	9
▁industry	9
▁standard	9
▁straight	9
▁security	9
▁December	9
▁followed	9
▁independ	9
▁directly	9
▁decision	9
▁solution	9
▁multiple	9
▁learning	9
▁elements	9
▁platform	9
▁official	9
▁discover	9
▁released	9
▁practice	9
▁increase	9
▁physical	9
▁positive	9
▁involved	9
▁provides	9
▁distance	9
▁February	9
▁although	9
▁military	9
▁unsigned	9
▁includes	9
ashington	9
▁evidence	9
▁starting	9
▁designed	9
▁daughter	9
Container	9
▁reported	9
▁internal	9
▁campaign	9
▁Although	9
▁contains	9
▁recently	9
▁selected	9
▁finished	9
▁transfer	9
Parameter	9
▁computer	9
▁Republic	9
▁behavior	9
▁appeared	9
▁movement	9
▁watching	9
▁manufact	9
▁challeng	9
▁standing	9
▁strength	9
▁customer	9
▁activity	9
▁European	9
▁pressure	9
▁callback	9
Interface	9
▁settings	9
▁supposed	9
▁surround	9
▁hospital	9
▁football	9
▁Software	9
▁existing	9
prototype	9
▁economic	9
▁favorite	9
▁describe	9
▁investig	9
▁demonstr	9
▁download	9
▁compared	9
container	9
▁produced	9
▁powerful	9
scription	9
▁families	9
▁creating	9
▁director	9
▁suddenly	9
▁requires	9
framework	9
Operation	9
▁projects	9
▁programs	9
▁negative	9
▁district	9
▁realized	9
▁slightly	9
▁strategy	9
▁critical	9
▁approxim	9
▁planning	9
▁thoughts	9
▁neighbor	9
component	9
▁election	9
▁remained	9
▁comments	9
exception	9
▁majority	9
▁believed	9
▁sequence	9
abilities	9
▁electric	9
▁shoulder	9
▁marriage	9
▁variable	9
▁becoming	9
▁operator	9
Reference	9
▁audience	9
▁observed	9
▁Research	9
▁relative	9
▁prepared	9
▁category	9
▁override	9
▁thousand	9
▁Services	9
ictionary	9
▁Japanese	9
▁entirely	9
▁possibly	9
▁District	9
▁identity	9
▁Minister	9
▁collabor	9
▁proposed	9
▁pictures	9
▁accident	9
▁restrict	9
▁capacity	9
▁Congress	9
▁Facebook	9
▁fighting	9
istration	9
▁relevant	9
▁Division	9
▁changing	9
▁speaking	9
▁Internet	9
▁equation	9
▁occasion	9
▁exchange	9
▁concentr	9
▁intended	9
▁cultural	9
▁replaced	9
▁surprise	9
▁soldiers	9
▁accepted	9
▁identify	9
▁offering	9
▁maintain	9
▁opposite	9
▁exercise	9
attribute	9
▁reserved	9
▁officers	9
▁violence	9
▁examples	9
▁Director	9
Statement	9
▁creation	9
interface	9
▁repeated	9
▁external	9
▁recorded	9
▁relation	9
▁feelings	9
▁teaching	9
▁schedule	9
▁distinct	9
▁anywhere	9
▁delivery	9
▁division	9
▁numerous	9
operation	9
▁Security	9
▁provider	9
▁politics	9
▁creative	9
▁requests	9
▁allowing	9
▁accounts	9
▁citizens	9
▁occurred	9
▁spending	9
▁advanced	9
transform	9
▁religion	9
Microsoft	9
▁Festival	9
▁Virginia	9
▁friendly	9
Transform	9
▁minister	9
widetilde	9
▁incorpor	9
▁answered	9
▁bringing	9
▁reaction	9
▁absolute	9
▁conflict	9
▁Register	9
Extension	9
▁Canadian	9
▁articles	9
▁Licensed	9
▁hundreds	9
▁detailed	9
▁measures	9
▁Williams	9
▁bathroom	9
▁mountain	9
▁wondered	9
▁directed	9
Selection	9
▁purposes	9
▁pleasure	9
▁tomorrow	9
pgfqpoint	9
ibilities	9
▁incident	9
▁carrying	9
▁chemical	9
▁concerns	9
▁coverage	9
▁teachers	9
▁substant	9
▁Hamilton	9
▁boundary	9
▁revealed	9
▁somewhat	9
▁versions	9
▁manifest	9
▁attached	9
▁magazine	9
▁interior	9
▁shopping	9
▁affected	9
▁accurate	9
Execution	9
▁breaking	9
▁whenever	9
▁contents	9
▁Function	9
protected	9
▁criminal	9
▁assigned	9
▁disabled	9
▁Carolina	9
▁referred	9
▁prospect	9
▁modified	9
Generator	9
▁resident	9
centering	9
▁painting	9
▁supports	9
▁drinking	9
▁matching	9
▁suitable	9
Constants	9
▁channels	9
▁estimate	9
▁darkness	9
▁universe	9
▁distingu	9
▁shooting	9
supported	9
▁Consider	9
▁Everyone	9
▁partners	9
▁priority	9
▁declared	9
▁accommod	9
Directory	9
▁academic	9
Generated	9
▁cleaning	9
▁regional	9
▁improved	9
▁duration	9
▁inspired	9
▁achieved	9
▁Assembly	9
condition	9
▁spectrum	9
▁visitors	9
▁recovery	9
▁Response	9
▁feedback	9
▁networks	9
generated	9
▁southern	9
▁concrete	9
▁employee	9
▁champion	9
▁sentence	9
▁strongly	9
▁suggests	9
▁instruct	9
▁consists	9
▁normally	9
▁attended	9
▁symptoms	9
▁announce	9
▁somebody	9
▁sections	9
▁magnetic	9
▁medicine	9
▁featured	9
▁exciting	9
▁memories	9
▁Standard	9
▁facility	9
▁entrance	9
▁Children	9
▁discount	9
▁northern	9
▁Hospital	9
▁confront	9
▁stronger	9
▁checking	9
▁Optional	9
▁measured	9
▁suffered	9
▁handling	9
Condition	9
▁sleeping	9
▁warranty	9
▁domestic	9
▁approved	9
▁birthday	9
▁informed	9
▁attitude	9
▁admitted	9
▁thorough	9
▁attempts	9
▁hardware	9
▁reliable	9
▁meetings	9
▁accuracy	9
Resources	9
▁promised	9
▁clothing	9
Namespace	9
▁reaching	9
▁shipping	9
▁captured	9
▁Remember	9
▁scenario	9
▁validate	9
▁velocity	9
▁Football	9
▁websites	9
▁accompan	9
▁vertical	9
textwidth	9
roduction	9
▁Michigan	9
▁supplies	9
▁Victoria	9
▁visiting	9
conscious	9
▁confused	9
▁emotions	9
▁producer	9
▁sessions	9
undefined	9
available	9
Animation	9
▁covering	9
▁fraction	9
▁momentum	9
▁electron	9
agnostics	9
namespace	9
▁acquired	9
▁arrested	9
▁Scotland	9
▁dispatch	9
▁studying	9
connected	9
▁withdraw	9
▁username	9
▁festival	9
▁WARRANTY	9
▁commonly	9
▁stations	9
parameter	9
▁choosing	9
extension	9
▁subjects	9
▁Building	9
itionally	9
▁selector	9
▁involves	9
▁baseball	9
▁employed	9
including	9
▁province	9
▁Location	9
Direction	9
reference	9
▁reminded	9
▁laughing	9
▁pointing	9
▁applying	9
ategories	9
▁payments	9
▁lifetime	9
▁particle	9
▁approval	9
▁composed	9
underline	9
▁everyday	9
timestamp	9
▁assembly	9
▁listened	9
▁criteria	9
▁grateful	9
▁explains	9
▁clinical	9
▁attacked	9
▁rational	9
▁Mountain	9
▁shrugged	9
▁tracking	9
▁creature	9
▁proposal	9
▁believes	9
▁enormous	9
▁endpoint	9
▁commands	9
▁regarded	9
▁Training	9
▁entering	9
resources	9
Framework	9
▁agencies	9
istribute	9
omitempty	9
▁detected	9
▁integral	9
▁dynamics	9
▁entitled	9
▁rejected	9
▁Language	9
achusetts	9
construct	9
▁Illinois	9
▁calendar	9
▁phenomen	9
▁floating	9
▁Pakistan	9
▁receiver	9
▁executed	9
Geplaatst	9
▁pandemic	9
▁unlikely	9
direction	9
▁historic	9
▁entrepre	9
▁resolved	9
▁singular	9
▁throwing	9
▁Colorado	9
▁ultimate	9
selection	9
▁injuries	9
▁lighting	9
▁designer	9
▁arranged	9
Timestamp	9
Character	9
▁guidance	9
▁encoding	9
▁managing	9
▁frequent	9
▁Portugal	9
▁ceremony	9
▁graduate	9
▁redirect	9
▁Download	9
▁insisted	9
▁defeated	9
▁enjoying	9
▁Atlantic	9
▁assuming	9
▁Lawrence	9
▁occupied	9
▁judgment	9
▁concepts	9
▁supplied	9
▁symmetry	9
▁Customer	9
▁Governor	9
arguments	9
▁survived	9
▁prosecut	9
▁instinct	9
▁vacation	9
▁recalled	9
▁computed	9
▁swimming	9
▁mathemat	9
▁pipeline	9
iddleware	9
▁literary	9
▁resulted	9
▁expenses	9
▁operated	9
HasColumn	9
ArrayList	9
▁reducing	9
▁licensed	9
▁emission	9
▁crossing	9
Processor	9
▁Students	9
▁governor	9
▁removing	9
▁overcome	9
criptions	9
placement	9
▁episodes	9
▁mistakes	9
▁Margaret	9
▁stopping	9
▁Champion	9
▁theories	9
▁disaster	9
▁innocent	9
▁dramatic	9
▁Position	9
▁pleasant	9
▁disorder	9
▁managers	9
▁Learning	9
directory	9
▁equality	9
▁geometry	9
▁humanity	9
linewidth	9
▁Scottish	9
▁Original	9
▁monument	9
▁vertices	9
▁produces	9
akespeare	9
▁decrease	9
▁upcoming	9
▁precious	9
▁outcomes	9
▁preserve	9
▁coupling	9
structure	9
▁PyObject	9
translate	9
▁engineer	9
▁disagree	9
▁laughter	9
partition	9
▁Magazine	9
▁diseases	9
▁Benjamin	9
▁compound	9
Alignment	9
▁focusing	9
▁Category	9
▁conclude	9
▁Memorial	9
▁protagon	9
▁forehead	9
▁downtown	9
▁isolated	9
▁actively	9
▁employer	9
specially	9
Converter	9
serialize	9
▁eligible	9
▁Regional	9
▁invasion	9
ationship	9
▁Settings	9
▁overflow	9
▁Internal	9
Available	9
▁convince	9
▁villages	9
Arguments	9
▁reporter	9
▁keyboard	9
▁promoted	9
▁attribut	9
subscribe	9
▁dropping	9
▁publicly	9
▁consecut	9
▁printing	9
notations	9
Signature	9
Supported	9
▁profound	9
▁graphics	9
▁Sciences	9
configure	9
▁Analysis	9
ClassName	9
bootstrap	9
▁surfaces	9
▁strictly	9
▁Thompson	9
▁backward	9
▁stranger	9
▁complain	9
▁engaging	9
transport	9
functions	9
Implement	9
▁profiles	9
▁entities	9
▁ordering	9
▁cultures	9
▁Military	9
LowerCase	9
omorphism	9
▁contrary	9
▁striking	9
character	9
▁traveled	9
▁Probably	9
▁balanced	9
▁licenses	9
▁republic	9
▁embedded	9
▁counting	9
Transport	9
▁emerging	9
▁contacts	9
▁ensuring	9
▁segments	9
▁retrieve	9
▁workshop	9
▁mattress	9
▁claiming	9
▁Robinson	9
▁bullshit	9
▁Maryland	9
▁targeted	9
▁Actually	9
▁opponent	9
▁touching	9
Partition	9
▁circular	9
▁Economic	9
▁Electric	9
▁Computer	9
▁adjacent	9
▁stunning	9
▁clusters	9
Copyright	9
ubernetes	9
▁educated	9
▁Missouri	9
▁promises	9
▁overhead	9
▁transmit	9
▁indirect	9
▁gambling	9
▁insights	9
▁churches	9
substring	9
▁speakers	9
▁climbing	9
TagHelper	9
Structure	9
▁Features	9
▁pressing	9
▁Platform	9
▁Products	9
▁Mitchell	9
▁minority	9
▁examined	9
▁Exchange	9
▁switched	9
▁peaceful	9
itzerland	9
animation	9
▁tropical	9
threshold	9
▁murdered	9
▁Olympics	9
▁wireless	9
▁Princess	9
▁receives	9
▁american	9
ifference	9
▁releases	9
▁Suddenly	9
▁crushing	9
▁coaching	9
▁basement	9
▁troubles	9
▁relating	9
▁Brooklyn	9
▁Kentucky	9
▁chairman	9
▁Together	9
▁allocate	9
▁advertis	9
▁gorgeous	9
▁talented	9
▁enhanced	9
▁commerce	9
▁incoming	9
▁observer	9
▁adjusted	9
generator	9
▁dressing	9
▁annoying	9
▁sacrific	9
▁portrait	9
▁quarters	9
▁december	9
ropolitan	9
▁governed	9
algorithm	9
▁belonged	9
▁smallest	9
▁charging	9
stringify	9
▁Question	9
▁ignoring	9
▁midnight	9
▁notation	9
▁blocking	9
▁heritage	9
▁defining	9
▁clearing	9
▁diameter	9
▁treating	9
▁searched	9
▁Nicholas	9
▁congress	9
▁situated	9
▁Advanced	9
subfigure	9
minecraft	9
▁screamed	9
▁Required	9
▁abortion	9
statement	9
▁ensemble	9
signature	9
▁sunlight	9
▁energies	9
innerHTML	9
▁scholars	9
▁Province	9
▁Regiment	9
▁manually	9
Functions	9
▁overview	9
▁Reserved	9
▁compiler	9
▁Caroline	9
▁medieval	9
▁missions	9
▁sampling	9
▁reviewed	9
Completed	9
WriteLine	9
sequently	9
▁avoiding	9
▁athletes	9
Serialize	9
▁inserted	9
▁Specific	9
Formatter	9
▁Planning	9
▁Thailand	9
effective	9
▁relieved	9
▁Oklahoma	9
▁caracter	9
constants	9
Dimension	9
▁Creative	9
▁refriger	9
▁registry	9
▁compiled	9
▁portions	9
▁imprison	9
▁catching	9
▁Portland	9
dependent	9
interrupt	9
▁sciences	9
▁Agricult	9
▁grinding	9
▁shouting	9
▁exponent	9
▁Egyptian	9
wikipedia	9
▁Independ	9
connector	9
▁operates	9
▁bacteria	9
▁magnific	9
▁prisoner	9
▁warnings	9
▁adoption	9
▁Activity	9
▁overseas	9
▁november	9
▁invested	9
▁arriving	9
variables	9
▁Gaussian	9
▁shifting	9
▁mentally	9
▁calories	9
▁triangle	9
processor	9
▁realised	9
▁earnings	9
▁silently	9
irmingham	9
▁tendency	9
Primitive	9
▁deciding	9
Threading	9
something	9
▁clicking	9
▁murmured	9
▁founding	9
important	9
▁accessed	9
▁overlook	9
paragraph	9
▁revision	9
▁likewise	9
▁Transfer	9
▁Michelle	9
▁Cultural	9
▁composer	9
▁filtered	9
▁petition	9
Prototype	9
▁helpless	9
▁destruct	9
▁fourteen	9
▁Chairman	9
▁verified	9
Algorithm	9
▁chapters	9
▁tourists	9
▁advocate	9
▁deadline	9
▁bleeding	9
▁Movement	9
▁failures	9
versation	9
▁organize	9
▁charming	9
▁formally	9
▁Comments	9
▁treasure	9
▁Starting	9
▁Practice	9
Rendering	9
▁reminder	9
▁compress	9
▁performs	9
▁Muhammad	9
▁Malaysia	9
▁Montreal	9
itational	9
▁animated	9
▁stepping	9
ponential	9
▁enabling	9
▁excluded	9
▁retained	9
TextField	9
▁youngest	9
▁courtesy	9
▁Schedule	9
▁peculiar	9
▁supplier	9
▁Township	9
▁Politics	9
Migration	9
▁centered	9
amination	9
▁invented	9
▁outbreak	9
endregion	9
fortunate	9
▁faithful	9
▁spinning	9
Autowired	9
▁welcomed	9
▁squeezed	9
▁Richmond	9
▁updating	9
▁psychiat	9
▁mistaken	9
PARAMETER	9
▁Examples	9
▁homework	9
GetString	9
▁Official	9
secondary	9
▁formerly	9
Threshold	9
▁elevator	9
▁sympathy	9
▁musician	9
▁vanished	9
▁fighters	9
▁warriors	9
▁Heritage	9
▁infected	9
▁thirteen	9
istically	9
▁imported	9
▁carriage	9
▁misunder	9
▁deployed	9
▁Mathemat	9
▁explored	9
▁meantime	9
▁Validate	9
avelength	9
Construct	9
EventArgs	9
▁colleges	9
▁doctrine	9
▁Historic	9
▁reserves	9
▁Pictures	9
Billboard	9
amazonaws	9
implement	9
ErrorCode	9
▁Campaign	9
▁nonsense	9
▁Squadron	9
▁Universe	9
▁Physical	9
▁siblings	9
▁trailing	9
▁Recently	9
Variables	9
▁mobility	9
▁barriers	9
▁Russians	9
▁Whenever	9
▁sticking	9
▁annually	9
▁Arkansas	9
▁kindness	9
▁competed	9
published	9
▁stressed	9
▁sidewalk	9
INCLUDING	9
▁worrying	9
▁blessing	9
▁modeling	9
Workspace	9
▁syndrome	9
▁advances	9
▁Commerce	9
Connector	9
▁goodness	9
astically	9
▁peripher	9
▁deserved	9
▁drawings	9
▁Nintendo	9
▁Salvador	9
▁Solution	9
▁illusion	9
▁activate	9
▁prevents	9
frequency	9
▁stumbled	9
▁limiting	9
▁memorial	9
▁Describe	9
▁Anything	9
▁veterans	9
▁Berkeley	9
▁keywords	9
▁severely	9
▁sometime	9
▁manifold	9
Separator	9
▁smoothly	9
Utilities	9
templates	9
administr	9
▁Sergeant	9
▁backpack	9
dashboard	9
▁depicted	9
▁sandwich	9
▁resigned	9
▁princess	9
▁remarked	9
▁leverage	9
▁Bachelor	9
▁Shanghai	9
▁relaxing	9
▁Archives	9
Something	9
Listeners	9
copyright	9
▁outlined	9
▁Interior	9
▁through	8
▁because	8
▁between	8
▁private	8
▁thought	8
▁without	8
▁another	8
▁process	8
▁support	8
▁against	8
▁current	8
▁develop	8
▁program	8
▁product	8
▁request	8
equation	8
▁present	8
▁perform	8
▁success	8
cription	8
▁service	8
▁Univers	8
▁element	8
▁project	8
▁someone	8
▁company	8
▁nothing	8
▁looking	8
▁control	8
function	8
pression	8
▁complet	8
▁require	8
▁problem	8
▁account	8
▁getting	8
▁himself	8
location	8
▁working	8
▁version	8
▁example	8
▁started	8
▁special	8
▁several	8
▁results	8
▁country	8
▁general	8
▁address	8
Response	8
▁describ	8
▁However	8
▁individ	8
▁include	8
▁content	8
▁provide	8
▁believe	8
Property	8
▁friends	8
ironment	8
▁members	8
▁history	8
▁suggest	8
Override	8
▁command	8
▁minutes	8
▁outside	8
▁however	8
▁respons	8
▁General	8
▁further	8
position	8
▁writing	8
▁perfect	8
▁network	8
▁similar	8
▁initial	8
▁contact	8
▁profess	8
Resource	8
▁subject	8
▁running	8
▁million	8
▁created	8
▁morning	8
Instance	8
▁quality	8
▁various	8
▁percent	8
▁details	8
▁section	8
▁natural	8
▁attempt	8
▁written	8
▁William	8
▁brought	8
▁finally	8
▁English	8
▁usually	8
▁Austral	8
▁concern	8
▁quickly	8
▁parents	8
▁popular	8
▁mention	8
▁regular	8
▁website	8
▁British	8
ological	8
▁talking	8
response	8
unsigned	8
opyright	8
▁feature	8
lections	8
▁decided	8
▁October	8
▁playing	8
▁serious	8
▁feeling	8
▁January	8
▁complex	8
▁changed	8
▁hundred	8
▁correct	8
▁herself	8
▁consist	8
▁reading	8
Function	8
▁systems	8
icrosoft	8
Listener	8
▁comfort	8
▁reached	8
▁towards	8
▁station	8
▁players	8
▁univers	8
▁average	8
▁related	8
▁perhaps	8
instance	8
▁measure	8
▁meeting	8
▁prevent	8
▁session	8
▁convers	8
Provider	8
▁waiting	8
▁leading	8
▁stopped	8
▁surface	8
▁obvious	8
▁century	8
▁article	8
▁brother	8
olutions	8
▁ability	8
Settings	8
▁numbers	8
▁receive	8
▁methods	8
▁counter	8
▁husband	8
▁setting	8
▁machine	8
▁release	8
▁located	8
▁deliver	8
resource	8
▁culture	8
▁medical	8
▁student	8
register	8
eqnarray	8
▁meaning	8
▁picture	8
▁England	8
▁connect	8
▁Service	8
▁channel	8
▁collect	8
▁concept	8
▁stories	8
▁learned	8
▁purpose	8
▁effects	8
▁follows	8
Position	8
▁kitchen	8
▁College	8
finished	8
▁society	8
▁primary	8
▁leaving	8
▁college	8
Callback	8
Location	8
ulations	8
▁married	8
▁offered	8
▁sitting	8
▁village	8
▁restaur	8
▁organiz	8
▁Company	8
settings	8
▁growing	8
▁reasons	8
▁limited	8
▁Caption	8
property	8
▁Francis	8
▁achieve	8
▁holding	8
graphics	8
▁destroy	8
▁variety	8
▁science	8
▁objects	8
▁Chinese	8
▁classes	8
▁removed	8
▁becomes	8
▁watched	8
▁actions	8
atically	8
▁arrived	8
▁license	8
▁clients	8
▁amazing	8
▁covered	8
▁attract	8
▁calling	8
▁evening	8
▁History	8
▁happens	8
▁managed	8
▁appoint	8
▁missing	8
Template	8
▁reality	8
▁conserv	8
▁partner	8
▁smaller	8
▁mission	8
▁opening	8
internal	8
▁manager	8
▁produce	8
▁telling	8
▁digital	8
▁Version	8
▁carried	8
▁studies	8
document	8
▁foreign	8
▁maximum	8
▁seconds	8
▁concent	8
▁explain	8
possible	8
▁sources	8
▁Germany	8
▁walking	8
entially	8
▁Program	8
password	8
Document	8
▁schools	8
▁opinion	8
expected	8
▁workers	8
▁Council	8
▁finding	8
template	8
igration	8
▁Chapter	8
▁remains	8
▁overall	8
▁applied	8
overline	8
▁trouble	8
▁keeping	8
▁library	8
callback	8
▁largest	8
▁implied	8
▁fucking	8
▁failure	8
▁profile	8
▁Project	8
▁healthy	8
▁records	8
▁driving	8
▁willing	8
irection	8
Register	8
▁fingers	8
istribut	8
▁highest	8
▁equival	8
▁reports	8
▁minimum	8
▁Profess	8
▁disease	8
▁leaders	8
▁appears	8
▁Russian	8
▁showing	8
▁officer	8
▁Finally	8
▁Instead	8
▁realize	8
Selector	8
▁putting	8
▁wearing	8
▁parties	8
▁knowing	8
▁animals	8
▁quarter	8
▁virtual	8
▁testing	8
▁efforts	8
▁noticed	8
▁Western	8
▁devices	8
▁ordered	8
▁density	8
▁trigger	8
ometimes	8
ructions	8
▁Section	8
▁entered	8
▁updated	8
▁traffic	8
standing	8
▁Society	8
▁turning	8
▁helping	8
▁replied	8
Activity	8
▁pointed	8
▁Develop	8
▁disappe	8
▁African	8
▁teacher	8
operator	8
▁advance	8
category	8
▁strange	8
▁economy	8
▁confirm	8
▁billion	8
▁illustr	8
nonumber	8
▁passion	8
ferences	8
▁payment	8
▁shouldn	8
Internal	8
▁totally	8
▁abandon	8
▁Special	8
Argument	8
▁biggest	8
▁Stadium	8
▁matches	8
▁unknown	8
▁focused	8
Selected	8
▁Product	8
▁weekend	8
▁promise	8
election	8
▁conduct	8
ployment	8
▁massive	8
licenses	8
▁witness	8
▁musical	8
▁neither	8
▁cluster	8
▁wedding	8
▁anymore	8
▁moments	8
selected	8
▁Science	8
children	8
▁builder	8
▁Johnson	8
emporary	8
▁bedroom	8
▁reduced	8
Password	8
▁respond	8
inations	8
▁recover	8
▁Perhaps	8
▁ancient	8
▁Angeles	8
▁succeed	8
▁Network	8
▁Florida	8
▁excited	8
▁warning	8
▁episode	8
▁compare	8
▁stepped	8
▁studied	8
▁accompl	8
protobuf	8
plements	8
Category	8
filename	8
▁checked	8
▁passing	8
ensional	8
▁younger	8
▁complic	8
▁warrant	8
▁hearing	8
▁winning	8
▁treated	8
▁somehow	8
Database	8
▁Jackson	8
▁defense	8
▁welcome	8
▁Italian	8
▁Through	8
▁publish	8
▁weapons	8
▁schedul	8
Required	8
ToString	8
▁selling	8
security	8
▁Britain	8
▁Spanish	8
▁Promise	8
▁prepare	8
▁planned	8
▁reviews	8
continue	8
▁pointer	8
▁enjoyed	8
contains	8
▁sending	8
▁suppose	8
▁figures	8
ications	8
▁plastic	8
▁segment	8
▁streets	8
platform	8
▁partial	8
▁choices	8
Variable	8
▁regions	8
▁factory	8
material	8
▁artists	8
▁dynamic	8
atalogue	8
▁chapter	8
username	8
▁sharing	8
▁Records	8
▁Process	8
▁worried	8
▁Support	8
▁serving	8
▁Library	8
▁attacks	8
▁typical	8
▁helpful	8
required	8
▁quantum	8
▁drawing	8
▁Current	8
▁falling	8
▁killing	8
Elements	8
▁assumed	8
Security	8
▁resolve	8
▁charges	8
▁alcohol	8
▁Nothing	8
▁victory	8
anguages	8
▁Ireland	8
▁degrees	8
iterator	8
▁scatter	8
complete	8
▁answers	8
Progress	8
▁charged	8
▁derived	8
▁seeking	8
▁strings	8
▁careful	8
▁formula	8
▁capture	8
▁Theorem	8
▁Message	8
▁ignored	8
▁refused	8
▁elected	8
▁tonight	8
▁Captain	8
Registry	8
▁classic	8
▁entries	8
▁Kingdom	8
▁Request	8
▁disable	8
▁visited	8
▁founded	8
▁markets	8
▁portion	8
▁settled	8
Constant	8
▁Command	8
notation	8
▁closely	8
▁trading	8
▁promote	8
▁samples	8
▁experts	8
Protocol	8
▁stomach	8
▁sustain	8
▁discipl	8
▁glanced	8
formance	8
▁desired	8
original	8
▁housing	8
▁delight	8
Platform	8
▁flowers	8
language	8
▁Account	8
▁awesome	8
▁foreach	8
▁routine	8
▁enhance	8
▁mistake	8
validate	8
Iterator	8
▁edition	8
▁execute	8
▁parking	8
▁funding	8
▁cancell	8
erialize	8
▁implies	8
▁cutting	8
American	8
▁Medical	8
▁Conserv	8
▁suspect	8
▁therapy	8
▁pressed	8
▁largely	8
▁dealing	8
ographic	8
▁granted	8
▁invited	8
Identity	8
▁convent	8
▁compact	8
▁hanging	8
services	8
▁dressed	8
▁writers	8
▁Pacific	8
▁touched	8
pository	8
▁crossed	8
▁Contact	8
▁provinc	8
▁battery	8
▁compens	8
▁wanting	8
▁illegal	8
▁anxiety	8
▁western	8
protocol	8
▁aggress	8
▁letting	8
▁pleased	8
▁compute	8
▁privacy	8
▁persons	8
Services	8
Material	8
▁closing	8
Endpoint	8
▁Country	8
▁acceler	8
▁causing	8
▁burning	8
▁staring	8
▁survive	8
▁mapping	8
▁Content	8
▁engaged	8
▁Georgia	8
▁emotion	8
▁cooking	8
▁illness	8
▁sounded	8
▁declare	8
Sequence	8
Duration	8
▁surgery	8
ceptions	8
▁assault	8
▁Station	8
disabled	8
▁equally	8
▁algebra	8
▁adopted	8
▁exposed	8
▁staying	8
▁doctors	8
▁captain	8
ashboard	8
▁divided	8
▁quietly	8
▁designs	8
Operator	8
▁pulling	8
agnostic	8
▁drivers	8
▁targets	8
▁diagram	8
▁arrival	8
progress	8
▁Digital	8
izations	8
Language	8
▁operate	8
Children	8
▁pushing	8
▁curious	8
▁fifteen	8
▁opposed	8
▁victims	8
▁payload	8
▁revenue	8
▁texture	8
▁awarded	8
▁summary	8
▁rapidly	8
▁outcome	8
andidate	8
Controls	8
▁neutral	8
▁Channel	8
NotFound	8
▁protein	8
▁fiction	8
▁whereas	8
▁radical	8
▁Private	8
▁intense	8
▁landing	8
▁airport	8
database	8
quarters	8
noindent	8
atherine	8
Interval	8
▁singing	8
optional	8
▁suspend	8
▁concert	8
▁scholar	8
▁possess	8
▁loading	8
provider	8
▁counsel	8
▁observe	8
argument	8
▁painted	8
▁Vietnam	8
▁violent	8
features	8
adelphia	8
▁council	8
▁shouted	8
▁figured	8
▁lessons	8
sylvania	8
▁Looking	8
▁amounts	8
▁Besides	8
▁evident	8
▁Supreme	8
▁monthly	8
▁nations	8
generate	8
▁theoret	8
idelines	8
▁statist	8
▁Anthony	8
Optional	8
▁worship	8
▁consent	8
▁scratch	8
endpoint	8
▁anybody	8
▁printed	8
▁deleted	8
▁fishing	8
▁Studies	8
▁Theatre	8
▁offices	8
▁soldier	8
▁seasons	8
▁cleared	8
▁ongoing	8
▁ceiling	8
enschapp	8
▁Kennedy	8
▁circuit	8
ographer	8
variable	8
interval	8
▁outdoor	8
selector	8
▁retired	8
duration	8
▁pending	8
abstract	8
▁rolling	8
▁joining	8
strument	8
▁tickets	8
▁handled	8
▁applies	8
specific	8
▁smiling	8
▁briefly	8
▁binding	8
▁logging	8
▁injured	8
▁roughly	8
ifferent	8
▁tension	8
▁satisfy	8
▁slipped	8
Dispatch	8
▁raising	8
contents	8
▁healing	8
▁Student	8
▁grounds	8
▁signals	8
▁finance	8
▁filling	8
activity	8
▁glasses	8
▁picking	8
▁Premier	8
Nullable	8
Strategy	8
▁insight	8
emplates	8
▁physics	8
▁preserv	8
▁runtime	8
▁Convert	8
▁emerged	8
dispatch	8
▁justify	8
comments	8
▁suicide	8
▁listing	8
▁hunting	8
▁premium	8
▁Details	8
gorithms	8
channels	8
FUNCTION	8
▁accused	8
Abstract	8
▁Nations	8
ensitive	8
▁closest	8
▁shortly	8
▁trusted	8
▁logical	8
▁compass	8
assembly	8
▁eastern	8
elements	8
▁upgrade	8
Messages	8
▁Success	8
Snapshot	8
▁shifted	8
▁damaged	8
▁Ukraine	8
MenuItem	8
▁Example	8
Resolver	8
sequence	8
currency	8
▁Natural	8
Contract	8
▁Airport	8
▁Officer	8
▁matched	8
▁existed	8
urations	8
▁genuine	8
constant	8
▁singles	8
▁theorem	8
▁buttons	8
▁metrics	8
straints	8
▁precise	8
Expected	8
▁shaking	8
▁engines	8
FileName	8
▁climbed	8
▁polynom	8
▁removal	8
▁wounded	8
▁Mexican	8
▁smoking	8
▁sisters	8
▁filters	8
▁farmers	8
▁Members	8
▁speaker	8
ibraries	8
▁Foreign	8
▁disturb	8
iversary	8
▁Systems	8
▁Arizona	8
Delegate	8
▁Russell	8
▁affairs	8
▁dancing	8
▁painful	8
aughters	8
▁conflic	8
download	8
▁theater	8
▁fantasy	8
requency	8
▁nearest	8
▁Results	8
▁deposit	8
▁bounded	8
cheduler	8
question	8
▁involve	8
▁DEFAULT	8
▁reserve	8
Contains	8
▁locally	8
▁weights	8
▁Referee	8
▁savings	8
▁hitting	8
▁Website	8
▁divorce	8
ologists	8
External	8
Compiler	8
▁kingdom	8
▁Culture	8
▁examine	8
▁threads	8
▁belongs	8
Standard	8
▁assured	8
▁retriev	8
▁fitness	8
encoding	8
▁centers	8
▁retreat	8
Contents	8
▁Between	8
▁railway	8
▁Seattle	8
Observer	8
▁circles	8
friendly	8
▁Germans	8
distance	8
precated	8
▁monster	8
▁horizon	8
▁cabinet	8
TestCase	8
▁Atlanta	8
▁founder	8
▁handful	8
▁actress	8
▁twisted	8
▁spatial	8
▁typedef	8
▁Islands	8
▁gravity	8
▁posting	8
▁Colonel	8
Customer	8
customer	8
▁signing	8
▁mounted	8
▁Ontario	8
▁Mission	8
▁compete	8
▁knocked	8
▁theatre	8
▁cameras	8
external	8
subseteq	8
▁blocked	8
▁relaxed	8
▁defines	8
▁screens	8
▁beating	8
▁Gabriel	8
▁shocked	8
▁Session	8
▁Working	8
▁acquire	8
▁Islamic	8
▁utility	8
tainment	8
▁optical	8
▁Virtual	8
▁perturb	8
Encoding	8
jections	8
▁hosting	8
▁Reading	8
redirect	8
footnote	8
▁momento	8
▁penalty	8
▁Israeli	8
etheless	8
▁Finland	8
▁useless	8
▁Austria	8
▁notable	8
DataType	8
▁Village	8
Modified	8
▁lowered	8
▁devoted	8
▁propose	8
▁shorter	8
▁secrets	8
▁angular	8
building	8
Validate	8
▁visitor	8
includes	8
▁expense	8
▁travers	8
▁harmony	8
transfer	8
▁editing	8
▁Limited	8
▁Options	8
▁barrier	8
▁Indiana	8
▁Publish	8
▁anxious	8
▁lawyers	8
previous	8
▁Detroit	8
▁Stanley	8
▁fortune	8
relative	8
▁threats	8
setminus	8
▁Release	8
▁adapter	8
▁genetic	8
compiler	8
▁Getting	8
▁scaling	8
▁Writing	8
▁failing	8
▁inhabit	8
▁offense	8
▁Individ	8
▁Initial	8
products	8
Geometry	8
▁fitting	8
▁Article	8
▁highway	8
▁bearing	8
Pipeline	8
▁dragged	8
▁heating	8
▁fixture	8
▁triumph	8
▁scoring	8
▁carrier	8
▁forming	8
▁bottles	8
▁Edition	8
identity	8
▁washing	8
▁recruit	8
▁vectors	8
Download	8
▁battles	8
▁forcing	8
▁feeding	8
▁volumes	8
▁critics	8
Original	8
▁elegant	8
standard	8
▁charity	8
▁Quality	8
▁placing	8
Graphics	8
▁citizen	8
▁nursing	8
Distance	8
Transfer	8
▁Emperor	8
Criteria	8
▁wealthy	8
priority	8
▁Defense	8
▁affects	8
▁skilled	8
▁prosper	8
interest	8
▁habitat	8
schedule	8
▁magical	8
▁spotted	8
▁streams	8
leveland	8
▁advised	8
▁islands	8
Priority	8
projects	8
ilibrium	8
▁venture	8
▁backing	8
▁recipes	8
▁reduces	8
▁focuses	8
▁leaning	8
▁Suppose	8
▁vaccine	8
Disabled	8
▁carries	8
▁thereby	8
▁induced	8
ViewById	8
▁Kitchen	8
relation	8
▁ratings	8
Executor	8
ibration	8
▁arguing	8
▁frowned	8
activate	8
▁trailer	8
▁counted	8
Calendar	8
▁delayed	8
PyObject	8
▁welfare	8
▁ranking	8
▁secured	8
▁pockets	8
▁beloved	8
▁slavery	8
▁podcast	8
▁Classic	8
▁empower	8
▁credits	8
▁outputs	8
AAAAAAAA	8
▁comprom	8
▁hurried	8
dropdown	8
▁females	8
listener	8
unlikely	8
▁Imagine	8
Analysis	8
▁readily	8
american	8
▁Nigeria	8
▁coupled	8
defaults	8
▁solving	8
▁Feature	8
contract	8
▁colours	8
▁lightly	8
▁electro	8
▁colored	8
checkbox	8
▁trivial	8
Features	8
▁Highway	8
▁Reserve	8
▁banking	8
Username	8
▁dispute	8
▁varying	8
▁outline	8
▁alleged	8
pipeline	8
FilePath	8
▁Friends	8
▁tightly	8
▁avoided	8
▁pricing	8
volution	8
▁adapted	8
▁flights	8
Rotation	8
registry	8
▁elderly	8
▁inherit	8
▁peoples	8
▁cooling	8
▁betting	8
▁viewing	8
▁exhibit	8
omorphic	8
resolved	8
▁Century	8
▁Swedish	8
▁Railway	8
▁graphic	8
commands	8
▁ranging	8
▁closure	8
iliation	8
▁defence	8
criptors	8
Drawable	8
▁Finance	8
Schedule	8
etection	8
▁vessels	8
Describe	8
▁lifting	8
▁winners	8
▁Popular	8
Behavior	8
▁borders	8
initions	8
▁Senator	8
▁Created	8
▁cleaned	8
▁Cameron	8
▁jumping	8
parallel	8
plicated	8
Consumer	8
▁halfway	8
attering	8
analysis	8
▁Phoenix	8
negative	8
ogeneous	8
▁keyword	8
▁Summary	8
ualmente	8
Generate	8
▁lecture	8
cheduled	8
▁longest	8
▁Related	8
▁Setting	8
▁booking	8
fections	8
▁arrange	8
▁tactics	8
▁Profile	8
▁Raymond	8
▁qualify	8
ificates	8
▁aligned	8
ervation	8
▁Turkish	8
▁evolved	8
▁Usually	8
▁stating	8
▁lighter	8
Debugger	8
▁Restaur	8
controls	8
▁queries	8
override	8
▁archive	8
▁fighter	8
▁Admiral	8
snapshot	8
▁veteran	8
commerce	8
▁forgive	8
▁legally	8
delegate	8
existing	8
▁Jessica	8
▁stadium	8
▁corrupt	8
▁registr	8
Accessor	8
▁strikes	8
▁blessed	8
polation	8
▁prolong	8
Overflow	8
▁Similar	8
▁passive	8
▁Factory	8
▁lasting	8
▁evangel	8
vertical	8
▁painter	8
▁Quarter	8
sections	8
▁Reviews	8
▁Perfect	8
▁Schools	8
▁sixteen	8
graduate	8
▁Studios	8
▁planted	8
iseconds	8
▁Partial	8
liminary	8
▁Hamburg	8
Vertical	8
▁voltage	8
▁casting	8
▁happily	8
▁desktop	8
Warnings	8
overflow	8
▁cracked	8
▁imposed	8
▁repairs	8
▁Episode	8
Filename	8
▁pursuit	8
▁Springs	8
▁Problem	8
▁descent	8
▁viewers	8
Requests	8
▁Singles	8
▁decides	8
National	8
Question	8
istrzost	8
▁auction	8
Entities	8
▁compris	8
▁Outside	8
modified	8
▁Belgium	8
▁stagger	8
▁sliding	8
▁Privacy	8
▁Diamond	8
▁preview	8
▁farming	8
▁gaining	8
▁Blockly	8
Modifier	8
▁resting	8
▁earning	8
▁Leonard	8
▁clarity	8
▁congreg	8
aaaaaaaa	8
▁crushed	8
▁coaches	8
▁eternal	8
Received	8
▁labeled	8
alloween	8
business	8
▁lengths	8
▁foolish	8
▁exclude	8
▁printer	8
▁damages	8
▁Subject	8
▁needing	8
▁renamed	8
▁compile	8
▁transit	8
Assembly	8
Redirect	8
▁reminds	8
▁seventh	8
▁asshole	8
ReadOnly	8
cosystem	8
training	8
minipage	8
▁fastest	8
▁flowing	8
benfalls	8
▁amateur	8
▁revenge	8
▁mineral	8
▁warrior	8
▁Morning	8
▁laundry	8
breaking	8
collapse	8
▁Primary	8
▁exagger	8
▁emperor	8
▁Meeting	8
itations	8
▁powered	8
absolute	8
▁cricket	8
▁torture	8
▁workout	8
▁watches	8
▁careers	8
boldmath	8
▁origins	8
minister	8
▁Thought	8
versions	8
▁blowing	8
changing	8
▁durable	8
▁selfish	8
▁accepts	8
▁dialect	8
▁Collect	8
▁harmful	8
▁scripts	8
▁ethical	8
▁impacts	8
capacity	8
▁opacity	8
▁invoked	8
▁pension	8
▁clicked	8
▁guessed	8
Relative	8
▁packets	8
▁Denmark	8
▁immense	8
▁Players	8
▁footage	8
Parallel	8
TextView	8
▁shining	8
Receiver	8
▁hostile	8
MetaData	8
▁seventy	8
entities	8
▁Stories	8
▁lacking	8
▁arrives	8
▁glimpse	8
▁caution	8
▁Updated	8
▁overlap	8
pectives	8
▁packing	8
Multiple	8
▁confess	8
▁patches	8
compress	8
independ	8
▁Chelsea	8
▁Beijing	8
▁Gregory	8
▁Changes	8
▁slammed	8
▁dignity	8
▁conting	8
▁artwork	8
▁cottage	8
hostname	8
ventions	8
idential	8
packages	8
▁stuffed	8
Keyboard	8
▁rushing	8
▁operand	8
Commands	8
▁assumes	8
▁greeted	8
▁comport	8
▁Against	8
rollment	8
▁upright	8
▁Hillary	8
▁smelled	8
▁suscept	8
▁Provinc	8
▁shipped	8
pathetic	8
▁digging	8
▁travels	8
▁Average	8
Creation	8
requests	8
geometry	8
▁anytime	8
Currency	8
multiple	8
▁Bennett	8
▁crashed	8
▁blinked	8
▁coastal	8
otherapy	8
although	8
▁customs	8
▁Brigade	8
▁Picture	8
▁denomin	8
▁notably	8
learning	8
Manifest	8
▁dispers	8
Capacity	8
lessness	8
▁custody	8
oriented	8
Absolute	8
▁denoted	8
▁Regular	8
▁expects	8
▁energet	8
calendar	8
regation	8
Previous	8
▁depress	8
▁praised	8
▁imports	8
▁Rangers	8
TabIndex	8
ationale	8
▁Partner	8
▁chopped	8
▁worries	8
▁brushed	8
▁vintage	8
▁tracing	8
▁onclick	8
▁teaches	8
▁Formula	8
personal	8
TypeInfo	8
▁ARISING	8
▁Running	8
pgfscope	8
▁buffers	8
▁kicking	8
▁anderem	8
▁lawsuit	8
[/INST]	7
▁public	7
▁people	7
▁should	7
▁static	7
▁result	7
ational	7
ception	7
▁differ	7
message	7
▁person	7
▁follow	7
▁around	7
▁number	7
▁really	7
▁system	7
▁includ	7
▁little	7
include	7
▁expect	7
▁second	7
▁String	7
▁partic	7
▁things	7
▁always	7
▁struct	7
lection	7
version	7
▁friend	7
ization	7
▁direct	7
▁better	7
▁object	7
▁proble	7
▁during	7
▁commun	7
▁called	7
▁family	7
▁effect	7
▁method	7
ocument	7
▁school	7
▁enough	7
▁though	7
olution	7
ference	7
▁System	7
mathcal	7
▁assert	7
Request	7
ailable	7
ination	7
▁report	7
▁change	7
Service	7
Element	7
▁within	7
▁looked	7
uration	7
▁record	7
ability	7
▁custom	7
▁having	7
▁moment	7
aterial	7
▁either	7
▁making	7
itional	7
▁reason	7
▁wanted	7
▁design	7
▁invest	7
Message	7
▁others	7
▁market	7
▁across	7
ulation	7
▁single	7
▁target	7
▁become	7
▁access	7
▁almost	7
anguage	7
default	7
▁turned	7
perties	7
▁trying	7
▁strong	7
▁United	7
▁action	7
section	7
agement	7
current	7
ibility	7
▁mother	7
Manager	7
ruction	7
request	7
▁father	7
▁rather	7
▁period	7
▁author	7
▁needed	7
▁became	7
▁employ	7
▁online	7
▁entire	7
▁common	7
▁season	7
▁taking	7
▁months	7
▁wonder	7
▁Europe	7
▁energy	7
▁ground	7
▁inside	7
▁status	7
▁future	7
▁compet	7
▁accept	7
▁pretty	7
▁search	7
▁couldn	7
summary	7
▁associ	7
▁attack	7
▁series	7
▁coming	7
ategory	7
options	7
▁States	7
▁option	7
▁amount	7
▁myself	7
▁points	7
▁cannot	7
▁length	7
▁double	7
▁seemed	7
▁August	7
▁comput	7
▁anyone	7
ptember	7
▁saying	7
Builder	7
▁living	7
ication	7
▁client	7
▁except	7
▁longer	7
inition	7
ilities	7
content	7
plement	7
▁compon	7
▁device	7
▁likely	7
▁events	7
Content	7
emplate	7
▁observ	7
ministr	7
private	7
▁office	7
▁update	7
Options	7
▁compan	7
▁wouldn	7
▁review	7
▁toward	7
Default	7
▁recogn	7
element	7
Handler	7
▁worked	7
▁immedi	7
ovember	7
▁played	7
▁School	7
▁effort	7
▁histor	7
▁Public	7
▁member	7
ributes	7
▁weight	7
▁higher	7
partial	7
▁answer	7
▁issues	7
▁player	7
▁stream	7
▁engine	7
▁offset	7
▁former	7
▁rights	7
artment	7
▁travel	7
▁execut	7
▁financ	7
▁passed	7
▁experi	7
▁applic	7
▁states	7
▁sizeof	7
▁Object	7
▁recomm	7
istance	7
▁please	7
▁failed	7
▁memory	7
▁nature	7
Command	7
▁police	7
aughter	7
▁choice	7
▁happen	7
igation	7
▁career	7
Version	7
▁France	7
▁satisf	7
▁announ	7
▁policy	7
▁screen	7
▁opened	7
▁switch	7
▁groups	7
▁French	7
▁throws	7
▁center	7
▁choose	7
Factory	7
▁models	7
▁origin	7
▁active	7
Address	7
▁closed	7
ography	7
▁County	7
▁fields	7
▁impact	7
issions	7
▁height	7
service	7
ensions	7
▁secret	7
itation	7
▁affect	7
process	7
▁giving	7
▁figure	7
▁streng	7
▁moving	7
▁prefer	7
actions	7
▁beyond	7
▁sudden	7
display	7
▁select	7
▁Street	7
▁recent	7
▁thread	7
Control	7
▁commit	7
criptor	7
control	7
▁threat	7
▁letter	7
▁filter	7
address	7
▁slight	7
▁summer	7
▁places	7
▁German	7
▁killed	7
session	7
▁nearly	7
▁symbol	7
▁walked	7
▁People	7
ampions	7
product	7
▁sister	7
▁charge	7
▁theory	7
▁offers	7
▁candid	7
▁Commun	7
▁pulled	7
▁agreed	7
▁useful	7
▁nation	7
▁compos	7
ervices	7
▁Please	7
▁street	7
epsilon	7
▁twenty	7
ifornia	7
▁commer	7
Process	7
▁danger	7
▁assist	7
▁strugg	7
▁reserv	7
▁Direct	7
▁growth	7
▁church	7
▁Center	7
▁Canada	7
▁larger	7
▁compar	7
Current	7
▁served	7
command	7
ignment	7
▁degree	7
▁levels	7
▁League	7
▁credit	7
▁images	7
▁During	7
project	7
▁caught	7
▁seeing	7
vention	7
▁button	7
▁skills	7
▁scient	7
▁driver	7
mission	7
atively	7
▁mechan	7
▁raised	7
▁remain	7
require	7
▁Church	7
▁highly	7
▁shared	7
gorithm	7
ponents	7
acement	7
▁helped	7
▁advant	7
▁delete	7
▁damage	7
Session	7
▁define	7
▁battle	7
support	7
▁safety	7
▁doctor	7
▁Result	7
▁script	7
▁filled	7
▁proced	7
▁murder	7
▁bright	7
▁placed	7
▁belong	7
▁forces	7
▁writer	7
replace	7
▁sexual	7
Invalid	7
▁Second	7
▁broken	7
▁listen	7
▁matrix	7
▁minute	7
▁forget	7
▁assume	7
caption	7
▁excell	7
▁slowly	7
connect	7
jection	7
▁asking	7
▁vector	7
▁forced	7
▁sounds	7
▁joined	7
▁nodded	7
Enabled	7
▁sample	7
▁artist	7
▁caused	7
Integer	7
channel	7
▁Report	7
▁mostly	7
▁finish	7
▁spring	7
example	7
▁advice	7
istrict	7
modules	7
Display	7
▁signal	7
▁volume	7
▁editor	7
▁camera	7
println	7
package	7
▁Social	7
▁mobile	7
▁expert	7
returns	7
▁bought	7
▁reduce	7
▁dating	7
▁Option	7
▁Africa	7
▁picked	7
Storage	7
▁female	7
Channel	7
▁pieces	7
▁anyway	7
▁corpor	7
Account	7
Product	7
▁dinner	7
▁closer	7
▁prepar	7
▁smooth	7
▁income	7
success	7
▁hidden	7
▁square	7
▁decide	7
▁domain	7
▁smiled	7
▁Custom	7
Windows	7
▁advert	7
▁batter	7
▁signed	7
▁supply	7
deleted	7
▁vision	7
▁motion	7
▁leaves	7
ificate	7
▁assess	7
▁Daniel	7
▁strict	7
account	7
Changed	7
▁thanks	7
▁afford	7
Project	7
▁Joseph	7
imation	7
ository	7
▁native	7
▁intent	7
▁detail	7
▁remind	7
▁budget	7
▁incred	7
▁Review	7
▁famous	7
ipeline	7
▁Russia	7
▁narrow	7
boolean	7
reshold	7
▁prices	7
pective	7
▁afraid	7
▁animal	7
▁forest	7
▁orders	7
Pointer	7
essions	7
▁Design	7
▁Office	7
▁eating	7
Network	7
▁sports	7
▁speech	7
iration	7
Adapter	7
angular	7
▁stupid	7
Profile	7
▁formed	7
stances	7
▁garden	7
▁secure	7
handler	7
▁Museum	7
ologies	7
▁centre	7
▁launch	7
▁conven	7
▁fellow	7
▁adding	7
▁academ	7
runtime	7
▁photos	7
▁island	7
▁scream	7
Timeout	7
▁Number	7
▁attend	7
▁Commit	7
▁pushed	7
webpack	7
▁orient	7
▁conver	7
▁terror	7
Generic	7
▁Boston	7
▁invent	7
▁reject	7
▁Spring	7
ression	7
▁listed	7
▁Author	7
▁modify	7
▁Figure	7
▁cities	7
profile	7
essages	7
▁stated	7
▁colors	7
manager	7
▁flight	7
comment	7
▁senior	7
▁Engine	7
▁forgot	7
▁bodies	7
▁talked	7
▁lights	7
▁thirty	7
Support	7
xpected	7
aration	7
▁blocks	7
network	7
▁estate	7
Details	7
▁faster	7
▁annual	7
disable	7
▁taught	7
▁Action	7
▁houses	7
appoint	7
related	7
▁studio	7
▁beauty	7
▁finger	7
▁buying	7
▁silver	7
timeout	7
▁Corpor	7
▁branch	7
imately	7
achment	7
resents	7
▁bridge	7
▁layout	7
headers	7
▁plants	7
Boolean	7
▁bigger	7
tenance	7
▁Jewish	7
▁paying	7
▁Soviet	7
variant	7
▁advent	7
oration	7
iveness	7
▁Little	7
ocation	7
▁symmet	7
▁Method	7
▁missed	7
▁fourth	7
▁acknow	7
istence	7
▁Though	7
Visible	7
▁losing	7
exports	7
DEFAULT	7
▁binary	7
▁stared	7
VERSION	7
builder	7
testing	7
▁barely	7
▁posted	7
▁behavi	7
▁Histor	7
▁Mexico	7
▁Series	7
Drawing	7
▁append	7
▁medium	7
▁papers	7
▁favour	7
▁nearby	7
install	7
▁dialog	7
▁stayed	7
feature	7
results	7
▁typeof	7
▁videos	7
▁Valley	7
▁waited	7
▁pocket	7
▁acting	7
▁movies	7
entials	7
▁Online	7
▁begins	7
liament	7
▁league	7
▁guitar	7
invalid	7
▁owners	7
▁Family	7
▁marked	7
▁troops	7
▁Common	7
Texture	7
▁merely	7
▁throat	7
Wrapper	7
▁stores	7
▁bottle	7
▁Awards	7
▁thinks	7
▁survey	7
▁Should	7
LICENSE	7
▁Status	7
▁stands	7
tabular	7
▁proved	7
irement	7
release	7
Success	7
Package	7
▁guests	7
execute	7
storage	7
▁hoping	7
▁sevent	7
▁brings	7
▁packet	7
ilation	7
changed	7
inating	7
▁injury	7
Section	7
▁Taylor	7
▁Centre	7
▁agency	7
destroy	7
▁cancel	7
▁basket	7
pgfpath	7
Pattern	7
▁struck	7
trigger	7
forward	7
▁preced	7
▁combat	7
▁locked	7
▁scroll	7
▁excess	7
▁mainly	7
▁flying	7
▁colour	7
▁butter	7
defined	7
ogether	7
▁Access	7
▁printf	7
adapter	7
▁retail	7
▁Invest	7
▁verify	7
Feature	7
▁tracks	7
▁Market	7
▁limits	7
▁Execut	7
riority	7
▁Having	7
▁nobody	7
▁repair	7
▁linked	7
▁powers	7
▁defend	7
▁assign	7
▁harder	7
▁issued	7
▁affili	7
chester	7
nership	7
▁rising	7
Headers	7
▁arrang	7
widehat	7
▁lifted	7
▁facing	7
▁occurs	7
straint	7
cluster	7
pressed	7
▁thrown	7
▁negoti	7
▁strike	7
windows	7
▁mirror	7
▁Victor	7
▁rolled	7
▁Arthur	7
▁liquid	7
▁driven	7
Results	7
riteria	7
▁dreams	7
ishment	7
comfort	7
ultural	7
▁upload	7
issance	7
Unknown	7
▁Police	7
uminate	7
▁victim	7
pattern	7
checked	7
ologist	7
▁exceed	7
Private	7
present	7
▁labels	7
counter	7
primary	7
resolve	7
NotNull	7
▁widely	7
▁fought	7
mediate	7
▁wooden	7
▁leaned	7
▁lawyer	7
▁arrive	7
▁poster	7
pending	7
initial	7
▁Rights	7
▁debate	7
▁permit	7
▁covers	7
▁ending	7
▁earned	7
▁assets	7
onymous	7
▁worker	7
allowed	7
▁county	7
ERCHANT	7
pointer	7
ruption	7
factory	7
▁sought	7
▁museum	7
theless	7
▁convin	7
▁Policy	7
▁layers	7
▁Friend	7
plicate	7
▁tested	7
▁shower	7
▁Change	7
▁Summer	7
convert	7
▁accord	7
▁Brazil	7
History	7
program	7
▁Select	7
classes	7
▁regime	7
▁Region	7
looking	7
▁recipe	7
▁desert	7
▁ticket	7
▁suspic	7
▁Client	7
▁diplom	7
▁deeper	7
visible	7
▁suffer	7
created	7
Servlet	7
browser	7
ulating	7
▁cheese	7
▁radius	7
payload	7
▁severe	7
▁appeal	7
▁Comput	7
▁kernel	7
▁Player	7
▁Battle	7
padding	7
objects	7
▁repeat	7
▁topics	7
▁tongue	7
▁surely	7
details	7
▁golden	7
▁neighb	7
mutable	7
▁writes	7
▁socket	7
▁Remove	7
▁submit	7
▁Winter	7
▁scored	7
▁rarely	7
▁Avenue	7
▁Jersey	7
▁ancest	7
▁gained	7
▁concer	7
ryption	7
Operand	7
▁notion	7
▁pounds	7
console	7
▁dining	7
ylvania	7
▁engage	7
▁borrow	7
▁guilty	7
▁buried	7
Initial	7
▁accomp	7
▁folder	7
▁gently	7
▁Energy	7
▁saving	7
integer	7
▁Nation	7
reation	7
▁fright	7
rolling	7
Program	7
▁campus	7
▁scenes	7
▁spoken	7
▁scores	7
▁nights	7
▁Sydney	7
▁canvas	7
▁Silver	7
▁burned	7
▁scared	7
▁orange	7
▁voices	7
▁aggreg	7
▁riding	7
▁athlet	7
▁bounds	7
pletion	7
▁cursor	7
▁paused	7
▁stroke	7
▁packed	7
wrapper	7
▁Golden	7
ificial	7
closure	7
Binding	7
plaatst	7
quality	7
ometric	7
▁temple	7
entries	7
▁Hitler	7
eclipse	7
Virtual	7
▁steady	7
▁resist	7
▁Howard	7
special	7
ynchron	7
▁argued	7
▁jumped	7
Univers	7
through	7
▁flower	7
viously	7
inction	7
▁horror	7
▁Bridge	7
setting	7
▁mining	7
Objects	7
foreach	7
▁passes	7
▁Member	7
Machine	7
columns	7
▁frozen	7
history	7
Setting	7
▁asleep	7
▁Double	7
▁Target	7
▁deploy	7
▁Delete	7
▁defeat	7
endance	7
▁singer	7
▁Square	7
▁unlike	7
General	7
▁stages	7
ascript	7
SESSION	7
▁kennis	7
imental	7
▁legisl	7
▁shield	7
▁unlock	7
article	7
Columns	7
▁rating	7
itempty	7
▁immigr	7
Helpers	7
▁waters	7
holders	7
utschen	7
▁wished	7
▁Script	7
▁bucket	7
▁jacket	7
▁manual	7
▁Things	7
achuset	7
▁refers	7
▁breaks	7
▁crying	7
▁sculpt	7
compare	7
▁router	7
aligned	7
▁Import	7
▁titles	7
Counter	7
Actions	7
▁Active	7
▁poison	7
warning	7
picture	7
▁glance	7
▁Garden	7
mapping	7
▁poetry	7
century	7
▁Stream	7
incipal	7
▁Gordon	7
▁Observ	7
▁colleg	7
written	7
Browser	7
▁ladies	7
▁rescue	7
▁Native	7
Loading	7
▁priest	7
unknown	7
collect	7
▁Single	7
▁Temple	7
Trigger	7
plugins	7
strings	7
prepare	7
Warning	7
▁drinks	7
theorem	7
library	7
develop	7
▁deaths	7
▁elabor	7
Failure	7
▁losses	7
▁loving	7
▁Living	7
Convert	7
▁undert	7
▁attach	7
▁clouds	7
REQUEST	7
▁routes	7
▁Mobile	7
▁inject	7
pection	7
itative	7
▁analog	7
▁racing	7
▁weekly	7
▁Doctor	7
WEBPACK	7
subject	7
contact	7
license	7
virtual	7
▁hiding	7
▁pixels	7
CLUDING	7
Connect	7
▁assass	7
Returns	7
▁intens	7
clusion	7
compute	7
Metrics	7
▁actors	7
loading	7
▁excuse	7
▁Senior	7
▁warned	7
▁retain	7
▁median	7
Promise	7
▁viewed	7
rollers	7
filters	7
itivity	7
▁Labour	7
▁Season	7
▁beings	7
country	7
ventory	7
ordered	7
▁voting	7
▁locale	7
▁versus	7
▁Castle	7
Because	7
attered	7
▁awards	7
▁hungry	7
Library	7
▁luxury	7
▁visits	7
▁Moscow	7
▁Studio	7
running	7
▁Posted	7
Release	7
changes	7
SUPPORT	7
▁satell	7
▁tunnel	7
▁Unlike	7
ICATION	7
▁Korean	7
▁duties	7
▁legacy	7
Segment	7
▁crimes	7
▁kicked	7
▁settle	7
▁backup	7
Destroy	7
initely	7
regular	7
▁masses	7
▁chairs	7
natural	7
Summary	7
▁slaves	7
▁cookie	7
▁multip	7
▁valley	7
▁oldest	7
Execute	7
▁refuse	7
▁Walker	7
▁backed	7
Primary	7
▁gaming	7
▁Kansas	7
▁therap	7
▁Poland	7
science	7
▁Travel	7
▁Compet	7
▁presum	7
▁resume	7
▁Austin	7
▁Junior	7
▁bloody	7
▁bacter	7
▁Turkey	7
▁counts	7
▁sorted	7
routing	7
▁Oliver	7
matches	7
company	7
Contact	7
▁Credit	7
▁promot	7
balance	7
▁Career	7
▁summar	7
reement	7
▁parsed	7
updated	7
Dynamic	7
▁declar	7
▁Future	7
general	7
Padding	7
▁Colomb	7
raction	7
▁perpet	7
▁killer	7
▁Johnny	7
chestra	7
▁vacuum	7
▁defect	7
▁ninete	7
▁regret	7
limited	7
▁ethnic	7
compile	7
Surface	7
▁dishes	7
▁Hunter	7
plicity	7
▁Agency	7
elihood	7
payment	7
▁timing	7
Created	7
▁carpet	7
▁pursue	7
▁cotton	7
cussion	7
▁rounds	7
dynamic	7
WARNING	7
logging	7
▁Format	7
▁metres	7
achelor	7
▁sheets	7
▁panels	7
▁meters	7
▁kissed	7
percent	7
liferay	7
▁hosted	7
Pending	7
▁Nether	7
ientras	7
▁Button	7
covered	7
▁convey	7
▁wishes	7
endment	7
sterdam	7
▁yields	7
▁Sebast	7
▁mixing	7
refresh	7
▁resort	7
▁themes	7
▁tissue	7
▁dragon	7
▁comedy	7
▁labour	7
▁Nature	7
writing	7
▁Warren	7
▁drives	7
▁Origin	7
generic	7
▁entert	7
Checked	7
▁salary	7
▁affair	7
▁speaks	7
▁Filter	7
claimed	7
Changes	7
▁Oregon	7
▁quoted	7
▁mutual	7
ictions	7
▁devast	7
▁Making	7
▁Really	7
▁rushed	7
▁invite	7
▁Safety	7
▁boards	7
uetooth	7
▁ranges	7
rection	7
segment	7
▁edited	7
assador	7
▁Either	7
▁tennis	7
▁squeez	7
machine	7
binding	7
Monitor	7
ounters	7
complex	7
Present	7
SETTING	7
Console	7
▁Sweden	7
▁recurs	7
▁Bishop	7
peonato	7
Percent	7
▁whites	7
▁boring	7
▁cheeks	7
▁Symbol	7
inherit	7
▁makeup	7
▁Weight	7
backend	7
▁mature	7
▁subset	7
▁eleven	7
mercial	7
▁rhythm	7
Payment	7
station	7
▁emails	7
▁wheels	7
unction	7
▁albums	7
▁namely	7
▁Rather	7
confirm	7
devices	7
helpers	7
▁sooner	7
▁ranked	7
fulness	7
▁cached	7
▁advers	7
claimer	7
emetery	7
▁bronze	7
▁firing	7
▁refund	7
▁recycl	7
▁Anyway	7
igenous	7
texture	7
sembled	7
▁fucked	7
Example	7
▁novels	7
▁overse	7
▁Polish	7
▁europe	7
Payload	7
HashMap	7
▁patron	7
parents	7
▁Wright	7
▁banned	7
▁Greece	7
▁rubber	7
because	7
urchase	7
Methods	7
▁thrust	7
Testing	7
Sprintf	7
▁folded	7
▁Scient	7
▁Taking	7
Nothing	7
▁Switch	7
members	7
▁Inside	7
arently	7
▁popula	7
▁quotes	7
Special	7
encoder	7
▁vocals	7
without	7
▁notify	7
ulative	7
Seconds	7
▁Holmes	7
working	7
▁helper	7
metrics	7
surface	7
▁Except	7
▁Anyone	7
FAILURE	7
servers	7
appings	7
▁ritual	7
▁vessel	7
spector	7
prevent	7
▁fitted	7
remarks	7
▁hockey	7
Refresh	7
▁Volume	7
▁worthy	7
Entries	7
▁Knight	7
▁washed	7
▁Justin	7
▁census	7
▁floors	7
▁lookup	7
dirname	7
▁hiring	7
Classes	7
▁traged	7
Replace	7
Variant	7
▁bubble	7
univers	7
ighters	7
Without	7
▁portal	7
▁Beyond	7
▁decode	7
▁titled	7
▁sphere	7
innings	7
▁dozens	7
▁divide	7
▁finest	7
▁fruits	7
olation	7
riculum	7
▁equals	7
Tracker	7
extract	7
shaller	7
▁sketch	7
methods	7
▁feared	7
Updated	7
suspend	7
▁Orange	7
▁buyers	7
preview	7
TIMEOUT	7
DISABLE	7
▁august	7
unately	7
▁Wonder	7
▁ruling	7
▁Compar	7
Forward	7
clusive	7
▁solved	7
▁sealed	7
▁reddit	7
▁Racing	7
servlet	7
leading	7
▁cooked	7
Compare	7
▁fusion	7
▁approx	7
▁runner	7
▁deport	7
▁caring	7
▁Around	7
uations	7
irlines	7
Confirm	7
Subject	7
▁Reddit	7
NonNull	7
western	7
▁angles	7
▁Bright	7
missing	7
monitor	7
keyword	7
Encoder	7
▁coding	7
▁Excell	7
MESSAGE	7
Preview	7
▁racism	7
▁baking	7
▁aboard	7
▁Ground	7
▁Taiwan	7
pmatrix	7
Gateway	7
▁essays	7
student	7
▁Puerto	7
▁Estate	7
▁Drupal	7
▁lyrics	7
▁statue	7
▁Watson	7
entieth	7
▁lately	7
Missing	7
Capture	7
▁broker	7
▁Linked	7
▁Serial	7
▁cement	7
▁Matrix	7
▁intend	7
illance	7
▁substr	7
▁merged	7
CONTROL	7
▁Heaven	7
omsnitt	7
▁equity	7
▁Length	7
Overlay	7
▁resign	7
▁yelled	7
▁alumin	7
▁cinema	7
▁locate	7
scriber	7
Require	7
▁marine	7
▁trucks	7
Members	7
borough	7
▁tossed	7
predict	7
▁senses	7
▁honour	7
Decoder	7
▁infant	7
▁Lauren	7
respons	7
▁Ukrain	7
▁cattle	7
▁styled	7
▁streak	7
▁cycles	7
▁judges	7
▁locals	7
itating	7
▁Twenty	7
Allowed	7
▁spokes	7
CHANNEL	7
Foreign	7
▁lasted	7
essment	7
▁graphs	7
▁thesis	7
seconds	7
toolbar	7
Uniform	7
umbling	7
outputs	7
▁Strong	7
▁parish	7
Station	7
▁Julian	7
▁shifts	7
FEATURE	7
▁consid	7
▁closet	7
cleanup	7
▁parked	7
▁Annual	7
▁edific	7
archive	7
▁guided	7
▁Stuart	7
forming	7
▁unders	7
parency	7
ENABLED	7
▁presid	7
▁nested	7
Running	7
fprintf	7
tooltip	7
▁Intent	7
scripts	7
▁Murphy	7
▁deadly	7
▁Alaska	7
failure	7
samples	7
abulary	7
▁suited	7
▁builds	7
▁Dennis	7
▁Schema	7
▁derive	7
winning	7
Toolbar	7
▁poorly	7
▁Hannah	7
Filters	7
▁Yellow	7
▁breeze	7
▁Harold	7
Balance	7
Keyword	7
▁deemed	7
▁hunger	7
Marshal	7
reverse	7
▁lambda	7
▁Driver	7
▁throne	7
inburgh	7
▁countr	7
▁Verify	7
correct	7
opacity	7
Strings	7
▁rivers	7
▁Period	7
Express	7
UNKNOWN	7
Company	7
▁flames	7
EqualTo	7
▁typing	7
▁seated	7
diction	7
express	7
▁wounds	7
Culture	7
Visitor	7
between	7
▁outfit	7
usement	7
▁virtue	7
reflect	7
builtin	7
▁fiscal	7
selling	7
catalog	7
Extract	7
compass	7
▁indoor	7
▁ladder	7
Partial	7
▁Images	7
ADDRESS	7
▁unused	7
▁openly	7
▁guides	7
▁deputy	7
▁funded	7
▁Rating	7
▁fights	7
DESCRIP	7
▁noting	7
Measure	7
olutely	7
▁Basket	7
▁valued	7
▁begann	7
▁incons	7
▁rubbed	7
▁unfair	7
▁reconc	7
▁preval	7
steller	7
Tooltip	7
▁conced	7
intendo	7
▁assure	7
▁shiver	7
▁slower	7
▁farmer	7
America	7
ynamics	7
▁needle	7
▁neural	7
▁spouse	7
▁societ	7
▁Vienna	7
▁affirm	7
▁commod	7
▁prints	7
literal	7
▁Maggie	7
▁dealer	7
Install	7
▁pillow	7
▁grades	7
▁advise	7
▁hatred	7
▁plural	7
▁Bernie	7
▁suffix	7
▁retire	7
▁emerge	7
▁Harvey	7
▁dashed	7
▁Leader	7
sources	7
lington	7
ocratic	7
threads	7
Managed	7
▁Legisl	7
Emitter	7
▁tribes	7
ardless	7
ulously	7
▁helmet	7
recated	7
▁tucked	7
▁expose	7
▁Hughes	7
▁strang	7
▁Hawaii	7
Include	7
DataSet	7
▁listop	7
▁carved	7
▁nicely	7
▁defens	7
Utility	7
▁Legend	7
▁wasted	7
▁conten	7
commons	7
▁nurses	7
▁recher	7
capture	7
▁brains	7
▁marble	7
Compute	7
▁insist	7
▁raises	7
density	7
heading	7
uniform	7
inceton	7
COMMAND	7
keeping	7
▁heated	7
▁cruise	7
iblical	7
weights	7
▁rested	7
▁freeze	7
▁Accept	7
▁convex	7
▁Angela	7
arettes	7
▁enters	7
▁logged	7
▁expend	7
▁Artist	7
▁Sounds	7
SERVICE	7
respond	7
Sources	7
idental	7
Records	7
overlay	7
▁Mechan	7
Effects	7
Buttons	7
CONTEXT	7
amiliar	7
Xamarin	7
▁disadv	7
encoded	7
▁Theory	7
Checker	7
naments	7
▁intact	7
▁fisher	7
▁Arabia	7
▁Dakota	7
buttons	7
respect	7
publish	7
▁Dialog	7
managed	7
▁slides	7
▁saddle	7
▁Define	7
▁treats	7
▁prejud	7
▁united	7
▁comply	7
▁pedest	7
▁speeds	7
CONNECT	7
ivalent	7
▁debris	7
▁renown	7
▁laying	7
icating	7
▁precip	7
▁Vision	7
sidebar	7
▁Nevada	7
▁drawer	7
scribed	7
▁sleeve	7
▁Deputy	7
▁Struct	7
▁Recent	7
ostream	7
▁Former	7
patient	7
▁Quebec	7
itories	7
▁Impact	7
▁Duncan	7
▁viable	7
TextBox	7
conduct	7
English	7
▁clutch	7
▁Flight	7
▁Ernest	7
Catalog	7
▁Census	7
raising	7
▁varies	7
However	7
Unicode	7
Collect	7
▁loudly	7
measure	7
▁Jackie	7
▁Butler	7
Country	7
Austral	7
▁colony	7
ascular	7
▁plasma	7
▁Writer	7
▁agrees	7
matched	7
trained	7
workers	7
records	7
Complex	7
▁trails	7
ativity	7
removed	7
▁summit	7
perform	7
▁fixing	7
berries	7
Modules	7
agation	7
powered	7
▁sucked	7
Matcher	7
▁Albums	7
Resolve	7
rowning	7
colored	7
▁ACTION	7
Student	7
Deleted	7
▁Rivers	7
▁filing	7
Routing	7
<0x0C>	6
<0x0E>	6
<0x2D>	6
<0x98>	6
<0xBA>	6
<0xCC>	6
▁their	6
▁would	6
▁about	6
▁which	6
ations	6
▁there	6
▁other	6
return	6
▁could	6
▁class	6
essage	6
▁first	6
▁under	6
▁every	6
▁after	6
lement	6
▁think	6
▁again	6
▁right	6
▁start	6
String	6
▁these	6
▁value	6
▁being	6
rivate	6
▁years	6
▁point	6
ctions	6
▁still	6
▁while	6
struct	6
▁There	6
source	6
▁those	6
▁going	6
▁using	6
▁found	6
string	6
ething	6
lation	6
▁exper	6
▁final	6
▁never	6
▁child	6
▁place	6
▁might	6
▁state	6
▁three	6
Object	6
ptions	6
▁break	6
▁small	6
▁order	6
action	6
aining	6
▁build	6
▁field	6
▁since	6
ession	6
ervice	6
ission	6
ically	6
▁event	6
▁thing	6
▁power	6
ribute	6
▁until	6
public	6
resent	6
▁light	6
▁later	6
itions	6
▁group	6
▁given	6
▁month	6
▁count	6
▁gover	6
▁night	6
▁water	6
▁house	6
length	6
ention	6
▁appro	6
▁throw	6
▁organ	6
▁level	6
▁super	6
Config	6
▁model	6
config	6
ential	6
▁asked	6
▁chang	6
▁along	6
▁conne	6
lected	6
search	6
▁doesn	6
▁offer	6
stance	6
▁times	6
▁sever	6
result	6
ponent	6
ograph	6
▁large	6
▁short	6
▁young	6
▁women	6
▁doing	6
▁ident	6
ending	6
ension	6
▁often	6
▁sound	6
▁known	6
▁print	6
Result	6
▁block	6
▁space	6
▁offic	6
▁front	6
signed	6
▁cover	6
ground	6
object	6
▁based	6
▁range	6
▁means	6
status	6
▁begin	6
▁close	6
uilder	6
▁makes	6
ternal	6
assert	6
mathbb	6
▁match	6
lished	6
▁quick	6
▁names	6
▁bring	6
▁woman	6
▁major	6
iction	6
▁watch	6
ording	6
▁white	6
selves	6
ischen	6
System	6
▁total	6
▁began	6
though	6
Status	6
▁today	6
idence	6
Client	6
▁death	6
▁elect	6
▁needs	6
▁taken	6
▁focus	6
▁style	6
▁visit	6
itting	6
lambda	6
atform	6
▁refer	6
▁invol	6
client	6
append	6
▁hours	6
▁write	6
▁among	6
▁treat	6
▁heard	6
define	6
▁music	6
▁comes	6
▁voice	6
▁quite	6
▁teach	6
roller	6
▁image	6
mathbf	6
▁leave	6
▁wrong	6
▁catch	6
▁enjoy	6
arning	6
elling	6
▁bound	6
▁beaut	6
▁limit	6
▁below	6
upport	6
respon	6
achine	6
▁round	6
target	6
pected	6
format	6
actory	6
portun	6
aption	6
offset	6
▁works	6
Action	6
▁video	6
update	6
▁paper	6
params	6
▁tried	6
▁compl	6
Button	6
curity	6
▁study	6
▁State	6
▁added	6
stream	6
▁lower	6
▁games	6
Window	6
Stream	6
device	6
▁famil	6
apping	6
rought	6
▁title	6
Method	6
mathrm	6
▁seems	6
▁fight	6
Create	6
▁April	6
▁third	6
▁While	6
output	6
verage	6
▁indic	6
▁media	6
change	6
▁speak	6
ensive	6
Column	6
▁March	6
ibrary	6
active	6
▁moved	6
▁store	6
▁price	6
▁Count	6
▁surpr	6
Buffer	6
▁contr	6
Source	6
Number	6
▁blood	6
ashing	6
buffer	6
▁arriv	6
▁force	6
▁sleep	6
▁issue	6
▁await	6
server	6
coming	6
▁takes	6
method	6
cember	6
▁maybe	6
Layout	6
▁floor	6
▁somet	6
undred	6
ecause	6
▁worth	6
▁David	6
▁built	6
▁https	6
script	6
▁avoid	6
Update	6
▁cases	6
▁types	6
button	6
▁Since	6
▁weeks	6
▁House	6
▁empty	6
figure	6
▁happy	6
▁lives	6
printf	6
Length	6
filter	6
remove	6
▁drink	6
▁looks	6
▁wrote	6
▁prior	6
option	6
▁stuff	6
▁album	6
▁lines	6
▁Japan	6
google	6
irtual	6
efined	6
inding	6
▁mount	6
▁Frank	6
Output	6
▁books	6
▁James	6
anning	6
number	6
height	6
▁trust	6
▁shown	6
module	6
▁entry	6
▁email	6
urance	6
▁assum	6
▁Class	6
▁speed	6
header	6
▁dream	6
▁drive	6
▁areas	6
apache	6
select	6
▁meant	6
▁neigh	6
Format	6
Entity	6
▁China	6
▁staff	6
atives	6
▁parts	6
▁plant	6
▁board	6
handle	6
Helper	6
Offset	6
Module	6
window	6
▁named	6
othing	6
stract	6
▁gives	6
▁spent	6
▁concl	6
▁graph	6
Filter	6
▁glass	6
▁occur	6
▁Other	6
▁truth	6
center	6
Target	6
Server	6
▁green	6
common	6
gorith	6
itable	6
▁maint	6
Params	6
Header	6
ounter	6
Option	6
totype	6
▁stage	6
▁eight	6
▁charg	6
▁users	6
ensity	6
▁court	6
inated	6
Change	6
▁piece	6
istics	6
global	6
▁India	6
column	6
▁apply	6
entity	6
ishing	6
static	6
acters	6
Equals	6
▁aware	6
▁legal	6
▁scale	6
▁wants	6
isions	6
values	6
▁White	6
ynamic	6
▁query	6
rowser	6
▁laugh	6
▁oppos	6
Height	6
▁Maybe	6
▁train	6
atalog	6
▁agree	6
▁enter	6
▁rules	6
▁quiet	6
▁fully	6
▁steps	6
▁birth	6
▁knows	6
▁movie	6
psilon	6
plicit	6
Handle	6
▁loved	6
▁miles	6
delete	6
▁multi	6
encies	6
thread	6
▁north	6
rapper	6
adding	6
Vector	6
Return	6
Access	6
anging	6
romise	6
▁paint	6
ifying	6
▁chair	6
▁trade	6
Thread	6
author	6
▁haven	6
chedul	6
▁civil	6
▁lived	6
ischer	6
▁south	6
▁sales	6
vector	6
▁fixed	6
double	6
▁scene	6
▁brain	6
▁Saint	6
▁River	6
▁plans	6
▁older	6
▁peace	6
ulated	6
▁basis	6
▁accur	6
▁Jesus	6
▁basic	6
▁radio	6
Device	6
▁equal	6
▁exerc	6
friend	6
▁evalu	6
second	6
system	6
render	6
Delete	6
agment	6
custom	6
idents	6
▁seven	6
▁Louis	6
should	6
iation	6
scious	6
Script	6
▁daily	6
▁brief	6
rangle	6
reedom	6
insert	6
icated	6
access	6
▁Court	6
▁thick	6
▁teams	6
▁cloud	6
▁occup	6
▁forms	6
▁tight	6
▁thank	6
Engine	6
Search	6
equals	6
weight	6
▁tools	6
Record	6
Dialog	6
▁novel	6
▁trees	6
▁route	6
ashion	6
ournal	6
levant	6
Render	6
sembly	6
ancing	6
▁owner	6
itness	6
Custom	6
annels	6
contin	6
lichen	6
switch	6
▁stone	6
▁helps	6
▁Carol	6
▁upper	6
▁truly	6
▁spoke	6
▁theme	6
textbf	6
▁sites	6
▁sorry	6
varphi	6
Parent	6
▁Error	6
▁score	6
fields	6
Schema	6
player	6
▁inner	6
▁gradu	6
Select	6
spring	6
▁labor	6
▁bytes	6
▁Mount	6
▁Stand	6
▁award	6
▁minor	6
layout	6
▁goals	6
Player	6
Widget	6
▁sight	6
Direct	6
Policy	6
▁Music	6
Execut	6
▁Devel	6
rolled	6
▁river	6
▁coach	6
▁Thank	6
Fields	6
ensure	6
ologie	6
▁medic	6
fortun	6
▁split	6
ICENSE	6
▁citiz	6
▁worry	6
ulture	6
▁shook	6
iously	6
▁units	6
▁adapt	6
Lambda	6
normal	6
▁views	6
Active	6
matrix	6
Reader	6
▁agent	6
▁yield	6
▁prime	6
unlock	6
ansion	6
region	6
widget	6
▁Child	6
▁ideal	6
STATUS	6
ucture	6
▁Award	6
▁Women	6
langle	6
holder	6
▁liked	6
▁exhib	6
▁Field	6
agnost	6
▁holds	6
ometry	6
▁feels	6
illing	6
Parser	6
▁panel	6
▁Times	6
points	6
▁Brown	6
▁truck	6
▁innov	6
▁rapid	6
▁photo	6
istent	6
▁Power	6
iments	6
Effect	6
▁depth	6
▁sides	6
▁noise	6
screen	6
driver	6
▁plane	6
▁delay	6
▁scope	6
▁alive	6
▁rough	6
▁noted	6
apshot	6
models	6
▁leads	6
▁saved	6
domain	6
prefix	6
Assert	6
▁Today	6
otimes	6
▁adopt	6
iverse	6
covery	6
▁broke	6
Editor	6
outing	6
ighter	6
▁plays	6
Global	6
▁Order	6
allery	6
▁brown	6
▁Block	6
▁topic	6
ceived	6
random	6
Serial	6
▁links	6
▁newsp	6
▁songs	6
▁chief	6
▁Board	6
▁recon	6
▁nodes	6
▁crazy	6
▁doors	6
ushing	6
▁crime	6
▁joint	6
▁Jones	6
▁waste	6
direct	6
▁mixed	6
typeof	6
▁coast	6
▁steel	6
▁Young	6
ferred	6
subset	6
▁setup	6
Failed	6
▁Light	6
Writer	6
master	6
▁Local	6
▁Right	6
orship	6
▁Which	6
▁Using	6
shared	6
▁cheap	6
▁inher	6
▁magic	6
▁rooms	6
person	6
errors	6
▁Again	6
record	6
hidden	6
▁dance	6
▁tasks	6
unched	6
Memory	6
vision	6
▁Image	6
CONFIG	6
effect	6
strong	6
▁forth	6
amples	6
Scroll	6
imento	6
▁clock	6
▁films	6
▁debut	6
sizeof	6
iteral	6
member	6
▁sugar	6
Symbol	6
Logger	6
▁posts	6
Remove	6
ressed	6
aching	6
▁funny	6
▁veget	6
▁grown	6
inator	6
nament	6
▁cycle	6
▁wound	6
throws	6
▁signs	6
ection	6
isting	6
report	6
▁alleg	6
textit	6
▁debug	6
▁faces	6
ipping	6
▁dynam	6
inates	6
uation	6
astern	6
▁stuck	6
ASSERT	6
likely	6
Double	6
inline	6
▁tired	6
mitted	6
▁wheel	6
▁squad	6
reated	6
scroll	6
images	6
▁tough	6
▁skill	6
▁Night	6
icture	6
▁essay	6
Second	6
indent	6
ciples	6
plugin	6
▁angle	6
▁funds	6
▁drawn	6
Plugin	6
▁stead	6
▁draft	6
bottom	6
▁reput	6
ursday	6
▁audio	6
▁heads	6
terday	6
orders	6
arters	6
Report	6
▁owned	6
STRING	6
expect	6
▁Egypt	6
▁angry	6
Member	6
▁ratio	6
▁cream	6
dialog	6
angers	6
▁lying	6
▁pitch	6
inking	6
exists	6
▁fruit	6
▁Major	6
uesday	6
editor	6
encing	6
SELECT	6
▁kinds	6
Matrix	6
▁judge	6
▁drugs	6
Struct	6
qpoint	6
MODULE	6
▁Italy	6
events	6
▁plain	6
▁cheek	6
vement	6
▁actor	6
policy	6
▁alert	6
▁smell	6
styles	6
ulator	6
▁yards	6
istant	6
DITION	6
▁admin	6
omorph	6
▁depos	6
Events	6
▁anger	6
endent	6
▁embed	6
Before	6
logger	6
agraph	6
▁goods	6
▁ships	6
▁Would	6
Author	6
Prefix	6
memory	6
engine	6
orough	6
▁subst	6
▁batch	6
▁logic	6
Loader	6
clipse	6
parser	6
▁mayor	6
▁keeps	6
Compar	6
sample	6
▁hyper	6
Region	6
▁Short	6
symbol	6
izable	6
called	6
depend	6
enties	6
▁therm	6
ometer	6
iginal	6
▁admit	6
writer	6
▁moves	6
scribe	6
▁Later	6
kernel	6
▁burst	6
▁fetch	6
Screen	6
▁Greek	6
elijke	6
▁usage	6
▁Chief	6
▁patch	6
▁march	6
▁advoc	6
▁agric	6
▁threw	6
▁Watch	6
helper	6
border	6
Import	6
▁lucky	6
ifiers	6
▁bench	6
course	6
▁Radio	6
▁solve	6
ENABLE	6
Please	6
encode	6
Common	6
before	6
▁grade	6
▁enorm	6
▁sheet	6
inners	6
▁fired	6
Vertex	6
finite	6
▁urban	6
lessly	6
▁deriv	6
DEVICE	6
▁Games	6
▁Index	6
Single	6
ilarly	6
usions	6
earing	6
▁Guard	6
▁finds	6
Bundle	6
groups	6
▁roles	6
▁spons	6
Errorf	6
▁abuse	6
family	6
Socket	6
Native	6
▁faced	6
▁Spain	6
kwargs	6
lineto	6
cursor	6
ountry	6
▁Jacob	6
▁Given	6
▁Sarah	6
▁forty	6
upload	6
▁likes	6
accept	6
▁innoc	6
export	6
▁mouse	6
▁votes	6
▁birds	6
▁divor	6
umbled	6
▁Medic	6
▁Small	6
loader	6
closed	6
usters	6
▁outer	6
▁ridic	6
assign	6
ussian	6
ionale	6
▁resid	6
formed	6
lights	6
amount	6
iences	6
▁paths	6
Volume	6
▁loose	6
▁Being	6
▁disag	6
▁veter	6
▁solar	6
▁taxes	6
Append	6
▁dying	6
ifting	6
▁Lewis	6
▁folks	6
ipedia	6
Enable	6
AspNet	6
▁piano	6
▁Store	6
Static	6
Simple	6
ateful	6
▁conce	6
Amount	6
▁Print	6
▁sizes	6
▁waves	6
Normal	6
▁Prime	6
▁oppon	6
▁rural	6
hspace	6
father	6
tensor	6
▁pilot	6
▁Album	6
▁asset	6
▁loves	6
▁dirty	6
▁Indep	6
▁abort	6
itated	6
igible	6
▁Books	6
▁Korea	6
apture	6
▁Lemma	6
failed	6
▁Staff	6
Packet	6
toggle	6
▁Title	6
havior	6
▁dozen	6
▁Davis	6
▁quote	6
▁ought	6
▁Story	6
arance	6
mother	6
▁lists	6
hentic	6
decode	6
▁overs	6
▁drama	6
submit	6
▁Cloud	6
Insert	6
orient	6
unning	6
athers	6
▁seats	6
▁slave	6
engers	6
▁Track	6
▁typed	6
▁Among	6
▁Could	6
▁merge	6
metric	6
ieties	6
verter	6
▁Dream	6
packet	6
Cursor	6
▁foods	6
▁swing	6
extend	6
single	6
commit	6
Public	6
EXPECT	6
▁Labor	6
▁energ	6
▁Allen	6
itched	6
socket	6
reddit	6
adelph	6
pleted	6
▁stats	6
ounced	6
▁grave	6
▁recip	6
▁fails	6
native	6
▁advis	6
▁compr	6
rowned	6
limits	6
assets	6
FTWARE	6
▁clubs	6
atomic	6
▁crash	6
▁gauge	6
▁shots	6
health	6
Detail	6
Folder	6
▁scrap	6
▁breed	6
approx	6
Driver	6
termin	6
▁armed	6
werken	6
reader	6
origin	6
margin	6
remote	6
▁Third	6
▁risks	6
▁deals	6
▁screw	6
intern	6
unwrap	6
making	6
Random	6
▁Dutch	6
▁tries	6
atting	6
Person	6
rivial	6
▁Sound	6
▁delta	6
▁Wales	6
stroke	6
ignore	6
verify	6
cancel	6
▁minds	6
Enumer	6
enders	6
overty	6
Border	6
FORMAT	6
▁polar	6
Groups	6
blocks	6
lisher	6
Export	6
period	6
charge	6
reason	6
sensor	6
▁virus	6
uction	6
Should	6
▁secre	6
amazon	6
▁Round	6
retval	6
▁talks	6
IMPORT	6
▁Break	6
router	6
▁Match	6
▁downt	6
RESULT	6
▁fluid	6
▁Begin	6
Cancel	6
▁hydro	6
ceiver	6
▁Diego	6
▁steam	6
▁defin	6
▁awful	6
assemb	6
xspace	6
volume	6
bridge	6
▁Think	6
notify	6
▁Label	6
Origin	6
Remote	6
▁Creek	6
Bottom	6
▁Chair	6
▁loans	6
onical	6
▁exped	6
▁memor	6
▁Route	6
market	6
▁wings	6
Points	6
pisode	6
Shared	6
Binary	6
Tensor	6
▁opens	6
Sample	6
simple	6
▁inhab	6
▁stake	6
Bounds	6
Exists	6
▁hired	6
letter	6
itches	6
others	6
execut	6
▁Steel	6
▁Angel	6
Upload	6
▁tower	6
▁pound	6
vspace	6
▁naked	6
Center	6
rizona	6
▁elder	6
▁gifts	6
commun	6
▁regul	6
attice	6
detail	6
design	6
Master	6
utsche	6
▁fewer	6
resize	6
▁slice	6
▁shops	6
bourne	6
ployee	6
ologia	6
asting	6
Consum	6
▁hated	6
Ignore	6
▁prost	6
Weight	6
▁reads	6
▁medal	6
Switch	6
▁tempt	6
▁reson	6
METHOD	6
icking	6
BUFFER	6
▁meals	6
orious	6
ustral	6
▁slide	6
Camera	6
signal	6
▁Photo	6
Holder	6
OFFSET	6
▁rival	6
▁Query	6
▁marry	6
▁faint	6
ailing	6
▁Moore	6
rypted	6
lookup	6
imeter	6
▁Visit	6
filled	6
▁Beaut	6
attach	6
▁filed	6
secret	6
▁woods	6
RETURN	6
concat	6
▁capit	6
▁Drive	6
agonal	6
Router	6
culate	6
Google	6
uggest	6
▁Emily	6
▁Audio	6
Errors	6
▁sorts	6
riving	6
labels	6
▁alien	6
▁revel	6
consum	6
▁shake	6
▁Blood	6
Future	6
▁Based	6
Family	6
velope	6
porter	6
▁climb	6
ublice	6
▁fence	6
SYMBOL	6
▁flood	6
stderr	6
akespe	6
acious	6
LENGTH	6
▁nurse	6
strict	6
▁uncle	6
series	6
minute	6
▁Chile	6
▁voted	6
SOURCE	6
▁divid	6
ientes	6
rupted	6
urable	6
inputs	6
rifice	6
▁wider	6
▁seeds	6
▁towns	6
stable	6
Accept	6
ACTION	6
usalem	6
▁wrest	6
states	6
vendor	6
Locale	6
Styles	6
dagger	6
Shader	6
Secret	6
python	6
▁kinda	6
▁fleet	6
Listen	6
Depend	6
▁gross	6
isible	6
▁schol	6
ACTIVE	6
▁fraud	6
igator	6
strcmp	6
rition	6
▁prize	6
OBJECT	6
▁dtype	6
▁Andre	6
▁manus	6
▁inaug	6
season	6
▁tooth	6
skiego	6
radius	6
▁pixel	6
elfare	6
▁Plant	6
▁morph	6
urches	6
consin	6
▁drift	6
icular	6
textrm	6
bullet	6
ensing	6
Worker	6
OPTION	6
worker	6
licher	6
boards	6
▁slept	6
attery	6
SERVER	6
▁conve	6
▁Multi	6
▁juice	6
factor	6
ctrine	6
Donald	6
pliers	6
▁diffé	6
arette	6
Scalar	6
▁Liver	6
binary	6
Runner	6
▁Study	6
Health	6
ockets	6
Design	6
▁Robin	6
▁meets	6
▁Helen	6
undial	6
▁Score	6
Intern	6
▁orbit	6
printk	6
▁Range	6
abling	6
▁arrow	6
atable	6
folder	6
verted	6
▁Danny	6
keeper	6
footer	6
▁realm	6
Period	6
onders	6
UPDATE	6
forced	6
energy	6
idding	6
aneous	6
▁opera	6
Intent	6
ningen	6
▁trips	6
▁Nancy	6
ceptor	6
▁drain	6
▁rings	6
utdown	6
mobile	6
▁Month	6
Inline	6
cookie	6
▁Happy	6
finity	6
pgfset	6
▁guilt	6
marker	6
branch	6
school	6
▁Kings	6
dating	6
texttt	6
locale	6
vertex	6
▁steep	6
UserId	6
acular	6
Radius	6
Europe	6
frames	6
▁Costa	6
▁dense	6
django	6
▁texts	6
▁fluct	6
erness	6
portal	6
FAILED	6
▁rifle	6
illery	6
▁pills	6
shadow	6
issues	6
Lookup	6
Syntax	6
▁sheep	6
▁Speed	6
bucket	6
▁fancy	6
except	6
▁hosts	6
canvas	6
associ	6
▁boats	6
▁bored	6
▁appar	6
hedral	6
▁Prize	6
camera	6
picker	6
prises	6
Reason	6
irable	6
Submit	6
▁Magic	6
Marker	6
▁Czech	6
ientos	6
▁Tokyo	6
KERNEL	6
▁Tower	6
▁zones	6
▁weigh	6
arding	6
▁bitch	6
▁isset	6
▁ruled	6
unting	6
asures	6
online	6
Factor	6
▁Along	6
▁Karen	6
listen	6
ENOMEM	6
▁elite	6
▁dried	6
▁wrist	6
multip	6
▁freak	6
▁neuro	6
▁Musik	6
bidden	6
▁grows	6
▁acted	6
apolis	6
locked	6
hattan	6
alling	6
Toggle	6
prison	6
Canvas	6
arroll	6
▁waved	6
Commit	6
▁Mayor	6
secure	6
former	6
▁pizza	6
Series	6
▁sixty	6
▁trunk	6
▁attrs	6
▁Below	6
pragma	6
▁Prior	6
Verify	6
▁sixth	6
▁awake	6
around	6
iances	6
▁venue	6
teenth	6
unused	6
▁whist	6
▁Judge	6
▁pulse	6
expand	6
chrome	6
CREATE	6
▁chaos	6
ateral	6
angled	6
▁Medal	6
iggers	6
ollary	6
jquery	6
ailand	6
intage	6
ainted	6
transl	6
▁skull	6
Bucket	6
Labels	6
colors	6
▁Craig	6
▁magaz	6
Comput	6
derive	6
Shadow	6
PREFIX	6
▁embod	6
reduce	6
preter	6
▁retry	6
▁repet	6
Metric	6
▁Lower	6
shaped	6
Associ	6
▁reign	6
Visual	6
acking	6
▁fires	6
square	6
Signal	6
Aggreg	6
invoke	6
▁swung	6
▁eaten	6
people	6
▁gains	6
GLOBAL	6
angles	6
▁thigh	6
▁dealt	6
Invoke	6
▁cared	6
▁Annie	6
Anchor	6
People	6
▁laund	6
ategor	6
▁dedic	6
Branch	6
ermine	6
▁Impro	6
▁dated	6
ighbor	6
imedia	6
comput	6
herent	6
▁alike	6
▁peers	6
sender	6
Margin	6
▁chips	6
tables	6
makers	6
▁europ	6
▁fever	6
Linear	6
bounds	6
runner	6
DELETE	6
Inject	6
cached	6
always	6
▁appet	6
arness	6
▁miser	6
▁artic	6
Cannot	6
▁punct	6
Wallet	6
▁sched	6
leased	6
▁brave	6
observ	6
▁wreck	6
▁attra	6
▁unset	6
antage	6
▁inhib	6
▁stays	6
enburg	6
▁poems	6
avirus	6
Friend	6
outine	6
finish	6
irteen	6
Cookie	6
▁Stage	6
▁Hello	6
textsc	6
remark	6
future	6
Notify	6
Contin	6
Called	6
▁stamp	6
social	6
▁Julie	6
STREAM	6
▁crown	6
review	6
Tables	6
rename	6
▁Ellen	6
Encode	6
arator	6
▁Enjoy	6
ecycle	6
▁cited	6
Thanks	6
slider	6
▁drank	6
posing	6
layers	6
▁trump	6
▁modal	6
▁wides	6
imated	6
▁Glass	6
Observ	6
xtures	6
▁withd	6
elcome	6
Mobile	6
atrice	6
▁spawn	6
▁Baron	6
▁devil	6
CLIENT	6
Scheme	6
▁Coord	6
TARGET	6
cticut	6
graded	6
▁angel	6
illion	6
▁Terms	6
berger	6
AMETER	6
ousing	6
ijuana	6
Picker	6
wealth	6
▁sheer	6
substr	6
▁Fifth	6
Blocks	6
▁Bened	6
▁Floor	6
▁Votes	6
▁swear	6
Adjust	6
▁cyber	6
▁Bloom	6
isches	6
smithy	6
▁Forum	6
listed	6
▁miner	6
▁derni	6
▁flame	6
▁Maine	6
▁frank	6
▁lemon	6
ainers	6
▁circa	6
crypto	6
inters	6
stride	6
wallet	6
sburgh	6
HEADER	6
▁unity	6
▁penis	6
Arrays	6
▁lease	6
Decode	6
upiter	6
alties	6
NUMBER	6
▁epoch	6
▁witch	6
choice	6
▁Infan	6
▁spher	6
Opcode	6
icates	6
OUTPUT	6
▁damit	6
follow	6
▁backs	6
▁lingu	6
gender	6
▁Sleep	6
ulsion	6
▁surge	6
▁Haven	6
Unable	6
answer	6
antine	6
gather	6
FILTER	6
▁genus	6
▁Perry	6
▁Crown	6
resume	6
▁Nixon	6
▁Eight	6
compar	6
▁atoms	6
ionato	6
▁sanct	6
Spring	6
Loaded	6
▁olive	6
▁Focus	6
▁rally	6
▁april	6
▁Singh	6
▁dough	6
▁relay	6
▁urged	6
▁mobil	6
ifacts	6
▁Often	6
anners	6
owners	6
vscale	6
Battle	6
▁Rules	6
VENDOR	6
▁skirt	6
▁Bring	6
▁liver	6
inging	6
Tokens	6
▁Coach	6
▁buyer	6
▁wives	6
▁tiles	6
decess	6
asters	6
ilians	6
Kernel	6
▁blown	6
▁deven	6
STRUCT	6
bundle	6
▁Blues	6
▁stalk	6
stdout	6
medium	6
States	6
▁Faith	6
▁rated	6
olding	6
minded	6
Finder	6
Sender	6
▁Fight	6
ambers	6
▁greed	6
amarin	6
▁Types	6
▁kills	6
parsed	6
IsNull	6
ricane	6
▁deren	6
▁Metro	6
▁neutr	6
opcode	6
castle	6
▁tribe	6
Images	6
▁rigid	6
worthy	6
▁poker	6
▁locks	6
indust	6
ortion	6
igious	6
inject	6
▁scrub	6
ercise	6
Hidden	6
elines	6
itably	6
▁pulls	6
▁Leave	6
irical	6
pshire	6
▁Isaac	6
thrift	6
prints	6
netdev	6
▁draws	6
Orient	6
▁Built	6
ibling	6
THREAD	6
ickets	6
▁Going	6
Figure	6
▁congr	6
middle	6
▁drums	6
▁anime	6
▁inclu	6
abases	6
headed	6
▁Users	6
▁Jenny	6
▁ambig	6
ancers	6
▁Voice	6
▁safer	6
BUTTON	6
▁mercy	6
Review	6
▁rolls	6
▁publi	6
atched	6
▁appel	6
DOUBLE	6
▁anten	6
▁tires	6
▁Hindu	6
▁mines	6
repeat	6
▁Ernst	6
routes	6
olence	6
ichael	6
▁nasty	6
urious	6
Millis	6
SINGLE	6
achers	6
rotate	6
Unlock	6
strlen	6
▁decid	6
Sensor	6
▁cough	6
▁Tools	6
Getter	6
orable	6
phabet	6
▁toast	6
arians	6
▁relev	6
econom	6
reject	6
govern	6
incing	6
Printf	6
moment	6
▁nails	6
ENTIAL	6
INSERT	6
reload	6
▁apost	6
▁Jesse	6
irling	6
compet	6
packed	6
UNUSED	6
▁thats	6
grades	6
chestr	6
▁vault	6
▁booth	6
ulates	6
▁hooks	6
ambigu	6
iative	6
Slider	6
CHANGE	6
handed	6
umbing	6
degree	6
cedure	6
▁Sally	6
▁Train	6
▁Avoid	6
▁brass	6
shader	6
cester	6
entric	6
backup	6
▁overl	6
▁sniff	6
scalar	6
▁theft	6
appers	6
▁towel	6
insula	6
mathop	6
▁aging	6
▁farms	6
▁sweep	6
REGION	6
▁seeks	6
ustain	6
gomery	6
imiter	6
Clause	6
▁Sugar	6
▁scrut	6
▁saint	6
peated	6
driven	6
▁efect	6
ampton	6
issent	6
▁hilar	6
▁Files	6
▁rugby	6
Backup	6
▁Covid	6
linked	6
NORMAL	6
ATTRIB	6
Launch	6
wright	6
▁Steam	6
manuel	6
cluded	6
phrase	6
oustic	6
ittest	6
elseif	6
▁usize	6
▁Solar	6
▁Looks	6
Resize	6
ablish	6
▁Issue	6
izarre	6
orneys	6
▁compt	6
SYSTEM	6
▁blogs	6
▁Mouse	6
▁Aleks	6
▁Quinn	6
iliary	6
▁Panel	6
Linked	6
▁socks	6
recogn	6
Follow	6
ascade	6
hadoop	6
nested	6
▁Films	6
ployed	6
atinum	6
solete	6
ennial	6
ituted	6
riages	6
▁sadly	6
▁dabei	6
▁Admin	6
Fatalf	6
issant	6
▁Might	6
▁tense	6
▁Kenya	6
▁Advis	6
▁loops	6
ancies	6
▁saves	6
dentry	6
▁Exhib	6
Locked	6
▁Luxem	6
intent	6
achten	6
ensors	6
rating	6
altern	6
unches	6
▁Woods	6
▁Songs	6
▁peaks	6
Inputs	6
useppe	6
ation	5
▁that	5
▁with	5
ction	5
▁this	5
▁from	5
▁have	5
▁they	5
▁will	5
▁comp	5
ublic	5
▁were	5
▁more	5
ition	5
▁them	5
▁like	5
▁some	5
▁part	5
▁been	5
▁over	5
▁stat	5
ption	5
▁work	5
▁said	5
▁just	5
▁into	5
▁than	5
▁also	5
tring	5
▁This	5
▁back	5
▁only	5
▁know	5
▁year	5
round	5
▁comm	5
ystem	5
▁look	5
▁need	5
▁want	5
rough	5
▁self	5
▁even	5
umber	5
▁make	5
other	5
▁down	5
ating	5
▁most	5
▁cons	5
ident	5
▁name	5
param	5
▁play	5
▁well	5
▁much	5
ative	5
▁type	5
▁very	5
ities	5
▁case	5
ather	5
ility	5
▁does	5
▁here	5
right	5
▁User	5
ollow	5
▁such	5
▁serv	5
▁made	5
▁list	5
trans	5
▁many	5
aking	5
▁find	5
ethod	5
▁They	5
▁used	5
ember	5
▁help	5
ought	5
ually	5
▁head	5
ength	5
▁same	5
▁real	5
begin	5
uring	5
▁take	5
ponse	5
▁life	5
arent	5
value	5
thing	5
▁pass	5
ional	5
▁high	5
▁best	5
ittle	5
iness	5
ished	5
indow	5
riend	5
ccess	5
ision	5
arget	5
▁happ	5
▁didn	5
label	5
▁both	5
▁open	5
▁must	5
ivers	5
▁feel	5
▁home	5
perty	5
ustom	5
ience	5
inter	5
aving	5
▁care	5
ample	5
▁size	5
▁next	5
▁post	5
▁word	5
Error	5
▁seem	5
▁mark	5
▁file	5
igned	5
▁lead	5
ained	5
▁away	5
▁oper	5
ified	5
velop	5
▁week	5
▁keep	5
▁term	5
▁sure	5
class	5
▁coun	5
▁tell	5
▁team	5
lease	5
▁sing	5
ither	5
error	5
ouble	5
ready	5
const	5
▁talk	5
▁came	5
aster	5
ately	5
▁room	5
▁hist	5
state	5
State	5
print	5
index	5
ality	5
▁took	5
▁went	5
▁mean	5
▁side	5
▁appe	5
tract	5
▁less	5
▁give	5
▁kind	5
count	5
▁stop	5
vious	5
ering	5
Param	5
ology	5
array	5
▁full	5
▁user	5
▁main	5
Event	5
thers	5
▁done	5
▁view	5
▁John	5
field	5
▁told	5
▁text	5
ently	5
ively	5
▁ever	5
order	5
point	5
▁writ	5
▁desc	5
Field	5
aring	5
alpha	5
▁four	5
▁move	5
▁once	5
▁grow	5
ender	5
▁prob	5
▁able	5
Index	5
ailed	5
valid	5
ories	5
▁cost	5
acter	5
iving	5
atter	5
itive	5
Class	5
olean	5
iment	5
cript	5
ended	5
start	5
input	5
▁supp	5
ainer	5
tings	5
ables	5
ambda	5
ivity	5
▁seen	5
table	5
ormal	5
width	5
▁plan	5
▁says	5
ayout	5
illed	5
▁meet	5
wards	5
ached	5
▁code	5
▁area	5
ymbol	5
Array	5
▁wasn	5
▁York	5
ports	5
reate	5
gress	5
abled	5
annel	5
▁felt	5
ients	5
▁half	5
▁diff	5
conom	5
break	5
event	5
▁page	5
check	5
apter	5
▁Some	5
place	5
▁Part	5
▁live	5
where	5
▁answ	5
▁film	5
ename	5
ising	5
angle	5
urope	5
▁city	5
plied	5
▁comb	5
▁Comm	5
▁idea	5
Model	5
write	5
▁cult	5
group	5
▁near	5
fully	5
Count	5
▁stay	5
▁copy	5
Group	5
eturn	5
Input	5
ators	5
▁sort	5
Trans	5
itten	5
ights	5
▁miss	5
▁node	5
▁dark	5
▁larg	5
▁deal	5
▁List	5
Table	5
inary	5
ening	5
▁Brit	5
iding	5
asure	5
▁Germ	5
iddle	5
Query	5
▁Aust	5
▁pull	5
itted	5
imate	5
andom	5
istic	5
▁foot	5
▁held	5
▁fire	5
▁sugg	5
Inter	5
block	5
▁pain	5
▁five	5
▁fund	5
arrow	5
orage	5
▁clos	5
query	5
▁gave	5
▁soon	5
▁easy	5
frame	5
▁host	5
color	5
Color	5
▁suff	5
roups	5
board	5
▁deep	5
model	5
▁http	5
ifier	5
endif	5
▁cell	5
Gener	5
space	5
usion	5
earch	5
sigma	5
▁task	5
light	5
cover	5
▁lost	5
anger	5
▁hair	5
anced	5
▁dead	5
older	5
asing	5
▁step	5
▁upon	5
▁town	5
align	5
▁webs	5
inner	5
▁fail	5
ische	5
ector	5
ondon	5
▁City	5
idget	5
attle	5
conne	5
adata	5
Check	5
ledge	5
style	5
apped	5
Token	5
uster	5
izing	5
https	5
▁echo	5
title	5
▁role	5
▁sold	5
▁Paul	5
▁tool	5
▁draw	5
gamma	5
false	5
astic	5
ocket	5
local	5
chema	5
delta	5
abase	5
entry	5
▁cred	5
▁Here	5
aught	5
▁band	5
▁song	5
ensor	5
ining	5
▁King	5
aging	5
image	5
igger	5
lying	5
▁fast	5
Block	5
Frame	5
Start	5
idden	5
graph	5
acing	5
arter	5
▁card	5
Point	5
Image	5
verse	5
riter	5
anged	5
▁June	5
antly	5
▁conv	5
andid	5
theta	5
Equal	5
rench	5
▁wife	5
inate	5
▁ship	5
▁loss	5
iting	5
efore	5
▁rate	5
vider	5
▁lock	5
▁July	5
thern	5
level	5
flags	5
▁ones	5
ander	5
▁fine	5
Style	5
teger	5
▁rele	5
first	5
posed	5
ffect	5
▁club	5
gener	5
Conne	5
istry	5
▁kids	5
▁High	5
▁kept	5
itory	5
Label	5
▁star	5
oring	5
times	5
▁save	5
iance	5
▁risk	5
ounds	5
child	5
eline	5
build	5
▁anim	5
enced	5
itter	5
▁circ	5
known	5
▁tree	5
aling	5
ERROR	5
▁skin	5
▁wood	5
Delta	5
stant	5
Valid	5
▁vict	5
acity	5
▁Most	5
▁Coun	5
aries	5
enses	5
▁Also	5
▁died	5
omega	5
ATION	5
▁bill	5
Entry	5
float	5
▁Thom	5
Width	5
asons	5
▁fair	5
empty	5
▁driv	5
icles	5
▁gold	5
ously	5
▁note	5
Child	5
inder	5
infty	5
parse	5
▁Post	5
▁hour	5
rying	5
▁shop	5
aches	5
▁priv	5
▁wish	5
arily	5
ategy	5
▁nice	5
▁join	5
tilde	5
oding	5
debug	5
ushed	5
dated	5
Write	5
comes	5
▁cold	5
ograf	5
otion	5
cache	5
CTION	5
▁sequ	5
▁wide	5
close	5
proto	5
river	5
▁poor	5
eller	5
atory	5
▁born	5
▁huge	5
▁aren	5
while	5
Types	5
▁Best	5
▁Mary	5
▁Date	5
▁Cons	5
iforn	5
based	5
▁goal	5
iring	5
▁root	5
patch	5
ecute	5
▁arms	5
itect	5
lands	5
urity	5
allow	5
Cache	5
leted	5
types	5
match	5
under	5
▁repe	5
▁seek	5
arden	5
scale	5
iling	5
force	5
iform	5
amily	5
pload	5
icate	5
refix	5
overn	5
asion	5
ithub	5
There	5
▁meas	5
useum	5
ipped	5
annot	5
names	5
Utils	5
anges	5
▁paid	5
▁rule	5
▁fort	5
anned	5
▁Club	5
▁mask	5
▁race	5
▁pair	5
inese	5
▁fell	5
Click	5
store	5
▁hous	5
▁hadn	5
craft	5
argin	5
Order	5
▁Many	5
Empty	5
iders	5
front	5
▁blog	5
ellig	5
▁uses	5
elled	5
▁whom	5
iable	5
aming	5
plete	5
Local	5
riage	5
antic	5
house	5
eless	5
▁Cong	5
clear	5
ulate	5
split	5
Store	5
Level	5
▁agre	5
▁Mill	5
▁Jose	5
Range	5
orrow	5
▁pool	5
othes	5
Omega	5
range	5
▁farm	5
▁rout	5
bling	5
Gamma	5
▁core	5
▁Long	5
ernel	5
power	5
ctors	5
▁jump	5
▁tick	5
▁sets	5
ifdef	5
aints	5
final	5
▁rank	5
▁heat	5
email	5
ensed	5
▁fing	5
stack	5
click	5
usive	5
arely	5
▁mine	5
phone	5
outer	5
▁Hall	5
proof	5
undle	5
▁king	5
▁ring	5
Stack	5
scope	5
agram	5
total	5
icans	5
bytes	5
FAULT	5
▁Team	5
actor	5
▁anti	5
Match	5
quest	5
items	5
which	5
night	5
False	5
spect	5
shape	5
▁View	5
rible	5
iliar	5
anner	5
legal	5
ieder	5
agger	5
react	5
isted	5
▁entr	5
Debug	5
reset	5
ivery	5
ocked	5
▁temp	5
▁hall	5
▁soul	5
bound	5
andon	5
enter	5
anted	5
▁seat	5
Async	5
▁rain	5
produ	5
Props	5
equal	5
pping	5
eting	5
props	5
▁hung	5
allet	5
▁Star	5
admin	5
▁ther	5
ennis	5
First	5
rency	5
Title	5
ental	5
ifest	5
▁cart	5
Right	5
▁Sing	5
▁kick	5
ronic	5
endar	5
plies	5
iento	5
▁wear	5
▁hate	5
▁intr	5
mutex	5
▁Last	5
istan	5
oting	5
icago	5
▁bird	5
utsch	5
imary	5
after	5
▁jobs	5
allel	5
▁Prem	5
Items	5
track	5
▁runs	5
isher	5
ading	5
grade	5
ested	5
claim	5
▁male	5
azine	5
▁loop	5
▁drug	5
crete	5
▁legs	5
bolds	5
▁fish	5
venue	5
▁suit	5
lines	5
erved	5
ILITY	5
▁Main	5
▁grew	5
Found	5
▁sust	5
ishes	5
▁keys	5
Const	5
ashed	5
asket	5
never	5
▁poll	5
▁prev	5
cloud	5
pling	5
▁glad	5
stood	5
oving	5
ITION	5
▁Have	5
DEBUG	5
▁Span	5
tered	5
enden	5
▁wave	5
▁gain	5
Panel	5
▁thro	5
Graph	5
▁batt	5
STATE	5
▁crim	5
chron	5
xture	5
osing	5
rence	5
Track	5
linux	5
▁fans	5
▁menu	5
liche	5
using	5
orial	5
▁lots	5
super	5
▁Down	5
▁Next	5
▁skip	5
uries	5
uture	5
▁elim	5
▁Kore	5
raise	5
hetic	5
▁Lake	5
prote	5
stats	5
kappa	5
ldots	5
secut	5
▁Find	5
akers	5
Print	5
▁poet	5
phere	5
▁okay	5
▁hook	5
CHECK	5
▁zone	5
iture	5
Ident	5
iller	5
▁Town	5
Forms	5
scape	5
ifies	5
ether	5
organ	5
cknow	5
oking	5
Close	5
Float	5
found	5
▁thin	5
▁Stan	5
appro	5
itors	5
▁boat	5
going	5
creen	5
▁Arab	5
shift	5
▁Plan	5
▁Line	5
chain	5
Scope	5
uding	5
ridge	5
After	5
acket	5
water	5
nabla	5
▁grav	5
limit	5
hline	5
trace	5
leton	5
▁plot	5
enger	5
icker	5
abeth	5
prise	5
faces	5
prime	5
small	5
poses	5
▁bits	5
erman	5
eling	5
icken	5
▁Does	5
ilton	5
quare	5
Media	5
▁desk	5
▁nerv	5
Build	5
arian	5
world	5
▁dram	5
ulous	5
ocity	5
agers	5
▁nine	5
overy	5
Queue	5
gency	5
endor	5
Where	5
▁loud	5
▁hang	5
amber	5
media	5
▁laug	5
▁rect	5
cohol	5
essed	5
otted	5
Sigma	5
onder	5
▁narr	5
video	5
▁lang	5
Route	5
▁gate	5
athan	5
▁elev	5
ensus	5
usher	5
▁bomb	5
inode	5
Trace	5
Parse	5
stone	5
▁loan	5
widet	5
VALUE	5
thlet	5
short	5
▁fold	5
icket	5
utter	5
login	5
Layer	5
▁Lead	5
timer	5
▁meat	5
ookie	5
Total	5
users	5
▁Task	5
black	5
ugins	5
▁calm	5
watch	5
acher	5
▁Keep	5
owner	5
shire	5
words	5
citep	5
activ	5
Scale	5
▁lies	5
▁Week	5
Theme	5
▁stom	5
ipher	5
asant	5
clock	5
uable	5
clone	5
▁grid	5
▁elem	5
Space	5
ienne	5
angel	5
▁fuel	5
Files	5
white	5
▁edit	5
rypto	5
redit	5
orted	5
plier	5
panel	5
inent	5
inned	5
▁Term	5
since	5
▁Jane	5
ingen	5
ounce	5
▁Rome	5
▁pill	5
throw	5
async	5
iffer	5
apply	5
Multi	5
orney	5
merce	5
▁swim	5
icted	5
SSION	5
▁debt	5
month	5
▁milk	5
Email	5
price	5
inity	5
▁axis	5
swing	5
ching	5
▁beer	5
atten	5
ixels	5
Shape	5
raham	5
▁Harr	5
Phone	5
EVENT	5
ucket	5
audio	5
▁Anal	5
ureau	5
aland	5
▁Arts	5
batch	5
▁meal	5
▁sque	5
setup	5
▁Supp	5
worth	5
fetch	5
▁Dies	5
▁guns	5
inton	5
clean	5
slice	5
▁Song	5
▁rein	5
rical	5
isset	5
▁Fair	5
igate	5
illes	5
▁Live	5
ceive	5
stell	5
delay	5
elijk	5
issue	5
depth	5
contr	5
▁Penn	5
arest	5
eping	5
Admin	5
Video	5
ogram	5
Power	5
cdots	5
inson	5
entes	5
score	5
route	5
apsed	5
▁Braz	5
▁judg	5
▁coal	5
ograp	5
▁acts	5
arity	5
nergy	5
unnel	5
Stand	5
Proxy	5
hemat	5
ieler	5
itary	5
isely	5
World	5
atted	5
gence	5
▁subs	5
ishop	5
▁Tony	5
qquad	5
▁Ford	5
Stats	5
arten	5
shall	5
▁verb	5
▁mole	5
▁tong	5
▁yeah	5
▁Auto	5
▁addr	5
▁Core	5
ichen	5
focus	5
Mouse	5
START	5
sters	5
catch	5
ockey	5
ansas	5
▁sist	5
Price	5
nodes	5
▁puts	5
▁bind	5
▁asks	5
opher	5
▁html	5
Enter	5
▁guid	5
▁sail	5
▁gaze	5
▁Dist	5
▁bass	5
▁vice	5
▁mond	5
▁sees	5
▁conn	5
Light	5
▁tact	5
ubble	5
▁Kong	5
speed	5
ursor	5
▁semi	5
▁Come	5
Lower	5
Timer	5
▁coat	5
▁Iraq	5
Nodes	5
theme	5
▁pron	5
▁forg	5
ented	5
strap	5
cular	5
WRITE	5
built	5
▁ease	5
▁pens	5
FALSE	5
Focus	5
ennes	5
▁Holy	5
CHANT	5
clude	5
eries	5
rieve	5
archy	5
Press	5
tober	5
▁Hong	5
oured	5
▁eleg	5
Clear	5
mount	5
Short	5
▁Kent	5
Maybe	5
Limit	5
views	5
▁slip	5
▁gang	5
asted	5
▁peak	5
▁dear	5
Bound	5
multi	5
Cloud	5
▁vess	5
merge	5
atori	5
plane	5
equiv	5
green	5
itled	5
▁Bang	5
ribed	5
illet	5
▁Unit	5
INTER	5
ropol	5
▁dual	5
Audio	5
▁obst	5
icked	5
▁yard	5
▁apps	5
lower	5
FIELD	5
atile	5
▁bowl	5
ordon	5
istas	5
urers	5
await	5
APTER	5
Proto	5
extra	5
▁Lang	5
chunk	5
stage	5
▁Dave	5
▁succ	5
▁adds	5
train	5
▁peer	5
CLASS	5
Reset	5
junit	5
modal	5
itzer	5
sound	5
proxy	5
andra	5
mouse	5
heast	5
PARAM	5
▁wing	5
▁nurs	5
▁rice	5
Every	5
isten	5
Begin	5
aping	5
peror	5
eding	5
▁shru	5
Creat	5
Modal	5
achel	5
tools	5
▁hits	5
▁tech	5
folio	5
▁pros	5
about	5
COUNT	5
riers	5
voice	5
▁cycl	5
▁Jess	5
berry	5
ocker	5
quote	5
Users	5
▁soil	5
ensis	5
union	5
▁wash	5
icons	5
emony	5
forms	5
plaat	5
acles	5
cases	5
uther	5
lined	5
bably	5
▁Area	5
smith	5
ships	5
atern	5
rooms	5
▁Hind	5
allas	5
ittel	5
addle	5
parts	5
▁quit	5
▁stub	5
▁eggs	5
izard	5
ashes	5
agent	5
Batch	5
heart	5
alert	5
sembl	5
epper	5
elson	5
Agent	5
▁cake	5
▁belt	5
anded	5
bsite	5
▁Euro	5
atoes	5
outes	5
arded	5
Quest	5
▁appl	5
▁Kath	5
charg	5
▁Deep	5
▁Kate	5
TRACE	5
alous	5
party	5
rupal	5
▁dirt	5
Black	5
lings	5
▁leaf	5
Coord	5
▁pent	5
istes	5
▁sons	5
▁chip	5
mates	5
opter	5
orous	5
fixed	5
rient	5
Chain	5
▁sang	5
▁Hung	5
▁Minn	5
▁rely	5
attrs	5
▁Save	5
unted	5
▁wins	5
▁Five	5
floor	5
▁hire	5
▁disp	5
ibles	5
there	5
rules	5
acent	5
plica	5
▁tang	5
lifer	5
blank	5
▁flux	5
anton	5
Owner	5
▁klik	5
▁golf	5
Super	5
minus	5
icode	5
▁Serv	5
citet	5
reens	5
▁Help	5
Basic	5
▁pose	5
Watch	5
Month	5
netje	5
odigd	5
onomy	5
ucked	5
▁flav	5
inals	5
cycle	5
▁soap	5
owing	5
suite	5
Other	5
apore	5
Shell	5
▁glob	5
BLOCK	5
▁tape	5
being	5
Tasks	5
▁Talk	5
Thank	5
BPACK	5
aware	5
▁cuts	5
▁tons	5
steps	5
avity	5
assen	5
▁drum	5
usage	5
reply	5
▁clar	5
▁poem	5
album	5
▁Give	5
▁bias	5
insic	5
Fixed	5
isons	5
icher	5
rayed	5
ighth	5
Usage	5
▁jail	5
Hello	5
inher	5
inely	5
erial	5
hythm	5
Asset	5
liver	5
creat	5
INDEX	5
ebook	5
▁logo	5
▁fits	5
▁elif	5
unden	5
▁wise	5
TABLE	5
alias	5
stock	5
three	5
▁obsc	5
third	5
Throw	5
visor	5
▁gods	5
chart	5
metry	5
Theta	5
sleep	5
▁emit	5
▁dawn	5
chell	5
amped	5
tests	5
▁tile	5
FLAGS	5
falls	5
refer	5
Under	5
quate	5
ggreg	5
ouses	5
Touch	5
illon	5
joint	5
share	5
rific	5
ubern	5
large	5
owski	5
Split	5
Azure	5
Could	5
links	5
anden	5
▁Benj	5
works	5
defer	5
pathy	5
Chunk	5
Tests	5
piece	5
inery	5
urent	5
marks	5
innen	5
▁gene	5
coord	5
▁Vice	5
Break	5
aters	5
exper	5
aines	5
Delay	5
brief	5
▁medi	5
▁caps	5
books	5
Rules	5
Pixel	5
ARRAY	5
▁slic	5
ogene	5
tagon	5
velle	5
added	5
Produ	5
▁sout	5
Times	5
▁Used	5
▁Pitt	5
cross	5
Final	5
separ	5
▁jack	5
▁Batt	5
▁diab	5
▁Lock	5
GROUP	5
Depth	5
Speed	5
ushes	5
▁cave	5
ifact	5
▁nick	5
upper	5
asset	5
Setup	5
mixer	5
▁tube	5
esian	5
Scene	5
rices	5
errno	5
▁ling	5
topic	5
ution	5
owych	5
oming	5
regon	5
▁aged	5
▁folk	5
▁ward	5
▁lazy	5
izers	5
Angle	5
▁sixt	5
azure	5
▁cute	5
phant	5
elect	5
ARGET	5
alled	5
▁Lucy	5
▁disg	5
PRINT	5
▁atom	5
lette	5
plant	5
▁bite	5
React	5
▁brew	5
orest	5
Score	5
Activ	5
adget	5
riors	5
These	5
annon	5
strip	5
▁Bird	5
LEVEL	5
attan	5
crate	5
embed	5
▁bree	5
Sound	5
▁Left	5
story	5
optim	5
tuple	5
▁slid	5
SHIFT	5
VALID	5
Fetch	5
human	5
paren	5
▁turb	5
named	5
occup	5
scene	5
acked	5
ultur	5
Strip	5
Popup	5
ahren	5
basic	5
▁synd	5
gling	5
▁Ring	5
ytics	5
White	5
▁susp	5
notes	5
▁Cape	5
Ready	5
Align	5
quiry	5
iejsc	5
Alert	5
▁syst	5
SPACE	5
LOBAL	5
ommen	5
dtype	5
reach	5
▁Easy	5
quire	5
Place	5
Extra	5
Clone	5
abama	5
owany	5
radio	5
▁sits	5
backs	5
visit	5
▁horm	5
▁oven	5
ielen	5
ieval	5
wedge	5
▁holy	5
andal	5
▁Want	5
ienst	5
astro	5
actly	5
Chart	5
xygen	5
oment	5
▁Finn	5
paths	5
▁lane	5
ensen	5
▁Comb	5
ospel	5
plain	5
Tuple	5
▁curr	5
colon	5
Alpha	5
▁Ward	5
paper	5
phase	5
▁tomb	5
▁sigh	5
serde	5
Sheet	5
▁ange	5
PROTO	5
actic	5
owned	5
yrics	5
▁expr	5
oples	5
sheet	5
inian	5
slide	5
▁cups	5
iterr	5
athon	5
every	5
▁deny	5
▁doub	5
▁Rule	5
Force	5
zenia	5
▁outs	5
▁jury	5
▁jerk	5
panic	5
regex	5
aceae	5
▁Okay	5
holds	5
alter	5
ENTRY	5
▁shed	5
posts	5
grund	5
pdata	5
pless	5
smart	5
▁assh	5
deleg	5
maker	5
ahoma	5
▁exem	5
umped	5
rides	5
▁hunt	5
▁Race	5
istrz	5
CONNE	5
major	5
andro	5
matic	5
▁Earl	5
▁Mall	5
brand	5
mouth	5
Spell	5
touch	5
thumb	5
▁lawn	5
▁plac	5
Allow	5
mysql	5
alion	5
oline	5
COLOR	5
chiat	5
INPUT	5
neath	5
iolet	5
denly	5
asets	5
probe	5
ucker	5
oning	5
polit	5
▁barr	5
▁Soul	5
erves	5
inden	5
bourg	5
pires	5
kfree	5
idges	5
netic	5
metic	5
ollar	5
FRAME	5
ienen	5
sched	5
Unmar	5
hover	5
ieden	5
▁dere	5
▁Iowa	5
IDENT	5
issen	5
▁ties	5
ifica	5
Stage	5
Front	5
leans	5
burgh	5
adesh	5
sized	5
▁fled	5
ielle	5
evalu	5
ORDER	5
isson	5
Mount	5
Union	5
bench	5
decor	5
PRESS	5
oenix	5
POINT	5
▁Fitz	5
▁ware	5
edish	5
shirt	5
tasks	5
▁beds	5
anson	5
▁togg	5
acker	5
▁beef	5
Slice	5
ENTER	5
Pages	5
▁dull	5
uchar	5
▁tune	5
▁Sony	5
glich	5
▁Pete	5
saved	5
flash	5
otype	5
▁Bowl	5
▁Poly	5
popup	5
igent	5
hesis	5
uming	5
idity	5
hello	5
▁beta	5
Apply	5
skiej	5
Droid	5
▁Pope	5
cules	5
shops	5
shell	5
riven	5
iendo	5
oslav	5
Merge	5
▁nons	5
nosti	5
emark	5
Organ	5
ulent	5
Lines	5
ollen	5
illas	5
▁butt	5
Radio	5
Named	5
▁raid	5
Razor	5
pared	5
codes	5
owego	5
Regex	5
▁Beng	5
CACHE	5
rolog	5
pixel	5
ungle	5
aiser	5
shine	5
pread	5
Clean	5
itsch	5
chair	5
aders	5
Upper	5
amous	5
storm	5
▁tire	5
About	5
ratio	5
urbed	5
phony	5
ocate	5
Small	5
Tools	5
acies	5
▁cure	5
Round	5
armed	5
chsel	5
unity	5
▁reun	5
Prote	5
LABEL	5
borne	5
domin	5
ISTER	5
▁Sept	5
Typed	5
ringe	5
beans	5
hemal	5
FLOAT	5
▁Drop	5
opsis	5
ribly	5
senal	5
Paint	5
▁bore	5
maybe	5
torch	5
Never	5
RESET	5
exist	5
▁punk	5
▁Golf	5
onces	5
oping	5
Green	5
▁Wang	5
etary	5
cedes	5
eenth	5
dings	5
entin	5
Sorry	5
▁Ship	5
itize	5
Codec	5
techn	5
stick	5
EQUAL	5
Retry	5
▁Male	5
vised	5
Shift	5
hyper	5
Phase	5
Paths	5
antry	5
chars	5
frica	5
▁maid	5
scrib	5
POWER	5
opath	5
While	5
ipage	5
ALLOC	5
achen	5
opens	5
anean	5
Autom	5
athol	5
anten	5
retry	5
onial	5
▁Mong	5
ENDOR	5
▁Utah	5
▁Zero	5
entre	5
dirty	5
lando	5
ERNAL	5
gmail	5
▁aunt	5
Reply	5
▁Yang	5
glass	5
agner	5
Arrow	5
iface	5
eight	5
eward	5
▁Mask	5
lists	5
▁demo	5
arius	5
▁shoe	5
think	5
Clock	5
Ratio	5
cards	5
Since	5
Guard	5
isure	5
▁surg	5
woman	5
▁fict	5
apple	5
ocial	5
▁rund	5
▁Heat	5
nings	5
Based	5
Views	5
brace	5
WIDTH	5
akter	5
PERTY	5
istro	5
aurus	5
ORMAL	5
ounge	5
▁Owen	5
ivals	5
sburg	5
▁Barr	5
leave	5
grand	5
MAGES	5
Quick	5
▁kidn	5
liter	5
keley	5
▁clue	5
Share	5
▁bicy	5
▁slim	5
▁taxi	5
▁pets	5
▁mens	5
udder	5
units	5
klass	5
becca	5
▁cler	5
yside	5
dummy	5
▁tilt	5
ighed	5
Music	5
ienia	5
Three	5
inand	5
verts	5
allen	5
osity	5
▁toll	5
zenie	5
Patch	5
TRANS	5
IMAGE	5
comed	5
▁Were	5
ardon	5
▁owns	5
Until	5
icals	5
undef	5
REQUI	5
Suite	5
Combo	5
hooks	5
appen	5
poser	5
▁Flag	5
ijing	5
asper	5
alone	5
adays	5
doors	5
bands	5
accur	5
could	5
heads	5
▁Volk	5
Photo	5
aning	5
ousel	5
aglia	5
▁Hunt	5
eking	5
Actor	5
Topic	5
▁evac	5
uated	5
TOKEN	5
rogen	5
aises	5
uning	5
shake	5
▁bend	5
Codes	5
Board	5
▁nail	5
iblic	5
RANGE	5
LEASE	5
ropic	5
boost	5
fried	5
Mutex	5
unned	5
esser	5
instr	5
Sizes	5
atype	5
▁clan	5
mania	5
Autow	5
▁Bomb	5
iches	5
▁blob	5
resse	5
antal	5
photo	5
wheel	5
GENER	5
Exper	5
Using	5
Would	5
utton	5
angen	5
Cross	5
umper	5
▁drap	5
enson	5
arium	5
ISING	5
Saint	5
slave	5
paces	5
Great	5
shots	5
olent	5
▁Wire	5
ALIGN	5
Broad	5
pause	5
Units	5
asury	5
ioctl	5
boxes	5
omena	5
▁Door	5
▁Wing	5
impse	5
inkle	5
Leave	5
ipart	5
rings	5
agles	5
skill	5
iante	5
▁puls	5
Which	5
isine	5
LIMIT	5
drive	5
epoch	5
edges	5
▁Rico	5
romag	5
South	5
imgur	5
▁UEFA	5
itime	5
▁pear	5
Proof	5
▁noon	5
intel	5
yster	5
Parts	5
anska	5
▁surn	5
lista	5
insky	5
▁lied	5
▁deer	5
aphor	5
learn	5
▁Ruby	5
Water	5
Claim	5
again	5
aired	5
javax	5
rated	5
until	5
itori	5
posal	5
▁Doug	5
▁tops	5
quick	5
iated	5
▁Temp	5
UMENT	5
▁Didn	5
serts	5
solid	5
onden	5
▁pity	5
inski	5
ueblo	5
Large	5
▁Peak	5
tyard	5
draft	5
anter	5
▁Hair	5
anked	5
▁grap	5
▁Cycl	5
Analy	5
shore	5
ippet	5
▁tand	5
▁Carr	5
rived	5
▁Mull	5
▁peas	5
▁foul	5
▁memo	5
imper	5
ipper	5
inted	5
Added	5
izada	5
▁nort	5
stret	5
okrat	5
Curve	5
attro	5
▁Drug	5
atisf	5
broad	5
Appro	5
oport	5
staff	5
▁Poor	5
filer	5
Built	5
▁mong	5
▁enjo	5
bread	5
seven	5
WINDO	5
court	5
EMPTY	5
analy	5
autor	5
▁begg	5
abort	5
▁Mons	5
▁Peru	5
bbing	5
▁tunn	5
stead	5
▁Fail	5
erase	5
▁curl	5
VIDEO	5
tbody	5
David	5
ussia	5
Links	5
arith	5
loads	5
▁empt	5
otive	5
dater	5
calls	5
xffff	5
erten	5
etric	5
faced	5
▁the	4
▁and	4
▁for	4
▁was	4
▁The	4
ight	4
▁are	4
ould	4
port	4
turn	4
▁his	4
able	4
▁can	4
▁had	4
▁her	4
▁but	4
▁out	4
ally	4
ions	4
ated	4
ther	4
▁one	4
▁get	4
▁she	4
ress	4
very	4
▁has	4
ject	4
alue	4
form	4
ound	4
ount	4
ring	4
▁any	4
▁him	4
ient	4
User	4
ical	4
aram	4
text	4
irst	4
ents	4
ater	4
oint	4
▁off	4
▁set	4
fter	4
▁our	4
pect	4
reat	4
▁bec	4
ople	4
atch	4
name	4
▁did	4
▁its	4
ield	4
this	4
ough	4
ange	4
ific	4
read	4
ious	4
math	4
▁rec	4
▁use	4
self	4
▁don	4
▁app	4
▁act	4
cess	4
ning	4
tern	4
▁pos	4
▁She	4
▁two	4
▁may	4
fore	4
ates	4
Type	4
▁And	4
▁dif	4
▁see	4
ward	4
data	4
ense	4
ible	4
vent	4
ower	4
line	4
abel	4
ular	4
roup	4
rent	4
sert	4
type	4
ames	4
ting	4
arch	4
olog	4
ider	4
reak	4
imes	4
land	4
cond	4
ices	4
▁own	4
ures	4
List	4
▁car	4
plic	4
ream	4
ince	4
egin	4
ouse	4
▁dec	4
ages	4
ased	4
ines	4
ined	4
▁say	4
ared	4
work	4
ized	4
Data	4
ache	4
ited	4
▁let	4
cept	4
ired	4
ween	4
▁eff	4
cont	4
code	4
ason	4
size	4
▁got	4
back	4
▁ask	4
▁try	4
▁Mar	4
serv	4
inal	4
▁run	4
over	4
▁giv	4
less	4
ways	4
incl	4
file	4
Cont	4
ters	4
time	4
ever	4
ants	4
ross	4
▁old	4
ched	4
view	4
▁bus	4
ists	4
roll	4
akes	4
gram	4
▁How	4
ains	4
lock	4
test	4
▁wom	4
arly	4
idth	4
ried	4
frac	4
▁put	4
alth	4
▁few	4
play	4
uild	4
▁men	4
iter	4
aint	4
pend	4
list	4
ware	4
atic	4
part	4
▁equ	4
path	4
ager	4
▁won	4
item	4
load	4
ives	4
ican	4
init	4
comm	4
▁mov	4
ctor	4
head	4
info	4
urch	4
left	4
▁beh	4
ract	4
user	4
chen	4
itor	4
▁dev	4
rist	4
Text	4
raph	4
outh	4
itle	4
ural	4
bers	4
Info	4
ling	4
ably	4
▁pat	4
reen	4
ides	4
ches	4
ided	4
cite	4
▁sit	4
▁key	4
Test	4
rite	4
ived	4
itch	4
obal	4
arge	4
oney	4
else	4
ails	4
ases	4
iver	4
ateg	4
▁big	4
vert	4
ries	4
lete	4
Item	4
▁beg	4
▁lot	4
▁adv	4
▁far	4
▁log	4
View	4
aces	4
ency	4
ered	4
Time	4
ened	4
▁pay	4
cted	4
istr	4
ards	4
word	4
ploy	4
oken	4
side	4
case	4
▁aff	4
▁May	4
▁org	4
▁iss	4
▁inc	4
Node	4
Size	4
most	4
▁bit	4
core	4
lish	4
hing	4
iron	4
node	4
▁Eng	4
ured	4
▁htt	4
mber	4
ison	4
ands	4
osed	4
▁His	4
angu	4
▁job	4
elta	4
ivid	4
ones	4
link	4
ster	4
Form	4
▁air	4
ored	4
ille	4
ised	4
ules	4
duct	4
pert	4
▁sat	4
ocus	4
ober	4
▁net	4
nder	4
Path	4
orld	4
▁eng	4
Code	4
ades	4
ideo	4
ando	4
aged	4
ajor	4
ride	4
▁lik	4
aken	4
hand	4
iety	4
Hand	4
pace	4
icle	4
ball	4
▁saw	4
Over	4
body	4
aced	4
empl	4
ecut	4
ogle	4
mary	4
▁red	4
ills	4
▁dri	4
▁yet	4
▁ben	4
ples	4
reed	4
ends	4
call	4
▁low	4
pack	4
cast	4
raft	4
http	4
resh	4
fort	4
base	4
igma	4
ping	4
With	4
oved	4
▁fur	4
ying	4
amed	4
Call	4
page	4
oper	4
room	4
char	4
▁nat	4
imal	4
unch	4
ilar	4
ires	4
comp	4
args	4
ival	4
▁win	4
leep	4
avor	4
▁cut	4
rect	4
icro	4
isch	4
▁isn	4
ixed	4
post	4
What	4
atal	4
ding	4
ouch	4
▁dam	4
from	4
▁Aug	4
abor	4
oute	4
down	4
plit	4
This	4
medi	4
rest	4
true	4
empt	4
mark	4
find	4
rown	4
▁map	4
igen	4
json	4
airs	4
ites	4
Read	4
html	4
rodu	4
From	4
host	4
with	4
next	4
omet	4
used	4
lick	4
evel	4
ilon	4
attr	4
Date	4
beta	4
imum	4
loat	4
▁Apr	4
book	4
▁six	4
lege	4
rows	4
uint	4
wise	4
ista	4
▁age	4
Util	4
quad	4
arth	4
ores	4
ente	4
pped	4
addr	4
TYPE	4
haps	4
free	4
nown	4
ians	4
udio	4
span	4
augh	4
enty	4
lich	4
anks	4
Head	4
▁Act	4
▁ill	4
band	4
icon	4
ynam	4
orge	4
▁sal	4
That	4
ving	4
▁buy	4
iber	4
pose	4
iant	4
sequ	4
Comm	4
cret	4
Oper	4
▁tax	4
▁Art	4
chie	4
sole	4
iful	4
push	4
Line	4
just	4
izer	4
▁lat	4
mode	4
Base	4
dict	4
▁hit	4
Page	4
last	4
ming	4
uary	4
ysis	4
like	4
spec	4
pass	4
open	4
inst	4
berg	4
▁nov	4
imer	4
▁led	4
Mode	4
soft	4
aren	4
iple	4
apan	4
▁via	4
Null	4
rote	4
adem	4
aine	4
rupt	4
chan	4
idge	4
ebru	4
ords	4
ABLE	4
▁etc	4
long	4
flow	4
omen	4
True	4
▁sun	4
Load	4
year	4
func	4
ford	4
irit	4
more	4
ypes	4
etch	4
▁ful	4
▁arr	4
▁imm	4
rypt	4
Init	4
cial	4
illa	4
asse	4
bert	4
ares	4
▁jud	4
ivil	4
oted	4
irth	4
aste	4
▁fit	4
▁Out	4
cing	4
oria	4
ugin	4
root	4
oles	4
endo	4
iano	4
lang	4
aled	4
acht	4
ship	4
otes	4
aker	4
▁inn	4
▁aud	4
Task	4
iner	4
NAME	4
pers	4
▁lie	4
olds	4
cell	4
draw	4
wood	4
ania	4
iger	4
show	4
▁lay	4
ibly	4
Part	4
▁Any	4
ader	4
ustr	4
Spec	4
agon	4
▁pen	4
Back	4
pite	4
izes	4
PORT	4
only	4
▁alt	4
▁Ham	4
iven	4
hood	4
▁yes	4
rend	4
Link	4
iana	4
▁gas	4
SIZE	4
▁row	4
edia	4
iced	4
aron	4
send	4
ande	4
▁Loc	4
HECK	4
▁cat	4
goto	4
mask	4
▁kit	4
esch	4
byte	4
unit	4
▁eat	4
Dele	4
dest	4
None	4
▁Jul	4
orem	4
main	4
yles	4
ancy	4
▁pet	4
mult	4
bool	4
▁eye	4
icks	4
enge	4
well	4
▁nod	4
cdot	4
Char	4
▁oil	4
PECT	4
pret	4
▁god	4
card	4
conf	4
task	4
hent	4
▁ran	4
lear	4
prop	4
▁veh	4
inct	4
Draw	4
▁deb	4
Menu	4
▁lif	4
iche	4
hash	4
wide	4
ribe	4
hold	4
▁kon	4
egen	4
Http	4
▁Rob	4
▁bul	4
erve	4
fill	4
rael	4
look	4
orig	4
sqrt	4
then	4
vare	4
udes	4
bind	4
join	4
Core	4
desc	4
Pack	4
▁Use	4
ears	4
ners	4
adas	4
cles	4
STAT	4
stat	4
ebug	4
NULL	4
rive	4
rate	4
They	4
Work	4
Inst	4
sten	4
that	4
font	4
cher	4
rial	4
▁rat	4
Stat	4
gent	4
onom	4
▁cup	4
priv	4
tree	4
rian	4
Pass	4
vest	4
sign	4
iten	4
grad	4
poss	4
aked	4
▁jun	4
born	4
▁kid	4
rict	4
rich	4
Port	4
auth	4
auto	4
ruit	4
▁bow	4
Hash	4
tool	4
aria	4
pool	4
foot	4
mann	4
aten	4
real	4
Open	4
acks	4
iste	4
cons	4
make	4
copy	4
ston	4
appe	4
save	4
hist	4
ioni	4
▁lic	4
term	4
sets	4
alls	4
▁Jun	4
mail	4
rior	4
iden	4
▁tom	4
Args	4
Next	4
▁Dec	4
peed	4
rics	4
menu	4
reme	4
ooth	4
Json	4
Tool	4
stra	4
elij	4
keys	4
what	4
rant	4
Down	4
isse	4
bour	4
Well	4
Unit	4
Vari	4
anel	4
reek	4
iene	4
cope	4
stop	4
uses	4
urop	4
▁thr	4
amer	4
Body	4
fast	4
▁rob	4
ismo	4
shot	4
plet	4
▁Mrs	4
temp	4
move	4
edit	4
onna	4
Tree	4
▁Did	4
Font	4
FLAG	4
MENT	4
lymp	4
atre	4
Last	4
astr	4
MODE	4
▁tip	4
ALSE	4
safe	4
▁vac	4
Icon	4
Post	4
Host	4
CHAN	4
idae	4
FILE	4
acle	4
aset	4
raid	4
▁spr	4
Sign	4
▁Bob	4
lict	4
omic	4
thon	4
rome	4
Rect	4
olic	4
▁sad	4
area	4
Long	4
west	4
When	4
irty	4
owie	4
▁eth	4
hens	4
blic	4
aden	4
Left	4
bing	4
Decl	4
INFO	4
LOCK	4
orph	4
ENSE	4
mbox	4
ifer	4
java	4
sort	4
▁Map	4
bits	4
skip	4
step	4
Rule	4
arks	4
eler	4
ocks	4
uple	4
anto	4
Cell	4
here	4
inet	4
ById	4
anti	4
▁sle	4
full	4
asta	4
zone	4
ixel	4
rees	4
▁Joe	4
lets	4
otic	4
gers	4
razy	4
emon	4
star	4
ilde	4
inos	4
▁emp	4
HOUT	4
flag	4
illy	4
roke	4
miss	4
eper	4
rawn	4
rule	4
este	4
▁Ill	4
DATA	4
uded	4
lean	4
mbre	4
Root	4
gate	4
care	4
enth	4
ctrl	4
mond	4
clip	4
▁enh	4
arts	4
upid	4
onym	4
noon	4
Iter	4
arse	4
pute	4
Mark	4
READ	4
icol	4
▁riv	4
TIME	4
CODE	4
▁ped	4
amin	4
sect	4
kins	4
▁kil	4
icas	4
oman	4
king	4
Desc	4
drop	4
inde	4
Send	4
each	4
icos	4
ogen	4
imit	4
Only	4
Show	4
POST	4
axis	4
conn	4
▁san	4
cert	4
edge	4
JSON	4
SION	4
ango	4
Edit	4
argo	4
tegr	4
wrap	4
outs	4
▁Nov	4
lers	4
Mock	4
Copy	4
▁Far	4
roud	4
undo	4
road	4
▁apr	4
itet	4
Grid	4
oked	4
aret	4
Hist	4
oven	4
TIES	4
aded	4
anie	4
anes	4
LECT	4
even	4
urer	4
oves	4
Amer	4
Cond	4
game	4
note	4
idel	4
hard	4
plex	4
tons	4
mock	4
cipl	4
iego	4
sync	4
Meta	4
Game	4
zero	4
cean	4
agne	4
Main	4
▁pad	4
onic	4
Pool	4
COMP	4
home	4
anny	4
ifts	4
enne	4
Auth	4
spin	4
anta	4
ipes	4
▁egg	4
Rest	4
Card	4
acer	4
Each	4
kind	4
Lock	4
loss	4
fall	4
TEXT	4
utch	4
▁nut	4
fire	4
igan	4
rund	4
fail	4
enda	4
inen	4
ativ	4
Look	4
high	4
irts	4
FORM	4
loop	4
oval	4
door	4
eren	4
exit	4
ummy	4
boot	4
rick	4
wick	4
okes	4
▁tea	4
atar	4
loor	4
grid	4
TEST	4
circ	4
onia	4
▁rul	4
role	4
oice	4
into	4
ntax	4
acts	4
pled	4
Expr	4
bled	4
Func	4
erra	4
phas	4
heim	4
ardo	4
Enum	4
PATH	4
apse	4
eral	4
osis	4
expr	4
prec	4
appy	4
igin	4
umin	4
shop	4
esse	4
igne	4
erts	4
uent	4
MASK	4
▁unc	4
Step	4
HTML	4
wing	4
shal	4
Auto	4
late	4
bell	4
echo	4
Play	4
Role	4
▁jan	4
etes	4
prev	4
andy	4
ATTR	4
iral	4
nost	4
greg	4
▁sir	4
buff	4
Prop	4
chip	4
eria	4
▁joy	4
Conf	4
Perm	4
Just	4
riev	4
dots	4
writ	4
Move	4
esso	4
dist	4
nych	4
thur	4
done	4
life	4
Full	4
pair	4
icer	4
clos	4
pred	4
Keys	4
uing	4
onto	4
Stop	4
Vert	4
owed	4
gery	4
Sync	4
umps	4
Good	4
LOAD	4
asts	4
Book	4
elen	4
▁bin	4
Fail	4
uous	4
ffff	4
norm	4
zeta	4
emic	4
Find	4
Flag	4
ibli	4
oral	4
ders	4
coin	4
isms	4
rase	4
quir	4
stad	4
hook	4
▁mob	4
vere	4
stal	4
yard	4
gged	4
arna	4
coll	4
hide	4
TION	4
chor	4
plom	4
Mask	4
amps	4
WORD	4
Free	4
oret	4
plan	4
ydro	4
▁Win	4
elve	4
once	4
AAAA	4
plot	4
itat	4
USER	4
olid	4
asty	4
rieg	4
▁aug	4
illo	4
LIST	4
adel	4
Your	4
some	4
▁Nob	4
▁vie	4
▁tow	4
oche	4
when	4
eras	4
uren	4
eden	4
▁pit	4
anal	4
proc	4
iest	4
walk	4
opts	4
wart	4
gage	4
docs	4
Then	4
aats	4
Save	4
amar	4
olly	4
oped	4
▁adj	4
scan	4
eman	4
Serv	4
help	4
atie	4
JECT	4
obby	4
alis	4
Term	4
Some	4
sing	4
INIT	4
pton	4
wall	4
oker	4
Addr	4
▁sys	4
HERE	4
ixer	4
Anal	4
ucky	4
ctic	4
NESS	4
ANCE	4
diff	4
enta	4
pres	4
WARN	4
bach	4
BASE	4
▁btn	4
Math	4
uate	4
THER	4
prov	4
ului	4
Sche	4
unic	4
▁tub	4
▁gay	4
orry	4
onel	4
Area	4
itty	4
elem	4
NONE	4
POSE	4
ktet	4
▁Fab	4
redu	4
anno	4
CHAR	4
tain	4
atro	4
ULAR	4
decl	4
olen	4
erre	4
away	4
bold	4
CONT	4
UEST	4
Arch	4
Yeah	4
Note	4
igue	4
Rate	4
rand	4
▁shr	4
arry	4
emit	4
bury	4
evin	4
whel	4
iens	4
IMIT	4
rass	4
five	4
Have	4
anth	4
blue	4
Scal	4
pson	4
Bean	4
edly	4
BACK	4
revs	4
oose	4
Drop	4
exec	4
WARE	4
weet	4
HTTP	4
lass	4
agan	4
FAIL	4
Cert	4
tags	4
regs	4
ADDR	4
aban	4
aaaa	4
ntil	4
unda	4
hend	4
ento	4
atto	4
rett	4
good	4
slot	4
Will	4
anim	4
verb	4
Bind	4
nego	4
quot	4
High	4
atin	4
▁tap	4
izar	4
oned	4
pipe	4
ATCH	4
dump	4
chat	4
inar	4
▁rif	4
lesh	4
acia	4
Real	4
anne	4
vari	4
ilty	4
warn	4
▁vic	4
uals	4
Coll	4
hund	4
Span	4
▁CEO	4
mill	4
prod	4
cker	4
RECT	4
odge	4
vals	4
apon	4
will	4
UINT	4
uset	4
bres	4
they	4
Fore	4
days	4
orno	4
erry	4
ethe	4
conv	4
opol	4
usal	4
HEAD	4
tech	4
phys	4
owej	4
ktop	4
Flow	4
Sort	4
COMM	4
rons	4
uela	4
trim	4
DATE	4
Cast	4
stan	4
best	4
orne	4
pons	4
Self	4
usqu	4
acji	4
unde	4
Pers	4
▁hug	4
rank	4
coln	4
mean	4
amaz	4
Rows	4
ovan	4
iate	4
bank	4
issa	4
CALL	4
itel	4
riet	4
iors	4
addy	4
perm	4
hour	4
uras	4
Make	4
vars	4
sock	4
▁Ern	4
▁flu	4
onal	4
Tube	4
fold	4
onda	4
Zone	4
elif	4
flex	4
ghan	4
wich	4
ielt	4
NEXT	4
curr	4
qual	4
cart	4
week	4
bage	4
Pair	4
aser	4
ften	4
spir	4
vens	4
DESC	4
nbsp	4
apol	4
Join	4
inch	4
umph	4
four	4
cost	4
curs	4
umpy	4
orse	4
Anim	4
ulpt	4
argv	4
rena	4
Miss	4
FFFF	4
ropy	4
Home	4
onte	4
blog	4
unci	4
Tags	4
news	4
FFER	4
ycle	4
▁gym	4
inas	4
opes	4
▁lap	4
prom	4
ATED	4
cred	4
wind	4
CTRL	4
aska	4
aton	4
freq	4
eree	4
mers	4
enso	4
Like	4
Conn	4
need	4
orer	4
▁jet	4
amos	4
zing	4
brid	4
KERN	4
itud	4
geon	4
Temp	4
sson	4
offs	4
iami	4
eted	4
zech	4
▁tie	4
▁Job	4
bara	4
stru	4
Mill	4
ajax	4
esis	4
peer	4
Bits	4
scar	4
Come	4
▁wis	4
LETE	4
Html	4
vard	4
Star	4
Rele	4
anse	4
iper	4
anga	4
Zero	4
▁obs	4
▁Sky	4
ikes	4
ynom	4
nica	4
aman	4
pler	4
Plan	4
Mesh	4
rell	4
Loop	4
▁gaz	4
John	4
stmt	4
ppen	4
mont	4
Must	4
team	4
rito	4
TRAN	4
THOD	4
hang	4
cers	4
ribu	4
ocal	4
Word	4
othe	4
NODE	4
made	4
omin	4
MAGE	4
More	4
Edge	4
mate	4
URCE	4
have	4
lett	4
Here	4
alia	4
Cred	4
Slot	4
mind	4
Java	4
Many	4
▁Sep	4
uart	4
tery	4
Bool	4
HAND	4
ACHE	4
poll	4
bone	4
glas	4
RESS	4
Supp	4
Year	4
ndef	4
ENCE	4
feld	4
▁ate	4
onds	4
PROC	4
endl	4
Qual	4
peat	4
inte	4
▁Spr	4
irus	4
helm	4
Buff	4
▁pok	4
rock	4
Hook	4
eval	4
Once	4
film	4
▁dyn	4
Side	4
agra	4
inda	4
omer	4
Axis	4
avia	4
arte	4
fake	4
▁lon	4
mine	4
shit	4
atta	4
nier	4
keep	4
cout	4
▁Ont	4
feed	4
uuid	4
yout	4
fish	4
Gate	4
Okay	4
pars	4
bean	4
MBOL	4
▁Own	4
href	4
TING	4
iele	4
CLUD	4
Eval	4
emat	4
atio	4
ATOR	4
pref	4
atti	4
ilia	4
ilib	4
heid	4
atom	4
lope	4
dark	4
alen	4
sent	4
ulum	4
Fire	4
omed	4
werk	4
acco	4
beat	4
oric	4
velt	4
Appe	4
prot	4
Fill	4
ongo	4
rose	4
swer	4
anas	4
gles	4
PLAY	4
▁bio	4
USED	4
ulle	4
ARCH	4
Cart	4
live	4
▁tin	4
ILED	4
▁bay	4
itos	4
iani	4
sted	4
emed	4
Scan	4
uvud	4
Warn	4
Help	4
comb	4
atos	4
heet	4
colo	4
deep	4
▁seq	4
ivel	4
HOST	4
WORK	4
itis	4
disk	4
ulse	4
asha	4
seed	4
logo	4
▁jul	4
Pred	4
fers	4
rice	4
ixon	4
Blue	4
DOWN	4
ippi	4
gray	4
iona	4
oids	4
resa	4
blob	4
poch	4
PAGE	4
Void	4
uber	4
tick	4
VICE	4
expl	4
iffs	4
ensk	4
Pane	4
Team	4
Guid	4
Emit	4
apos	4
▁dok	4
iesz	4
▁zip	4
agle	4
aris	4
cole	4
llvm	4
sure	4
erna	4
IENT	4
Cost	4
also	4
mero	4
mund	4
Bill	4
alph	4
agma	4
alin	4
Live	4
isan	4
Chat	4
Hint	4
unct	4
aude	4
Phys	4
ugar	4
tile	4
▁Feb	4
swap	4
such	4
prof	4
zens	4
seen	4
geme	4
orus	4
Stud	4
ansk	4
BYTE	4
onne	4
arta	4
Prov	4
Diff	4
ucks	4
oust	4
mesh	4
city	4
Exit	4
ieve	4
camp	4
FUNC	4
tesy	4
cken	4
azor	4
odox	4
Same	4
arms	4
othy	4
mass	4
Cent	4
lyph	4
GPIO	4
half	4
REAM	4
inth	4
bian	4
seek	4
rets	4
tele	4
supp	4
emet	4
rios	4
MESS	4
Ctrl	4
anka	4
holm	4
bird	4
iane	4
Prim	4
lint	4
rage	4
▁pig	4
food	4
ygon	4
MAIN	4
scal	4
cord	4
phan	4
engu	4
Face	4
isto	4
Push	4
maps	4
Best	4
hill	4
erde	4
Pres	4
jack	4
STRU	4
NdEx	4
atel	4
ueto	4
your	4
ivia	4
nant	4
uper	4
Tile	4
gang	4
rika	4
abul	4
jsce	4
soap	4
Done	4
affe	4
Fact	4
pond	4
omot	4
uler	4
Soft	4
West	4
town	4
avis	4
eled	4
icky	4
know	4
ifik	4
airo	4
oday	4
rike	4
anya	4
Stub	4
LIED	4
aute	4
rust	4
apor	4
Take	4
Uint	4
ashi	4
▁orb	4
CEPT	4
must	4
Prom	4
▁ali	4
ITEM	4
nika	4
wake	4
Exec	4
cies	4
ROOT	4
▁Bah	4
izen	4
obil	4
UInt	4
rous	4
avid	4
Into	4
Wrap	4
abei	4
mare	4
abet	4
▁cyl	4
imir	4
wear	4
▁ath	4
idle	4
hole	4
spot	4
tere	4
borg	4
cery	4
ilor	4
tera	4
rott	4
nten	4
held	4
acre	4
niej	4
CTOR	4
oard	4
Stmt	4
mand	4
▁Tob	4
ools	4
SIGN	4
Does	4
Even	4
LEFT	4
isti	4
intr	4
grow	4
mans	4
Proc	4
poon	4
PACK	4
hire	4
gres	4
apis	4
eyed	4
ligt	4
drag	4
omon	4
icus	4
ampa	4
larg	4
▁dys	4
nitt	4
▁Rat	4
abad	4
sbur	4
PASS	4
Grad	4
inta	4
Most	4
Dist	4
Feed	4
take	4
oton	4
NOWN	4
UUID	4
amic	4
▁NBA	4
eton	4
ttes	4
bigg	4
flat	4
repo	4
ONLY	4
onie	4
suit	4
infl	4
oine	4
Boot	4
Clip	4
perp	4
TEMP	4
asma	4
nett	4
Elem	4
erta	4
same	4
Life	4
FROM	4
dale	4
thal	4
azar	4
cycl	4
park	4
▁sid	4
inea	4
gens	4
iken	4
nail	4
bras	4
iece	4
Cons	4
skim	4
clam	4
walt	4
Tele	4
ully	4
hbox	4
arsi	4
LANG	4
ICAL	4
imet	4
abol	4
ffic	4
imen	4
ulas	4
Rend	4
warf	4
iago	4
pent	4
orsz	4
iges	4
Used	4
ylan	4
WITH	4
elia	4
yman	4
▁wen	4
entr	4
stub	4
Mart	4
▁UTC	4
Week	4
loyd	4
ilio	4
rake	4
imeq	4
iasm	4
wave	4
atra	4
furt	4
▁ski	4
▁Raf	4
assy	4
oise	4
City	4
NING	4
Foot	4
prob	4
both	4
Sure	4
Heap	4
lord	4
insn	4
▁vet	4
hren	4
iesa	4
Safe	4
CIAL	4
Peer	4
afka	4
rors	4
Room	4
VIEW	4
acja	4
chod	4
esar	4
Paul	4
migr	4
RENT	4
limp	4
fact	4
asis	4
ieux	4
Lang	4
uced	4
recv	4
Blob	4
ueva	4
flix	4
agna	4
amas	4
Tell	4
fony	4
akte	4
dern	4
nice	4
STEM	4
brew	4
leaf	4
Priv	4
nick	4
czas	4
UNIT	4
ktor	4
ichi	4
indo	4
isha	4
pick	4
amon	4
buch	4
uros	4
▁jer	4
aran	4
opic	4
Shop	4
▁nep	4
crtc	4
Tick	4
cccc	4
Need	4
ties	4
SING	4
Roll	4
mons	4
Comb	4
ablo	4
Plus	4
CORE	4
inus	4
eves	4
lace	4
olia	4
heap	4
ylon	4
Land	4
ardi	4
▁TCP	4
than	4
mitt	4
▁txt	4
iels	4
pull	4
fund	4
chem	4
▁thy	4
rijk	4
STER	4
Love	4
Hard	4
Deep	4
ulos	4
zerw	4
Fast	4
Camp	4
irat	4
dead	4
Hide	4
aned	4
rdev	4
okal	4
isco	4
pher	4
▁clo	4
airy	4
Turn	4
caps	4
apps	4
wend	4
▁Hob	4
▁css	4
MOVE	4
onio	4
rias	4
gain	4
uese	4
glob	4
cols	4
beck	4
eken	4
Than	4
does	4
▁hed	4
ondo	4
angs	4
COND	4
WAIT	4
dzie	4
olph	4
achi	4
uits	4
omas	4
SYNC	4
mile	4
▁zam	4
Phil	4
Opts	4
atan	4
allo	4
zoom	4
icts	4
tikz	4
slug	4
deck	4
rade	4
RATE	4
zten	4
imat	4
rise	4
▁Liz	4
atte	4
acyj	4
odot	4
many	4
▁tob	4
indi	4
ugno	4
arel	4
VERT	4
CASE	4
urst	4
bere	4
okat	4
▁tug	4
Keep	4
skin	4
bris	4
fred	4
staw	4
MEDI	4
itol	4
▁cob	4
onso	4
east	4
Skip	4
atts	4
Rank	4
Lead	4
atem	4
harm	4
uest	4
oooo	4
Rich	4
oler	4
inis	4
▁hyd	4
ongs	4
brit	4
enue	4
lica	4
cipe	4
izia	4
owym	4
Zoom	4
ngth	4
GUID	4
azzo	4
Capt	4
extr	4
dorf	4
itta	4
ulin	4
adio	4
▁NEW	4
ieme	4
udge	4
unal	4
DECL	4
ritz	4
tabs	4
chel	4
Ship	4
FACE	4
plug	4
AUTO	4
reno	4
Bank	4
inho	4
dims	4
imag	4
urls	4
bear	4
lane	4
nate	4
Sets	4
tiny	4
club	4
getC	4
orna	4
hado	4
akov	4
Walk	4
uity	4
ogue	4
want	4
Writ	4
folk	4
boat	4
pawn	4
Vers	4
crim	4
iefs	4
Sink	4
▁Imm	4
imil	4
cock	4
Norm	4
News	4
Sing	4
CREF	4
CONF	4
demo	4
weak	4
Gold	4
resc	4
▁WIN	4
▁IBM	4
Lean	4
warz	4
Dead	4
Dark	4
bias	4
Such	4
REEN	4
alom	4
ITER	4
chos	4
auge	4
ghai	4
cury	4
nals	4
eous	4
grav	4
logs	4
bros	4
bbra	4
PROP	4
onen	4
PEND	4
cong	4
VERY	4
hung	4
Conv	4
orum	4
arto	4
werp	4
talk	4
▁sep	4
itte	4
otos	4
▁exh	4
▁wsp	4
Very	4
yaml	4
robe	4
MBER	4
gets	4
Alex	4
volt	4
love	4
wald	4
Repo	4
paid	4
elin	4
FULL	4
arin	4
PRIV	4
midt	4
Pars	4
chap	4
CKET	4
grpc	4
TERN	4
oter	4
TREE	4
arga	4
ilis	4
diag	4
INGS	4
snap	4
STOP	4
quin	4
usch	4
Mass	4
▁CNN	4
HIGH	4
bery	4
ENUM	4
atis	4
▁Dob	4
kamp	4
FORE	4
Prev	4
usta	4
iros	4
guid	4
Amaz	4
Jack	4
cola	4
ADER	4
hall	4
LEAN	4
amba	4
leen	4
gart	4
horn	4
Sent	4
trfs	4
▁uid	4
neys	4
BITS	4
iffe	4
anst	4
ffen	4
Wall	4
▁owe	4
ahan	4
▁gev	4
DUCT	4
iman	4
IVER	4
cook	4
cott	4
cius	4
ermo	4
iour	4
rugu	4
wand	4
vart	4
▁oak	4
mong	4
MARK	4
EDIT	4
MMMM	4
gren	4
etry	4
olin	4
ctxt	4
ahoo	4
ieck	4
boys	4
virt	4
oshi	4
were	4
Mont	4
arde	4
elde	4
ARGS	4
ereg	4
cref	4
bund	4
▁wyn	4
BOOL	4
gold	4
▁lob	4
ilda	4
rost	4
SCAN	4
anje	4
▁mum	4
chio	4
nage	4
Been	4
cule	4
bars	4
asia	4
vern	4
neum	4
enze	4
azed	4
PART	4
Fall	4
mina	4
▁Cob	4
EXEC	4
▁hey	4
▁bob	4
SEQU	4
disp	4
hero	4
oyle	4
King	4
kern	4
MAIL	4
Poly	4
ZERO	4
bben	4
atri	4
ioso	4
EXIT	4
Less	4
idea	4
ceil	4
INTE	4
colm	4
ishi	4
plac	4
argc	4
▁ged	4
HOME	4
omes	4
heng	4
wort	4
SAMP	4
lene	4
erne	4
▁sug	4
emor	4
ing	3
ion	3
▁in	3
ent	3
▁is	3
▁on	3
ith	3
ate	3
▁as	3
and	3
ere	3
▁he	3
out	3
ess	3
res	3
end	3
ort	3
our	3
ill	3
ain	3
ame	3
rom	3
▁at	3
ant	3
art	3
urn	3
all	3
ser	3
age	3
ack	3
ust	3
ity	3
ine	3
ell	3
ure	3
▁by	3
ard	3
ass	3
are	3
ive	3
ies	3
ath	3
int	3
ind	3
rou	3
ome	3
get	3
ast	3
ect	3
ice	3
ire	3
ber	3
one	3
hen	3
ime	3
ide	3
orm	3
ase	3
ord	3
ace	3
ata	3
ong	3
ite	3
ype	3
act	3
lic	3
ork	3
ach	3
ens	3
elf	3
ook	3
ang	3
ign	3
ous	3
ake	3
ary	3
ock	3
fer	3
ear	3
▁He	3
ize	3
own	3
her	3
ild	3
row	3
set	3
ull	3
ick	3
ree	3
err	3
ory	3
ark	3
ely	3
▁pr	3
ors	3
old	3
ays	3
ove	3
ian	3
iel	3
put	3
eth	3
app	3
pon	3
ade	3
erv	3
itt	3
ish	3
ple	3
oll	3
mer	3
ool	3
oid	3
riv	3
iss	3
ied	3
iew	3
yst	3
ann	3
ual	3
pec	3
ict	3
erm	3
rit	3
ale	3
fig	3
hed	3
red	3
let	3
uch	3
ray	3
arg	3
ert	3
Pro	3
ren	3
igh	3
equ	3
vel	3
cre	3
als	3
ank	3
eng	3
ble	3
ude	3
air	3
oth	3
ood	3
led	3
ful	3
The	3
ght	3
ife	3
ash	3
str	3
its	3
val	3
amp	3
att	3
ics	3
pos	3
oun	3
ner	3
ond	3
alk	3
new	3
ger	3
var	3
way	3
ues	3
Res	3
ask	3
any	3
ars	3
ern	3
ody	3
els	3
ery	3
ext	3
aut	3
the	3
rap	3
ole	3
gan	3
def	3
ica	3
iet	3
arn	3
orn	3
uss	3
cur	3
ced	3
dev	3
ien	3
reg	3
amb	3
ina	3
cri	3
uck	3
ule	3
cal	3
for	3
col	3
mod	3
▁wr	3
ush	3
ven	3
Set	3
ret	3
ism	3
ats	3
dex	3
Get	3
apt	3
day	3
ets	3
not	3
yle	3
ric	3
key	3
rop	3
raw	3
Err	3
oot	3
try	3
ais	3
hip	3
ane	3
rem	3
ify	3
Col	3
log	3
ote	3
med	3
opy	3
loc	3
ULL	3
eta	3
opt	3
ots	3
ral	3
sub	3
net	3
ron	3
Mod	3
ION	3
urs	3
use	3
hor	3
off	3
pre	3
ior	3
arm	3
umn	3
ags	3
ift	3
ved	3
sum	3
ump	3
elt	3
cle	3
inc	3
bar	3
ird	3
ope	3
ves	3
aps	3
ari	3
org	3
lex	3
htt	3
ohn	3
Ind	3
ium	3
ped	3
You	3
arl	3
Add	3
pha	3
map	3
ING	3
unk	3
Key	3
fil	3
oad	3
alf	3
ync	3
men	3
uro	3
oci	3
aff	3
irl	3
oss	3
ino	3
til	3
url	3
ana	3
met	3
irt	3
ury	3
lin	3
ids	3
lev	3
alt	3
ken	3
cul	3
sel	3
bol	3
nal	3
Man	3
aph	3
but	3
acy	3
ips	3
ENT	3
But	3
Map	3
oin	3
icy	3
ste	3
oud	3
▁By	3
ued	3
And	3
Def	3
ike	3
rew	3
Att	3
ony	3
idd	3
ged	3
iod	3
For	3
Int	3
bit	3
oto	3
inn	3
All	3
buf	3
ops	3
Not	3
ilt	3
isk	3
ura	3
ptr	3
Val	3
iam	3
arr	3
oke	3
uth	3
eps	3
ili	3
vec	3
ney	3
iff	3
ros	3
cer	3
pen	3
Log	3
irm	3
ama	3
lim	3
ibr	3
hel	3
ios	3
urg	3
php	3
www	3
box	3
Reg	3
Loc	3
rix	3
Out	3
dom	3
ara	3
lem	3
ORT	3
INT	3
▁Mr	3
New	3
ett	3
▁Dr	3
ERR	3
ias	3
tty	3
uel	3
api	3
zen	3
ply	3
rel	3
Ser	3
ito	3
mat	3
ctx	3
uly	3
bed	3
App	3
ATE	3
phi	3
ald	3
ben	3
tot	3
CON	3
ram	3
run	3
vis	3
bum	3
mut	3
see	3
sec	3
joy	3
mem	3
Dis	3
now	3
rec	3
rid	3
Fun	3
ief	3
pan	3
igr	3
aid	3
agn	3
aft	3
src	3
mar	3
Str	3
VER	3
maz	3
zer	3
aur	3
ham	3
urt	3
Pos	3
has	3
Sub	3
rie	3
ige	3
ows	3
pat	3
▁ok	3
oul	3
bor	3
ban	3
req	3
ris	3
VAL	3
roy	3
Ref	3
uge	3
uct	3
obj	3
ula	3
bug	3
std	3
pol	3
Hel	3
top	3
Rec	3
erc	3
ded	3
ocr	3
uer	3
avy	3
End	3
omb	3
Run	3
Act	3
Off	3
ria	3
emp	3
Aut	3
raf	3
ipe	3
ati	3
Ent	3
iem	3
tag	3
EXT	3
big	3
och	3
cel	3
het	3
Box	3
rho	3
ael	3
uid	3
Fil	3
doc	3
wer	3
dat	3
can	3
nie	3
enu	3
SET	3
ube	3
Pre	3
iny	3
isf	3
tau	3
rad	3
lig	3
eld	3
itz	3
acc	3
pes	3
uit	3
sim	3
ady	3
Net	3
Cur	3
Tag	3
cmd	3
ttp	3
lib	3
asc	3
ani	3
nes	3
ART	3
ERT	3
aby	3
▁Us	3
gor	3
xFF	3
STR	3
ala	3
nen	3
▁fn	3
ACK	3
eah	3
lik	3
Arg	3
Met	3
▁cy	3
leq	3
tex	3
det	3
ety	3
Per	3
abs	3
TER	3
gar	3
SON	3
Rep	3
ugh	3
fty	3
ira	3
iro	3
ASS	3
ali	3
She	3
ULT	3
anz	3
RAN	3
ALL	3
ITY	3
oon	3
Dev	3
cap	3
END	3
Max	3
cia	3
eqn	3
eme	3
olo	3
pgf	3
iva	3
Ptr	3
Pol	3
alu	3
exp	3
Rem	3
Url	3
xim	3
Det	3
win	3
Vis	3
AND	3
olf	3
REG	3
cpp	3
hol	3
raz	3
idx	3
ski	3
Bar	3
ech	3
GET	3
LOG	3
rat	3
ams	3
Ext	3
cpu	3
Web	3
ova	3
Has	3
Num	3
img	3
dim	3
INE	3
rot	3
unn	3
BUG	3
erd	3
aba	3
MAX	3
Row	3
xff	3
Acc	3
Yes	3
ois	3
lor	3
eto	3
How	3
aud	3
osa	3
ror	3
lie	3
bin	3
uts	3
css	3
Mem	3
Min	3
asy	3
cos	3
how	3
ATA	3
Eng	3
URE	3
fol	3
arp	3
ras	3
psi	3
sql	3
ila	3
eds	3
pop	3
cir	3
rev	3
Are	3
lam	3
ika	3
Don	3
hal	3
Dec	3
ICE	3
got	3
ACE	3
Dat	3
atz	3
AGE	3
ITE	3
One	3
Big	3
pet	3
aws	3
emy	3
gin	3
ego	3
ROM	3
Top	3
nia	3
cfg	3
iej	3
tee	3
cat	3
ORD	3
gle	3
Sec	3
rum	3
PRE	3
bal	3
Can	3
ijn	3
nic	3
bus	3
FIG	3
ema	3
ARE	3
uri	3
ees	3
sen	3
xml	3
KEY	3
PER	3
ori	3
arc	3
FOR	3
car	3
sys	3
eff	3
she	3
osh	3
cup	3
dec	3
Dir	3
API	3
ads	3
Ste	3
IND	3
Var	3
pay	3
VID	3
EST	3
Mat	3
uan	3
tor	3
oma	3
jen	3
PAR	3
hem	3
Obj	3
you	3
ako	3
agg	3
rup	3
txt	3
Dep	3
Mon	3
Api	3
azz	3
nav	3
ATH	3
mos	3
rio	3
fix	3
OUT	3
iga	3
bel	3
abe	3
lia	3
edy	3
aze	3
akt	3
Mar	3
irk	3
oli	3
enz	3
DEV	3
sey	3
lat	3
lan	3
irq	3
▁cs	3
gun	3
png	3
owe	3
tim	3
lay	3
▁np	3
mac	3
kin	3
Red	3
Rel	3
NOT	3
utt	3
uls	3
Sim	3
Tab	3
nab	3
Enc	3
ums	3
Cal	3
dot	3
ACT	3
Why	3
han	3
van	3
pic	3
isa	3
tml	3
ych	3
▁vs	3
aat	3
Dom	3
fit	3
orf	3
asm	3
ims	3
geq	3
dig	3
gal	3
ULE	3
cut	3
pub	3
ERN	3
ems	3
USE	3
bur	3
See	3
oni	3
Exp	3
foo	3
rij	3
mid	3
IST	3
MOD	3
phy	3
obs	3
cmp	3
Phi	3
HER	3
rik	3
cha	3
IVE	3
May	3
BIT	3
btn	3
iti	3
Pat	3
owa	3
uen	3
apy	3
ODO	3
isc	3
igt	3
alo	3
▁pp	3
riz	3
jet	3
ran	3
aka	3
Bit	3
UID	3
tip	3
bas	3
yan	3
REE	3
Now	3
uto	3
nik	3
igu	3
▁wy	3
cks	3
dst	3
Use	3
SER	3
oom	3
asi	3
thm	3
Ret	3
erg	3
imm	3
IGN	3
III	3
oca	3
ogy	3
bat	3
iot	3
wid	3
REQ	3
awa	3
ahn	3
ahr	3
Let	3
▁ll	3
dep	3
Own	3
vin	3
inf	3
LEN	3
aga	3
obe	3
aly	3
fmt	3
dam	3
seq	3
olt	3
Env	3
Nav	3
pyx	3
CRE	3
ups	3
cie	3
iar	3
ctl	3
clk	3
ril	3
inv	3
cam	3
aks	3
rep	3
RES	3
MEM	3
gex	3
bul	3
▁ul	3
WAR	3
SQL	3
udo	3
ILE	3
oop	3
ECT	3
iat	3
was	3
low	3
DIS	3
lag	3
Len	3
rod	3
Doc	3
nil	3
pis	3
oti	3
mun	3
Del	3
Vol	3
pid	3
skb	3
job	3
LAN	3
igo	3
nat	3
zie	3
ycl	3
COL	3
Pay	3
Job	3
rog	3
LOW	3
Any	3
uda	3
LOC	3
bid	3
hus	3
kan	3
OFF	3
Rad	3
yes	3
FUN	3
NUM	3
Tim	3
PUT	3
pad	3
aya	3
cpy	3
Gen	3
Sum	3
ska	3
kom	3
Cor	3
MIN	3
Xml	3
atr	3
lad	3
Sch	3
een	3
pin	3
ulo	3
Pop	3
AME	3
vet	3
idi	3
wan	3
bot	3
asp	3
ajo	3
rei	3
cnt	3
Inv	3
sed	3
ARG	3
bet	3
Ang	3
IMP	3
aza	3
soc	3
aki	3
ifi	3
Did	3
aro	3
ket	3
zel	3
har	3
hew	3
Art	3
isp	3
rea	3
unc	3
Cmd	3
hdr	3
ija	3
ORY	3
ilo	3
Fig	3
wen	3
law	3
hot	3
bra	3
ylv	3
ARY	3
nej	3
imp	3
kes	3
rif	3
uni	3
Bas	3
two	3
ADD	3
ekt	3
rug	3
adv	3
UND	3
gie	3
MAP	3
sym	3
oor	3
UST	3
udi	3
ARD	3
IAL	3
UNT	3
don	3
ije	3
lio	3
gio	3
kit	3
Rev	3
eno	3
eed	3
rez	3
ASE	3
CMD	3
trl	3
Ids	3
hou	3
▁sb	3
bad	3
Who	3
zet	3
icz	3
fan	3
Mac	3
czy	3
AUT	3
Fin	3
dma	3
yal	3
Psi	3
DEF	3
Seg	3
nek	3
SUP	3
aug	3
rov	3
agy	3
awn	3
Cam	3
roc	3
NET	3
MSG	3
ieg	3
ELD	3
PIO	3
Car	3
Sql	3
bow	3
uli	3
Raw	3
GER	3
ILL	3
Mut	3
igs	3
cop	3
pal	3
elo	3
may	3
ctr	3
OLD	3
adi	3
URN	3
ned	3
Arr	3
TAG	3
Idx	3
zes	3
mus	3
aja	3
uje	3
Gui	3
ASH	3
bec	3
Dim	3
ubl	3
udd	3
RET	3
alg	3
sex	3
Buf	3
neg	3
iso	3
Day	3
mic	3
inz	3
RED	3
YPE	3
Mer	3
jan	3
INS	3
lee	3
kov	3
Asp	3
▁ft	3
zed	3
mel	3
cio	3
kow	3
xis	3
RAY	3
neh	3
osi	3
urd	3
ENO	3
weg	3
ANT	3
Div	3
▁Cu	3
uce	3
Vec	3
tle	3
GEN	3
ifs	3
igd	3
Ign	3
who	3
omy	3
umi	3
aha	3
ulf	3
lyn	3
Win	3
jar	3
MAC	3
lov	3
XML	3
gre	3
bru	3
aci	3
gly	3
aml	3
eda	3
upp	3
TRY	3
lij	3
zip	3
wed	3
abb	3
oen	3
FIX	3
ols	3
jav	3
opl	3
CUR	3
owy	3
ORK	3
iza	3
utf	3
iko	3
Ant	3
UTE	3
VAR	3
DEX	3
oby	3
Bal	3
SOC	3
azy	3
CTL	3
ORS	3
Uri	3
utz	3
kar	3
ked	3
SPE	3
pkg	3
etz	3
aca	3
CAP	3
Rot	3
Pod	3
sig	3
abl	3
kel	3
imi	3
Two	3
oso	3
gov	3
asa	3
ogo	3
agr	3
kre	3
Bus	3
usb	3
▁js	3
jud	3
UTF	3
Lin	3
Opt	3
rgb	3
GRO	3
svg	3
oup	3
neq	3
msm	3
gui	3
REF	3
SSL	3
ipt	3
nah	3
bst	3
uum	3
Pal	3
vid	3
xic	3
cow	3
IME	3
iah	3
iac	3
kon	3
spe	3
Ali	3
Leg	3
edi	3
Tok	3
mys	3
ikt	3
Bad	3
CFG	3
ICK	3
pel	3
WIN	3
pot	3
tar	3
pur	3
cca	3
DBG	3
CLK	3
▁fs	3
zem	3
Mag	3
wig	3
zte	3
boy	3
UAL	3
Ctx	3
ORM	3
Dig	3
usk	3
dbg	3
LAY	3
uty	3
lar	3
far	3
irs	3
IDE	3
owo	3
lon	3
ijd	3
hin	3
blo	3
spl	3
Our	3
EMP	3
rig	3
LED	3
Dit	3
zon	3
sis	3
som	3
nym	3
DOM	3
sal	3
gpu	3
usa	3
Ill	3
Abs	3
orr	3
egr	3
sha	3
lap	3
▁Ky	3
pow	3
Lib	3
WER	3
IFT	3
raj	3
nan	3
tha	3
Hey	3
Med	3
IFY	3
GTH	3
jax	3
via	3
whe	3
Src	3
TMP	3
ONT	3
ipp	3
LOB	3
tax	3
orp	3
iph	3
DED	3
CPU	3
iri	3
▁Ka	3
ssl	3
Mus	3
zek	3
kal	3
iev	3
obi	3
fly	3
Old	3
MAG	3
Put	3
Req	3
zig	3
mot	3
USB	3
pod	3
omi	3
his	3
MAN	3
APP	3
RIP	3
Cpp	3
VEL	3
bud	3
had	3
tcp	3
ACH	3
SUB	3
kol	3
peg	3
Hor	3
abc	3
TIM	3
ohl	3
cls	3
usr	3
ASK	3
BER	3
lab	3
SED	3
ITH	3
fen	3
rud	3
POS	3
jes	3
Dem	3
FRA	3
Bet	3
iji	3
Sym	3
kor	3
umm	3
ycz	3
yar	3
avi	3
Pad	3
Lat	3
ARK	3
Hit	3
FIL	3
pkt	3
God	3
ibe	3
BUF	3
hci	3
flu	3
fas	3
sdk	3
uki	3
zym	3
MON	3
awt	3
spi	3
blk	3
neo	3
Tex	3
rtc	3
TON	3
hex	3
fab	3
DTO	3
PTR	3
sid	3
AMP	3
Ins	3
DMA	3
bye	3
Try	3
dog	3
ovi	3
ijk	3
asz	3
rer	3
IES	3
obb	3
trm	3
ted	3
Pub	3
San	3
▁oc	3
OPT	3
emi	3
won	3
nut	3
SEL	3
cli	3
DIO	3
Den	3
mov	3
AIN	3
Her	3
Sep	3
PIN	3
ARM	3
Ben	3
UTC	3
IGH	3
SEC	3
mul	3
eft	3
ENS	3
Mvc	3
uur	3
tid	3
Dam	3
cep	3
sea	3
Tri	3
Dto	3
oka	3
wal	3
▁mp	3
oba	3
rob	3
COM	3
Sal	3
hum	3
ATT	3
Btn	3
wik	3
▁cc	3
hit	3
did	3
UNK	3
SHA	3
lit	3
▁MB	3
anj	3
iek	3
usz	3
nor	3
BUS	3
chg	3
cke	3
SYS	3
iov	3
nde	3
Bul	3
▁Bh	3
ysk	3
chr	3
zej	3
oko	3
jer	3
imb	3
CPP	3
bag	3
NEL	3
tta	3
▁eb	3
iop	3
uru	3
cod	3
Tip	3
ROL	3
ANG	3
csv	3
IEW	3
pse	3
Cir	3
HAL	3
eca	3
gue	3
LAB	3
WID	3
ERY	3
pag	3
rpc	3
aqu	3
hop	3
Bin	3
Imp	3
Hub	3
xFC	3
yll	3
uba	3
lez	3
fre	3
rar	3
gnu	3
pit	3
azi	3
DER	3
xFE	3
FER	3
mma	3
esk	3
nea	3
TOP	3
iii	3
Sam	3
nih	3
sun	3
XFF	3
ugs	3
orb	3
rin	3
NEW	3
iom	3
nex	3
IDS	3
eze	3
Cat	3
Alt	3
acz	3
ROW	3
Pin	3
snd	3
oly	3
mgr	3
FLO	3
fac	3
▁ss	3
TLS	3
oux	3
VIS	3
tol	3
NON	3
cin	3
dup	3
pus	3
Fac	3
san	3
Adv	3
ENC	3
LES	3
ALE	3
gos	3
liv	3
ulu	3
EEE	3
gas	3
GPL	3
six	3
ktr	3
upt	3
Inf	3
etc	3
lua	3
rav	3
hba	3
Bel	3
eny	3
fel	3
bia	3
hpp	3
ERO	3
Pyx	3
ANY	3
emb	3
pcm	3
Dao	3
Mal	3
ITS	3
bio	3
kir	3
QUE	3
egu	3
fif	3
ulp	3
GIN	3
nov	3
ERE	3
eli	3
aky	3
OST	3
tti	3
chs	3
eve	3
hon	3
ETH	3
vod	3
rah	3
▁ie	3
rac	3
say	3
hub	3
tpl	3
ipv	3
hdd	3
RGB	3
IRQ	3
Low	3
Bro	3
POL	3
god	3
MSM	3
Neg	3
IFI	3
occ	3
CAM	3
CLE	3
Iss	3
Sem	3
sep	3
tik	3
Aug	3
jem	3
bez	3
kee	3
mor	3
Jan	3
nos	3
GUI	3
KEN	3
sko	3
RUN	3
PHY	3
His	3
arz	3
acl	3
tls	3
Hex	3
jal	3
Std	3
jos	3
cit	3
HED	3
ioc	3
TRA	3
Tor	3
Mgr	3
RPC	3
CLO	3
EXP	3
cro	3
rub	3
USA	3
Rob	3
Sup	3
gom	3
uve	3
elm	3
TCP	3
yna	3
vma	3
Ten	3
dar	3
oxy	3
▁rt	3
gow	3
Occ	3
wor	3
ICT	3
awk	3
Hot	3
RST	3
sil	3
hir	3
CAL	3
xxx	3
Sil	3
lot	3
spr	3
DAI	3
axy	3
nez	3
Mad	3
Air	3
Som	3
Ord	3
Sys	3
hos	3
nem	3
Pan	3
Tom	3
nio	3
Oct	3
sty	3
azu	3
Men	3
ENV	3
ogs	3
dag	3
▁rv	3
roe	3
ugg	3
dyn	3
▁UP	3
kim	3
FIN	3
Fix	3
sat	3
fox	3
mix	3
kie	3
yme	3
acs	3
isy	3
SPI	3
xfe	3
REC	3
Ber	3
iku	3
jsp	3
ifr	3
BUT	3
aal	3
Har	3
adr	3
psy	3
gru	3
kil	3
EOF	3
avg	3
dro	3
PCM	3
DEC	3
DAT	3
BAD	3
eks	3
bey	3
Whe	3
UES	3
Ann	3
USH	3
Mir	3
iao	3
HOW	3
zec	3
ROP	3
IDs	3
gra	3
emu	3
aju	3
Fat	3
Img	3
DIP	3
ofs	3
Ops	3
ICS	3
LOT	3
Bag	3
wij	3
jek	3
Pet	3
Lim	3
dap	3
PCI	3
hui	3
LIC	3
aru	3
Vel	3
IPS	3
dbc	3
ISD	3
War	3
edo	3
Nil	3
jel	3
UMN	3
DOT	3
moz	3
PHP	3
Lou	3
DRV	3
him	3
igg	3
aho	3
Aud	3
uld	3
MIT	3
pix	3
owi	3
Spe	3
STO	3
nar	3
DAY	3
ppe	3
jev	3
ARB	3
opf	3
rys	3
too	3
osz	3
inx	3
ELL	3
Sig	3
uvo	3
lif	3
nim	3
Ray	3
lli	3
agh	3
Emp	3
wei	3
Bot	3
ieb	3
Dan	3
gro	3
egy	3
VOL	3
MAT	3
MED	3
rhs	3
Seq	3
enh	3
Dot	3
vil	3
pte	3
nob	3
EAR	3
Kit	3
MUL	3
ifa	3
opp	3
fff	3
Gre	3
Too	3
Aff	3
syn	3
exc	3
Hom	3
CAN	3
GPU	3
oks	3
▁DS	3
Emb	3
DAP	3
LET	3
ipa	3
grp	3
pto	3
THE	3
adt	3
thy	3
tcx	3
sek	3
iaz	3
TDM	3
veh	3
Sir	3
hid	3
ahu	3
Hen	3
PLY	3
icl	3
adj	3
nod	3
PEG	3
ugu	3
ske	3
ikh	3
itr	3
Pag	3
Mix	3
NOP	3
ANK	3
zin	3
dsi	3
Arc	3
WAY	3
MLE	3
CTX	3
AtA	3
ISH	3
idy	3
LIB	3
Arm	3
zas	3
odd	3
GBT	3
fee	3
Bay	3
mee	3
bil	3
fur	3
omm	3
ocy	3
bss	3
kap	3
ACC	3
AIL	3
EFF	3
▁Ya	3
fem	3
NER	3
icc	3
Hal	3
LBL	3
STM	3
Reb	3
Pen	3
vik	3
Gap	3
SIG	3
mao	3
why	3
isz	3
▁ah	3
REL	3
Cfg	3
rai	3
tto	3
eph	3
SRC	3
voj	3
VED	3
gif	3
olk	3
ocz	3
ouw	3
afi	3
amy	3
ASC	3
ISO	3
dru	3
ixa	3
rab	3
Esp	3
TOM	3
BOX	3
Tax	3
BIN	3
vee	3
gfx	3
TES	3
roz	3
rok	3
SEE	3
ysz	3
Cut	3
esz	3
Apr	3
NaN	3
ADC	3
oji	3
pul	3
loe	3
amd	3
fed	3
mux	3
HAS	3
Luc	3
lbl	3
dhd	3
▁AU	3
▁BA	3
nit	3
Cop	3
tos	3
adu	3
rek	3
Blo	3
vir	3
tom	3
ikk	3
dao	3
Bon	3
bee	3
rcu	3
kem	3
sbi	3
Tur	3
CLU	3
Mil	3
Mic	3
Pse	3
rir	3
Lif	3
nog	3
mob	3
awi	3
Sun	3
FMT	3
▁nj	3
Hol	3
xit	3
mmc	3
gon	3
sap	3
psz	3
in	2
er	2
he	2
on	2
re	2
at	2
or	2
an	2
is	2
it	2
ar	2
ed	2
nd	2
as	2
ic	2
om	2
st	2
ct	2
ro	2
id	2
am	2
▁T	2
ot	2
ac	2
ur	2
ig	2
ol	2
ut	2
if	2
ow	2
ch	2
ay	2
ly	2
od	2
ul	2
ag	2
ce	2
ir	2
th	2
ri	2
ab	2
ap	2
us	2
▁D	2
pe	2
oc	2
ke	2
ht	2
op	2
ie	2
▁E	2
ld	2
▁N	2
te	2
tr	2
ub	2
ue	2
pt	2
nt	2
iv	2
pl	2
iz	2
og	2
ne	2
ge	2
ak	2
ok	2
av	2
ff	2
▁U	2
ip	2
xt	2
cl	2
ia	2
ra	2
to	2
ll	2
pp	2
cc	2
gh	2
ib	2
ck	2
ep	2
ft	2
eg	2
ry	2
In	2
so	2
io	2
ma	2
up	2
St	2
ph	2
ER	2
lo	2
ec	2
we	2
IN	2
tt	2
ps	2
pr	2
ug	2
wo	2
sh	2
ng	2
ss	2
gr	2
sc	2
ev	2
ON	2
ix	2
ys	2
ik	2
wn	2
ty	2
sp	2
RE	2
ax	2
fr	2
fo	2
ah	2
ST	2
az	2
ek	2
AT	2
Ex	2
of	2
OR	2
Id	2
EN	2
ms	2
yn	2
aw	2
ts	2
ym	2
AL	2
AR	2
ta	2
be	2
co	2
me	2
fl	2
ID	2
ox	2
li	2
SE	2
IT	2
eb	2
LE	2
uf	2
Ch	2
Th	2
bl	2
rr	2
UL	2
AN	2
sk	2
It	2
Ar	2
oh	2
ze	2
SS	2
CT	2
by	2
yp	2
ey	2
Ob	2
mp	2
wh	2
Tr	2
br	2
uc	2
gy	2
no	2
fe	2
na	2
To	2
ux	2
ww	2
ME	2
gg	2
RO	2
sw	2
go	2
AC	2
ml	2
eq	2
rc	2
ui	2
gl	2
rm	2
bb	2
mb	2
LO	2
UT	2
PE	2
ny	2
bo	2
bs	2
HE	2
FF	2
AD	2
IS	2
pi	2
Wh	2
bf	2
MA	2
ED	2
my	2
Re	2
By	2
Sh	2
UR	2
CO	2
af	2
md	2
TR	2
MP	2
AP	2
AS	2
ka	2
zy	2
IG	2
za	2
UN	2
hr	2
sl	2
OT	2
Qu	2
AB	2
As	2
la	2
Or	2
lt	2
Pl	2
US	2
kt	2
ES	2
ks	2
Is	2
CH	2
We	2
EX	2
po	2
AG	2
mu	2
He	2
do	2
ee	2
td	2
On	2
pu	2
No	2
ga	2
fs	2
CE	2
II	2
rt	2
ca	2
gs	2
mt	2
Fr	2
IP	2
db	2
bt	2
cy	2
Al	2
cd	2
Up	2
TY	2
OP	2
sm	2
ii	2
js	2
ha	2
An	2
ja	2
py	2
gu	2
AM	2
Of	2
CK	2
OD	2
dr	2
ns	2
uk	2
yl	2
EL	2
ql	2
ni	2
va	2
UE	2
SI	2
OL	2
CL	2
PI	2
FA	2
FI	2
cs	2
vo	2
TH	2
At	2
ba	2
Fl	2
rl	2
mm	2
Sc	2
tx	2
Ad	2
pc	2
DI	2
SC	2
sg	2
Ph	2
De	2
TI	2
If	2
NA	2
pg	2
yd	2
TE	2
Pr	2
PO	2
pm	2
ki	2
oo	2
sy	2
BU	2
MS	2
uz	2
nu	2
Ed	2
UP	2
Be	2
mi	2
AA	2
ji	2
HT	2
oe	2
SP	2
oz	2
DB	2
VE	2
ua	2
cz	2
cr	2
sa	2
ML	2
AY	2
OS	2
PL	2
zt	2
ku	2
oi	2
TO	2
FL	2
IM	2
CC	2
NO	2
IF	2
pa	2
MO	2
CP	2
HO	2
fg	2
px	2
zo	2
UM	2
PC	2
cm	2
gn	2
DR	2
xy	2
zi	2
vm	2
OM	2
yr	2
ih	2
NE	2
PR	2
ZE	2
IO	2
KE	2
aa	2
yt	2
sb	2
FO	2
IR	2
ae	2
dy	2
SU	2
GL	2
BC	2
Ap	2
kl	2
sq	2
ko	2
SH	2
BA	2
ky	2
LI	2
GE	2
OK	2
TP	2
ls	2
MD	2
Bl	2
Sp	2
Do	2
MM	2
wa	2
SO	2
xi	2
Op	2
sz	2
UI	2
CD	2
So	2
ya	2
DO	2
Su	2
My	2
CA	2
vi	2
rd	2
RA	2
SD	2
mo	2
gi	2
hi	2
uv	2
PS	2
FC	2
RL	2
Sl	2
Us	2
SA	2
fd	2
FT	2
DA	2
ez	2
fn	2
QL	2
EQ	2
CI	2
CR	2
xx	2
ti	2
BO	2
sf	2
FE	2
La	2
sd	2
uj	2
MI	2
ín	2
Ge	2
hy	2
Om	2
MB	2
Fe	2
NU	2
IV	2
oj	2
DF	2
TA	2
hw	2
XX	2
cb	2
IB	2
Oh	2
CS	2
kr	2
Gl	2
Py	2
SL	2
hs	2
bi	2
PT	2
SY	2
EE	2
ws	2
sv	2
DC	2
Ab	2
WE	2
bm	2
Bo	2
LS	2
sn	2
zz	2
SK	2
fc	2
BN	2
Po	2
RC	2
tn	2
GB	2
ND	2
FS	2
dz	2
Ne	2
IX	2
Br	2
RT	2
dt	2
CF	2
wr	2
Am	2
Me	2
rx	2
Co	2
ye	2
PH	2
WR	2
Ke	2
DS	2
tw	2
MT	2
cu	2
xF	2
wi	2
Gr	2
IA	2
EO	2
IE	2
iu	2
hl	2
xf	2
Go	2
DD	2
BE	2
zn	2
MC	2
PA	2
QU	2
WN	2
rg	2
PU	2
TX	2
WS	2
fi	2
TS	2
tp	2
OB	2
kg	2
UD	2
AF	2
Sw	2
NT	2
xe	2
BL	2
km	2
PD	2
RR	2
tc	2
BS	2
GR	2
hd	2
TC	2
gp	2
PP	2
LA	2
Ev	2
kw	2
bd	2
np	2
VM	2
xc	2
PM	2
EC	2
xa	2
BI	2
yy	2
dp	2
fp	2
ña	2
Di	2
vc	2
BB	2
EM	2
Te	2
ju	2
AV	2
Ok	2
lu	2
xC	2
rv	2
dc	2
Sk	2
LC	2
Gu	2
Av	2
DM	2
rb	2
Pe	2
wp	2
fx	2
GC	2
BP	2
NC	2
Ac	2
BD	2
hu	2
tl	2
FP	2
xb	2
Dr	2
yg	2
xE	2
BY	2
dl	2
SR	2
FR	2
tv	2
tk	2
cn	2
RX	2
SW	2
tf	2
LY	2
pd	2
pf	2
HS	2
cf	2
xd	2
VT	2
Sn	2
Sm	2
VD	2
vs	2
SM	2
DP	2
TV	2
hn	2
dm	2
dk	2
OF	2
lg	2
CB	2
fb	2
ea	2
JS	2
BR	2
EP	2
RS	2
NN	2
GA	2
nr	2
pb	2
PY	2
TL	2
SV	2
GO	2
LP	2
iy	2
bg	2
AI	2
DU	2
FD	2
iw	2
mg	2
rq	2
bp	2
LD	2
yo	2
WA	2
vy	2
vl	2
bc	2
lp	2
TF	2
PF	2
VO	2
dx	2
HD	2
Tx	2
AE	2
rf	2
UX	2
hh	2
BT	2
Hz	2
Fi	2
PG	2
cv	2
PN	2
uw	2
BM	2
IZ	2
UG	2
zw	2
mc	2
Ty	2
bh	2
Db	2
DT	2
kn	2
Az	2
dw	2
HA	2
Sy	2
sr	2
bn	2
fw	2
AK	2
wt	2
Ag	2
wl	2
dn	2
Fn	2
vt	2
FB	2
zk	2
DL	2
tb	2
Pi	2
cx	2
nl	2
Sa	2
Eq	2
wy	2
EB	2
RM	2
WI	2
nc	2
nm	2
GT	2
SN	2
CN	2
CM	2
PK	2
mn	2
RD	2
AX	2
BF	2
wx	2
ej	2
zb	2
gb	2
kh	2
vp	2
GP	2
Ms	2
OC	2
NV	2
HR	2
MR	2
TT	2
mk	2
pk	2
EF	2
HW	2
NI	2
dv	2
rp	2
YY	2
NL	2
RF	2
nv	2
hm	2
lb	2
Nd	2
GM	2
kc	2
FN	2
Wr	2
VI	2
Ah	2
vd	2
EY	2
Du	2
ei	2
OO	2
oa	2
Na	2
GS	2
SB	2
FX	2
RG	2
cg	2
VC	2
mr	2
AW	2
AU	2
VR	2
VP	2
FW	2
VA	2
gc	2
Mr	2
hp	2
FM	2
SG	2
TM	2
xB	2
EA	2
Cr	2
XY	2
wm	2
xD	2
Ip	2
qa	2
mf	2
CG	2
WM	2
xs	2
HI	2
tz	2
RV	2
CV	2
nx	2
mx	2
rw	2
kk	2
hc	2
Qt	2
NR	2
Ut	2
WO	2
Ma	2
WH	2
MY	2
Si	2
fm	2
AH	2
lv	2
OG	2
Tw	2
UV	2
TD	2
qp	2
Hy	2
kb	2
cé	2
HP	2
WW	2
lr	2
bw	2
WL	2
Jo	2
xl	2
GG	2
zm	2
KK	2
GI	2
Vo	2
UK	2
NF	2
WC	2
lj	2
KS	2
UC	2
mv	2
qt	2
WD	2
wq	2
VL	2
kv	2
XR	2
Js	2
nf	2
jj	2
SF	2
gz	2
Hi	2
HH	2
Ro	2
WP	2
VS	2
RB	2
CU	2
lm	2
lc	2
NP	2
GF	2
jk	2
Af	2
Ui	2
Mo	2
JO	2
MF	2
NY	2
Mu	2
LT	2
nh	2
BG	2
qs	2
XT	2
Ir	2
GU	2
GD	2
NM	2
Ga	2
WT	2
Sv	2
YP	2
wb	2
Io	2
Ha	2
Lu	2
gd	2
ZZ	2
pv	2
fy	2
iq	2
Pt	2
MX	2
mq	2
pw	2
YN	2
Ns	2
MG	2
vb	2
CY	2
hf	2
cq	2
rn	2
Vi	2
LM	2
Ps	2
HY	2
Bi	2
WF	2
Rx	2
Li	2
Da	2
yk	2
yc	2
tg	2
PB	2
jd	2
xp	2
rh	2
DN	2
RP	2
VB	2
RW	2
GN	2
Mc	2
i	1
e	1
t	1
a	1
o	1
n	1
r	1
s	1
l	1
d	1
h	1
c	1
u	1
m	1
p	1
g	1
f	1
b	1
w	1
v	1
k	1
S	1
I	1
T	1
A	1
C	1
x	1
E	1
P	1
R	1
M	1
D	1
L	1
N	1
B	1
z	1
F	1
j	1
H	1
q	1
G	1
U	1
W	1
V	1
K	1
J	1
X	1
Q	1
Z	1
